node {
  name: "input_3"
  op: "Placeholder"
  attr {
    key: "dtype"
    value {
      type: DT_FLOAT
    }
  }
  attr {
    key: "shape"
    value {
      shape {
        dim {
          size: -1
        }
        dim {
          size: 13
        }
        dim {
          size: 21
        }
        dim {
          size: 1
        }
      }
    }
  }
}
node {
  name: "input_4"
  op: "Placeholder"
  attr {
    key: "dtype"
    value {
      type: DT_FLOAT
    }
  }
  attr {
    key: "shape"
    value {
      shape {
        dim {
          size: -1
        }
        dim {
          size: 2
        }
      }
    }
  }
}
node {
  name: "model_1/conv2d_3/Conv2D/ReadVariableOp/resource"
  op: "Const"
  attr {
    key: "dtype"
    value {
      type: DT_FLOAT
    }
  }
  attr {
    key: "value"
    value {
      tensor {
        dtype: DT_FLOAT
        tensor_shape {
          dim {
            size: 3
          }
          dim {
            size: 3
          }
          dim {
            size: 1
          }
          dim {
            size: 32
          }
        }
        tensor_content: "v\252\246<\345\177\323=\306\034\225\277\303\000\203\277\205$\325\273\220Z\257=U\312{>\377\017{\274\005\233\203\274\245\204z>\267L\n\277,\024X\277\260\346\010>\377\235\312<+\336&=h3\216\277\372\017\021\277\342\312p=O\233\325\274\226\251\373=\264h\210\276\354=W\274\236^\333\276i\335\263\276\253\353\213;)\254\035=\006\0372\275\310Lx\274\211\370D\274zI-\274\336\021-\272\356\232d\274\225RU=\211\204\306=\363Z\363=\353\371\336\276\227V!\274\256\371\240\275\\*\203\274\345\257\260=M\257\002>k\374K=\201\375\247=\255\336B\277\365\302\202\2775pv=\244E7\2777Hp\274?\234\202\275\267\363\207=u\374C\277\001\016B>\r\266W>\n\234.>\212%\241=\020\202+\276`\242\211\277w|\300=\267$\010>\020\216B>;\245\003>\312\033\333=~sp\277<\330\360=\31263=a\213\013\274\344I\010\275\265p1\277b\323d\272\275)\212\274\260\307-\270\221o\264=\274Xj\273|\223F\273>V\260<\315~\366\273M\017{\271\200\254Y\277\3422\033=D-\266<K\261\020\277\330\240\217=1\026u:\234\0278\274\220e\210\274\365\037\223\273\003VB=~(\243\276x\034\216=)\223=\277\010\253\007\273\273M.>/\210\226=\356\027\310=\033\314\214\277?\326\323=J\327\372\276q\\\237\277pe7\272\310p\301=\t\243D>\224\035\201\275\356\344\201>ag7\273\010\315\266\273\220{|\275\357\320\253=\247\336\325\274\177x2>\002=\373<_E\231=X\357\222\277P\273\335<dxu\276mm\213=\300\334\001>ro\241\2760\331N\274*\215\243\276g\300/\277\031\t\211\274\201\021=\277\276\347&\275\332\272\337;\205:\256\274\325\342\003\274T\367\225\273\035\025d\273@4D\276\n1\253\277\3543\204\277\236\013\306=\240/&>\177\3321=V{\013=\211i\216\277T\211\246\277\0338\207\277Q\276\276\275\3517\032>\000,\352=+M\315=HY.\277\301\351\">\215\366\312<\016\344\310\275\352w\273\276\036\240C>g\371\307\275\000H\'>Z\345\202:\306\3570\277\235\265\236=\320}t\275\'O\n>\211\317\236=]- >,\311\321=\367\263\266=\264M\022\275`w8\277n\tj:\257\3207\277\370\215\244\271\326E\221\275\033\037:\276(\217B\273\374&j=\310d09\270?\3329\004\357`\277\252\344\274\272\352\344\257\272\304\363F\277\246\225s=\036\022F=\360+\227<i-\240=*\231\013>S\017*\274\316t\327\272\277\345\226:\366B)\276\277\237\025\277\252k\226=)X\036=\366\221\324\273vxA8\241\207\373=\347\212\307==\302\253=6f\242\277\331\200l=t\017o=\247\016a\273p\300\227=\"\250\250\276\024\320\027\276\006\016\202\2773\354\371\275\204\302\224\276\202j\214>\346I\255=\314\366\336=\002Tv>Z\010\262\272\372\215\376<B\312\231<\200\203\"\277\336\\\032>*\311N=S\025\201\274>\250:>Q\3678\277\213>%=3\243E=\207ue\277\t\345)\277\300b\006\277\246\223\245;\356\376\202\277E\2422\277\364]\310\271\n\314\016\274t\022\361=\014\220\332=\256\315\227=j\211\247=E\233%\277R8j>c\346\023\277\373X3\276\017I2\276Lc\326=\243\023\024\276\337OZ>\255p\271=i\313\225\276V\257\003\277\3649\227<FJ\035\277?\370b\277\356sb=!\257B\277\215f8>\320NG\276\226\240G=1BA=\355\250\331\275\367>\275\275\255\200\033\277\303\340\323\276\026\215\010>\272\303\201\276\310j\004\276\337*\005>\321\365\201\276X\250[\274\327\337\t=tS\033\272\357\355+\276\375\315l\276\215h-\272,\241\230\276\253i\372\276hL\355\272>\262\275\275\364\r#\275\324t\254\273\30777\277\245\275Y\276\271\203p<\203\356\034\277l&\212\276\206\2136=\342\342\001\272G\314\323\274$\227Y\277\253\262\372\276\253\001\223\274h\372\254=**\212=-\320%\277[W\346\276\013\246\313=\014\216K\277r\305\301\275\027\340\343="
      }
    }
  }
}
node {
  name: "model_1/conv2d_3/Conv2D/ReadVariableOp"
  op: "Identity"
  input: "model_1/conv2d_3/Conv2D/ReadVariableOp/resource"
  attr {
    key: "T"
    value {
      type: DT_FLOAT
    }
  }
}
node {
  name: "model_1/conv2d_3/Conv2D"
  op: "Conv2D"
  input: "input_3"
  input: "model_1/conv2d_3/Conv2D/ReadVariableOp"
  attr {
    key: "T"
    value {
      type: DT_FLOAT
    }
  }
  attr {
    key: "data_format"
    value {
      s: "NHWC"
    }
  }
  attr {
    key: "dilations"
    value {
      list {
        i: 1
        i: 1
        i: 1
        i: 1
      }
    }
  }
  attr {
    key: "explicit_paddings"
    value {
      list {
      }
    }
  }
  attr {
    key: "padding"
    value {
      s: "SAME"
    }
  }
  attr {
    key: "strides"
    value {
      list {
        i: 1
        i: 1
        i: 1
        i: 1
      }
    }
  }
  attr {
    key: "use_cudnn_on_gpu"
    value {
      b: true
    }
  }
}
node {
  name: "model_1/conv2d_3/BiasAdd/ReadVariableOp/resource"
  op: "Const"
  attr {
    key: "dtype"
    value {
      type: DT_FLOAT
    }
  }
  attr {
    key: "value"
    value {
      tensor {
        dtype: DT_FLOAT
        tensor_shape {
          dim {
            size: 32
          }
        }
        tensor_content: "z[\371\300\032Q;<\nP\336\300m\300\013\3018A\365?\361\205\250\3005\353P?\222\256\t\301U\263\353\300+ \316>\313f\243@\r\320e??\224\304\300}\240>@\204A\244@\204h\310?\032\025\306\300\2324\307\300pc\306@\356h\000\301n\347\177@\351\201\026\301\277\2121@Y\307\357\300\2568\354\300\301E\304@Y\033\027\301$r\335\300\374{\177>\320\327\036\301\005P\346\300\023\212\022\301"
      }
    }
  }
}
node {
  name: "model_1/conv2d_3/BiasAdd/ReadVariableOp"
  op: "Identity"
  input: "model_1/conv2d_3/BiasAdd/ReadVariableOp/resource"
  attr {
    key: "T"
    value {
      type: DT_FLOAT
    }
  }
}
node {
  name: "model_1/conv2d_3/BiasAdd"
  op: "BiasAdd"
  input: "model_1/conv2d_3/Conv2D"
  input: "model_1/conv2d_3/BiasAdd/ReadVariableOp"
  attr {
    key: "T"
    value {
      type: DT_FLOAT
    }
  }
  attr {
    key: "data_format"
    value {
      s: "NHWC"
    }
  }
}
node {
  name: "model_1/activation_6/Relu"
  op: "Relu"
  input: "model_1/conv2d_3/BiasAdd"
  attr {
    key: "T"
    value {
      type: DT_FLOAT
    }
  }
}
node {
  name: "model_1/batch_normalization_6/ReadVariableOp/resource"
  op: "Const"
  attr {
    key: "dtype"
    value {
      type: DT_FLOAT
    }
  }
  attr {
    key: "value"
    value {
      tensor {
        dtype: DT_FLOAT
        tensor_shape {
          dim {
            size: 32
          }
        }
        tensor_content: "\315\rP?A\344y?\351|_?\352\212\204?\331\267\225?<\273\201?a\316\222?\026NS?C\203B?,\301\201?\217\0038?(\021q?<\203\201?\025P\251?2gZ?\211rK?\244b\221?\022\1775?\227\266M?\025\247\201?\344s\201?\357Ep?T\345L?<7\177?+\365L?\217P,?\222\211{?\342\233B?\3512f?\317\343\212?%\336\207?\240\300}?"
      }
    }
  }
}
node {
  name: "model_1/batch_normalization_6/ReadVariableOp"
  op: "Identity"
  input: "model_1/batch_normalization_6/ReadVariableOp/resource"
  attr {
    key: "T"
    value {
      type: DT_FLOAT
    }
  }
}
node {
  name: "model_1/batch_normalization_6/ReadVariableOp_1/resource"
  op: "Const"
  attr {
    key: "dtype"
    value {
      type: DT_FLOAT
    }
  }
  attr {
    key: "value"
    value {
      tensor {
        dtype: DT_FLOAT
        tensor_shape {
          dim {
            size: 32
          }
        }
        tensor_content: "\023o,\276:z\034\275\254\003\003\276\226\251\347<\332\353\326=\3507\242=tkE>\240\036\237\275\320\302\247\275_\365k=Z\342u\275\271\260\332<[~\200=J\364 >\364\013\277\275\375j\030\276+\251\270\274q\037`\276\177<K\275 \305\270=\233\332\024\274\035 ?=\344\211g<\213p\324\273\026a\343\275\264x\241\276\205\360\341=\323](\276HzS\273\320\324\322=s\374\010\272\211\261%\275"
      }
    }
  }
}
node {
  name: "model_1/batch_normalization_6/ReadVariableOp_1"
  op: "Identity"
  input: "model_1/batch_normalization_6/ReadVariableOp_1/resource"
  attr {
    key: "T"
    value {
      type: DT_FLOAT
    }
  }
}
node {
  name: "model_1/batch_normalization_6/FusedBatchNormV3/ReadVariableOp/resource"
  op: "Const"
  attr {
    key: "dtype"
    value {
      type: DT_FLOAT
    }
  }
  attr {
    key: "value"
    value {
      tensor {
        dtype: DT_FLOAT
        tensor_shape {
          dim {
            size: 32
          }
        }
        tensor_content: "\020\3525B_V\313B\305\007\003B\325^\323BM\257\264Bkr\201Ar\321%C4BNB\177{\rB\323\251QC\313\240\214A\304\306\tC\335\254RCQ\3049A\000\003IA#d\371A\314GtA\027a\223B\306V\202B\\iIC\212\023\000CG{\303B\313EbA\350\371\254A\024U<B\031\002\215A+\345cB\370\215\016C\"(\'C\207\373\360B\035\0042BTG\tC"
      }
    }
  }
}
node {
  name: "model_1/batch_normalization_6/FusedBatchNormV3/ReadVariableOp"
  op: "Identity"
  input: "model_1/batch_normalization_6/FusedBatchNormV3/ReadVariableOp/resource"
  attr {
    key: "T"
    value {
      type: DT_FLOAT
    }
  }
}
node {
  name: "model_1/batch_normalization_6/FusedBatchNormV3/ReadVariableOp_1/resource"
  op: "Const"
  attr {
    key: "dtype"
    value {
      type: DT_FLOAT
    }
  }
  attr {
    key: "value"
    value {
      tensor {
        dtype: DT_FLOAT
        tensor_shape {
          dim {
            size: 32
          }
        }
        tensor_content: "#8IG\230\276$H`F\003G\245\3031H\345W\203H\017\301\370F@\353\356Hw\356\236G\233\014:G\355\034,I%9@F\242t\256H\370\220\"IW\244\377Ei\353\230Ec\003\342F\302\377\024FB\206\372G\307\222\246G\233\317\027I+\347\301HH}3H\365\215\033F\320\300\210F\314\312|G\357\032)Fc\004\227G \367\316H\240\232\303H\330[eH\3301\214G\266\357\214H"
      }
    }
  }
}
node {
  name: "model_1/batch_normalization_6/FusedBatchNormV3/ReadVariableOp_1"
  op: "Identity"
  input: "model_1/batch_normalization_6/FusedBatchNormV3/ReadVariableOp_1/resource"
  attr {
    key: "T"
    value {
      type: DT_FLOAT
    }
  }
}
node {
  name: "model_1/batch_normalization_6/FusedBatchNormV3"
  op: "FusedBatchNormV3"
  input: "model_1/activation_6/Relu"
  input: "model_1/batch_normalization_6/ReadVariableOp"
  input: "model_1/batch_normalization_6/ReadVariableOp_1"
  input: "model_1/batch_normalization_6/FusedBatchNormV3/ReadVariableOp"
  input: "model_1/batch_normalization_6/FusedBatchNormV3/ReadVariableOp_1"
  attr {
    key: "T"
    value {
      type: DT_FLOAT
    }
  }
  attr {
    key: "U"
    value {
      type: DT_FLOAT
    }
  }
  attr {
    key: "data_format"
    value {
      s: "NHWC"
    }
  }
  attr {
    key: "epsilon"
    value {
      f: 0.0010000000475
    }
  }
  attr {
    key: "is_training"
    value {
      b: false
    }
  }
}
node {
  name: "model_1/max_pooling2d_3/MaxPool"
  op: "MaxPool"
  input: "model_1/batch_normalization_6/FusedBatchNormV3"
  attr {
    key: "T"
    value {
      type: DT_FLOAT
    }
  }
  attr {
    key: "data_format"
    value {
      s: "NHWC"
    }
  }
  attr {
    key: "ksize"
    value {
      list {
        i: 1
        i: 2
        i: 2
        i: 1
      }
    }
  }
  attr {
    key: "padding"
    value {
      s: "SAME"
    }
  }
  attr {
    key: "strides"
    value {
      list {
        i: 1
        i: 2
        i: 2
        i: 1
      }
    }
  }
}
node {
  name: "model_1/dropout_6/Identity"
  op: "Identity"
  input: "model_1/max_pooling2d_3/MaxPool"
  attr {
    key: "T"
    value {
      type: DT_FLOAT
    }
  }
}
node {
  name: "model_1/conv2d_4/Conv2D/ReadVariableOp/resource"
  op: "Const"
  attr {
    key: "dtype"
    value {
      type: DT_FLOAT
    }
  }
  attr {
    key: "value"
    value {
      tensor {
        dtype: DT_FLOAT
        tensor_shape {
          dim {
            size: 3
          }
          dim {
            size: 3
          }
          dim {
            size: 32
          }
          dim {
            size: 64
          }
        }
        tensor_content: "\237\002S\275\006kq\275i\023\314\275\224\251\251=\226\260\254\275I9\010?\276\304\222\275\251IL\275\336\233\305;\017~\003\276\310\021g=\352\350\226<\021\177\016\276i\231\257;\000e#8\t>\001>1)\r\275\212l\327\275\324\034\221=r\3022>\337U\215=\357\034/\276\002U\236<\\N-=\245m\226\273\354\256\021>\326\256\035\275m\n\333\275\205\342u\275ts\023=\031\260\236\275\022\360B<\346\007\031\275\245\313\350=@\222\376;9Sw\275H\267J\276\365\013\275\276\257\"D<\373\016\213\275\232\323\317=S\303q=\013\371\250\275\237\313\377;`\250\014>J\207\032\277\240+\022\276\227?\376\274oW\r\277l\377\301\274\341i\271\275>/>\275r\251\250\274Af|=\374f\217\275\315\315\004<\337\333\233>\305\202\257<O\320\006>\344\035\303<\300+A7x\316\314\275AA\275<\263\333\222=\021\036\245\276\274\214\374\273\246\000*\277\031\237\323;\036}\242\275T@\254;8\327\207\276\313\202\r=14\210<\241\250\314=\"}\252=\265\017\200<\310\276!\274?+\020\275\375O\250=\264\257\240<\361P\035<l\304\023<\365\337\207=[\307\206=}DD;\365ep\276\035\303V=6s\342\274\341\256>\276\226\300\334=f\313\372\273\232\027\022\275\223\227\342\274\272\351\222=\231\263\267\275\220\034\203\275\327%f=r\264\366\274 -l=\227\271\207\275\274z\024\276\2471\352\276\021\366}\275\223(\203\275!\210\005>\324C\010\276\001t\013>>\331K<\200G\255=\332\201\034\277\302i\032\276\301\301d\275\266\334*\276\320x+\276\373[\024<\2005N=\221y\340<\351\200\366<\032< \275\207\345\233=\222\021\014\275\264\301W\275\304G\220\275\177\340}:Ie\004=\220\266\034\276Zn\311<\265\304\310=m\204\312\2769\004\200;^\313\024\276g\r\355<\020)I\275\'G\331\275\312\217h\276\262\344\225\275V\205O\276\205/\003<?b\327\275_s\">)\rL\275\355\266\231=\037w\275\275\332y\036=\240\375\231>\017y\000\277\"\336u<\327!\327\275\220\311\233\273$\320=\277\031\016E\275ox\360\275\216\351\210\275\331\033\022\275R\203o;\300\223\014\275\257\004B=\325\213u\275\006y:>\001\366\003>#\2242\274d\224\313\275J\230\250=\342\225\266\275\tf\024\276M\177\254\276Za\003\276\1771\233\276W8z\276\205A\323=+\030\212\275\231n\254\274\014/\320>\302\302\344\276f\343\000<\306\272D=\034J\026<\222\324\024\276\312H\236\272a\353\013\276\346g\305\275\332\210\035> \276^\275\351]\002\275MS\200<\210\2336=O\005\017><\352#\27664\214\275\206\237\032=\034Ru\274\246\026\224=\221\2106\276\310\302\026<\242\355&\277&\351\341\2741\307\345\275\337\r\312<\013K\020\276\177#\332< :\031<\314\276U=C.\222<\343- \274\327b\001\276s\222H\276\327\026\373=V\007\256\275\333\3477\275\354~\341<\272\305\372=\220\307\210=\335#r=\243\224\201\276\361\211\365=\226\255:\275\333}\300=E\265\177\274\332x>\271O\033\363\275#\336\010=P\205\313=\3166\377\275\225\316.;\205\352\027=\351\330\252<7+\272=\033*!\276nh\222\276\347{\006\277\240\310\"=\315\3763=\347\304\245=\360\030 =\260W<=\314\241\352<n\275_=\376\022\215\275c}(\276>\332\027\276Y)\235\276D8^\275\257\267\260<\263\013\212<\023j\256=S\222-\276\242\227+\276\376\261\313<=\265X\275\"?\250<z\'@\275%d\300\2759\305O\275\032\034\275\275\000\323I<\311\327u=\357\364\216\275\311\242\"<\230\224\005\277\2121 9Z\020\006\276\203\362\036\275\374\317W\275\212\266\302=\024U\027\277\307%\236=w\273\314\274i\265\256\274\301ir=\317m\035\276\377\\T=\005\371^\274\367\177Y=\264\354\343\274\375\260\367=\320\350\321\274\212\326\370<H\371o\275\215\351\373\274\275\027\251\275\235\003u\275\232xF\275\"\r\255\275\251\235\003\276\27372;\014\331k=\213\370\204\274\033\201\260;7\276\036=p\246\366\275i\276\373=\207\306.\276\032\373\336\275\345\273,\276\361\350\020\274GY\246=.\333\032=\3442\335\273\023\314N=\365\277n\276\023$+\275\272S\274=\250ZI\275\263/\343\274-\235\026\276\325\323\003\276\006_\032<\201\257\312<V\253\231\273j@\345\2740\030\347\274\351\305\340\274\375m\251=\021\322R\274\365\263|\274e\352\241;I\260\357\274!\306\013\275U\276~<\303,\204=V\377%\276@\0248<A\261e\276\\\232\000\275\246\374\207=\320fN\2750\356/\276\007`\341\274\256\231\201\276\312\245Q\275\213\365S=\325\032\020=W\265\322<\245\333\004>2\353\331\275\005L\014\276]\225\013\274M\347)=\031\3101\276\rE\013=}\246C=\340\267\333=\007.\336=\217\351\n>HE\212=\3539\231<\302a\223\275\033\200F=\222\217\274\2751\345\036>$^f<\353I*<\246\214\372\275\177R\202\274\316\345\310\275\337\300\333\272\312I\215=\005,\272\274om\251=l\375Y\276\304#/=\267\251\304\274\032\223\203\276\243\302/\277\225I\206\275\300\231\251=7\230T\275\201\337\203=\334\323\335\275\206\265\212\275\016\002\003\276z\200J9y\\\204=W\177\236:\374\034\356\275D\247\014\274?*\374<B\0027\274|;I\2738Q\210\272\225`\223\276\245\367V\276\260\221\352\275{\010)\275&\373b=\025\207\362<\361\244\275\276K\222\210\273L\270\376\275\260\206.\275\224\371\330\275=Q\031=\216\243}\276T\351\314=Vc\264=\241\313*\275\016=\345=\355\016\322\273\2737\031<\021h\035=$\273\350<=U\273\274\376p\333=J\244\334\274Y_V=z\221k=\344\007\243<U+\203<\302\350\270\276\217Z\355<:\230U\2759&\362\2720\361\026\274\374\211\233=\361)\374\2751\373\"=\377@\223=7\247L\274=b\036=GN[;\377\212:=4\235B\276\002\231]<y\235\243=r\225\273\274\320O\r;@\311\234=\263\357s\276!\251\362\272:W>>.\240,\275\331\220X\275\r\334\343\275\226u\376\274n\347\211<a\232\225<\346\237\323:\3501P<\351\275\374\273\335\213[::\233A=\360\025\027\274\007aC\273\340\260\257\274\005\322\374;T\221\355\275\216R\247\273\265D\t>7[T\275Bs\330\273o=\326<\022C\347\274\227H`\276P\342,?\035\265O\2761{\360;)\262f\276\203+h\275\354\231\250>\340-\2569\346\277\000\276\201\275\234<\361\351\275<\037g\002?{j(\275/\230\335\276\226C\333<\341jx>\327]\014\275g\367v=\256\334\233=\227\211\'=\255\353\334\275\2418i>RU\242\273\3616\025\276k\352n\274\342\351\332=\351C\342\274\263s\215>\341\035\311\274=~d\275\324\256\227<p\222m\276p\213\301\274pd\276\276\335\225\023\273\252\027;\276\255\017?=\033\026\027\276\267-\214=\215\201\222\275\362\333\3319k\350\371\276\366\320\203=G63\275\275J\351=\206|\200\276ZK5\276\324u@>Q$\336\274Y\356~=]\232\023\275\nx\206<\002\334\017?\370\223\t>\032n\210>%\237z\275@9\"=\345+\266;k\252A\275Qv!=\337\032\266\275\026#\313<\336\274\010\277=x\271<\350!\332\275\370\020\362>\234\373\227\276z\357\235<\030y\311\276j\237\314\275<U\261>\202\207\376\274\247\204i\276\025W\301<\025 \266=\303\317\362>\213|\361\274=\204A\276\010\352k\274T\020\005>l\361[<\374\233\n\276\001\202\013\274t\345\034\275\231\025\255\275J{\307=\201\336\017\276\214h\305\273\323j\361\274N\227\337=j\002c\2765\0018\274\324\244\004=\354\364A\275\177\274\201;8\316w\276\257\262|=\373}\315\276\013:Z\275\231oO\276\277\263\267<\005>\243\275\377tX=gr$\275\301\224\220<em\354\276(0\032:\356\212\021=.\3154\276\366M7\276\220\260\326\275\322\204\023>\351\027.=\305\340?\275#\232Z:\303\207\366<~\234\370>\370\355\211=\r\376\374=8\315\340\275\362d\272\274h\275\001>i\036\223\275\200&{\275\326\221\004\275~\245\021\275\227\231O\277\031\206\260<\226\240\274\275\034 {<\272\212\021\276\315\344\256=\234\371\357\274\247\344z=\200\335C=YU\032<\310lt<.\311\206\274&\256d=\327\033\233;\236\212\225=k\246.=^Pq=\336\3754\275nz\330<\374\351\343<8\373\262=\336T\256=7C\'\275DF\032=\366\245\323\275A3\021=\307\264\254<\212+\220=\216\220\240\275*J\354\274\231\\\317=\234\2654\274#\337\220=\224T\025\274F\024\006\275\351\375\034\277d\303\216\274\006D\235=\334FL=\256[\242\275\214ti=f5\263\275\210\364p=`I\342\275ml\'\276\210io\275\306\322\333\276\242\223\002:\n6\033=\321\244\010=\354w\032\274\227+\013\276[y\242\275\253z\257\274\364Db\273\376\302}<\315\023B;\272\n+<\002\204\037<\256\200}\276\304~\203=cm\244\273\357\005\204\275\345O^;O3b\275\251u\225<\340\237\253\276p\017\362= m\271<\326\256J=-%\204\274r\315S=\361\004Q\274\212\315\240<\272\261f\274\302S2=]\321$\275\306\225\002>\307\316\333<\321\037\210\274\327\343/=.Y\207;\307P\363\274-s\252=O\266\211\275\335\250\312=e\010\317\272M\215\220\274\"\031\024\275\220\3160=0c\351\274v*\244\275\245\325W=z\2420=\333\035\252\275\345\200\245=z%\025<+b\365<\336D\027==y\234\276!\013\226\273\263{\035:\371\321H=o\020\025\275\212\220c\275\233\026j\275\002\245\342=\303\315\263=\316\275\233=\034#\256=qD\370\276\263S\t>z{\004\273S\001\277\274\255c\277\275\370v\203=T\225\354=m.\201<\244\235\343=\177\010\2559\322R\333<\272\313q=sQ\272\275\341\313\305\275v\304\303\274\327%:\275\200x\276\275\377H\307\274\027qA\277+\360\235<\235\316[\276a}I=\205\004o\274q\330\010=\302\212v<\200u\035=b\014\002\275\302\263\353\275\030\317-\276\033\244O;D\024\341<(\272\264\275\370\363\314=\000\325\223\273\006\356\t=m\316\t>`\314/=N\255\331\275S\335\014>\005\222\350<#\253\270\274R6>\275\230y?=\366n\336<\243\334\246<\307wb=\032\325\377\275\000\355\207\275\362\235\260<\006+ =\3303w=\322\357\212\275\315C\002\276&\226\020\277f\313\034\275\374\366Q<)\010\344\275\336\217\217\275\310\n\325\273\277\226\'\275\345>W>\002\031k\275M&J\276\361B9\2750\027*\276l\276\335\275\273\356\374<\331*o>j\0254\274\010\006\232\274\0342v\275\375 \355\272\345T\204\275Sr1>\360\351\300<^\326s\275n X\275\016n\003\276\025\335y\273\353\355R=\317v\010<zOB\274%1b\277+F\n\275\025@\013\276f\267G=\023\352\210=\342/0=M%\272<~\010\206=\001]U=\205\0232\275\3511F\275\024li\273\267\240T=\350\354\021\275>\361\317<Z\231\352<\322\031->rP\007=\273\020>=\354\254\021\275\263\2141>\360\367&=TS\206\274[\350\227\274!@\337\274-ud<\346\376\214=\3432\372=\t%\020\276zt\241\275\373I\345=k\2564=\2119\252=3\327\242\275\030\242)\275.O\025\277\363\324\271\274\0312\231=4J]=B\201\375<6\371\025>\330lT;\223\3027=\"%\315;\231i\027\276\320\357*\275NY\335\276\335\256\306\275\203\356\205=Z\202\242\275~\375}\274cf\343\274\023y\272\272H\340)\275~\367:\275\205t\354;\354\003L\275\375E\212\274\3269\275\274kE[\276\221^\022\273H\217K\274,\201\272\275\311\243\362<&!\255>\036\263\235<`W\263=(\305\257\275\212\252\365=\237\003\307\274mP\223\276\210\254\366\274\274\336\025\275&\333\030>/Om\275\375\216\r\274\315p\265\276j>\017=\231\334\374<\2312P=\352\207\331\275\255F\235\274\027\017\302\276FU?>\344\007\230=\255\377\323\275(\242\r\274_{\277=\r\0077=\213\235H>\2631\365<\376^\231=\005\030\321>\305W\370<\325\371\236\276\241E\303<\233d3<\341\200\374\2749\257?=\366\224\025\276\327\367p\274\343}f=\200\2403<\351t\361<a\347\214\275Z\261\360\276\247\014<\276\330\347\003>X^$\273\376\'\024\275\353A+\276\201\021\236\275\243PE=\264o\000\274\300\024[=\312?(\276\252\013\033<\3732\261=$z\023\275\330F9=6\307\250\274//\003=d\334m\273\344^\321\274\335z\231\2757z\351\276u\021\023\275\027\3503\275\244\371\n=tS\271\274\274V=\276b\301\206;\350\260\315;0\311\352\275G6*\276\310\340/:\334\035\306\274\323\266\247<\007#\255<:@\211=\324\341\241\276\361\353\335<T*\242\274R\230\034=\344=\206=2\204\207=7( >i\023\313=u\330\004>\017\233\235>hi\250=<\224\207=\305\275\302>V{\361\275I\243G\275\366\207\032\276\024\342\267<\260b5=|/\233\276\354\365r>\024\236\262\275X\266A\274p\017\n=\013\204\277\276D\363Q\274\026i\334\273u\216\377<\357\243t;\234t\036\276$3\351\275\370;\346\273-Hs<\016\322\255=\304f\n\2715\226>\274\277\366\';\313L\307\273\226j\214<\223)s\276\301\326\246>\"\302\001<\276@\223\274nh\211\274\243FN=\016C\000=\300|.\274\024\036\256<\017\253\004\276v:\005\276\331k+>\277\005\353=5\317\022>\231d\024\275\200\347c\276,\005\013\276\022\024F>\306\306k>X\354D\2752%`\276\341,\333=\254$n<\347o\007>\337\262\304\276#,\254>\321J\310=U)q\275\336 \235\275\253.\r\275fB\324<B|Q<\376\225\370=i\370N>\026w]\276\006\376\r<\310\206\343\275\313\274\314\275\343\212\332==\260\330<\216\322\027=w\215!<\230jE\276\027\334\265=\315\260\247\274\317s\033\275\206iq=\3244\n\276\272\033\002>\037\230\257\276\204J\240\275\250\342\352\275\032\214\207\276$\200\364=x\226\243=\207\357n=\233\246\023?\002OB\276\231\\\020>G\307>>\335\'$\275/\2173\276\244K\003\273\321,.\276\241\337\303=\240\303r\276\240ZF>\001H\235\275\005{\342\275\212\233\203=\300Ru=\237M\277=\271\"|\275{\3725\275\253\225\301=\\\236\010\275Z\353\037\277\256\000\241;\353\035\341<=T\312\273\300\025\307\275\010\310\004\276\212\212\001\277\200\342\201=\231r\360\276g\245\277\275-\356\211=Z\356\243\275\232\350\301=_e\313\275%\3502\275\216\362\361\274\217\243\200;\365o\320\276\252\265\335=\350\000K\275:;\221\275\n\246\311\276&O\203=\272\2358\276\225eS\275FM\324=\266>\303<|\357\213\2762O\337=\025\307\265\275k\214\233<\245\201B=\031,\251=\002\233\000\276E\n\260=\220}\220\276\267\027\020\277\0333Y\276\235\230\000=\257\312\205\274\210\016d=\232\236\301<\254^\274<\023\306\311=\362\267\000\275<\004@\277S\377\271<\276I\215\275n\257\206=\205\373\231\276Y\365\262\275,\3271=U\363\200<\214\250\026\275U\316\326\275;\3339\274p\351\204\272r#c\275\310\203\036=\372 3\275\037+q<\035\256\001>\266\216\322\276yw~=\240k8\275\205oM=\016I_\275\321\0148<e\\\'\276\251\374\301>\316e\311<U\020\227<\216~\202\276\n\n\245=\346\032\247<\323\206\340;\267u\034\275\357p\324\2740\003e<\370\222$>\"\177\326;\223\363\367=\252\301D=\222\356\342\273kA\213\274%\221\n\2754\300 =\351\344 >\261\255w=O])>%?\243\275?\325\326\275\247R\243\273,C\317=5\037\340\275\020\330\311=|\002\206=\354\330\235\2759-\200:9\377\356\275\376\004\217\275\010w\222\276\353\247U<@([\274\324\3074>\232\371!\276U\260\234=\370\026\307\274\357\347\220>7\271\271\276\253v\007\276\275\021\227\275TX\010\276\2379\243\275\222\311\230\275Q\0103\275>\002\370:\237\035\271\2738@\353\274:\206#=\301\237\004>\023!\251=`)x=\004\3706<\360\212\372<W\335\274\275\237\236\214\274\247\362\001<\225\226\025=\034\214\201<\254M\333<\337\373f\276\2521\215\276}\3766<\305\242\235\275\036>\255\275\271<l\275\202\022\263=\237a\216\274\362\377\372=\020v\323\275\013\250\252\274\307g8\275\364\255\343\275\314\254\023\277\324\207\201\275u\301\272=\355\361p>\364\371\270;a\230\355=T=7\275x\206\003>hZ\3479)m\301\275\374\337\004>\224\270V\274\212I\240=\016\210\200>i\374\346\274\026\021\t\276t\317i\275\234\221@=\273p\276<\374V\325\275\310c#\274\361G\273\276\312T\236\275cs]\275\251\255P\275\270\231N<\353\232n\276\375n\371=k\033\333=\205\256V\276\217\323\316\274\337\324\211\275\355mE\276mi(\275\336m6\275\314\334\352\275\234\031\362\275M_\235\274\237M\250\274|\241\226\275\222&\326\2756n\300\275\024\340:\274\251\335\033\276t\r\262\274\315\242U\276\246WO<Lb\016\276\367>\235<}\356o\275\2460\001\277\354:\034<\352\026+\276\270uR=uS\204\275:\363s=R!.\277\257\002\236<\006\231\377=\242P\262\274\231\234\260<\203\010@=\202\' =\236\234I=\215\037K=J\351\004=\270S\230=\225\013\254\274N\307\314=i\244\324=hh\330=\376\362\255=\022\3230\276\237@\222=*\335\304\274\376\273\321:[\202\250\274\313u\322=\r\220>\276g\274S\275gn =\006\026\345\275\212?L<\007h\023\276{p2>gH\302\276\014\347\021\274<#\017<\245\002H=2\"\246;\225v_=\330!\274\276V\334&>x\3437>\3703\177\275\264\275\237\275?\234`\274\256\203\212\276\003\276\030>`\220}=\013\334b<{\327\203<\003\245\340;\325_u\275\357\271>=D\255\340;\022Y\252=\005I\000=\036n\227\275\333D\034\276\272\353\213<\271\010\215=\240\333v=\204\022b=\241L6\277\t\203z\275t\246W\275D\033\004\274\013\273\235=T\3309\275\373MG<}\315\224=\n\366z\275\255@\311=\213\321q\275!\214N>e\037\252;\224\231\231\276\327`q\275\002R-=7\245[=\334\205\036\276\027\027;\274\334\363*\275\211\333r\276\374\352\204;\233,\321\273\207mH\276\224|\007=\223\350)=Fp\375<Y\355(\276\342\260\247<X\025\271\275\375\270-\273\312\211\312\273\327\305\206\273\331\315.=\305\236\224\274/\203\004\277\2030\250\275\\nA;\271\037\203\276\323\035\332=U\356\t\275\025\332\244=\333\327\220=\221\370q\276\275\351\206\276\036F\314;T,\213\276\351\366\221=v\204y<\354\313\255\276\266\313\373\274\016I\353\275\355_\336\272\360\362E\275n\335\324<\333\327R\276m\"\200\2754\332\\\276\236\367\223\274\026\020\025\276\250\265B=t!\317\274\352\224\343\274e\036\304\274\0376\363\276=\256;\274P\"\357\275\\{\202>\215\'\024=\013\216\262;\370[\006\277`\236=\276\300\242\000>\255j.\275\355\316\307\276(\227\034=3\007\204\275\314\017\216>\357M\001=\323{\220\275.\221J\274\373\001\323=\3612\232<\350\034\241\275\242!\225=\342\353\206\274\310\262\255\275\365\202\033>\026\356\200\275Yf\023=N\037\266\275DnG=\345E\200\276\0253\350<\007\343\003\275f\200B\275\324H3\275L\273\212\276\210\2122=\242\036\274\276\232\303\007\275\030A2=\276\334\247=\351q\244=\243\350Y=/\346\177\276\316\022\254=\274\'\342\275\310x\271\275\364\303\037\275\232\226R=*\tt\276!\357\217=\336X:>\365F\222<\321\344\\=\007\000\241\274\004\024H;{\024\312>\\\032\320=F\034\224>O\'\327\274\273\243U\275\325\246p\274\376i\345<\004\2040=\274\376l\273B\006\267\271\264\244*\275v\363\316\275\324\014\335\276\266\020\017>\337\341\013>eW\215\275\021!\\=\371\263\272\274\033\025\032>\237\267R>Q\222\221\275\275@J>8?\244\275\205\351\034=;\340\212\276L\240\254\2744\010\014=<\001R\275j\231\007>T\036\032=\307\206\235\276\177\034-> \3502\2746\211\324\275\213\364\026=k@q>\267\245y<H\333\030\276\352+\221\275\244C3>\t\342\354\275\256\373\277=\237\030$\275\262.~=\325\334\006=T*x\276\244\311\327\272nf><Ha?\276\375\261\375=\354Z\270\274\264\254m<O\020\335>\037\376T\276t\254O<\352\203\211>hC\244\2765\252~<\000+E\275\202b<\276HLs=\262n\221\275$\271\263\274\367\026E>\304\355\'>t\343\315;\302\230\267\274I\351\343=\360\tK\274\372\225|\275\017\343L=~G\234\275\'S\311\275\266\320+\2742\375 \277\265\351,\275o\277\355\275Z\221\206\275\255\276\205\275\373)%\275\301\023\002=\335\307&=%\213\'\275\307\203\320;F[\365\274\004n\020\276#\310\025\273X\303\265\276y\351\276\276\005/\n=\215p\244=\361\357E\275\0325(\275)\355\003\276K\236\240=\363E\351\274\355M\031=\313\267\220=\372\213{;G2\271\275\013\3678=0\350C\275\216\263\036>\332\210\371\275@.\036<\372\217\260<I\2236=9\236\214\275\303N\245\2760\362\007\277\260\330\025=#B\006=+\3203\275\030G\360\273\217\265\330\275\262\264k>\212\3617\276\232d!\277cO\340\276\253F\357<9\342\213\276\214\213\234\274_g\250\274\272\313Z\274\235F\337\274\314p4=\007)W\276\345\355\345\275F#v\273Q\030\021\276A\235!\275\022MS\277\261L\006=[b\216\275\317\2125\271\322\220\240\275\306Ai\276\t\217h\275vq@<\270\253\320\275\271G3\276\033\261\257>\374P1\276\334T\216=_\261\250\276\217J=\275&G\324=R\340\266=\275[\200\275\323\252\304\274V\267\327\275\201\241^\275\357\375|\275\305\266\305\276\304\335\026>0s\330=G\352\017\274\030\226\312\274h\334[=\232y?\276#I\363<\221\235w=\354\225\307;\306\266L\276\250\337U=D\3760\276\230\314->\207\r\225>m\360\262;)o\326=\324\317\234=\016a\026\276\322\r\031\276\247\275d\276>\237U\275\315e\250=\203\360.\275\251\304\326\275\313\324\320<\301\317\337\275\275\226\024>Q\r\344\276kN\330=\tp>=\002\250!>\367\364\177\276\271u\247\275\2659\374=\314l\351\275:4\203=e\267\037>\330k\027=t\2557>\023,\031>\343\313\273>\243\246\010\275\330\035\225\275L\302q=Aa\004\275\223J\303;\356\244\t>\252\033\337\274\323\350\233\275\232d\232<]\006g\276-\343O\275N\033\n\274\264{\240;4\301\265\276c\021\250\274A\201y\276\234\177\010<V\330}=\312\n%=\000l\037\276\253\035\351<\214wz<r\rc\276\253\032\223=\320}\000>\035L\004>\3263\244:~\234C=iC\223\275\364\256\225<\033x\364=\356\266\210=\371q\265\275B\244\n=$\254\273<\342\034&\276\013\277\313<\332\221@\276n\\];\037I\215\274\017\266\350\275\347\013\330;\204\341a\276\204\312\374=(\022D\276\355l\237=\375D\313=\254Qp\275\305\000\306=\344lT=\236\023\364\276\026\037\347>\265\202\242>\354\365P>\256\323\000\276\357\252:\276YL\312<l%$=\255q\010?\320u$>WY\340\274H\335\237\274\236\230\006\271\2452)\275#0\026=\226\3558\275<\332\227\272\350\343\031;@\201H\276\353\266\331\273Ij\250;\313\305\225\276\264\006\275\274\\fG\276\317X\244>\017\215A=\325\224\250\273?\240\020\277\364\366y\275<T>=*\211D\275\325\232\321\276\256\214\216<?~\245\274\'\002\262>\000\315\t\275\274\360P<\233%0\275\360\350\023>\013\247\224\274\305\234\343\274\265\023\004\274\177\254\235=\201m\211\276\215<\034>\257\305\001\274<\262\370<\217\303\222\275\245\023\006=\234.\034\276c<y\272A\300\252<C\023\030\276\\_\203\275\362\361f\276\307\375\346<&.\\\2762\000\344\274\250\230\267<\260G5\273\007]\205=\265\014j<5zT\2762\336R=\030\342\347=\340(\377\273\264\004\253\275\243S%>\345{U\276\006\336\037>\245>\202>\366\r\006=Q\013@=\000\232\004\275Ke\244\274\321\243\002?\'L\227=\374u\315>\'\256\306<\006.U\275\237\273\200=P\202\200<8\343\230\274$1\003<\211\006\217\273{\331\217<2\217\343<\323\303]\275\305\026P?\333\301\264\275\214\223\221=T\376\204\276\263(#\276%\350\260>\310\234\246\274-\242\003\276|2\020\275\327\234h=p\002\006?\305\366\035=\273\367\003\277\0106\217\273\305\021\205>\360\337d<\206\212\275<\213`\231=\312\253f=\261\335\016\276`\027v>n\000F\274\016\267\315\275\25191\275\004\361\200=Y\177\264\275\317o0><\236\005=ei\230\275sO\014\275(\233\274\275\037;\245=\353\216\211\2760\370\031=Y\204\307\275\221O\020>p?(\275\272\364\212=!2:\276\340\306\014>\377Q\210\276\335\026d={72\275!A\356\275Z\340\231\276\036\t7=/\260\227>\363\300\332\274\374\'\206\2745t+\275\305\326\t;\330\253\014?\027\323P>CF\255>\361\335C=\301\325\327<\255\355k;\365\322\014=\305\211\254<o\002h>\013l\241\275e\335u<C+\303\275\312\000\232\276\021\005\324>\206\3659=\300/\274=S\312\223\276\364\010\356\274v\237E>x\267j=\005\361E\276 \n\035<\250-\213\275;)\206>H\000\310<\340\311\312\276\305\300\241<!\305\235=\023\007\022>\031\221\301=\210\245\016>1D\356\274<\327\212\274\024\253\037>\013\025\204=*\357\317=\210\025\343<\315\337K=\013T\021\275\242\032\226>s\341\321:\332\307\335\274r\227\014=\345X\256\276\343\346!>\203\r\313\276\236\262\225<K\341\204\273\326S\203=O\300\331\275NW\276\274Ps\260\275\242\206\252>\367CO\276\007,\207=?\016)<*S\032>\017Z\227\276\013%\025>\225\347s>\3321\261\275H_\227=(=\244\2759\253\241\274\037\303\256>\222_\212>\221\304\004?\203\367\304=^_\260\275\233g\211\275\240\2723>\312\216\233=\226\313\020>S\3529\275\230g\003>\264\306x\275b\206\224\276\362\347\242>D\020\233=\"\370\302=\257\241\275\276~g\t\276\375\214\223=\341\026\233:\331\345n\276\2107\312\274\240IP\275\360\253\243>\3000\327<\007\222\254\276\267W\330\274\257d\021>\226\021{;\347\343\031=\225\024A=\274\2038\274\333\267\016\276\271\324\022>\006\2672=e\2152\275q`\014\273S\276\264=\002\025\t\276\215bH>oN\033\2751\376u\276M\244*\274\340\214\212\276\200\250\314<\215\002q\276j\225\341<#:\267\275\351\257\245=\205t\001\275\225\037,=\356\325;\276\241\013a>\314\301b\276G4\204=\302\224\352\275S\367]>\031s\262\276Z\241U=(\177]>\376#{\275\315UF\275\253&\305<\275X\327\274\347P\335>\001\2734>\232@\303>\215%\227=\366\010\034=\255\264J\275Z\264J\2743\250z=D\364\013\277\222\323\357<\246\232U=\037f\362\274\304\217\026\276\305\003D=:2\335\276\217C+\274\324\351\003\277\272]\201\275Y\372\206=\315l$\275$4\222\276#{\231\275\213\032\230=\024\365\300=\254\236\360\275\t\243\344\276\243\353\205=8\247m>7\rU\275\352&\333\276W+\215=\321\241\204\276\003\363\243\275\326_\200>\204V\014>/\036\204\2766\263\275=\236I\300<\270^l\274\022\235\256=cy>=j<\037\276`\222\361=c\271Y\276\'{\220\276yl\341\276H\022+<\213\"S\276i\347\021\274\031\032L=\016\013\372<\267\277\255\275\363\3405>\375\255\262\276F1:=d<&\276\020s\261=\377\t\266\276\tR#\273\316\346\005>)\002\213=\201x\225=\311\244\320\275h\311x\274\217\353\320\274\302x\025<\177aU>\0368\260\275\025\316\032\276\324\327F>\001\371\337\276KC\227<<\341Q\276\3339\325\273Ak \275H\252\374\274\037\343G\276\376\017\272>\221\004\315\275wqF\274\253x\245\276T\257\376\273\022`\254=.\366\217=\246\235l\276\360\371%\275\343\002\360\273\347\014\277>`U\266;\253\224;\277gXS\275\227\245(>\360\202\023=\005\036\375\275\212\257\253=O}\264=\342Y\006\276\213o\212>\324Z\371<\314c\006=\222MU\274\032\004\225==k\313\275\221m\274<l]\211=\222\003\304\274\237\007/=\237u\344\275$\013\305\274\355x\004\277.\262\263\273E\265{\276\262\334\243=\030\2422\275w\rb\275\321k\210\274\346\264\361>\321+\037\276\235\022\336<\203\222\326\275\312\3279=\362\2513\276\030v\223=\253\337\304>\0262\001\276\302\214\265=7\362D\275.\325\201\2755\251\260>X\237\213>\255\024\224>E\257z=\027\204Q\276j\221\031\275wf\264\274\014#\025=\031\"|\275\204\240\340>\274\231\016\275Qs/>\2248w\275\233\t\221\275\311\237\270\275\340\203\215\274\014w\333<\330Gw=\320\352\366=\374\326\366>\201\323\356\275\245\267_=p0o\276\231\177\254;\321\007\005?\004x\261<\276\311\207;\335)6\275^\370F\275?\256\203<C\301\262\275\370>x=A\311\227\275\343\345\212\276\222?\357;\307\351\256\276\232\274M\275\207=\265\275;\271\372=%\322\317>=g\030\275?W\216=D)e<\274\352<\276-W\270\276\337\024\345\276\257\034\271\276Z^\001\275\211\271\360\275\237c\242>|\244\252<\"}\000>\350\023\226=K\273\251=Y1<>A\210\250=.\r=\2757\310\205\276T\224\333\276/\004\375\274\320\256W>4K\007\276\036u\033=7ef>\351M\304\274G\352\007\276\267\343O<\310\t\321<\315V\332=\354\357\242\276\330\355\232\275\2660\327=\246\236\230\276\020\316\347=~\316\324<\271I~=\223j\010\277\'\035V\275\350\221\224\276\315\235\225=b\225\007\275\025\t\215\274k9\217>RC\224>Q+\334\276_\236\227\274>\220;>\024\n&>\033\327\234<\000Od=LPp\275.\243\332=el\246\275o1@\274\302\232 \275\242\234\350\273X\232\315\276|\211\351\275fT7=UQw<\266\201\311<-\373\323\276\223A\220=\310\203\211>\361\017_<\362s\035\275s2\241=<\005\345\276\244(5\276\233E\250\276\036\216\345\275\360G\021\275\301q\237\274D\326\036>k\315\247<\237\322\204\274\267U\016=y# \277\340\014\223=\243\022\370;0\264\207<\002\326#;\350\223\352\276M\005d=Fj\307=l\"\000>j\206\007>\017>&>\210\340 >D\226\026=\210\2610\276+\352n=\304A\330=i\240\013\276\342\263\206\272{b\230=n\356\223\276\331\020\007>\007+\007<cc\232\275\307\367!\276qZ\217=\250\211\337\276q{\020\277@6\231\276\244\332\276\274\325Mw>X\351\212\275 i\211<\230\361\366\275\001\2775\275\35687=\221\227\027\276\302#x<\276h\010\276\267l\242\276\023\025\267\276\311\250&<f\022{\274 \321\247<B\227\203\275.>\247\276u\321\311=^\362\316\274\251:\214=j\354\247\274T\216^>Y!\021\276r4\330=\316K\261\275\307{^<^\265\323\276\246\307\001\274\343\017A>;\0221<s+\224\275\322/9\276,\0261>,\004\254=G\306!=\273\211\333=\215w\270\2755Q\221\275\006\242\210\275\266?\234<b[\205\274)\220\226\276\244+\006>-\227\340=\256\005]>w\022\002?M\234v\2769\020f=|\344c\276\037\340&:0\302]=FA\302\275\251\023\354\276\270\336\247\274\322 \321\276|.j=\201)\254=5\337\357\273\372\347$\276\207\205\303\276\"s\264\2751\234\363\275\304k\274<\372\347!\276\t\020+\274\222\351R>J8p>\207\220\004\2775\260\232\274\324\236\317=\217\250\007>\205gr\276\177\366\327<\333\374\357=\345{~\275I<\026<\364\324>\275\200\034\304<\021\357u\276S\367\357\276\322\n\334\275\360\220)\274\313sG=1\317\227=\013\025\274\276$\330\262\276\274\2329=4s\006=\tvf\274h\014k=\\\342\334\276i\001\216\276+\332\360\276u$\030\276\334\014t\276>\250\337\275M`\320\275U\215\352=\225:T\275\335\242e=\230\257\021\277\206u\334=\371\0028<\021\377\215<#\013\257\275gu\212\276*\001\013>\016>o>\320_\362<\016\213c\274_\035y>\340\001\376\274\307\031<>\330z\365\274\212\2103\275\235\007B\2761\221\202\2764\022\247\274\003\224p=\305\372$\275k^\320\275\221\247/=\357\023\177\276:\032u\277k\224R\273\344a\300\275\360\337\320<qNy\276\361\312d\275\201M\276=\301\373\360<\007F\236\276\305\222\267<~\326\345<\324\031\335\274l\214_\275)6\252\275\220d\251<\014E\323=\254z+\275\247B\243\275\333p\204=\241\0166\275He\003\277\032\023\276=\344x\256\274\211\224\267<\311]\240=\360\177\020\277UQ\326=B\363D>6\307\002=.2\'\276\324\262\256=l\211\245\276C\212{=&\371^=\230\201\216\275\343\251\232\276\342\355\323<\245\364T\275l\230\346=\021\353w\2759\\\245\274\300\227^\276o\301g=\247\375\245\275\253\277E=\017\207\027\276(\270\301=\002\245D\274\300\005\250<m6E=v\007\334=\254b\277=\357\211\327\275\025TY<\3410\260<)d\226\274hq\223\276-\320\207\276\215]&\275\341\312\304<\201\327\326\275\013\333\323=f\346\247\275+\300\255>M\034\344\275\245!\003\276\205\023x=;\034\r\276\366K\211\275V5X\275![P\275Qo\304:8\374E\276X&\237\275c6]\276\373u\326\275\310[\244=\327\'\324\274\036`\301\275\326\251\254\274,:\243\2756\236<>>5\301\274\226\345\267\276\027gn\276\362*\227;T\276\234\275y\005n>g\247\342\2750\251\007\277\277\251\033>4V\022\276w\370\035\276\344\t\377\275\177u\253\275>x\035\275\215\310P\275\'\255\242>\251?\270=;\374\310=\355\210\257\2759W\013>6\255I\275*\220\210\274\307W\364\273c\265i\273\276i\026\275\177\315\255\276\362\244\211\275\213|D\276\0072\304>\016?\001<\2462\000\276 \275\320\276o}\222\274\332\002*\276\251\261\220\276d\316P=\217\212\n\274\024o_<:\242\030>\332\355\251>\240\345o\275m\024\337\276\270\3531\275\023\360\003\276\307_\251=\213\211\342\274\247\3475\277\263\326\355=\206f)=U\332^=c\254\007;\271u\235\275\216\265\211>>{#>\203h\032\276\241\274l\274\301)\277=O9\027>\322\203@=\370\033\000\277\211\n\023\275k72\275b\017\022=m\350\020=\2040\341<\242t8\273ET\317\276[\217x\274K\273O\275E\343\244=\376\205L=d\030\010\277\033\373\014>\007\353\227>\256\254\307<X\373\027\276\373gJ=%7\245\276R\313\037>\004\337\275\275_E\244\275\234\303\313<B\315k=\252l\341\275\'\214\237<\370^g\276\033Z\014>\031\263\237\276\335\314\312=\310\300\001\276\372\rh=\277\244u\276%cl>@\370Y=.kx\274wW\304=<\310o=(\022\304=\003[1> \256I=R\302\036=[\376\026=\250e8\274\234\013\240\276\273>\217\274\306\367;=\243\214%\276\365f\266>m\327\252\274\343X\272=op\317:Zb0=\005\006S=\351\235\336\276\247\324>=K\010\224\275\r\366\266\275@\260\177>:\241\312=\204^,\274BU\003>\312\305\334\274QW\227>\215u\232=\312\025\\<-\304\243\276\2200\017\276Qj\315\274\262\303|\273\3430\350\274\034R\266\274\312X\233\276\003\254\300;\366\377\247\276\237\327\254\276\371\223\330<z\301\315=|\250\200>\340\356\246<a\305\375\275\234Nw\274\362,\205\275\331-\010\277\t\313\312\276\306\2531\275(\360\200=a\n\261\276rQ\023>\264C\177=m,\341<\021\323U\274\242\217\246=\247\350\337=O\026\031>/ks\276:\275\364\276)\254\016\277( \271=|\376&>\321ub;`\3544=\303\237\304><K\016=\006\024 \276%S\272\273 \374\342=+4f=\254n\303\276\277\321`\275\035H\257=\\U3\276\010\016\253>\226\254\r=w\241(;\232\266\246\276\313\334c\275\177\230\005\272\006;\004\277\005\251\307<6x+\276\310j\316;S\264\236>I\031\314\276\372\367\217<\360\217X=\3540\251=\317\243!>u(\261=\205U\t\274\371s\264\275\261\253\241\276\034A\2619\266\255\232\274p\343\300<\313\265\037\276\251S\270\276.\260\330<\307\327\305\276&\330@\276\224M\336\275\227\177R=c\212\310>d\212\234\273\350\341K\275{=\217=\346\235q\276\217\232u\276\365\030\353\275h3\254\275?0\366\2743\316\272\276\317T\242=\217\360b\275\365\271x\275j\320w\2758\251\230\276hY\323<\226\334}\274\260\353\211\276\016\007\370\275\223?\323\276\027\016\252=rr\021>\205;\215=\212H\223<\035\326\307>\314\247d=\342\365\234=\332\2252\275\3640[=\307\215\013>\306\013\207\276@Bg;\300U\201=nI\354\275T\007\005>2\202\257\272d\277\301\275\255\204\024\277\034o\365=*\314\021\275Sh\241=\017%\003\276\000\255\235<\371\336\201>\335\310\205>\375\024/\277\025\016\231\274\355\0362=\003Pa>\316\226\251<\244\343\276\276\371\322\375\274\252G\024\275}\357J=\211\020(>\220(f\274\016\307\224\275\314\204\035\277\022C\001\276\016RE\275)\205\322=\221\273\300\274F\246\020\277\336\377\004>ev\031>O\266\203<p\007\320=\230L\001=X\246\343\276\353xi\276\270{\354\276\204Z\353\275$-\225\274\234f*=Q\022\255\275\233\246\336\274\2325\267\275\202\337\251=\357\361\"\277d\254\206<*\346e\274\3358^<\251c\234\275\027\241\210\275P:\3057\226d\342;P\257(>4,\033>\241jo>\365&u>\336\264\320<\016`\n\275\307\3475=\321y@\275\214\303\242\276\314=\350<\265\324k=\333\305#=\r\210\366=\276\223\022\275\354\370\216=ST\363\275x\276\237=\315\246f=\'t2\275\301\207\323\275\017\034\255\274I\256p\274\306\211\306=\244\276\333\275X\005\216\274*S2\277\000\347n\2747\336\347={\311\220\275\221\307\356=,\223\'>\032\367\231=\023\'\\>\241\374\365=`J%=\255\017\205=\265D9\275\010\230c=\010\377\032\276\257\001\314\274\304\030\317\276%\264\003?\231\001n\276\201@\220=|\211\200<j;(\27545\223=\035\276\376>)\354\314\276{z\233\275\302G*=uI\300=\267\003\305>\227\314\337=\330\324q=<^\202\275mr\316\275\237Z\003\276;\360K>I\230\232\275\343\303\341\276;\237\207\274c7\241=k\314.>\306\260\">\222\252\\=\330\333\021\276\307)\231=\n\004\376=\332\370\274=y^\212\275\210\315\027\276\335\3640\277\235\351\034=\314\305Z\277\327]\033=\247\001\r>\036\271@=!On\276\3357\302\276\244\307\014\275<\243\357\275\214\337\030\275\005\224^\276\343\323\203;\371\273\333=\014\231\341=\2317\346\276\354\330\235\274\357\224\243=X\304\316<\305f\200\276\3279\016>\264\n\354<\214\262!\277\360J\345\275\216\237^\275\023\366\336<4\337\274\276\350\315\373\276`9\010\277\0044.=G\335\337:d\375\314<A\375\323\2750\364\264\275\227\214p\275\010\270\255<\261om;\326kM<\271\037t\276\003\315\270\276J\031\225\276\004\235\312\274\254\305\237\276\322\367\246\276\206\271Z\275[\202\372=\214\336,\275z\010\303\275`\017*\277\327\324v<\317\024R=\226\r\212<\254)s\275K%\264\276\244\260\255\275\223\0041>\212\355!\274\036\206\r= ;\314=\243\004\204\275\021s\017\276\266\017\247\275\264\365A\274qj\370\275\350;p\276\312\343*\273\311\025\263<\272S\010=\233\341\352=}\302\001;(\033\357\274\002\013\t\277\201oX=Y,\027\275\307\306P=@f<\276&\277]<\036\357\370=\277uN>\010\2224\277.\363y\274X\225\264=\241\347\021>\27760\275\271\336a\2768\005\223<\307\022\t\276\207O\251=\376\201\205>s\220\306=t\366\202\275\023\024&\277\241\326\n\276\315\254\214\274\331R\002>\224\020\252\274\227\314\005\277g\007\371;\316\215u<\003\374\022=\273)\351;\310)\203;\323\331\265\276\031\341\017\276\014F\342\276\254o\334\275\344\237?\2768\302\260<!\2310\275]\307\250\274\001\272\273<\233\273v\274\2107+\277.\224\221<[\352\265<?U\270\274u}T\275\253e\224\274\320\372o\275\004\311\326=\256wW=B\n\n>\261\321^>\262\025\210=\231\241\277=QS;\275\331\327\253=\353\tv\276\265\357\251\276%\377\272\273\240.J=\220Q\264=\215\215H;q\335\251=\352\220V=\221//>\'\205\374\274}\030k\273\031\311\005\275\200\316\327=\252H\363\271S\221{>i\277\013\276\225}V>\021\262\027\276\343\254\223\275\000\345\r\275\302\225D\274n\217\343\275\313\024\200<\264{>>\"j\337\275;\357L=\027yk=\304(\244\274VX\222>\356\271\231\274co\254\273(\232\t>\214ye\275\237\233\"\277\210\2468=nR\300\275\021vq;\246\351\r=\036\301\262\274\024`)>\235&u>\020E\260>\350\214\035?\317bY\275\r0@\275\225\223\200\275\237\355i=(\356\220\275\223N\021>\206\234\334\274\234\251\320\275\234\353\353>\376\354:\275^\312\333=\376\0253<a\211\355=I3\201\275\256#-\276\364\311`\272\247\230\337\275\335\231&\276\022@\353=\211+7\275\245\rB>\274\241!\274\237\212O>\244\304\316=\346\265\377\276,`\r?\200\036\355=0=\035<\013\323,>\307\347W;\257\340!\275\264|\305=f\331m=\245[\251\276\006q\005\276\360!9=\000\326G\275\326\263\014>\266H\010=$\242T\276\245\222\000=@W\224\275\361N\234=\233\2144\274Q=T=a\002\221>\254q\231<\37654>W\322=\275\213\214l\272\323\273_=V\342G<1\022F<\226\316\214\274\3428\330\276\371\323\206\275)\250D\276\232\3171\275\356\357`>0q\275\275\177=\372\271.\205\023>\220\312\342\275>\034A\276A\251\210\275\274\256\200=\267\231#>6\341%=\215_\201=\271u\272\275\376q\364\274vZK\276\320\246+>\340\345\241\274:\370w\276\370D\367<[\020\">\037L\377<\257\2065\276\212\031\024>T\200s\275\252\322Q<\271\230\017>\234:\254\2748\005\266=\302\311k=\300{\206\276\344<M=\272\333\233\276\225\234\177=\201\351\026>\346b\003\272\270i\314=S\206u=\254\205\212=R\242\203\276\236\264*\276\325 \030\276\227\302\256=\224\276X\274\217\222,\275\246\251W=_|\251\276*\347\001<zQa=\341\240\016=^M\242=_\020\024\275\016\353\270\275Z\203r<>\254\310<\202[\222\275\231-\017\273\254~\225;\217|\007\276\317\263\001>\237\273\023=\210\203\346=\216$\215\275\247\2777=\214q \276\322\244~=y\220\256=~Ng=\262\307\033\276\"\030\213\276\2312\343\276a\033A\276\3529\035\276\024T\204\275wI\225>\373\016E\275\007Ze<\262&\330\273\026&\353\274\301V\003\275\347\252\n?\216\nr\275\325X\232\276\310\r\006\2774 Y\276\\\216\275>\035ga>T\313\365\275\337\024\364\275*,)=\027O \275\211D\346=\304\341\203\275\026\243\010\276\204\031\311\276\375=\212=\014\034\005\277\376\0240\277\217\266[\275t\276,=\241Y6\275E\357\214=\270w\254<\271c\035\277\373\\U\274\253Q\315\275\247\000\315\276\371\340\\=f\316\242<\005sX=[\370\005=\255\270\000>\255\271\031=+\361/=\002\366\300\272\305\316T=\322#g>\270y\375\267\212\261\311\276\351\306\243\274[\323O\276\233\317\036=]\2114=\364\276\254\274r\271,\276E\365S>\\?\243\276\362=D\2767y\232>\354U\217=\"\274\306\275\240\207\353=\037\215\335\276\231[\336\276\237kr\276\275\337Z\276\021\365\257\276?\241\203\274ix\346=>\334\002>\264\307i=\376\314\312\273\255m\322\275I\227\312=\371\020B\275\254)\265\275\362\032\345\276\037{\263\276\241}\302=\346\240%>\374\217\262\273\271\335\240=G<\255>\255P\226\275v\200\036>\267\026c\274\210\324\322\275,\361\313\275y\273a\2762D\003\277^\010\205\274\205}R=\275\315\300>Q\351\230\275\211c\207>\313\213\372\274\321\271{<\323\235\026\275H\261\023>\024\252\300\274\341\242\262\273\350\246\204>\373G\250>=\204\371=\260R\260<\362PN>g7\337\273\237\031\264>\267!\037>\367\262\210=@\324\215\275nU@>\021\004\242\274:\330\215\274\"\367\303\273\317\225\202=>\353\216\276\220\224\004\276\370\213\271\276\327\247\212<\215\334\017\276\343P9>1\355j>\376\272\312<\r\010`\275\017$f=\265\301[\276X\356a\276\373\210\340\276\206\177\207\276\323\357}\275a\357\222=\216\035^>\355\315\026=\362\032\300=\251\246<=!\353{\274\036\1774>&\251c>\004\340\346\275\325\335\001\277\0056\227\276\206\232\242\274\252\375\357>\215\357\357\274b\213\354<v\304\274>M\303\321<\211e-<H\307\207=T\312\355=\353\035D=\300\005\262\2762\354\032=\220\rZ<\213\340:=\214\036B=3\325\031<l\340\335=\201\002\004=V\274\333\275\246\334r\274\307%\212<j\337x\276\254F\302;Id\235;\203\271\274=.@\001>\322\026\036\275\352\256\034<\353\223\351=\301\3007\276\267D\'=W\257\301\275\013\237\330\275\275\271:>\334P\345\275\334\210\320\273\276i\335\276\025{|=\3053r\275\323 K<MP\277=\341\236\r<\377\206U\276\\\352p\276w\315\036\275\301\n@=sOo=v?\266=\256\341!\276\304\214S\275e\347H\276FK\231\274;8\203\276\214\0061=\375\217\020\275\273o\316;Q\205\206=7\330n\275oF\225=g\260s\274 \016\n\274x:\323\272w\232=\276Uf\320\276\213p\216<\002\305\223>\201P\244\274\025\032\366\276\210\227\373=\nP\215<\2110\213>\254-2=o\3315\275\257\273\205\276\317\222\005\277M-\252\274\202A\352\276\324\377\345=\017\274\'>5y\222=\341\3349<n\371!\277\363\327D<\227\252a<\375K\215\275\330\240\272\275A\024\222<\277\3714>\213J}>\034\357\251\276\207r\252=W\376\375<\000\232u;\217\266\376=\023B==S8o<#>6\276b\202C\275eX\255=\362\235X=\262\243(=\002-\022\276\010\352P\276\253\0179<\332\223\363\275\373\302\200<\202\264\330\276G\215\n>\216\213\206>_\271\036=\3610\234\275{\312\304:\341\251\273\276\271.\243=\224\256\'\276,\2047\276t\003\275\273\010\010\264\275\211\336\367=\217}\205=VA_\276?\317\250;\317\200#\277t\217\257=\345\035C\272\342\235I;\302}\232\276\010{\021=\262\360\036=\036\2307>\257\013!9O\354\230=a\215Z>X\230\376\274\343J\235<Z7C\274q\212\014>\256=\033=\367\200\277\276\263\307^=\374kk=\310\322v\274U\021\205<\231x\350<{\211d\275\253\325\364\276D\266*<\301\361\243\275\206\264\273;tQ\275\276\225\345T<\272O\265=\211!\333=\306\274\010\277}\3707\276\200\255\212\274\366 \266=\r\316\333\276\226\330\332=\3729\r\276I\332M\276\010\305\247\273\002\273\310=C$\003=9M\224=\021\035\357\276\351\343\244\276\370\035\242=\223u\027=]\221i=@\231\375\273\371>\305\275J]\"\276\"\231\035<\316\034\370\274;}w<\3167\230\276\352\276X\276\2152\315\276\027\t-<\237\362\247\275\032;9\276\301:\251\2751\361_\276\177\240\005\275\345\004\203\275\310I+\277:\271\241\275\370\241\025\275\342u@\274\302\216\214\274\204\212k\276\031\376d\276\272\265?\274\006\\\253=K@D\275o6\007\276\210-\343=\362\245C\276\305\327\252\275\356~\020\276\244H\023\275L8T\276\357\n\272\274\022\033\311\276\334+`<\344\017N>s\360\206=K\326\217\274\0038\333\276\362\306\025<S`\333\274\333\233\025\277\232GE\274\235\252\276\275\217\227\310\274\016\211^>7\310\321\276U\371\233<\237\003\314\274\304\361\214<f\323\025>\314\020\315=\261\357p=Gsw\276a\321\317\276\201\210\202\273G\3568=\372\202a<\006\003\356\275\235g\336\2762\214\213\274Hx\345\276cX\220\273\313\327\006\274\253k\"\275\356/9>\266\224u<\210\010l\275\250Q\367<\275\222\313\276\2343T\276\037\261@\276\"E!\276\247\372\204\274\344\023\000\277\034\205+>kW]=\324\342\222\275\277\355\017\275\211\262\320\276,l\\<\224\\\361\275\347\371\305<\315\336[\276\325s\304\276r[\327< \031 >\226F\020\275\036\333K=<p\244>\370\342\323\273\023W\243\274\307g%<\037\022!<P\377~=\022\247\245\276\210\035k\275Cr\272=\241\032\027>1\307\242>\201\022\202\275\327\364s=\360\252\226\275wUJ=\217T\362\274\n\335\325<\372\r\245<S(@=\005\311\355<pQ{>C~\226\275\037\245\013\276\321\272[\277\375S\222\274\007\021\t>)\034\r\275e\371$\275\220wq\275\243\276}\275(\210\365=\031\005\277;|(i=\231\323\302\274BS\217\276P\235\333=\372\031\330\275u\260\253=\352\277\275=)\362\311\274\303\356\007<\r\0329\272Aiq>\202|Y=\000r\">\177\227\365\275\245b&\276\232V\217\276\021I\315=\335l\023<|+y>\237\370\023\276-\210\r>\210\311\032>\204\tf=T\214\243<e\274\233>\357%@=\350\336\216\276\326\033\001\276/\022\242\275\264\241\305=hB\004>&k\207\275\275\331V\276Z\221D=\365R\200\276\215\t\023=Y\241e\276\233G\240<xl\t\276\336\020\004\275]\030\000\277N\267\030\276yX\316=7!C=L[m\276-\345\362\275\344\230\220\275k\372m\276\007\313\331<\\\362w\276\331\336\351<\024\357*=t\270\205=t\273\340\276\350\251l\276F4)=\t^\275=\311\304\246\276\214$\037\275v4\312\274\241\376}\276X\222|=\200sk\274\013\014&\275\315\245\300\276\265\203\363\276p\363\277\276\343[\264=i=\222\274\2350l\272r3V\275\201k\230\276E{\013\276N`\320<\207\2436=\312\236\031\274\350o\004\277~b\330\276\341\001\234\276\014\271\243\275dz\201\276\274p\204\276p\216*\276,4N<\260\001\024\275\350\361+\276V\356\272\276<\223\254<\t\227;\276eF\206<\315\016\264;\202\225\t\276\364Jl\276\026\037\r=4\367\024>\317\241Y\276\272\353\314\275\001\237\304\274\'\231I\2765\242n\275\263\272\010\276\247C\243\275;\000-\276@/\361<\316\247\005\276\345\2747\276\23612>\034\300\002=\020\224\027><$\002>v\320\225\275n\226v\276v\233\237\276k\376w\276\232\210h\276=\264\250\274\212\215p>\037\007$=\3748\356<X\235\">\2401-=hT >\005>$=\206\245X=\370\275\202\276QT\237\274\001\203\240\275\205 \312=\274\241\376;\303\n_=\232\007u\276\205\277k<AN\211\276\360\025\355\275Q\236\035;\303Q\245<\324>\262=5\271\005=\327\367\224\276\\sH=w\217\004\276Y2\021\276\325\3340\276wr\267\275\356\356\262\276\333\031\n\276\234\2510=Y\362L<\241\317\302;\215\302&\275U\331\000>\264\362\302;s\225\215>\276\306*\275\023\025\257\276#\377\264\276\373\234\000\276\027\322(>\263V(\273\363m\324\274\342\0169>S\335\241\274\031\354y\276.\260\240<\213\201H<\317\266\207\276\n\310\273\276U\220\005\277hI\345;\226\204\007\276K\327/>{,6;\377!\n<\036\367\334<#\006\203\275\215\340\262\276\265\373\200<\313\"\265\274\277G{\276\264\005\367\274\034 \306\275\343\325\006\275_-d\276c\000j\276\265\316\033>A\344\215=\317\206\342\273\335\274v=L\003W>\316\273=\275\010@\245\275\031\355\256=\256\275\264=k\376\230=\332\262>\276Zd\221\275W:\246\275\252\305\010\276\247a\207\2766\351-\276\231\345\006=\340U\221<N\362\237\274A<\323<\220\307\361<\310m.\275q\030\'=+\244\327\275\273\332B\276\230\nR=\271g\243=(Z\330=66\263=P\023\247;m\035\306<\210W\376\274\267m:>\300\246\263\276\333\253A\275\233p5\276\247r.>\"\332\014>\252d\003\276zA\251=e\241\321\274\357P;=fd\211>\257\352\315<!\033w>\026k\250\275W\252U\276\330\245\204\276\224w\300\276\036\020\331\275\301\266\215>\307\0105=_\353\246\275n\262\244\276;\263J=\246S\036=\232\036-\277Zs\r\274T\263\363\274_\326\214<\325tk>t\030\201\2768\217B<\t\277b\275a\330>=\005\366\036>O\333\222=\242\311d<\267\243\326\276\304\333\003\277\207,\030<\230\t6\275o\357\217\273\217h\017\276\247\264\306\276Ly\335<\331\005\014\277\273\256\200\2742l\234\275C\211\314\273\341\215\217=\2771\317<\261\354e\276}x~\273\022W\023\276\036br\275!\261X\276\003\273\251\275\033\331\033=8\213&\277q\350\263=\360j\007=J\231{\275X\255X\274p\t\277\276`mI\275\003\217\235\275\356v`\274\332X\217\276\377\312Y\276\036\3431:{\034*>`L5\275$j\334=\362QS>\350\237\210<\316U]\275\021\275\225\274\315\363\251<\370X\332=\311h\321\276\352\345V\275$\361\307=\211N\244<\347\372\327>\363=\027=\271b\">\327H\206<\036\345k\274\266*R<\007\016\264\276\352H\217<\347%\257\274\010\263\t\275\244\367\313>\245\236\0238\n&\216<\031\214\">\255\344 =Q\226\323>#\377\217=\240\334\311=\336J\205\276&\2350\276A\303\302<Y\370\n=\333\023\274<\013\tE<W\010\313\276\246.e\275\375\272\343\276\034\214+\276\340\324v\274\037S\013>=L1>\361\217.=nP\334\275\357\314\216\274\264\\\032\276\001\016\343\276d\352\336\276\026\317t\275\361N\257=\353\024\211\276\210J\027>\371L\366=?\344\300<%\0312=\032\326\n>\222\016&>\017h\351=\203\355G\276O\n\317\276\016-\274\276(\215~=\244CC>z\"V\274\323B\312=\247\223\303>\005\217\306<^\317\220\275k\356\227;\017\230\273=:\221\256=\263\266\257\276\332\202\300;\214L%=\220\204y<\030Y\220>\3626\263=\013\006:=x\356Z=N8*\275\035\177\230\275\272?$\277\366\307\010\276\014\272\311=a*\035\275\223\215\201>^\207\234=96L:J\223A={\004\204=\336>t>\004\340\212=iQ\253=\253\222\327\276%$\245\276\002\351\t>dX\227=,\226\371<J\336x=\262\360\262\276\327K\r=\t\307\246\276/ \261\275\374\020\274\274j\307};rK\274=\306y-=!t\001\277\373\237\004\275\265?\363\275\236\324\332\275?\335Q\276\204\340(=\236\342;\274\276\337\347\276\363\264=>\t\016I=-\244\017\274\337\375\237=$\215t<\"w\037=2\271\263>\203\323\010\276\365O\263\276.\212z\276\301\317u\275Nm\310>\3374\361\274\270\225\246;\277\266o>}Z\345;\370\036/\276\003\031\031=\022I/>\326Op\276n\300\021\277\001GB=\206\021\234<\016\345/\275\376\354\215>>5\205=\256\322\241<\020*\t=\235\356\364<K6\225=!\331$\277\326x&<\244\252\200\275\244\330\025=\216\251I>W\251h=@;e=\345\240\303=8\312\3627}\"s>\242D\336<;9\037=\027J\274\276bk\355\276\232\367\022\274\320T\204=\237\232\253<F\265\207=}\277\310\276&\001!\275 \002\314\276\007n_\275\244X \274\315O\272=j\205\021>u\323\302=\213=y\276x\202\233=Y\204\016\276\330\355\002\277P\320\317\276h\364\332\275$\300\320<\363\217\014\277\204\033~>\244\016\334=`\036Y\275\362\020C=\255g\230=@\225\330\273H\350\235=\314u\363;\244~\010\277\235\256\350\276S\327H<\027\211g>l\006U=\024\370M=\310\213\214>K\016\006\275K\345\017\276\272\353\024<\260\233\204=\226f\204=\"\346\267\276\024V\351\275m\370\022<\"\026\001\276G\007\034=\214rH=\030\326\317\275\355\241\304=2\t\355<Zn^\276\336a3\277D\273t\276\020C4\276\361\320\200\275\327t\036<T\352\264=\\\222\331<E\216?=w\344\240\275Gk\362<\030\275\242\273\220\266\234\274f\313\002\2768\r\310\276\"\025\n\276\243\200+<\277b\314\274\034\031\002=\031\331\334\275\350(\335\275\337\214\024\276\311\225\275<\205\022\277\275\217 \272\276\221%:>z\345\007>s2\352\275\rf]=7\203\350\276H\234\007\277\237\014\034\276F0\216\276\361I\342\276\260i\264\276\346\256)\275\304\260\221=)K_=)\027e\274OKy=z\246\334=\271@\377=\253#_\2750X\300\276D\203\357\276\254\360v\275\302\364#>\236\307\235<\025\243\200\274\036Q\230>:\202\035\275\231P\351\275n\232\240<\033\271\346\274\024\026\350\275 2\220\276\004z\213\276L\265>=\201t\264\274vIv>A\014X8)(I=/o\226\274V\'\352\274\325\221\300\275M\355>\277\211\001\201<\265>\251=\251\257r<o)\204>\255S\317<W\351O=z\254\202=X\036G=\201\023\326>\005ZV\274eo\330;\325[\302\276v\256\006\277\200*t<\314\371\322:\245_\262\275\024\212\310\274\017\317\335\276\320Nk\275\010\026\367\275\025\333\222\275h\025\234\274c\270\001>\223\024\266<\261\217G=\'|p\275@\006%<\202$g\276\323O,\275\234\335d\276\266\320\375\275/\023\273<\260\234\007\277B\253 >\312\311\025>\224\327I\275\2740\022\273\215\302E=\304q\221\274\351rO>\274\345\356\271\021\030L\276S\237\245\276t\005\205=\343\301X>\310\274U\275\357t\337=l@\255>\354\310\327\272\000B\026\276%\314V\274\232\354<>\255kh\275\231\310\007\277d\340b=LT\225<\263\020\206;\260\272\363<\255\2040=\235)`<~\353\241=\331v\000\275*J\201\2758\376\247\274n%\023\275--O\275\321\006\264\274\226R\336<3\t\323\274\221[<<S\305\311=\244\005\037\275\305\205\262\274N\371?<\254\272\242\275\037\250\332\274-P\007\275\312LO\275\373\266$\276\023\340\373:@\377=\275J\001B\271y\303\366\275\252\351\370<8r\351\2767\3240\2751#\273\274\026\316\210=Y\014\226=&1\022\276\226\023\242\276\373\321\205;\20247\275BDz>\377\033\326=-\331\224=\3264\344=\003\305<;\033\002\347\275\214\236\321\274\356|\\\275u\301\206<\364-\333<8\303K\275\315\244b=1\352U>[\314\307\276\366R\364\275\205\233z\275Q\276\323=\367\227\230\274\344\340\177<\210p\227=\324/$\274o\306\216\274f\035:\275e\230\331\274\037\034\013\276\326I\270\275\035\032\240=S\033\013\275\024\240j\274\321\024J\274\342)\350\274\352~\275=+5\267\275\351B\222<\227\274\277\276C]\025\275\345\367\246\275x\271\323<\t\232\373<\245f\206\274b\n\006=\245<\364\274\221#\257<\022\221Y<\362=H\275gP\312\275g%|\276\332\325\323\275n\311\364\274\002\017\314\274M\323\266\272:\004:<\332,\230\275\031\210\027\276\014YG<$\250/\277\036>l\274\263\2572=x\025\253=&B#\275L\247\"\276*-\002\277\261\364\217<\2754\017=\0076\345=\274\213\201\274iP*=\001Z\240=\361\021\211\275\374D\274<\2343\240\275\321\277\317<biD=\253H\r=\207\320\214\275\266K7=^\325\314<\021Gi\276\017F\321<z\341\351\275\306\3158=N\376u=2a\261<\3741h=\005\265\345\276\332\344`\274\274\244\2658\351\260*=\202\2208=\245\177\276\275z\n.=l\375h\275\264\267\272:}\276\235\274[}K=x5;\275\372\245\307\275\354\300\003=b\017H\2764\241\026\276\030\307\311\276\365\322}\275\320\367\013\275R\336\323\273\362\271\204\275\277\242&=\214\037B\274\276.\004=eG\344\274\231\336\266<\033\016\331<2|\344\274\234\227\225=+P \276J\342\252<zNT=A\340\355\274$\277\366\276o=2\275\227\236\341\275g\347#\274;\271\307<\211mB\275\245\006\211\276j\240\223=\004\301\035=#y\237\276\207{\261<\327f\221\275)\006\272\274P\303\275\276}Tu=\202\205\343=\237\202\220<[\365\021\275\215\261\031\275<\332\221\273\r\274\220\274X\324\366<\277\345\025\275\002\310<\275\n\270\335\276C\"\275\2734TG=\204\347\350\274\333\367<=e\334\225\274l(\365<T{X>\207\217\2078Q\030\026=\247|Y=\262\301\033=XV\200\276\247\331\213\275\360\376}\275\2454\';\256T\345<\265\376\315\275$\343\243=\252C\306\274D5\256\2769\031\271\276g_8\276\301\333I\276C\365\346\274\224Ox=t\247]\274(\3337\275\264\206\210=\0149\224\273\370\354\273\275\266&\036=\023\215F\2751\323\226\276\243\371\355\274*\321\265\275\316\r\372\275^@@=\014&\231=F7\022\276\021\230l\276\374\304\304<n\367\361\276\331\200\032=\263\013n\276k1&=\352\322\213\272\256G\203=&\215*\277\000I9\276\013~\3709\374jG=\265\004\030<\027L\242\276H\206\263=\331<v\275w\271\207\274(;\360:\365\"\030\275\226A\004<\274\251\207=\325\307\204<\341\3644=z\020\214<\327=\216\276\000\013%<\363j\030=\347m\203<\005\267\356=1G\'<\014.\326<x\\\200\276\"\317\313\274H\202\202\274B\347C=\234\202\202\274\004\026\371\276m\341\212\275\"UM=a\313\266<\261I\375<\215z\206\275\010\345#>U\313\231;\317~\207=X\214\277\276\235UF\276tB1=\371\357\206<\213\235O=\003\277\371<\225\206\365\272\212 \302\274l\331\002<\323\303\030\275\212\256(=}\317\201\275\373\203\317\276:\206\221\274\261$\032=G\\\237<\265S\260\274EPF==&\032\275\276\372\017\276_\351\277=.k\225\275\2519\273<C\362a\275=> =\221d\035=n\356P\275z\334\246\276\306\330\003=\361\305\031>\300\267\376\274\361=\260=\3769\331\2762N\331\275\010.\275<\252K\306\275\001\023\211=\2616\231\274\r\343\236<w\202\032<\210\324N\275\013`\235\274\361$\263=\342\022\210\276\030gQ\276\256bA\275\361\003\231\2745\321\362<\343+<=\245>\213\274\274\212\022\277\346\003\346\274\323\223\254\275M\265\004\276l\333$>t\342\016\275<\225#:\366\0075=|\223K=uf\313\275\200\301\020>\t\355\207\275y\370\322<\267\377\205=\237g\240=\351\3420<\024\013\320<\360)\030=\370B4=\323E#\275\030Z\274<IW)\274\313l\211\275\006\221\024\274\257\0165\275\340\275\014<9\226(\277=[\320=u\216o<\032tn>\302\"\346=\233/\271\275?\266\213\275\264\327\260=(\2538=\246\263\315>\236\321\232\274\333\313\254\273\236\001B\275\215\364\305\275\274\272\006\276\305}\262\275\255\3727>`*\250\275D\233\036\275a\354m\275d\267\036\276\2177\245=\260L1\276\206B\265\275\034\336\207\274t\254\365\271\213\360$\2758I\307\274\277\261\345=\225\272\206<\032\206\274\274\206\013\262<~D\010<\354\366\313\275\270\263\270\274\265\201<>\317\302-\275oK\371\274\n\213Y\277\237\034p;F\230B<\273+\020\275R\017\305\275\013\034\222>b\023 \276NP\231=1\224N\273\031w\"\275_\\\325\273\307\006s=\372\205\300\272T7k>F\270\224\276\362p\200=\317\335Y=\006\353\207\274+\021\353=\347L\230<\245PV=\300\311$=\312\340&\2755`\312=F\264\207\274\214\037:\275\000\251\014\277\376*3\276\331\235\r=\327\274\376\274\236\246\025\27518\246<\272}.\276i\247\352;x\010\006\275\'\313\224\274\033\320\370<C\340\336=\253\210\327\275\023k\376\273k\200\240\276]\331\253\276|\247_>\332Z\321\275\276a5\276\352&\372\274\231\301\364=%T\262\276\254\212\316=g\360\211\275\320=:\274P\346V\274\335\244\362<\236\214\303=\017km<\371B\213<\346\324\027\276\261\2559\276\215?\t\276\177$#\275\354\216\025\274\316\032\276=\2125\025=\360{\243\273WKP\277\266\000\3169$ \201\274\205\264\032=\333\307f\275\325\227\260=\322b~=CN\204=\\\354\225:a\323\005=\r\314\006\274\177\314\256=Y\230u<^\027k\275z\366\237=\264\337\222=\272\200F<q\370\211\274\234\267\031<Z\326\262\275\'\376a;\013\217\247=\233R+=b\227\242\273Cb6=\203\325\320\276\252T\013\273\020\317[\273\250\207\256\273q\355\322\275{\241\030\274\033f\251=\360\310+=\350\236T\27391\231=\311\373:\2764\331\004\275\203\365\301<\311\013\263\274\324\003\014\277\037r\302\274\3262\216\276\240\016\021>\245\212\244\276)_2>I\213G<8\303\357=\323\233\310<5\205\013=+\357\326\276\237\312\032=\002O4=\2302(=\347bP\274\326\354\335\274\"3\325\275\212L\376=\243C\006\277\317x\231\276\231\2776\272{I/=KM=\275\304\372\350<\304\265\\\273\240X\t\275\3138G;\334\277b=,\323X\275\204J\303;P\370\370=Y#\265</\230\276<!\034\217\274V6\221\273\032\264\\\274\r\333\321=\340\353\016>[\177\226=\220\324\376\274B\023\264=dj2=1\203><u\276X\275\3042\255\275\266\260\t<\033\271\322=\322\333\020<\333hv\275\346\274/\272@%\222\276\363{\310\275\243,\203=\335\236-<\2578\373<\026\3136\274m\301D=-L\001>s\021n\275\373\221\265=\314\240\232\275\027{\032=\016\254\326\272\244\3618\274iw\242\276\371\364\252\275~\033B\276X\"t<\271C\264\276\016\272/=fHt\275\213w\254<+\037\312=\332\234U\275\375a\273\276Fj\314\274\271~K\275p\300\007=\266n\262\274\273{\322\274\237\301\223\275\032;\022\275\313\330\325\276\032w\342\275<{\024=_\267\022<\036(\262<_\201\371<U\260\\=\'\233\003\276\361?\036<\000\030\330=\327\272\265\275g,\224=\242\350\250<\024\312\262<N\277\020=\231h\244\274n\231\002=I\036!<\241\255\357\274\2725\245\274\224\333\2429\267\250!\277W\231{\275\242SP:\033iR\275}\260D=\343w<;Dl\233=\210\314\032=\356\022\000\274\022C\222=A\342\003\275\372\260\257\274\\z\254\276q\307\005\276\336\032p;\3604\331\274\336x\033=\271^)\273y\312\216\275\311\224!\273\227\344\014<\343\214\265\276B\211\310\274G\262\226=\3101\351\274\327\334\214\275j\243/\276j\320\"\277s@y\27462><\\eu\273\226\255\326;I\010\237<\220\317t\275\364\2660=k\374\244\274T2\033;\251J\036\275k\035\316<\306\002L\272\205\027\334\274.~\001\275\273\025\034=\324\320\026\276Z\360\216<\027\022\312\275\r\220\205\274.\262\247=\377\021\250=5\367\377<\366J\001\277L\350\364\270\034\003\351\274/6\227<\013\303\305\275\3024\270\275Ps\367\272\271nZ\274#\250\307=\217)\241\275\024\322\371;\2451\334=\375\224s=\243\2447>\357 ,\275\373P?\276\373\240\010=G\030\021\274\220\033\231=O0U\275\202\\\340\275\335^\277\275\001\323\t=CD\215\274o\037A=i\234\330<\253\365\302\275\t|o\276~!Y=\\H_>\036A\337<\234G\371\275b\220\344=\320+(=D\331j=\260\375\001\276Tw\246\275\252\213\372\275\037\363\224=D9\020=zr\250\275\273>\216\276\326.h=K%\371\274\234p\202=\221\016\261=\307l\n\274\022Q\231\276I\300\225\275\037\265)=of\221\274Ov\214=(\3530\274\031\202\206\274\301\3030>.\262\222\274\204\367\274<d\372\237\276\367X\n<v\t,\275\364\316F\276E\2557\275\365}p\274\005\217\362\275\3335\217\276\324N\362\276\327\207\342\274\025O\375\275\327N\327<h]\016\275R\'\305=\214\325\324\274\274\203\030\275\357\313\032\274u\222v\275\033)\351<\337\336\305;9\r\217\276\177\224!\276+{\251\276\017\207\023\276x\276;\274\356u\003\275f\330\007\274\177\361\306\2754F\304\274\221\202\302<\304\0213\2756%\022\2732\026\304\276=\243\224\276\013\317\344\275\233\301\266\275_\342\234\276Z\321\013\2759\350t<h\264\247\275\t\210F\276\226\000S=\351J\377\276\376\237\361;\016\261M\276IM\t\274\304i\337\275\260E\035\274\300\327-\277-\253\211\274\3423\223<\275\000\303<\367\210\362\274ww\274\276`\002\322=J\301\235\275\323\270\023\2766v\020=\333\013\270\273\334FY<\312\263/=\343\205w\274@\016\272<r\227\275<ic\214\276<{\000<\241\237\323\274\323\\\321<\355\200\305\275\325\027\000\275\200\376\356\274\317\'\230\274\231s\024=\240\025X<C\366\343\273\245\222\247;\331\236\246\276\251\221\000\275\026\020\306=c\036\333<u\261\n=\036\316\240=\213\223\221>\002\350Z\2741m\254\275\n#\265\276\366\032f\276Z\373\275\274\324q\212\275D\271\244<t\336l<\200h\231\273\204\227%\275\213(2\275\2535c<v:{=2F\003\272\376J\252\276,L7\276\0219\255=\252y\022=6\3667>\310\305\216=\025e?\276\227\254\277\275\240]-=\362N\223\276q\237\276\275<\224\276:l38<\315\260\264\275\032\256 \275\255\235\016\277\222+a\276\221\350\301\273i\227\211=\375R\322;\000(\003\277W,\026\275\231U{=\372,\253\274\231\355@=n\271\255<%\223\273<|\001\261<\334\030\326<Z\202\274<b\024N\275C\361a\276ci$\275\306\345X\275\274-\257\2746_i>\215\241%\275\277\210k\275\007\360\314\276\374\016\342\275gk}\274\347\217\271\274\202\301Y\274\251\232:\276\271\272\022\276a\0107\276\001\274{\273\001\314\016\276h\020\\<\217]7\275\246\2210;\327\244\240\274\\\"\217\276g\354|\275\005T7=7\266b<\000\363\375=\004\237\005=jq\313\275\232l\221\275\311\357\251\276,\356*=\013\211d\275\347\363\301\273\236\017\030\277\202k\177\276D\345,\275\347\240\250>A\273_=\221+\357\273B\t\245\276\327\375e<\313\007\245=%\021K\275i \020\276\377\221v\275\355\311{=\007\207\216=j\256\311\276\302\222*\276\275j\331=NV\007=R\016\215\275\004D\016>\010\211\273\275\335\323\354\276\346k\341\275\257\t^\275\236x\033=\207@\246\274\327\006\247\275\226\373\304\275X\300\000>\363!Q\275\352_\266\276m\016c>_%\237=\207\202\020\2772\324E\276\264\334\262>\373\260$<\036\3774<\26501\277\nhl\277\305\251D=\356M.=\261\366J=\327\0330=\236\017\r>\002\017\377\275}?k\274\\?w\275\323\0022\275=R\203\275\021\245\003<\357\0071\273\252\227f\274\221\022\346<R\363\337=\020\t\036;\264`\245\274\2355\220=\225#\212\2753\367\274\275\222U\224\274\355\031\276\274o\375\246\275a\325\025=\277J\002\276t\322\367\275B\007\231=\031=b>KO\005\274m\277\'\2753W/=QS\360=\337\010\002=\203x5\276(\026\032=\261\366c\273C\251\227;\020P\222=\273\365<\275\006\376q\276\234\240\222=\313\345\304<\237\210\r\275\r\t#>*\016z\276\204A\276\2744\033\346\274)\370\227\274\344\005\023\275\323p/\274\020\310\277;\324\207\021<G\364\210;\266\350)\275|\321\255=#W\244\276\2657\255=\213\327\t\276_\364\277\275\231\271\245=b\255\240\274\217*\267\272_\314\315\276\261\274\005\277\t\024\247\274\022\315v\276\240\274)\276\301\213<=\270j\r\276\031\320\312\274\006\202R=yE\216\274\245\030\376<\031+\236=r\0216\275\316b\223\275\243\021\347=\341\257e<\320Z\\\276\037\351\303\275[r\005\275\277\312[\274\325p.\276\254\241\370\275\350\300\277\274\201M\210\273a\255i<\377\344U>\026\350\245\275\346\004\212\274\322\325\300\2753\217\260\275!DB\275\334\366\331=\343#+\274R2\036\2760J\023=\036\323\361\276\357l\371\274\215@R\275)\2226\275\231\243\013\276\304\'\212=J\360D\276+\320\242\275\342\376\236<\216\241\247<\211\312\233=\365b\313\276\2758\013=\242\256T\274\020\006\364=\212\260\234<\3641J\274\223\362\306<\364\'j\274\317\t\205=\356\311\235\275$\224\010=u\272\315\276\312\2556>\241\303*=\315hS<\235\241\200\276\346\036\370\274\214\246\001\276\231\002\221=\222\315S\275\267\027\224<\376\217\324\274\005\365Q=\302\300=\276t\nZ\2764\324\360\275\034t\271\274\026nG=\315j\r\275\000\227\263\275\210\377\031\275*4\016\276\300\013\317\275\262\275\204\276\361m\310\276\006t\357\2720}\367;\324XW\275\376\327\221\274A\225\027\274\\\333J\275\311\235\320<\251\205\375\2749N4\275\260\022\t\276\016x\342;ih\357\274\204\247\346\275+\230\204=\035\257t=_\332\241;\2034T\276\277w\021>n\346\206\276\305\330\256=8x9\276)\000G\275\203\243\004>M\177]\276\022\232\235\276\360\301\014\276\\\261\250=\027\270\346=\352+\243\274\373\204\342\2764<\236=E\250w<\350\031l=\311\351n=\217\371\034<\321\233O\275\225\273/=\261\367\375;l\300\020\276\024/\">6\023\272\276F1\361\274\246\3365\275/-\206<>c\367:Y\330 \273`xd=\357@\303\275\232\236\357\274\206\272\353\275\347V\314:A\243\036\275#`\225\276\221\267\300<\236\201\244=\343b\357=\340\202\317=\265h\202\274\033\352e>\016\211V\274qT\200=\237\326\315=\214\r\257=\273J\030=p\365\277\274\270\252\261=\335\020\347\275U=\257<\036\326\035\275\371\257\231<v\301\336<\352\235D=\365\367Q\274u\243\020\275\353\357C=\360t\007<?-\003\275\315\357N\275\037\226>\274\335E\014\274\307\237\035=\244\263\227=\\N\223\276\274P\266\275\013L\263=i\212\220=\375\255\227\273\030K\370=F\233\257\276\013o\346=\222k\027\276\374up>\331\370\007>1\320*=\363$W=#\271 <\371$\364\275\322\335\220\274\374A@<\231hA=\003m;=\336\256\232\274BfP\276\302\000U>\310n\334\276\244\241(\276\223\357\361\274\331\201\224=\317\273\'=\352IJ=w@\236\274\221\204\005\276ZyR\2748D\177\275\251\223\205=\315\0204\275\256\023\217<\rU\300=\3143\200\273\230\2700\275|`\t=\032\245\316\275\206^\205\275H2\034\273\203\300\035\276\000\023\261=\356\0309=0\035\265\275\031\313\221<\210\240\317\275Vt\007<~w1\273z\253\311\274F\243\216\274J\331\220\274\006h%\275\036\"\r>\2139|\275x\334\340<U\334\371\274\005&\020\275\034\352\207<$U\200=\3007#<\323\234\325\274\004\246\270=\003\325!\277\371\034\330<0\360.\276\351k\332\274\212C\322\275\251I\371=\312j\217\276\234>t\276\313\024\206=U,\006=\177\350\206= h\356\276\r\031\347\274\210\3668\276\226u\276\274\364\311\223\274\001\232\326\274D\t\205<Z\004\260\274\'\270\313<G\334\032\275\311\233\001>\036\366\243\276O\"\270<\304M\366\273\237A\177\275U\252\023\276M\241\210\275\364^\201\275\263\235\250\275IZ<=\375*8\273\260\037|:\000a\004\275\205\254\211\276\354\252%\276\033:D;{\305\206;\274n\035\274\245\356\227\274\344O\340=\220\251\002\274e\217\253<\212-E>\224\334Z=\037,#\275xl,<\357\222\276<\275\343\223=\304\031\312<\333W\250=im\306\274\216Px\275\003\021\320<\273?\t\276\327\\~\276\023\021*\275_K\372\272\311\245\r\274\337\246\206<\003\036\301;z&H;D\233\210\274\344!\205\275D\3379\276\023!\326\275K\336$=\234\212F\275\204\200\010\275&\312c\275\242\264\364\276$\212\377<\234\345\330\275w\365\206\275\227\234<>=Li\274\342\020\005\276\222\033\272\274\276\343,\276\250Vn\275\340\324K\274\301\200\230=6\0069=J\333C<_\273\363;P\307\005=\347I\275\276\035.\205\276h\332\215\274(\205\266<\004e\261;&\226\303<\260#4\273\r&\350\276\226j\007\275\256\246\277\274\215\324\375<\300\322M>\343p\236\273\366\360\203=A]L\275\024\375~\275\1772/\272\r\010\337=\260\336e=hh\210<\215\367\240\275\301(\365\275WM\326\275G>\245\275r\300\217\274g\351\261\275\024\270\356\274\276\215\317\273\302G\177\275>O\004\2749\264R<\375\222\253\275\257\352\027\276(h\345\275\277\206\\\276\247O\372<\307G\030\274g3Z<E\246 <=\033.\275\305\200\331\275O\322L\275$+\321\276\207\323&\2750P~=\361\246}\275\272\341G\274M\241\247=\3634\023\277\236\227\334\275\245\271\276<\034\366\251\275\362\310U=(\346Z\276\231{W=\3612\030\275\007\246\024\275/`\213<\2437\325:x\270\245<+U\357\2719\233\351\274\266\335L;\316\241\005=\347\237\220\276\260&\\=\261W\352\274\226\242\255\275\303^\212\276\202BS\275*\251\303\274\366,\275;\277l\370;\326V\177\274\336\013\024\274\342Q\336<\313\'~\276\226\311\271\276F\312E\273\014\240\032\275VqD\274\220p\004\273{\254\'=F0M\274\314\013\014>\214W\341=\343x\252\270\222Y\304\274;y\027=\226\353\023\275\266\267\214\274E\327\033=\023\201\311=f\334\277\274\377Tz\274[\274\203<8e\277\276\004\377\266\275\214\004\024=L\347\300\274p\271\000\275\"\275V\275\001\267j\275\226\317\223=\300\000\230\272/Q-\275\311\333\033\276l\242e=\203\274\343:\371\345\255\273\024\345S\27619\354\273\031v\324\276\247\003?\275\365\027\005=\215\317{\274\324\205\\;\017\354\255;\210\263\340\273i\216\355<\201\034\004\277\242%\001=\234=\347\273\314\000\220=\310\3752\274~\260`\275\331\'_\275\241O\034=\373\315\274\276W\316\263\276\313F\273\273\023$O<\352:G\275\257Ie\274\300\231\341\272\310L\021\276\276\240\327<\037\371\263\275\033\326D=\306u\350=\275\311\001=\266\251\265<\236\262\207\275\001\256 <=G\210\275\331\252\016=\371+O\274\317\326\274=5\232\370\275\0138\210\274[!\314\274\312u\350<\005\223\323<$$\240=\350\344\263=(\177m\274\351\326\234\274\313\035\231;`(\365<\342Y\225\275\020\273\001\274\250f\227;T\241j\275\205\364\236\274\010\266W\275\202\253l=\260*u\275\362\260;\275G\024;\276\337)Z\274\326j\203\276\250j\344\275\377\355\264<,\246\026\274\274\026L>\037l\332\275\325\010\226\276\260g5=\305\332\013>\001\253X<\321_\205<\240\313a\273o\031E=Z\035\326<\277\031\263\275D\254\322\272Z\266v\275\253\221\242<\177\344o\274\221\214K\2758\334\220=\243wI=1\032\230\276D\201o\275\240\237\214\274_\346\305\275\345x\277\275\'\305H=\320\274\227\274>r\001>\252\230\352\275W\355\021=w3\026\276\017<\323<\034\215\t\275\316\227P\276\205\311\310<.\'\017\275\302\023==c%Q\274\275g\272<*\235\n\275;\n\332\2764\177)\277\313D\376\275\336W\327\275\223\220\212\274\264\347\304\2755\2479<\357&t\271\226-K<\304\227\334:\005T\345\274ZO5<\304\362\370\275Eip\275:d\251\275\024\310^\275\n\2534\275\257(\013\275\213\022\373\273\017\227\240\275\352\307E\276j\236\006\275\371\023\215\2760\\\227\274\340\014\033\274\372\217><C\022\203;|#\243<\246\312\337\276\307\214\262\276\037\017\026=*\335\030=\237\201\226=<)\362\276\025O\t>y\3277\275\320l\024=\"\262J\275\032v%\275\233`\222\274\234\230\264\2729.\342\275L\210\365<\033\356\311\274\253\340\212\276g-\347\273\344.\374\274\345\025\311\274ROX\275\274\010\240\273\266\351\304\274\245\304\366=\343\366\004\275\322\261\311\274\236\202;=\200\242l\2742\023\321\275\233\001-\275\370\214\205\275%\316~8\241\212\202=\212$\360\274\345\307\321=\001\005\263<o=Y=AV\217=\\\216\235=\230\n\200\274\243\327^<\365\242\365\274\3229\342\272\205\331P<\233\271\200<8\000\220<tI\006=2\3129=\036`_\276\333\305K=\351\212\267=c1\201\273\230\020O\276\037\022\353\274r\000\266=\261\225\214=~\0269\276\347\263\366=h\241\r\276\340\224\203=\211\321\014\275\3573q\274eO\006\277d\325s>8\237]>\227Xi\276\350\223\032\275\352\201\005>\\_\014=;4\002\277\205\372\301\274\0273\253\274\354\376\333\276\367\271R=?\230\372<]\261Q<\324\006\357\273o\343l<\226T\026\276\022\224\311=rR\017\277\352\303h\276\237\272\260<Z\347\214\273\341\212\003\273\240\253d\272\331d\340;\006<\030\274\2514\307\274\t \345\274J}\216=\365\337\203<p\3202\275I\365[\275\331<K\274\321\027\313;L\034\016\276\317\255\305\274\315\004i=l\267\377;\204\207.>\321\341\237=\305wk=E%\344<\200x\202\274\331\242\264\274d\'\227=\272f\232:\033\351A\276\310\335f\272\241[`<\354|\322<\342\031d=&l\002\271\313ta\273\216\227\236\275AG\024>\202\353a\275D\034\313=v\206\270\275\321\245\300\275\306`\302=\335\0338\276\273\240\314<:\324V= \347_<2\324+=\354J\305>\030\335\216=Lt\261\275\t\330|\274\037\267\232\275\030\361t\275;<\241\276I\177\243<\025\354\000\275;\035\301\275\002\337\200\275| O=T\262S=\353\254*;\356\337\266\274\304gE\276\310n\354=\037\254\246\276\302\003X=\226mG\274\351\025\246\275\025FW>\210\255\334;FxT:\025?3\275\303+-\275\245T\005\274\007\023\216\275\272\022\250\275\353\311\230\274[5>=\234R\213\274&K\031\275\264\243C\275m\224?\275\025\212\365<\204\214\000=\276V\021\275\263\204\303=\365R\315<\000k\035=\234u\310\273\213C;\274\331\001\310;\344s%\273\262\2310<\034\361\300\274\255\370\275\274{x\302\274\234\3518\277^X\022\276\001x\r=\3073R=\023\377u<\317\250\001\274\030\365E\275Jy\361=\025\244\324=\355/\225\274\245\234\251\274}\366N=\205\203\334\274/\241_\275\215{\032\277\256M\017=\217\262\307\276r\277\014\274\367\242H=\033\343n\274\030\322\325\273,w\202=}\357\302\275\320\t\314<T\337:\277\346\321$=\036Z\315\274xou< \336I\274\210\007\345;\251\024\225<~6I=\267\204\277\276\006\324\257\276\205\214\362\274!\367M\274\326\275q\273\224w\236\274\344\002~\274\241t\204\276\275\021\342<\r\373W\275\377\270\274\274a\227\356=\354\000\202=\235J\310<\250\022\207=\240\000\254<4\360\246\274\247\263,<\341c\250=;%K\275\361\240\202:\355&\200=\016\027y=\021xJ=\305P9\274\377\304\254<O\233\330\275\240\204\240\273\236\000|=s\024\202\274\332\361];\026\013\254;\374#m\2760\006\207:\325hU=\261^\367\274\2057[\275\366T\244\274e\t\330<h\314`\272\316\202><\364\245\010>\342\272D\276\352\347Q\275\006\365\257\273\271S\251<c.\311\276`hS\274}u\031\276yP\305=\247\246\262\276vTw>s8\217<\273\327\266<)\373\272<\373c9<\266>\310\276{\010\306<\275A4<\030\017r=\226\263\023=QG\321<\304\344\233<\032\0352>Y\202\330\276H\224\221\276\346r\003=\306\247\211= M\251\274X1#=2\270\323<\225\274\207=\222\306;=/\261\317<8\1773=V\310\314\272\3634\317=\210\204\262=N\303Y<Tq\030=f\336,=\333\260\323;\240\250!>\274\2209\275\302\340\030=W\2226>\374\314\031=\202\362\013\274\351\317I<Z\017><\017\'%=\200\'\"\275\275z\226<\300u\016\274\003\035\207:\017\343\010=\272\220\350\276\201\034\254<\357\r\002\272\304\361\255\274X2U\276\200\002\215<\t\360\373=$\302l\275\216\272\t=T\223O=X\023%\275\360\010`\275\222\337\211=R\331L=%6-\277\215\304\261=\330\330\213\273\375h\207\275\242I\203>\355\342.>\216\306\276=:3\374\275\n\343;=\265.O<\tg.\277\257*\362<7\216\212<\317\010\230=\'\364\357<\261!\336<\323-\224\275\331\001\352=\357B\312\276\300aP\276XW\2179s\031\230<\376o\026\275%\340\350\274c\261b\2746\264\272\275\032\254u<\033\337\237\275\010\310x\275\333*O=<\251\377\274\223\202*\275\231\316\316<\017\376\212\275\346f\350<F\237C\273}\006\276=)\371\002=\037\374\264<U\316\023>8\2032<\370\301\225\274\031A\321:\371,\005\274[\r\220<BR\224<\255O\010=\367\177\311\274h\377\215<\013\263V<\035\307\023\277D\343-\275\301\335\264=\264m\300\273\350\304\221\275\302\231\007\274\025\245E=\016\270\201\275\340\301\334\273\"\033\267=\035\254`\276\224w%\274F\323\320=\236\016\007=\001f\024\277o\332V\275\206\023\272\276\365H\224=\336\357\203\275\007k\006>\364\270\246\273\010vh=L\315\"\276\036\201:=\221\".\277r(\241=\373p\375<\2542\324\273QJ\234;\332{\350\274\037\316\267\274c\0270>\345\265\020\277\223\213\017\277W\006O\274\237a%=\016\335\303\274\301\340\r\275t\265\221\274g\272\250\275V\215\303<{A\262;\233DR=\'\240\016=\3711\031>K\271%=\036k]\274\235\343\250\274\203Uq=0\300\305\273\351T\307<g\272^<}\266\256\275\005\230z=H\305>\276\242\220\205\276\310\372\004=\374\032T\273\365Z\367\274\347\231\201<yG;>\316T4<\031\020z\274\233\205\341<\017\266\215\276\361w7\276\317\341\365:\306t\n\274q\002x\276J_\212\274,\203\014>k\016[<\251P\235\276\222\367\030>\274\311T\276~\325\373=\354\014\207\274]\236\006=\022\370\301\276\310\032\341\273\366\240{\2763\376\366\275 #\221<\375\324\263=\023\343\262\275\030M\363\276\206@\226\275\332^\324<\2261\343\276\225\3413=\221w\343\274\265\034\320\274\346\272N\275\333}\016\274\027jI\274k\'a=\031\255\244\276\221\205\177\276\256\242L=\001q1=\332\354\007=\n\306\024<K\331\014\274\276\207\214\275\210Zi<\273\016[=\220\017\271\275\320f\177\274\336\320-\276c7\242<\355=\255\274\025\302}\275t\306H=d\333\312\274)\275\207\275Y\310\006\275\346$N=\210\251\243<^\177l\275\02276\276\214\323\263\274\2156B\275\331\236\242\274^\264\003\273\365\242\016=p\0031<\3157\305\274\362\271\013;If\360\276\304Z\021=\201Ty\275\343\247!\274U\342\033\276\272g\204<Z\355\330=K\250\346\275)\275\234\275\224\217\365=\033\247\232\276-\327\204\275\317@\230=PD\"=s\261\003\277\345\342\356\275\013\254C<@\304!\276\345}T<5\304#>7c\026\275Ov\231=\365e\232=\242\243\005\275\337C\251\276\032h\221\274\202_I;9%)<`\363\260<J\177\241\273\002\2562\275\004\033\234\274\241\r\023\277\373\272-\275\333\261Q<\331y\324<\005\235\225;\316\255A=\376B\270\274\354\236v\275}#\246\274\304\333)<\3178\213=\250\254\r=\326\223u\275\027SG=\233G\313\274\215\245\335\275\245\323\205=#\366\026>V\310\220=\274\311 \276\235a\264=\317\212\025<k\366\272<\225\365O=\001\237,=h\350\370\275\250l\244\275k\001b\2760&\031>5\306h\275\\\307\327\276*\2011=\320,\014>7\327\260\2766\250\325\275\333\2000\276n\2200\275\3410E\274\\oQ\272\316\230l\275\032|\272=\227~O\275>t\036=\n\264M\276\270;_>n\350&\275\031lI<W\006\310;\235D.=6\030+\276\033\231\273\274d\\\334\275\263d\360\274\031\326\035\275\321\033\024=\274\033\005\276,j\307=\000p\315=\322(\221=u\251e\274P$\260>\271\235\010\275\324%\225=\016p\006\276\3031,=\216\305\240=\314\316q\272\035<\202=\363\014\n=\006(\344\274\341!\"\276\243\371\021\275\335V\010=#c)>U\300m\275Me\016\2756\301R\274\252\r\302=\017\2304>\037s\335\2757\206\236\276\016\017W=c\372\331\273e\005\262\275}z\200>\021\367\004<\306\354\221<\371\030h=\222+\376<ZL\204\275\213\014\002\276V\317\353\276ON_=\333\341\265\276lyT=\341(\206\275\224\254\204=\344V\361=\342\276 \2757\260\264\275\264\267\264\275\256\315\010=d\027\024>\367\240\177>\244\366\307\274di\226=C\234,=\334\3311\276-\203p\275(\202Q\275_\265\240=\3033 =v\025\346=\251\200c\274\177\025\006=\223\371\242<\325 \236\274s\206\003=\345U\346\274^x\340<\362}->\027\240\325>@1\270\274\3274,=C)\245\275\017\231P\275\277\254\"\274\276\232\347=\233\023\243<\022A\006>\230\035\321;\317\261\023\276\363U\010=[\034i\274+\000#=\231\247\310\274\327\274\212\275jW>\276\272+\210<\3011\330\275\216\265\254=\274\366\205=z\323h>\210Q\211>\263\275\255\276ke\277<}\267\267=a\257g=|i+=,\326\204<\025`+=C\352\013<\304\253J=\004\335I>\025\251e>\246\316\301=\031\024\337\273j^\025\2765\231q>\t\303\325\273\231\243\017\276\210\256\255=\305\351\252=\207\017\324\276\254,\014>g\204\230<?Y\001><\212\001>\002\357\\>\'\231\336\275\265\023\214=\254\215\025\276\265\277\325=\307\234\263>\263\371d\274\025\222\006\275}F%>/\327\302<\000\312\257\275\223\313J\275dX\223\274\200\260\316=\245\355\021=\004\207\007>\265@\217>K\207\267=)\334\203\275;\231$\276\360\371,<U\016\374<\t\324\r>O\327\366;\031I\303\275lt\316>Zj\233\275+\005\271\275\326\327\340=]\363\307=\245\014\234\275\344\372N\275k\014\204>\230f\274\276\323\276\030>?\340>=\207o\210=\277\245\213\274\367/\362=KC4=D\231~\275\372* =D\260#\275\270E&\275\325 \254>\340=\003=?wu<L\244,=k*!=C3\233<\267\313\223\275\210\313\002\277\322\007\016>\254\020\202\276\217\374\305\275\006\323\273=\316`9=<\232u=\220:5\274\222$>\274\344\363\234\276B\364\302=\302Z\002>\033x\210=\000\205\000\275\377\357\314=m\231g=.\327\023\273`\203|\274\217\347\230;MX\355\273\021\356 =x|E=\347\357\207=\020T\341\274\2725\037\274\271\337u\275\326\350\270\275@r\024={\341\234=7\225s>v0<?\021(\310=\352\215,;\'\201\376\274\000\225F;\214\257$\275\254\257\027=\361\232D<J\305\275>J\271\230\275\004\2023\276\212\273\240<\207T$\275\346\253\343<\374\224P=63\n>lp\315\275\313\037b;*\350\314\275\373\205\243;H\357\374\274\236\225\311\274\202~\251=\037\036\365\276\335\342\t=\325\215!\276I\265\317<\327\032s>\313P\t=\376AI<.!\306<\334W\215=\273\330\247\275\314x\321\275Q\316\025\277z\361\327\274I\255\002\277\252}%\276\007\367\320\273\211\300\024\275\340\246\324\274\360_\215<x\374\375<=\022\262\276I\267\373=\336g\t>\025\2425<\016\332\310:M\362\331=\300yO=\370\352^\276W-\222=\2309B=f\014\353:5\\\334<\'\327j=\305z\n==\023+\274\345\202S\275v:\351\274\252\t\317\273\016\240\303\272\204\210W\275U\335\">\277\256\376>J.%>\313\235T=\016\206\221\276\363x5\274\002\277W\276a\207\037\275\355\240\237<n\251V>\010\302.<m\275\016\275^:\020\2742\301*=\273*\205\274\031\247\311\275\020\"\236\275,\207\n\277\373E\364\274\344h\321\275!\353\242\273\311/\212\276\224A\376\275\274k\215\274>\013\216=@>\253\275m\325\347\274\272\326`\274\000\264\305\276\354Wt\275\264\003\226\275\227\177q\2751;\211\275\225`\351\273\345R\300\273u\r\325\276J\376>\275i\345\220>^a\270\276SB\366=\327\323v\275L/\217<cB\253\274&\200|>\333\336~\276\266\346\200\275\235\037\263\275\366\327\266\275\376\025\177\274e\372\267\276\204\222t\275\336\355\343\275\317\3739=Bs\014<\260\014\243\275Y\206==\036[\352\275\013\356\224\275\374\231!\276V\345\350\275\036\271\276<i\256\030\276\353<\271\273\305@\232\276\016\364\004\274\331\347\356\276i\2414\276#n\177=\217\033$\276\374\314\313\274,\325\354\275\317D\017\275\257\024\326\275>\235\021\276\006\254R=\017y\321\272\302\367/=F\202\335=\257N\205<\215K\211\276<\363\321\274\014\037V=\352]\3129\231s;=\215$\302\275\332,\346=\247\242 =Wy\010\275\222\362\316\276*%I=H\200\324\274a\222\020\276(\204)>#\362^=\231\242\013<&\334s<\370\336\213=\241\343j\274\006\204\222\275\267\221\255\276\241\345J=\202\356\346\276\227\3429\276ry\"=X78=\242\005J\275\216\202\257<\232\027\325=R\203y\275\210|\231=5E\t>\224~0=\016KA\274\370\200\r>,\274S=\223\031\234\2732\020K;z\235\363\275\362\003\317=>2F\274M8\006\274\034\245\002=)5\234=\324\374\217>\030$\177\273\216t&=x\364>;\334\307\205\275\332\365K;v\336\255>}\375\022\275Y\362\304<\256u\r\277\030\261L\274\322h\273\276\345g\177=\216w\030=Qe\n=V\246B\274\203\232\227\274\356\334\323<\002\026A=\022\027\317=4\255\203=\002\263-\276\362\352\005\277\264\'d\274Ao\347\275\351\301\002=\001n\022\276\3300\356=\314\002z\273M\004\252\274\212TZ\276\267g|\276Q\346\241\275\343\026\241=p\357\032=\321\206\352\275B\327e=\201\265%\274\243`\332=\264\245\210=\227b\037\275%\356M\27484\351\275\025\274\220\275\377S\367\276\310x\263=|*E\275/c\335\274l,\310\273\367&\r=\022@\244\275\227g~\276\312\340\206=\233z\235=\235&\317\275/\030t=\353\200 \276\341\267\000\2766+\224\274SL\224\274n\371\250<\364H\231=k\177Q>%\233\030\27629\240\2766\322\272\273\303I[\276\277\235\372<I\303\370\275.\207\377\2753h=\276\301\n\255\275\010N\327=\272\333\030>4\347C\273I\354\274=7\3007=\231\255o=\200\233;\275\017\211\263\275\033\365!<\243\217\022\276\331Q\233\275\274\017#\276\031#E\276Y\307\227<d\016^\275\t\322#\276!\023O>\\\340&=?\312\035;H\022f<\302\273\317\275\3471;\276\267qm\275\260\241\221\275X~k<\235!4>h8\207\274\013C\035\274\027\201\203<6M\204<;\377\023\2751g\003\275\255\016\002\276U\017\206=-UV\276=\210\276\275\333\247l\276\'\333\220\274\005\234\024>\216w\020<;\347\276\276\345\241\225=\007+\211;\203\337\016\276*.\227<\t\353\234=\314;\274\275\355HY<\344\203\003\276\242e\367;\220\365\364\275\262\275\375;\035YC=\373\3118<\t\222\314\273\376Fj\275\005\346\333\276Fu\250=c\374$\275:.F=\256\342C\275\360\277\253\275s\263\234<!\251\376\274\357\240j\274\331\300I=v\032\037:\2326\216=a\224\201=\271\325E=\247/,=\300\275R\275\345\n\247\274\364\034\016>h\354)\275\340J9\276qQ\345\275}\372\237<\303\375\020\277\024\221\023\275+\311\202>\353T4<\200k.=\273\320\225\274\202I\304\274\017\260\"\274V,\200=\3169l\274i\206%\275\010!\223>\235`\016<\331\223\352\274\343\333\231=\315\251\322=\206\321\034\276$\304\231\275\242\243\017\277\327\201\316=\013\205\315\276X\212\272\274#7^<T\267\350;\240\001m;\1779\343\273\210*\010=\206\nT\276\315|\273=s\274\246=\310\020\020>\r\361\020\275\375\317\276=\n\032\320=&\211\267\274\256\252\004\275\221N!\276\232\345a=\3157\t;\202\332O=\240\335\026=l\350\026=\356\314v=C.K\275\370%-<\004\242k\273[7z=l\272\251=\200\024\003?e\216\215\273`>\231<\355\201[\276ny\\\2752o\310\2758)\205\275\350\221q=z\306\271\274\301P\254\275)B\004\276\207PZ\275I\006\207\275\t%1\271H\242!\274\023\225\032\276\023\310c\275\371\342\013=N\372\354\274\024%R=l\n\026=\211\266I\273\230\3710\275pY\310=!\\C\275\034\254\307=\203\017\n\276h\020\t\275u\254\262<\0323D\275\244\342\207\275#\023\334\275\027d\032\275mW\216;\213\3506>\345\002\004>\337p\230=1\211o\276\345\230\r>gTw>\340(\207\275\304\354\177\273\232R(>\272\016b\276B\314|\275\025u\032\275c\004\n\276\326\277\355<|x\r=\314\271\206=\245\324\226<\344\314\333=\022\006\r>!A]\275\003X\013\274\025\236d=\003j9\275\215% \2755\177\'\275q\317_\276\261\217}=#[\214<81\276\276\rQ\307\275\377\250\301\275\314\377\205\2740@F\275\366\037C=\223w\375\275J\237\200=\270`!=\004\344\201=\314e(\275 #0\274\251\021N\275R\232\205\274M]B=\0044\334\275\222T\022>\n\036R>\300\t\332=L\300\254\274K\334/\274\215\3310=s/\214=ji\231=\024jG=\376\"\026\276a\201\n<\250\270\310:\320\243\227\275\216\214\356=KB\274\274l\376\205\273>\347\357<\355\257\037\274\341\031<\275s\217\234\275\322\005\357\276\227\330\327=\037\005}\276R\255\214\275``w;\3174\230<)\352\207\274\201=\233\2756\024z\276\001\326\243\276g\341\221<h\247\204=\336ES>vCq=\322\202\373<YL8=\304\213\243\272\330\244\022\274\244\201F=\350\213?\275\222\"\241\274\321\221\256<0\0065=K\306\"\274F:\241<\304\325\263\274\324\211\374\276B\205\250\274\343#\352\274mL\">\200\305\224>z^\352=VI\361\273\335S9=\310F1<\366\302\232=:G\244;&k\007<\244q\211>\212\205\230\275\267\204\313\275)S7\275\303\210\374\273v\232\033=&\313\'\275\233u\347=\241\262\025\274S\231\017\276\333xy\275_\203C\274)\261\273\2712x\227=\201\365a=\350d\010\275\000\372\013=\352\356g\274Uq\026\274\035\337\200>mY\375:\237\021\007\2751\260\223<\316\360\t>q\271.=m:\363\275Xc!\277\016\206B>\263?\274\276\3171\323\275\'\376P=8\335H\274L\312\303;\321\326\224=-|j\274\325\343\322\276\365L\243=\n\3526=\376\304\026>[\005\205\275\343\241\322=\250\342\004=\355\376\201<\3311\253\274V\330\321\275|\375T=%\244-=\223H;<U\2564=\267\2564\274\2523\322=P\215\254\275\211\223\014\275\304Xj\274\342\254+\275\240=\026>\361X\347>u\273;>\250fJ<\357\rn\276\277\267\251=\034\036\271\275Ld\300\273\243D\232;\"8*>\0319(\275\227\216*\276>y\227\275\257\323\217<\242B\016=\t\311\202=\301}\016\276\331\241z\275\017\354P<\224k/\274I\223\252=&i\225<\234\334\022<\n\262/>\316m\313=\313\372\217=\323\030\201>\026\000\333\276\3717\311>\271\333\355<v\204\225<\0333\327\275\321\3333=\204\035\301=;\260\305\274\217\257y>\312\261\341<\252j|>\370\327\221\276.\004\225\273\374\365\246=:\315\001\274\340\245C\276\017\221\220<z\304\034\276m\236\201\272[:\234;\2474\253>u\226\256\274j\372\227\275\205\355\240\274\004\376k=c\347\352\275\201\355\204=U\223\030\276\"/!\276wfI\2742\315q\275\236\345\334\273\361\346?=\301\301\007\276\202\336\275<[\306J=3N\t=\302\244\201\275\242\376\351\275W\311\031\277u\313\017\275>7\303=\337\307/>\221\272\001=\221?\213<\021\034\257\274;O\360=h7\017>gZ\203<\n\324\345\271#\000\335\274\237F#\276fQ\304=\311pZ>\261=\246>,\274O\274\262\350\002\275b*q=\266\025\025>e\256\262\274\253h\264\274\255\263\377=w\270\021\275\366\215\354\273\342?x\276wT\255\275\370\376\362<dE\247\275\3435y\275N\366q\276\221\224\014=\351\224\030\2739\001\024>\025\223X=\340\246\263=\376~e>\302a\\=\356\277\037=\246\303\036\274\334\021v=\243\323\267>\211?_\276Z\014\306\276\307\257s=\244,g\275\tB\002>\367\025\335\275\r\033D\275\256\354!?\240\213\022>\367\274\310=^\303u\275\017\332\017\277SM\306\275\313\000\006\276\321\026\201\275\016\255\315;\302\022u=L\363\340<\343o\353\275\013~\311\276}8\007\275\226W\333\275YIq>FAC<\322Z\033?8i\355\275zh\246>\326\322G:\347\330R<5r\221\274sZ\032\275\t\233T>S\014q=\027\274d=G.\025\276c\'\262=\245\252w=\205\311\031=\360\275\246\274\251\271\025\275\337\302\346\274hLk=qv\277>T\351\216\276\217\361\265\275\330\006\233<\313\n\355\275\303T\223\276\2145\263=\221\354\003>2\377\256<\262\336\023\275\336\312\275:\202\315\203=9\260\026>\2012:=EZ\017=\323\2536>r\005\353>\3558\202\274\261\313\026>3\362\322\273\360\201\222=|\327\203\275\204.\037\276\350i\265\274\262\270;\275 z\265=\336:\003>\326\\\000>\213\307\036=\332M\222\275GyH\275\003[\220>\362\263\321;\026m\220\275\004=Y<A\263\033=\273\354\364=\264\270\360=\321S0\276|\212&<\363\232\307;\022\247\023>\2037\340<\032\016\353;C\025/>\334z\242\273\r\210c>\306\336\274\275\260\251\025>^\315V>\210\363\312=\264\205\201\275\034t_\276\275\010\230=\005=\001=\032\217a\276i\210\257\275\276\010\251=\273\252@>\331\260u=\270\347R>eT\334\274K\342\002>\371\343F\275\027\373\\=\244\274\305=2\267\371:\272\347^\274\316\230\202\276\001\210\r\275\027\242G>\203\006\300<\200\331r=C1\201<$#q\275&\025\223<t\233\250\275\3013\r\275\375\254s<\023\0079;v\253\270>\244\341\033=\237\035\345=>\002\330\273B\262\363<E9\331\275\2368`<\203\023\322=\346hf=t\257P>8\377j\274sF\220<r(O=*\375\350\276\335\220;\276\245\344\304=`x\350\273\210\302\200=\303\213^=T(\233\274\226I*\275;\223\242\275\322\364\263\275\251\200\005\275\361;\252:\301\rq>^\257\334=\274j\241>#\201\211>L3\341<\347\351\221>^\t\245\275\254\242\350=\323\351\213=B\t\022<\024\217C?\377v\000<\177\314\t<bL\217=\021\000\220=L\243\026>\236LA\275#\212\347=\2009\247\276\265?t\275\024\246\305\273\224P\255\273\356+O\276l\323\243=\247\224\310\275\316\"G>lkg\274R\313\217=\342\0079\275N@\304\274\\<\200=\364\270\331\275\362E|=\263\272\255<\242\261\013\274j:\304\2758\360%\276\312D\254=\n\035\035\276\341\332\007>m\311\210=+\303\236>\323\\\331=q\nh<$|\373\275\220\215L\275\222\304.\274\276L\275=c\266`\276I\357`=\020\376\214=\265\217b=T\035|>X>\241\275\341\t\251\274\230e8=\270|U<|\257o=\244\316h=\321\351\312=\346\333\223\275(\001\212\275\271t\335=\342\202\265<\333\366\342\275\317\023\210\275\366ZM=\256\253\237>\233s\t>\026\253W=\242\235\243\275]OE=<\204=<(M\022>\215\334\212=={\213;\372\333\343=\020x\007=\262\342\235\275q\270{\276\324\265p\27574\235=\002\004\307\2756k\271=Y\005\'=\307\262j=jN1>9\001\375\275\242-;\275\220\357<\274m\356\007>\241\0044\275t\344-\276\027\301#=\275w.=\373\342i\276\331\354\310\274=\271\317\276\263\227\227\275\267[j\2766\347\222\275\246\237z\276\270\250\014=\312\207\257=A\330%>\334\247&>\326\335\216<3\230\257<\226\243\371=|\365\235\276I\035D>\314-{<\261~6>\207\211\230=\203\000\321\275\301Q\322\275@\000\302<\325D3\275 \2047>$\262\254\275<C\227\275\005\347?\275\351#\247=2q\276;\354\372y=-\034\034\276\341~|<s\217\014\274a\032\256=\037\020\331<\344|\022>\332\031\020>\246\242[=\223\321i>\342u\240=\00641>`<\330<\276\254\005=c\'\002>eJl\276\006\365<>;\277W=\255E\231<\236\227B>\307\240\365=\001\351{\274\312V\264=\333\236\353<\264\224.\276IL\272\274<\030\335<F\271\201<\344\217\031\276\003\265\t\277\353\333\335=\005vv\276\3431\334\275\004$L>\354<\347;XK|<\201\312\026<\3035\3269%\311\222\275H\377Z\276\354KC\276\261\224$\275>s\257\276\320 \010\276,\021\332=\377\037\274<\013\225$\276\351\254\013>J\"\270\275\307\002\363\274\'\245\2309\017\361\322=3\277\335\275\337\373c=Q\304\260<#\t\205=\375\221^>v\033\206=\r\236\245\274\310\361k=(3K=\254\3635=\027\213\002>L$\n=t\2678>\272Z\016\275\351\367\030=\257\301\242\275pWn\275n\314\372=\3305j>\'lO>\005\233g\274\220\206\032\276R\006\243\275\021\274\334\275\277\273\014<\024\350\220=\241\362\016=l+\030=\240\222{=\021\344v=\031e-=\334\312+<`\017\013>\354\030\230\275\031x6\277\3753\020;\2206\373\275\n\023\250<\016\332x\275+\030D\273\250\205\200<\354\245\231\275\340\260?=)\361\243<He\231\275\223/g>\264\363\242=u\273\323\274N5\371;.\365\212\275\023\230\027\276\250oU\275\350p\222\276\031\340\036\274N\232\227\276s\215\024\275\005\204\260=\201v\247\275\272\271\221\274 \275:\275l\326\267<\006v<\276\377\353\236=\241\213\\=#VK>\030[\020\276d\344\'=[?\334\275\243E\355<\256\343\006\275\243\3323=\336\240\027\275\356\261l;\004\030\010\275\362\301x=:B\301<\324\3632=\255\025}\275\316\037o\276\245\027M\273\342\325\376\274\270\351o>6X_>B\342\257=\262\206\025;q{\215<\211C\303<0\301\372=\303\036\314:\034+\233\275 \237{>v\232\210\275%\301\337\275%F\315<\014\372\344=x\232\300<T\221\265=-\264\377<$\007\347\274\330Yg<\316\356\322\273\320\036\001\274\025\234\343=\014\262\361\272\3034\014\276t\236\250\276\t\335B\275WK+\276|\016\323\275\352\256\215>\035\360\225\273\320ch=\374\221\267<6Z9\275\271\206\030\276\220H(=\013c(\276\341\327\301\274\025\242\227\276\227c\202\275(2/\276\222\036\307\275\t\245\307\275\256*\203=\273\303\234\276o\317~=\2261\005=\273\256:<\367M\337<=\232\315=$$\235\274\204\002\336;\001C\372=\233:\213=p\236b=^\371\246=\356_j=\013\037\230<\004\341F\274\002\216\000\276\236\254\202\274h\310F=\266\273\327\274\253\221\357<\273\220\264\275\365\325\014>#(\321;\267e;<\333i\245\275h\347?;xj\356\275\364\007d=\031\220\006\275\032\277[=\277\367\377=\370R&\274[\022\364<\277\335\242=+0\220<\212\253\377\273_\300\231=(\2436=lb6\277\221bL\275\022\231\000>\355\200\016\274W\303\340\274\213\343\222=X\260\300\275\321\373\341<\343r\020>ZeO=\211\354\320\275q\3226>\367J\335=X\275\212;D\216\032\275\373\372\333\274\231O\307=\301\366\345\274\204\222\212\276\030\0350=)\260#<\325]\244\276\220\342g=E\321\201=@\3154\276\320(}\275\367\027\201>\220\260\227=\327Q\212\275\020\0270\275\013\321B\276C:k>\256\215\323<kp\254\273\032]\257\275zNj>\231\022\030?\267\027\232\2741\327\313\274R\231c=\305\177P\275\371k\273<.\304+>M`H\276;\353\306=\005hT<\273\345\245\276\007\234\002<V-\361=\347T\274\276\025Q\257\274\034BY>8\010\027>\320Y\033>Ww\364\274i\365\205\274N\343\016\275p\373\234<\016o<=\257\304#=U\177-\276\243W\207\275\245\227[:3\316\245>z\2518>\251\216\250\274\325\340\337\274\363w\210=\225\253\330=\251\"\330\275\230\211\254>:\254\337=\257\003J=\006\032\036\275Z6\367\275\206aF>\315\r]=v\034==\256\262T=b\234\235< \3508\273\325.|\275\271\363\352\276\303}_</t\224=C\317o<\316\004\035=\313\2754=\365\017t;Mx\024\275Q\212\227\274\340\240\216\276t\035\375\272=:p=\026fj>\257r\255;.\'J=\220\356{\275\215|\243\275\"\327\300<\204m}\274\337\004\202\274\3604Q;4\214\223;\235c\016=*v\332\2746m\026<a\352S\273\013\364\251\276=\353o;\013~\351=A\340\210>A\333\252>\355\376}\274\340\330q<I\352\241=z\363H\274vX\265=\345\232p\275Ddt\275c\331\242>\002Zf<\021\323U\276\251\226\314\274\'\010>>\367T\352=Ls\224=\374)\200>\266\364\003<1\323R\275K\202\207;2\276\212\275\221-\206=L\272\244>\323m\214>\356\033\030\275\262\2008=w\334\336\276z\0270=/(+<\301yA=(\t:\276\251y\n=\271\210\301\274\324\277\215>\355\362\262>\361\236\344\275\233\327\331\275>\217\n\276\321\343G>\344\346\004\277\216C\300=+Ah>vo)\275\366\007\273\275\353\217_\275_\266\030\2764K\211\274x\361\241\276\252o><\352\023\251=\370=\217<\256\225\270\276\375\021g>\272a\302=\260w\237=!i:\275\r\266(=\006\372\242=\240<\245\275\220t\347\275\311\261\225\274\361\017\022\276\035~\320\275\242\245!>\205\310\022>1\332\310=(\002\345=\306*N>\243\254E\275\226^\310\275\233_\373=C\267\241>Zv\220\274\014\305w>\236\262\264\274GCb>\252\200x<\013q\203=[$P\276\344\312\326\275\372\2420\275\351\277\016>\031\341\266\275\254\317\272=\276F,