node {
  name: "input_1"
  op: "Placeholder"
  attr {
    key: "dtype"
    value {
      type: DT_FLOAT
    }
  }
  attr {
    key: "shape"
    value {
      shape {
        dim {
          size: -1
        }
        dim {
          size: 13
        }
        dim {
          size: 21
        }
        dim {
          size: 1
        }
      }
    }
  }
}
node {
  name: "input_2"
  op: "Placeholder"
  attr {
    key: "dtype"
    value {
      type: DT_FLOAT
    }
  }
  attr {
    key: "shape"
    value {
      shape {
        dim {
          size: -1
        }
        dim {
          size: 2
        }
      }
    }
  }
}
node {
  name: "model/conv2d/Conv2D/ReadVariableOp/resource"
  op: "Const"
  attr {
    key: "dtype"
    value {
      type: DT_FLOAT
    }
  }
  attr {
    key: "value"
    value {
      tensor {
        dtype: DT_FLOAT
        tensor_shape {
          dim {
            size: 3
          }
          dim {
            size: 3
          }
          dim {
            size: 1
          }
          dim {
            size: 64
          }
        }
        tensor_content: "\204\241\223\273\304\376%>\335#\233\275U\223\335>\\7b>\265\363k\277\201\3048>\nT\211\275\033\024p>8\277\030>hfe\275(\316q\277\302-\033\276\242\314\273>C\274:\277\t\323\202>\224\376\340\276\021\266\003\277Is\233\277F6\026>}\371\361\276\361H\231\277\207\270L>k\r\014\277\031\227!\300\253\010\316\276C\320\226\276\3055\212<\030\177\301>H\311\001\300\3031f\277\307M<\275\3261\253\273g{\236=\274jS>\345\240\221>\275\001\002\276\347\223\034\277\242\363s>:\213\323>.\355\272>\264\375\030\276\032\036\222\277\342\0133\300\376\306\353\276d\253\365\275m\252\216>*C\330=\035QB\277f\'\211>\006\342\n\277\004E\377<\034#\335\277\225\313\245>\353\354\370\275@\263Y\277\237\376\034\300\343\370\021?\234w\252>\307\357\206\276\245\364\350\276\246m\022\300MN:\277\375\316\367\274\257\273l\275v\246\326>\205\007\240>\307y\257>\352\006\221>bG\230=\016L\026>\262\347\224\275\\\213\270\276\017\224J\277\360`\221>Hd\367>^2?\300\206<\205\277\200\216\245\277O.\373>F+*\277K,M\277\314\205\243\275\356\246\211>\001C\202\277\217\310\202>\017\370\014>\306\261m\277\365\370\256\276\265\n=>\346\003\365\275w]\262\275\t=\212\277N\203\251\275bi\\>\016L\006\277\301y\013\275\245_]\300\251\253\362=rR\204>_\326\220\276I\001\314=\010}\226>\030\205\020\276=\365\252>\305\260\252\275\366\317\272\276r _>\331T%\300\200\036\217\276\306\263\313>,S\361\277\300R\341>\264\357\017\277]\322l\276\264i\027\300sZ\205<\356\203\010\277\314\022\200>{\037\231\276\225\234\n\276n\223\351>A\333<\277\014\273V\276\236\201I\276\030\361\030\300\344\006F\277\276\231\374\276X\224\024\300[\210\303>L8\212\276\365\310+\277\222J\017>\335\302\"\277\033\305k>i\227\016\300:\351r\276 \364\305\276v\201\007>\354\221l>`\207m\275;j\317=6\037\030\300r\'\341>\3136\r\277w\357\367\276Z\001\223\275\025(\200>G\337\335\277\303\342\370\276\225\230\303=\313\364\t\277 ]\254=\270\257\031\300\212B\001\277\250\213v\276\365\274\027>e$0\276\212\031\242>u_\354\276t\327\261\277^B\330=\253\035g>N\350\263>[?\341\275PC\213\276\365$\037>\263\336&\276,x\267>\3676E\300\251a#\277\335\307\014\275e\366\301\276,|&\300\355D\272>V\367_=\251\264Q\277\356_\216\276\035\220\216\276\252\'\371\273\376\366B\277y\216\t\277\330{\213=\001\325\375=\220Ln\273\265\260H=\226\220b\276\230\244\325\277\007<>>\362\350\342\277\237\270\307\276\345\306\217>\006\251\345>C\331<<\356\304&=\033\322)\277\251#\023\276\344\254\002?\312\316z\276I:\267>q\351\027>\261C\346>\245E\210\300\255\2009\300\346\253\273>\"6d\277\2521\217>\342\374\367\276\332k\267>q\206\333>\257*\307>\031K\317\276Z\275\352>\331\004 \277\003\374\226\274\301}\235>K#a\300\343b>\276\242\375\320>\304\342%\300\212\321\030?\010RI\276ud\220\276\316K\204>\277\017\247>M+\373=a\255h\277\362\246q\277r\313\210>\003/\001>\244\277\255\277m\312\202\276\252d\227\275:\321\223>5g\224>\273t3\300*G\226>\'\226\026\276\333\226S=\201\\4\300\3224{\276\251Y\032\277\213%7\300\326a\030=+\250+\300\210\364|\277\202\241F\277\265\373\222>\350\3167\300N3\355\276\207\300\315\276\351\262?\277\2766\361>\331n\356\276%\276\374=9Q\236>\253\277+\277\371l,\277os\207=\305\"<\277\323\247\223\276K\005\224>\036<*\277\002\252C>\254(\362<\224\207\327\276 #z\274\007v\215\277\006V\">\226s\253\276\217\312\230=\267\231\034\277\215\247\203>}fP>i\227\242>\307\000\026?\006*\313\276\206\025\325\276t\031\323\277\274p\372>~\346\220\275T\253>\2763\002<?\350\370w>\222\004\003>d\352\267>\033\250$\277\245j\224>\242\343g>l_[\300@\302Z>\374\221\206\300f\366\301>0\261\257>G\277\024\277\223M\207>\325|\307\3002\357\313>W\243\030?q\275\222\275S\315O>\t\326R\300\361\314\364\276\3268X\300\227{\304\275WP,\277Q.\001?LFA\300\024\250\017=]\364\313=\232\0015\277U\277\261=\347\344\212<J9\303\276\355\256\212\276\365Y\241>Q\257\214\276\326\246\000\276\267U\230>)\335D>\217\304`\277s\325\020\277\332:\223\300\234R\026\300\253\027\246\277O\227\027\300\224zk\276\032\347\210>\315\244K>\031k\310\276{\244\212\275)+i\276\212>T>\222E\020>\277\212\334\275\236\231\002\277\035\003\017?5R\270>W\320\253>\374\322\r\277\375A`>\227L\227\275\306n\344\276\034[\037>9\247<=\344\271\032\300\222\025\022?i\350\224\275w\n%=A\331.>\322<>\277\305\346\372>{P\214>K\271b>\370[\205\2774\033B\277\032j\244\277\022D\203>\\\354\305=+\232\376\276\325j\257\272s\344\177>\306\235\r?6\000>\275\004h\252>\235_\026\276\000/\305\277y\006-\300\314\250\334\276oj\324>\361\346\032\277\257M(\300.c\353\275\0131\004?\342\247\300>\022\027\205\2775+\226=\355\222\001>\234\253\270>5x[\277\303l.\277\3550\201>\207\235@>/\375\034>%\225q\276\363\214x=vZ\305\277\367\320\252>\211\337\215\277\331\255/\277gk<\277\277\324\301\276\246\365\314\276\\\202 \276\324\027\213\277\203\374\236\276y\352$\277\360\030{>KIx\277\326$\331=O\000\245\275\265N\206\275\341\362\334\277\253\264\334>\201_\027\2753eu>\215\2408;\0266\237;Zn\336\275\"r!>F\373\016\275\340\032\024\300\375\261I\277\207\007\325\276\n\352\363=\265\250;\275\272t>\276\266L\321\275HE\324=:\355\254\277d\000\356\276n\246\003\277\207q\304\277\370\307\242\277\247\237\261=\025\0232\277:C\022\275\003F\227=\247\236\345=\2710\347=1\010Z\275s+\037\300\215S\003>e\345@>\320J\232\277\030&\234=S\007\004>\321\232\257=\226\201\340\277^D\326\276$a\334=\364\215\302\274\243F\306=]\374+><_o\277\035\016\200>\241g\253\275\221R\\\2773U\302<\332\n.=\334m\333\277\201+\036>\245`\000\275\225.\232<\303\006\260>\360\217\t\277\347\257T\277\272\272\014?\322\233\227\277m\241Y<\202\031#\277\311(\\>\260wT\276\344<\251>$\020\333\274\330gD\300\263\301W\276@\270\035\277\3520\005\275+)\251>\3742\365\277\207x\367>\307\245\206>\004\307I>n|\333<\347|h>k\274\201=\245a\261\276\202\013\216>z\273\326\276\005\177\336\276\207n\026=\211\312\343\276a6\267\277F\376.\276-B\006\277a\205\310\277\237=O>\304S\034\300\304|\340\276\230\031\327;G\237\341=\234\342\225\276V<\010>\340\304\201\277g6\037\300U\257a\2775\310\242\276\347\322\025\277m\370$\300g\010L>\212\216\023\276\370\301b>\272z\305\276\214\rJ>\372)\305\277\004D\026\277\207n1\276*^\000\276C\341@\276\363\017\350\276\232\364\000\277>\210\342>\356C\272\277\227\347\022\300\353Sr\276\356\300\235>\273\323+\276k\261s\277\347\004\273\276\253\366\016\277xq\033>1\367\251\274\r\252\256>\313]\203\276G\373\317=\007\213G>\236\004\026>J\000;=Y\221)\275\373\254\002\276\345\343\200> \345\3468x\221\212=\264\005\274>\313\014\236\276Qb\234\276\217\013\256;\262\275\340;\321\372\346\275\004NV\276Gh\021\300\325\323x>_\020l\275\227\226\020\300a>h=\351\305\330\277q\217\264\277Y\031\270\276\260\026[\277}\004\213\276\221\377\351>\362\217\242=\355+{\276\340\273\323\274\252 \252\274\350\375.\277/\360\\=D\227\222\277\010\\\021\300]\035\034>L\342\232\276=\357s\277OJ\373\277\220\307(>\256\261m\274/\014\340\276\265h\263=i\177\246=\376W8\275\261\302\215\276\030\257%>2\005\\>\217\362\001\277\315-\225>\247v\267\276"
      }
    }
  }
}
node {
  name: "model/conv2d/Conv2D/ReadVariableOp"
  op: "Identity"
  input: "model/conv2d/Conv2D/ReadVariableOp/resource"
  attr {
    key: "T"
    value {
      type: DT_FLOAT
    }
  }
}
node {
  name: "model/conv2d/Conv2D"
  op: "Conv2D"
  input: "input_1"
  input: "model/conv2d/Conv2D/ReadVariableOp"
  attr {
    key: "T"
    value {
      type: DT_FLOAT
    }
  }
  attr {
    key: "data_format"
    value {
      s: "NHWC"
    }
  }
  attr {
    key: "dilations"
    value {
      list {
        i: 1
        i: 1
        i: 1
        i: 1
      }
    }
  }
  attr {
    key: "explicit_paddings"
    value {
      list {
      }
    }
  }
  attr {
    key: "padding"
    value {
      s: "SAME"
    }
  }
  attr {
    key: "strides"
    value {
      list {
        i: 1
        i: 1
        i: 1
        i: 1
      }
    }
  }
  attr {
    key: "use_cudnn_on_gpu"
    value {
      b: true
    }
  }
}
node {
  name: "model/conv2d/BiasAdd/ReadVariableOp/resource"
  op: "Const"
  attr {
    key: "dtype"
    value {
      type: DT_FLOAT
    }
  }
  attr {
    key: "value"
    value {
      tensor {
        dtype: DT_FLOAT
        tensor_shape {
          dim {
            size: 64
          }
        }
        tensor_content: "\013\226e\276\211\371\225>Q\213/>\0349l\276Nx~>_\341v\276nF\270=J\351\"=\036\365\014>\t|\216\276\341\t>>[1I\276\321`\336=\353\001M>1\265\014>\'m\205<\2643S;\340\265\003>,\340\261=\335\332\217\276\203\031G>\332\1779>\344]O>\037\032\313\276\352\334\313>.\214\034>\205\276\006>\035\'!>\312\032\302\276`\335\344=5h3>\271\243\213>\304\376_>@\341\252>\237I\202>l\\\031>\017\032\212>-\331\330=\005wH>\311^e\2761\031~>\372\353`>.\320\000\275Z\343\252>\256|\326=\254\364\373>!\2730>V0&>6\356\304=\023_\227=\317\201!>?\222\213>\354\031\201>lD\317=\355\214\334=\341Sj>\275\326\317>5\323\037>7\221=>)\250=>\301@\002>\205\035\016>\332\337\017>A\014r="
      }
    }
  }
}
node {
  name: "model/conv2d/BiasAdd/ReadVariableOp"
  op: "Identity"
  input: "model/conv2d/BiasAdd/ReadVariableOp/resource"
  attr {
    key: "T"
    value {
      type: DT_FLOAT
    }
  }
}
node {
  name: "model/conv2d/BiasAdd"
  op: "BiasAdd"
  input: "model/conv2d/Conv2D"
  input: "model/conv2d/BiasAdd/ReadVariableOp"
  attr {
    key: "T"
    value {
      type: DT_FLOAT
    }
  }
  attr {
    key: "data_format"
    value {
      s: "NHWC"
    }
  }
}
node {
  name: "model/activation/Relu"
  op: "Relu"
  input: "model/conv2d/BiasAdd"
  attr {
    key: "T"
    value {
      type: DT_FLOAT
    }
  }
}
node {
  name: "model/batch_normalization/ReadVariableOp/resource"
  op: "Const"
  attr {
    key: "dtype"
    value {
      type: DT_FLOAT
    }
  }
  attr {
    key: "value"
    value {
      tensor {
        dtype: DT_FLOAT
        tensor_shape {
          dim {
            size: 64
          }
        }
        tensor_content: "\301FU?N?\225?\356G\223?gk\231?#\245\224?\324s\264?\366t\314?pXj?Bj\'?c\315<?\220\006\206?p\314\242?>\031\232?\014\341\223?\340\324\225?\027\014\230?b\332\202?=\370\302?\346\201\207?y\373^?\305\337w?\307\352\223?\321\311\223?\243:\313?\021\030\242?\353\000\257?z9\177?q\367\272?)\354\236?`m\206?\352f\300?\310e=?J\310\221?F5\335?\336H\206?\022\376\317?\253L\201?\030\370l?\237)u?l6\\?*\034\251?\260P\212?\346v\221?b\267\247?\204y\255?]U\301?\201\250\234?\276\267\345?\301\264\221?\226\210\250?\212\271\000@\014D\343?\0175\212?\365\376\223?\242\377q?\300e\247?\323m\227?/\366\251?Z\030\207?\254\254q?\247\244u?&[\277?5Qx?\245\'i?"
      }
    }
  }
}
node {
  name: "model/batch_normalization/ReadVariableOp"
  op: "Identity"
  input: "model/batch_normalization/ReadVariableOp/resource"
  attr {
    key: "T"
    value {
      type: DT_FLOAT
    }
  }
}
node {
  name: "model/batch_normalization/ReadVariableOp_1/resource"
  op: "Const"
  attr {
    key: "dtype"
    value {
      type: DT_FLOAT
    }
  }
  attr {
    key: "value"
    value {
      tensor {
        dtype: DT_FLOAT
        tensor_shape {
          dim {
            size: 64
          }
        }
        tensor_content: "\350\010]\276k\0367<\345\360:\276\037\262v\276\016\275\027\276H\022\364\275\262\355\200\275\036\001V\274T\036\304\274\rR{\275\234\037\215\275I\243\004>\245\232\016\276\370\355`\275(s]\276\324\370=>\233)\002>\336&\2609\013\243Y\274T\201\356\275\177\035\310\275\266\257s\275!\263\365<\255uj\274\306!\207\276\310\277\236\276\315\213\212=\242\365\252\276\211\201N=\027\320\203\276@\322]\274.\264\263\274\362y\223\275[b\272\276\363\300\215\275Y\304\226=\272;\265\276\006\034@\276{2\037\276\374\0202\276k?\330<\037\225\375\274}\352 >\023\200\223\276\261-\031>C\2648\276\315i\232\275\353\002\006\277\237\267[\276\342\240R\276\027\330\311\276zO\215\276\263\234\005\276\023o\004\276?\312\021\275\270\031\321\2761i\202\276J\030A=\374\270n\276\341E\271<\324\250\000\275\360\022\254\276\331\305Q\274F!\273\275"
      }
    }
  }
}
node {
  name: "model/batch_normalization/ReadVariableOp_1"
  op: "Identity"
  input: "model/batch_normalization/ReadVariableOp_1/resource"
  attr {
    key: "T"
    value {
      type: DT_FLOAT
    }
  }
}
node {
  name: "model/batch_normalization/FusedBatchNormV3/ReadVariableOp/resource"
  op: "Const"
  attr {
    key: "dtype"
    value {
      type: DT_FLOAT
    }
  }
  attr {
    key: "value"
    value {
      tensor {
        dtype: DT_FLOAT
        tensor_shape {
          dim {
            size: 64
          }
        }
        tensor_content: "\002`\265:6\272\224>c$!>\376\312\004;\213\307w>\261\362\214:sO\277=\307\020W=\301\273\003>\017\241@;\032\272>>\036\203\270:$\313\345=+\241K>\303\375\004>\031\3379=\276s\311<\t\231\010>\375\034\316=MEc;\310=C>\253%8>\021\014E>\306X\205;X\001\276>C\234\033>B\372 >}\320\021>\002A:;\324$\317=\264n7>\352[\214>\214\\W>\027\344\241>\376\272r>\t\210\032>w\374\177>\303\263\336=p&N>\271\214\303:\216\r|>\206v\\>6\237\321<y>\237>\265\344\337=\323\272\353>\341Q3>\344\301\024>\003\306\276=\223\271\217=\rF\010>2\262y>1\010|>\037\021\307=(\017\303=\214\231W>\2600\305>\365\233)>\307\360->C92>d\203\364=\304\326\367=\260\251\021>)E\213="
      }
    }
  }
}
node {
  name: "model/batch_normalization/FusedBatchNormV3/ReadVariableOp"
  op: "Identity"
  input: "model/batch_normalization/FusedBatchNormV3/ReadVariableOp/resource"
  attr {
    key: "T"
    value {
      type: DT_FLOAT
    }
  }
}
node {
  name: "model/batch_normalization/FusedBatchNormV3/ReadVariableOp_1/resource"
  op: "Const"
  attr {
    key: "dtype"
    value {
      type: DT_FLOAT
    }
  }
  attr {
    key: "value"
    value {
      tensor {
        dtype: DT_FLOAT
        tensor_shape {
          dim {
            size: 64
          }
        }
        tensor_content: "\370(\2119i,p<\323\020*;^\373\3269,\361\005<\177\307\2419\t\330f;\367\262\274;\35140;\254O7:\247\377\211;\363`\2419\020)\276;e9\277;\351\302#;{\001{<\010LF<\337\356 <P7#<\202\302<:\310\313R;\254\335\326;\3742\236;\375\033\221:X&5<\205JT;\243Q\346<p}\023;rZ4:\246\253\033;\210S\323;u\227h<?\330\030<\347\021\374;\334\232\363;\021\307\024<\370{\325;\216\210\267;y\221\374;\202k\2369E\264o<_\2419<\037\303\217<\336\276\370;8\336\343;\344\224\212<+\366J<\253\034A;c\007\251:\211\313\211:n\326*;N\201\367;\256\223\355;GB\026;\017\276\335:\376-\244;\376\240L<\361\337[<\366\332X;\277\321K;a]\027;\370o\005;]\217\246;~\276\211;"
      }
    }
  }
}
node {
  name: "model/batch_normalization/FusedBatchNormV3/ReadVariableOp_1"
  op: "Identity"
  input: "model/batch_normalization/FusedBatchNormV3/ReadVariableOp_1/resource"
  attr {
    key: "T"
    value {
      type: DT_FLOAT
    }
  }
}
node {
  name: "model/batch_normalization/FusedBatchNormV3"
  op: "FusedBatchNormV3"
  input: "model/activation/Relu"
  input: "model/batch_normalization/ReadVariableOp"
  input: "model/batch_normalization/ReadVariableOp_1"
  input: "model/batch_normalization/FusedBatchNormV3/ReadVariableOp"
  input: "model/batch_normalization/FusedBatchNormV3/ReadVariableOp_1"
  attr {
    key: "T"
    value {
      type: DT_FLOAT
    }
  }
  attr {
    key: "U"
    value {
      type: DT_FLOAT
    }
  }
  attr {
    key: "data_format"
    value {
      s: "NHWC"
    }
  }
  attr {
    key: "epsilon"
    value {
      f: 0.0010000000475
    }
  }
  attr {
    key: "is_training"
    value {
      b: false
    }
  }
}
node {
  name: "model/max_pooling2d/MaxPool"
  op: "MaxPool"
  input: "model/batch_normalization/FusedBatchNormV3"
  attr {
    key: "T"
    value {
      type: DT_FLOAT
    }
  }
  attr {
    key: "data_format"
    value {
      s: "NHWC"
    }
  }
  attr {
    key: "ksize"
    value {
      list {
        i: 1
        i: 2
        i: 2
        i: 1
      }
    }
  }
  attr {
    key: "padding"
    value {
      s: "SAME"
    }
  }
  attr {
    key: "strides"
    value {
      list {
        i: 1
        i: 2
        i: 2
        i: 1
      }
    }
  }
}
node {
  name: "model/dropout/Identity"
  op: "Identity"
  input: "model/max_pooling2d/MaxPool"
  attr {
    key: "T"
    value {
      type: DT_FLOAT
    }
  }
}
node {
  name: "model/conv2d_1/Conv2D/ReadVariableOp/resource"
  op: "Const"
  attr {
    key: "dtype"
    value {
      type: DT_FLOAT
    }
  }
  attr {
    key: "value"
    value {
      tensor {
        dtype: DT_FLOAT
        tensor_shape {
          dim {
            size: 3
          }
          dim {
            size: 3
          }
          dim {
            size: 64
          }
          dim {
            size: 64
          }
        }
        tensor_content: "\205\362\274\276_\200\335=1\001\261\275\347\222\200\276\245!\006>\177\202\221\276t\014\251\274E\002\035>*\r\200\276\271\231\330\276\303\300\345\276\370\026G=\313\212\\\276<q\336\274K\235\363>\340\264\323>\272\231\206\275DZ\r\277\024\277\t\277\245\004F>Ech?\2720\233>^o\026\276\303\315\320\275\234\233:=\023W\355\274)\325\365\275j\341\254\276\373H\210\276\263\200\353>\002\265 \272\366\301^>Z\210\350>\254x\\=\322\220\253>\014L\005?{\220\337\275\032\014<\277\371\301\213>|r\212>z2/>J\340\364>\026\017\003?/.\031\276Vw\322\276\300gV>\331\346t=\352\'A>\373r\236=\373\233I\277\341\217\324\276\311\024\277\276/\340\250\276c\240\320>\373O\270\276N(D>\227\364\266>\234\366\003>{\362\034\276n\007/\277&\307\316\276\303\263\372\276c\240j\275\350\361\005\276\t\244\245>\274\347\\>E&d\277\310\341\264=\010@o\277\\\356\200\277\376=\355>\030K\223>Z\372\337\276\026\3108\277<\022\343\275\372\002_\276g:\003>c`\322=\365p\025\276H\236\202>\306\337E\275\207\276\027>\326\032\347\276\265T\257\276\032\251v\277t\375\276\276\234E\221\276\234\302v\276\006\271\235\27610\223\277MY\211>\240\360\n\276\212\323\203\275\253:\331=\243\177\025\277\227\363\276=9\272T>\002\232\000\277lX\275\277u\255\325<\335\253\264\274\347X\207\276\314k\207>\227\2217>s|^\276\266r\200\276G\257\004\276\374\355\211>\341\264(\277X\223\016\276\356\341\270\276S\027b\277\262H\264\276\377\323\000=\322\220\223\276\204z\214\277MIj>0k\232>\205\003\010\277\357=\200\277\307\303\203=\r\355u<\362,\016\277&c9\277\373\311L\277\267\330\023>\035,\377\274N\030\n\277X\013\032\275\300W\314\276\227\327\370\276u\007?\277J\235\366>\034\271\032>O\364o\276\216S\031\277/\231\241\2769\025b?\363\343b?\313Y\006\276\314\202\265>W~\274\276KX\017\277\034\224w\276`H\023>a\022J\276\2549\'\277\035\250J\276\276\245\250\276(\006\027\276\336\016\007>l[\036=\335\262u>\235\356\220=v\276\013\276@\017q>\3205\262>\360\r\313\276\342 x>\013\360\356>Fh\275\276n\037\032\277\204q\360\276F\222F>\245\305\200\2760\006\240>\260\242\000\276\220\352\243\276\222V\244\276\301\336\275=\371\243\326\276\007b\312>\275\221\234>\254\303\370>E\235\215\276\311\307\256\275\'_T=)}6\277\0261\267>\004\225\001\277\220,q=U\352\035>\343\375*\274]\243\315\274\314\264\037\273\221b\274\275\334\352\307=\333\223\246>\274\361\341==\362*\273vGP\277\342A\300=6\001\230\276Z\347\007\277\016\321\270\276\277J\244>h7\310\276\004\034V\2760(\206=\364\377.\276z{\026>>\226\n\276\260\223z=\326\002(\276c\276\344\275\277\217\226\275\323\342\370\276\342z\"=\323[\004\277zu\346\276\313P@\276yV\213\276\247,\021\275\027\353s\277\231]Z\274D\254\255;\250\360\233\276\216U\254\276/\226\032\275pv\004\277P\026\215=H\254\250=\212\264a\276[)8\275\324\241j=7\351\372>3v.\276\20185>\202\2639\275\272\332\274\276=\203\274>\245l`\277&YI\277\334\270\302\276\226\241W>\336\277\252>\201\212E\277\224\215^>E\257\">l\354\256=\2664\331\276q\321\037\277F7\014\277\'\245W\277u\271\017>\262\033#>Q\340\331\275\366Ba>g\315\304\274Q\255W>Q\341i\275\375\316\350\276\224\212\201\277o\270\301=\331\tF\276\343\322\333\276^\216O=\341\3178\276\304b\204\277\226n\000\277\313|\261\277\210\'\351\276,\247\266\276\333_\213\276\202-\006\277cZ\032\276$\030\300\273\226\2363\277\002\251[;\265\1772=>\033\270\276\177\201\235>v\334|=\275\013\035?\211;)\276\302\377R\275\200*\270>\274\001L\276\363\375\014\276%\"\005>\351\320U\275\373\305\221\277\343k\214=\333\033\t\276\330^\220\276h\336\365\276\370c\316>\2759\304=\232\2256>W\315\205\275,\004\266\277\245A\254\276\255\007\323\274\201N\210\275\346\225\250>M\323\210>K\2637\276\031b\254\276\326X\025\277\237\'\020\276\315\315@\277Q\376\202>\304#\231\276\265H\201\277\262$\005\277\323k6\277\374\221\"\276he%\277D\314\277\276v\250e>\267\027\"\277\375\n|\2776\0033\275j\264\213=~\241\223\277\315/\204=5^7\277kv\217>y\343\321\276C\031\306\276\240U \277*8U\275\263\377\272\276\257]\375<\r\004\"\277i\320\207>F\352\372\276\324\301m\276\345\215\025=w\352\024>q\262\031\275\366o\022>\247~\245<gE\374\275\301\312\223\275\343\325\210>\317`\037>\026\236\210\276\001\266\006\276\006\253\207>\245\030\361>\2340\023\273\261\272v>\302X\327\275Q\353\345>\337G\213\276\\\250\207>\355\005\322\275p#\022\274\037i\222>\352\243_\277\270\243#>K\306@\276\305@\310>\353\214%\277\t\006\246\275\353\224@\276|\3609\277\235\324/\276\240d\200\275qg\240\276\000\3051\275\020P\023\275J\321\375:*\021O\276\013\013\t>\330\252\036\275\367\225\261>c:\201=\214\352\024\275\375is>\323\t\250\276\346\347\031\276#5\317>N\007\256>\203\376\232\276\351\346\202>8\350P>N\307\246>6u \276\205Vi\277#\272\010\275\223\227\004\276\017B.?\240(\301>\242\n\247>\245\202B\277\224*\322\276=\017\022\277\236\246\275\2763\tb\2766A\346\276\366\010\303\276\306J\347\276\266\265\335=5\304\305\276.K\027?\017\026:=\377\031\255\276\323\333\177>\3423\205\275\357>\351\275\\=\276\276;\276\035\273\177t\227\276\035\344\r\277\002\341\363\276\355\023\325=Cp\334\276\210p5\277p\"\317>J\241[\276\003\024\305=tB\355\276/9\345\275\205\231%:\346\"\373\275{x*\277H\254\276\276\025\275\r>~f\250\276%\301>\276\241\305\257=Wy\304>1h\027\277\353\316\252\276\353\233\024\277p\364>\277\013~)\277`/w\275\345v\374\275\207vp\277\224jF\277t\021\234\274\016\306\341>\250k\220\277H\240\270>y\373N\276\032S~\277J\233\277\276\026\205\310=\216\277\020>NbK\277\2558\321\276\037\357#\277\034\337\201\276dB\261=\262+\251\276$\026\226\277\331\003\035\277\027>p\277\\\035\005\274\326t\222\276\323\nr\276(iN\276\330\237\010>\371\200\337>8\345\200\276G6\214\276Sea>/U\230\276\336\326\300=x\367\342\276\003\300m>\313\265\333>IT\"\277\370\264!\276Ru\276=\312c;\276\027\212\024\277`l3\277P\250\033>\301\2223\277\340A\242\275jx\340=\034\032\340>;\023\367\276\345\233l>{\301 \277w\220@>\0032\017>_\251o>\006d\017\277,L\360>7\034G\276\340\324\264\274\235\231N>3\\G\276b\237\021\277\236\316:>Z\277\213<\221Z\221\276\202\215x\277k\262f\274\360\237\'>%\\\017\277jh\334\276\221\335\344=\212\211@\276Z\274\261>\257\224S\277\313P\013?\342\333`\277\34488\277:\331:\2762X\211>\240 \302\276\021\233\206\275\2553#\277b7\021\277D\235N\275\246H#<\360\271\257>?/x\2774\375\224\277\264\320\264\275\033\000\263\277q\333T\277\314Y\032>Y\316\340\274\347\327\t?\257\304\r\276hl\210=\265%\266>\313\004G\274-\306\256>#\354\201\276\276\243L\276\366\t\372\275\032X\222\275\262\t\333\276\022D\375=\236\226[\274F\247\375\2769|\233\276\276\235\230\276.\376\223\277\323W\224\277\230$\306>\027\246,=\322\037A\277\202}\002\276\317\345\303\276,Pe=\366W\023>\206\260\352>\013,\302\277\276\025\232\275Z\202\002>\232L\257>\336\321A\275\236mj<\"\303*\277\220\2333>\260\375\245>\0101x\275h2\304\2778z\023\276;\340e>\247,l\277\365\031B\277\255t8>o\335f\276\262\252\037?\363z\251\275\355\203\206=\204\274\214\277\370%\255\277\244\241\255<\254\300A\276\304\205\316\276\211#|>\342\3629\277\020\346N>\221>\226>\331\212\274\275\264\031\237\276\341\016m=\346J\330\276\275\002\373\276\024\322*\277g\022`\276-\252\200=\262\235\232\276\271\337\265\276\355I\231\276\253\017n=\240\275\000>\312`\215>\330\350 \275\251\250\222\276\030\324\202>\304\221)\276F\234\270\276\207\355\276\276w\352\241>\013\311l>\020\233U\276\251f\331>i.\363\276\ri\177>\223\203\212\276\253J\270\275\363\316\033\277^2Y><\027\225>\025\260\206\276\363$\225\275S\311R>\231\255\221>(B\371\275\211J->\307\036+\2777N\231\275\376\030\214=\261\227\035=\320\177N\275+z\036\276\205\333\311>\250\027>\276\000\233F\277&\2538=\005\037\264\276\240\334s>3\022\262\273f\026\216\276\236N\213\273\265g\261\276\370\303\320<\237\035E>\307P\022\275\027\207D=.\363)?&\256\321\274\223W\003\276\344\3273\277XL\366\2768\260\037\277\244)\263\273\272\245\204=\2354\026>\301&(>@$\r\277\204\227\304\2761\032\260=\205\374H>\211\365\014>py\215\276\370\261Y\277P\232\022\276\261h\327>\236\325@\276\202\245\237>\213\213\010\277F_\306\276\203\033?\276\325\224\342=\244\373\'?\3673\266\275\322Ve\274\227\010E\277\370\020\003>\357\242]\276I\235\233>\353\366\250\276)y\213=0\027\n\277#\022\227\276\t\314\025?\305J\007>\363*\226>\377\266p\276\201\252\033\277\227\001\036\277\321\000i\276\242\315\005\277\325P\225\276\350f)>Xe&\276\026\267\331>\247.\300\275\245-\345\276%\336(\277\342\254r=Bpp\277\352v\377\275\204\220\254\2771*9=\351A\n\277%\214\201>~\212 \276b8j\277r\351\322>\243\251\316\2750{\321\275.K\332=\352\254Z?\260\363\333\276}|\004>%$\214\276\343#\014?o\361\272>\332>\002>\345\231b\276\031\025\245\276~\223\277\276T_\370\274#\023\227\276\207\206P>\227\'\'?X\224\205>\036\242,\277~\031\206\276|\010\216\276k\207\246>\332\020\032>w\222\263=\253\202\005?@\364t\276p\356\262\276\247\252\357\274\323:\274>MBf=\t}\017?\241\003\216\276\221\2346\276\320f\243=\317\\c\275\3362\344\275\342d\372\276\315\307\261>A7\246\276k\'T\276\355\326\300>\2202\221\2768e\207\276u2 \277\216\317!?\256\351\263\276\312\251\374\276O\223\337>|\262_\276\222X\366>\004\200\322>;\260^\276\275\201\002<\307/\301>\363 \321\275p\006\337\276C\342\277\275\355t\253>a\304\266=\274n\255\275:p\235=Z\222\203>\351Y(\277\2746b\276\247;\231>#7t\277ID\n\275\031\263\003>a{c>2\024\367\273\355\346]>\331.\214>\263H\004\275\256\010\301>~\007\002\277{\216u\277L*\232\276\304\367\340\276\301\334\265>\275\"\343\276\235\324\261\276Qg\223\276@\322\255=\366~\300=\260\322\212>\366\204\366\276\326Tl>\3251M\277\272\220\363\276\020m\014\276\026\260C?\273I5?\245U?\277\213\010C\277\342\314\024?\216\344\276\276\353v\016\277\2050\217\276\t}a\274\253\377A\277\364\313X\277]\375\352\276\253\302,>\253\252\327<\361ML>\272R\273\276\372\273D?\004\266\306=\367\224\355\273F\364\305\276A\201\034>\245-N=d\237!\277\256\260\243>\301\273\'\277\202\301\346\276\032 \241\276\016\204\033\274\222\340\'\277\301\362T\277\260\267g\275-\233\220\274\245\037\350<=;\'\277\253\243\331=#\026 \277\274!\032>!#j\277\236\207\230>dL\260\276\217T\026\276\271 \327;\245aK\276^\337\004\277J\036\234>\361_\016\276\340\271\237\276\376\357Y>\036U\224=\367\334=\275NT1\277\372!\365\2766~\020?\257\"\255\277\220/\215\277*\214\221>\251\0326\276\306N\260>\"(\275>\347\225\260\276\314\3732\274\245S\330\276\273\322\n\276\266m\263\275.G0>_`Y\277\377\231\313\276/\310\344<\370-\265>\210*\r=\330E.\277i6\342>\274\343\370=u\241\027>2Q\310\276)\255V=\021\t\002\300\035\371\n\277U:\204\276\0017\205\276--\225=\"\005:\276\222L\013?\031g\251\277\314<\023>r1\020>\313\225\035\277\357\326\260>\335\200\013\277#\332\214\277\352Y\223\276\303\252\232>\270Z\234\276\233\036A\276@m:\275\234\222c?\320\252e\277\361\221\004\276\263\350i\277d}h>\270M}>-\236\227\276l\313\220>f5+\277\204?]\277\226vn\277:\"\261==\301\233\277\271\265\250=\002\347\224\2779\216\310>(\276H>b%\202\276w\342\354\275y@U\277EXu\277\374\242G\275\301\332\357\275{&\226=)e\257\276<&\020>\302F\270>\313\235b>,\033\254>\'\210\277>\353@c\276\231\307\243\276\035\346\343\2738r\364>\237JU?\323\271L\276\023\257F\277&\3061?\255=\332\275t\035\303\276\020+\250\277m\217\367>v\303\315=\336\352\026>L)\005\277\367\266\342\275?N\316>\302L\252>\302\222N\276~<\211?o\202\235=\377Q\007\277U\277\231\276Tl\037\276\216\335q\277}\264\034?\276\324\367>\277\327R?\3221\246=\037X\237\276t\021\333\275?\236\036\277\2418\263\276\264z\023>l\032i>\033\n\223=\346\203?\277\253\257\206\275\203\312Z=\2468\210?Pq\014>\202\006G=}^\210>L\367\246\276FbN\276?\356\203\277N7\t\276eR\304>@b\200\276\230\003\024\277\347\033\211\276\340\242\334=\000\373\204>\232\023|\276\223\221\200\277\213<C\275\343%\356\277\330\'\221\277_rv>t\316N>f\357\246=\nO\325=\263\326w\274\345\221Z>\350)\025>e4\244\276$P\001\276\234I\210\275\361q\251\275F\236\262>\007g\375\276\346\365\007\276\313o\213\277\221\261~\277m\033\274=p\350\350\273\363>U\277\325\035}\277\327\035\r<\210v\025\276\367\333\270\276\251o7>\214p\031\277\347\266\221\276b\034q\276l\033\026?>\305\250\277\017\236\004\276\264\240\263\276\271\261\332\275}\020\334>\316\020\274=\000\017h\276W\200\020\277;\373\215\276\303\315\351\276\316~&\277\327\350\205\275K,\312>\357\314\346\277\365\340\372\276\247~\272=\367\007\266\276z\214c\276\266\240L>B\207g>>\030^\277s\217\277\277J\"H\276\357\275\r\277J\177\245\277\033\360L>\244s\\\277\372@~=\311>\204=\314\343H\277\367\003#\277O\355\243\276\236;<\276}:\307:\256fD\277$B\005\277m(\255\276 \246\320=`\250\340\273\000\245\361=z^>\277\035:t\276\010\2505\276p|\317\276\347\373\236\277,P??a\215\271>\370^\216\277$\203p\276\031\300\244>r\201\204<\335_\206\2761\026\312\273\004B\"=U\217\354=b\005\270\276\244}\201\277\234\025\261>:\215\021>\302\212X>\025\307\302=\313\362R? y\002?;\331\017\275=\023Z\277>\321\014\276\311C\341\276?\013Q=n\000}\276d\303\034\277\316U\201<\033-#\277\006\004\372\274\336b\r\277\265A\362\276\326\324\264>\3059\013>V\037\372\276\324Y)\277\307\026\242\275U\246S\276@2\"\275\253\216B\276\">\355>6=\206\275\306q\226\277A?}=(6M\276\r\321\347\276Id\025>\262\224\026\277\242\276\322\276XN==B\005n\274a\250\267\276\247\310\033\276\014\304\n>\334<\337>\312\352\010\277\276\224q\276\362S.\277,\334\032\276\303I\025>\337\274\314\275\022\0332\2770\230\266=\'\300\206\276p\362\332\276\000\276r\277j=+?\356\305\223>\261\2316\277b\016\301\276\244\207\365\275\004zO\276\376\'\350\276\234\342\340\276\271x\037>3w\342<\007\213\006\275\316\360\207\2771\202J>\032\367\365\275\247\361\357<5\024\336>\356\n\031?\250\373D=P)\200\276\363\376\271\276\267[\237\276\"\346\"\277\340S\312<\240\025\347>e\002;>!3\270\276l\226\204\277\367\276\244\276A\241\245\277=\037\000>\2736\022\276\222\034\034\276\351\350\260\275\210\354\037\277n4\222\275\2041[\276\362\327\316>\004F\006\277\363\026\370=~{\037>\234\001\363\276\210.\263<m\231E\276=\343\305\276\256[\364\2757$\036\277\256\036\221\277Ne\317=aW\223\276j\263\031\277\202\033@\277\2706d\277.\301\273\274\212\207\'\276q\323\025>\362\331\014\277\362\230\204\276\344\0361\274\004\324\237>]\\&\277l\307\341=5\220\213\277k\026S\275+\315\003\277\337\227+>\221\312\231\275Ab\206\277\303\353h\277G;\\>8\371\031\2771\314H\276\316@\375\276F\330\206;+\253\"\277K\026\325\275\033`9>\351\257\034\2766Q\216\274\226\310\311>%\333\235\276\003\313\347>\177\0234>v\255s\275{\036\307\276\251\374\377\276\330\211\204\277%\233\021\276\256tD\275j@4\277]\274\210=\377\243\t?\026~#>\322\254H\277\353\365p\276^\325\256>lD<>\253\2115>d\0360\277\037\376\031\276iE\357<]\314\010?k\371\250\277v\354\376=j\257\337>\274\030\020\277\016\204\315=\333Q\216\276$\006\005\275-n\250>FJ\311\276S\r\016\276\364Q(=\330\300&\276\026H\272\276\363\300\006>\256Q\013>W\' \276<=\354\276\222d\377\276\252\2145>Y\3500\277\355yl\276@\nE=\357\305\023>\242\332:\2761\313\002?\251\242\334=5Q*\276\201?+<\230I\270\276\002\217\022\274\033p8>\244\001\026\276W\003\"\276Q}<\277\361t\330>\257\226\332\275^\005\370>1\014\251\276\264\313\201>\336\023\350\275\274}\035\277\367&\030\275-\217\250=\024F\274\275K\236\001\277j\333\212\276\300\"\205>x\265\003\277\t\370#\276\321\036S>\300m\221\276\365\224\245\276T-\330>Z\357\242\275\\\311\302\276\001\"\343=aC\342\276\305\001\247\276\036\031\330\276\325\352A\276@\360\032\276\001$\251\276\235\336\215\275n\330\257\2772\360\376\275\275i\214>\223\216\310\276\243{\005\277\223\007i=~e\005?\272\316\257>\246\\\336\276\336\021\205\276\010)\207>6\2010\274\316\035\207>\347\014\014\277\003r\351\276\262\261\270\275\236L\014\277\323-b\277\334z\242\276\351V7>\241f\200=\337t\334=\300Y\025>$\276\214\277\230!\342>\313~\"\275\000\264v\276\255j\027\277\004\364\003?\245\t\377> mz\276\341\026\243\275\233\025\227>0;h=\r\260\t\276\020\213%\277\002\256\262\275\017\007\335\275\275\345\021\276\017!_\277\235m\205>\336\002\220\275\027\317D>\037z)\276\352\242\373>>\241h>\300\322\273:\301\353O\277^Zh>@2 \276\022}i\276\004X\341>h\022h?Q\2624\276\340]\371\276\354\237\201>V\217\004\276\3465\267\276\271\353\343=\354n\005\276\377\0043=\304\031P\276\333g\243\275E\001\304\276\323C\207>\266\213!>\035%f?\353\325\305<\240\317a\277\262\343\033\276\034\261\371\276\016z\301\276\353\240V>t\014\363\276~#\333\276q\264\314>\017y\317=\223\275\'\276%:j\276X\264\302\276?\\\231>^\217\251\276l\226\246\275y\322\240=\211\002\014\276D\266\212>\205\301\252>\321f\263>5\"\021>\317&#\276q\247\303\276\366O\035\276X\202\237\276\372\264\221\277\351\265\001?A{~\276\260\355\241>%\034<>\017\037\363\276W\325Z\275U\367\315>%\357\025>\2424\201=\251?\312\276\236\345\367\276k\233\276>F\265\267\272iT\344\274\367mq=~_3\277\227W\276>gJ\026\276RO\203=*\371\027\276J\364\265=C\351\222\275\005/\025\275\355\320M\277\204\327}=\326\361\221>\200\255\024\276\304\2120\276t\230\347\275&\225\034?9\341\'\275\366\205P\276\277a\027\276\230K\313\275\032\024\311>\355\001\200?\010 \346\275\242\0217\275\233\330\212\275\275\361\346\275j+\376\276\255QI\277\212|\215>1N\031\277l3-?D\330\005\275<\215\014\277qi\006\275\342Y\007\277U?\351\275\005\265\024\277\\1\206\277a\265\351\276\351\004\367\273\345\031S\277C\237\306\276\331\216a\2754\315\244>\232&\327\276O\255T=\327m\304>\000\331\024\277\352m\317=;\372D>M\360\302<\212\301\r\27715\344\274=\261\022>\177\025;\277e\341\005\277\253x\032?[\025\214>\\CO\277\355\001\340=\005\214@>Yw(\276\303\322\244\276\351!\210=\017\251\005<\212S\221>V\301(\276\326\305k\277\220\033h\277\032A\225\276\007\234\246\276H:\250>\207\025^>\217A\377\276\237\326*>\211B\335\276\202\313?\276\3451#\277\340\211\217>\006\032\306\276\251\027\031\277;;\322\276\tD\251\276\375\002\224\2767\324$\277ik\315<\374Y\035>\343j3\277d\221e\277\234\260!>~@\001\276\275&\241\277\354d\317\276\244\250[\277!\004\032\276d\014\002\276\310\256\021\277\3536\267\2778?,>z\004\334\275\227@\022=\216\361]\276\010\210\314<vNd\276\350A\022\277\335\332\271\276\236\372$\276s$\017\277\245\200\272=\2030\330\276{4\251\276&\226\223>\'\032\255\275.\005\316<\256\"\240\276\263\362\343\276\306\014\335=\017\224\231=\023\335\360\276\326\"\261=\357I\321=p\222\216=\337a\322\276{^Z\277\246\212\244>\371\226\r\275+\262\355\276g\254\364>d\343\006\276s#\221=J%\006\277\014\235\230\276 4w\276\tb\002\277\253\241\215\274\255\t(\277&\201C\277\000\242\271\276\222T\277\276\371\314\322=3K\036\277\016\3218\277\013\204\335>\177ZE\276\302\375 >\265\036T\2776K\311\276\215\360\025\277\t\304x>\000\254\255\276@-s\274x]\345\276\027>\342\276\274%\020\276\255B\253=\203\006\212<\014\346\300\276\356\345\255\275\374\\\201\277\247X\017\277L\234\215\276\225\025\315>\027\324\265\275\253#9?\321\370\007\276\354]\003?s\365.>>\357\000=\220\267\257\276\222\0146\277\200\244\233\276X\356~>\333: \277\305~\263>\202\021K\276U\314\032\276\253\317V\2769\036]<Hp-?\250\362\216>9\341\305\276\313\370\207=\366\233\363\275\321\036\216>\353F\307>\215\025\232>\234\260P>\244\205?>\234,T\275.G\271>\307y\377\276\244*\222>\010\206w\276\345\372\210\275\315*\034\277\360gW\274\351`\302\276\361<;\276\244X\211\276bQ\252\276\316&\254>-\037\325\274J\'\360\271W\303\244\276*\273\036\276]+\001?3\202M>\343\017\013>\212\341\036>\257\206K?\226\007\271\276_\034F?\356\346a>\347)\276>\236\234\207\276uM\313\274\2567.?vp9\276\026s\215\276\213U\004<{q\032\273\302\3449?|`\246>q\013\320\275I\377\262<I\234j=\206\013\314\274(I\240\275\356\003\245>V(K\277L\305\241\276P\270\307>O\342\245<u\021\274>R\260r?wK\330>\026\231\266>\036=\246;\033\327\302\275\231\233,\275e\331\034\276\003|6\277j\330I>8\007v\274g`1?5\346K?\2422\352\272\364\323/\276\326\207\204\275\344\r\225\275\266/\231\276\007\277\r\276\010\250\020<\324\323B\277[\201\336=r\371\373\274\021m\305=\216\023\025\277\024W\177?\017\362\257\275\251{7?%\347\331\276xj\344\276R\376\221>\022e\374\275\326HR\276\222\260\006\276\344\010\035?\025\223\332\274K\330->x)\362>x*\353>\210cK\277/+\022>\240\235\017\277\350\370\013\277\325\352\035?\227\000\035?!.=<Qr\211>G\010\272\276!\357\035\277\221\265&\276\220\305-\277\t1\355>v\\\020\277\376\201e?\276#Q\277L\350\247=\277\250{\277WX\210\276f\252\222\275\303\334\204\276\341\257\006\2778\002\326\276Az\024\277B\341u\276.\001v\276\200\322\275>\322\265\027\277<\322\272\275I\232\327\276~\177\r\277u\242I\277\271Q/>C\301\203>\356\300\224\277\356D@\276\362\233\337=\265\023\207\275\364\000q=\304?!<\2226\272\275\010\033\211\276\204\\b\277\201\313\245\276*l\220>*\375;\276\311\213\037=\325\337\331\275\306H\356>\300/O>%\254\226\276b\305a\277\333V)\275/}G\276\214\273\207\276\300\252L>]\261K\277\236\264s>\352\330j\275h5\030\276Z\343\303=c\241\014\277i\211\017?i\266\014\276M\2317\277\221\020\325\275\220\3551\274ag\r\276\240\030W>q\035\035\277p\342y>\311\016\230\276HtE\277\201F\260<qI\216>:\356T\277\312\303\366\275\021\t\347\275Ef\365\276\226~o\275d\257\350=\340\\\\?@\367\000?\027:\314>i\t\233\276\314\243\211<iO\270>R\n\026\277\207\306\226\277\007;i\277\305\213\005=-\2567>\252\332j\277\253O\265\276[\275Z>\340\304H\277\240=\233\276\343\327/=.\332\216>\021\347/>\363\027\317;T\201\313\275\336\220\r?6\254m>6:\027?\255\245\033=\020V(>\001o\210\276Wkj\276\232\334\210>5\332\352\275\2543_><\"\024\275/\350\211\275\013\234\370\276\016\345\276>\272mm\277\027$\320>\350\366\312>\241\311X?d\245\220\275\\@\215=\"5$?\260\317\304\276\273\227\321\276\214\313\370>r\347\267>\257\377G\277\355&\304=\356\"/?\026r\000?H\373\220>;\206.\277+\226\342\2767\002\332<\271\255\361>\007\376\037><f\247>\351\262+\276J\315\010\277\023R)=\321\354\034>I\273;\275\307\262\274\275\200\021\353\275\376\"g\276.\254#\277yD\357\276u\'\353=$\375\235\2760\325v\276\275a_>\224\001\246\276\246\266C=\030+\237\275?\237\006\2778\372\223=\0372\006\276V\036\331\276I\312\212\277\032\234\201\276\336U\226>i\256\311\276-\260\004\277J\035\323>\273\203\362<A\346\230\275\247Bm>\224E\010\277\354\017\220\276O\234\022\2773\004\316\276\031\376Q>v\035\233\276\007]\272>\346K\337\275\255E\"\277}uq\276\207\333\017?r7\302\276\236=h\276O\310m>\255z\032\275\261j\250>l_*\276\030\366\010\277\263\010\\=\2041\033\276\274Q\000\277I\202\035\277\342Q\314\276\'\031\273>\374`\203=\321\220\376\276\214\023\237>\226rl\276\274\272?\276\253]\016\277\254v\362=[\244&\277\303\353x\276\026p\253>\314\027\357=Q\260\223>m\364\252=k\317\267\276\013kD\277\252\034$\276!5\004>\323\362\004\277\n\256\003\277D\303\212\276\327R2>1\037\241\276\312rd>\352\266\332\276a/V\276_\277\231>=[\324>\375\327 \2748\346\304\276yB\016\276T\326D\276+\257@>\201\024\010?}\022)?\301c\"\277kO*\277\321\305\223\276\225t\231\276\357\261\r=\036\331\342\276\255\370Z>\2736R\277\026JR\276\300\2016>X\366\300>:\335{<{\033\023\276\304\2135\275+\356_?Lx\023?dz\365>T\237\340\276\r`@\277\247\3046\276x\211*>\221\376\255\275d\t\204\277\325\223\n\277glG?x\354\261\275\256#=\277|r\321\276\220\331\336=\265\216t>?\320F\276a&\177\276\234je\2754\330\217>7\r2>\374q\225\277\rK\215>\027\266\202\276:\263\322\276\'\376,\277\354\023\217\276l\246k>D\220\234>\013\364\025?\344\224\325\276T\035\245\276U\231\021\277(Y\347<\034\000\217\276\004\244\223\276\375\205\263=\335\202r\277_8\351\276\275~\033>\rd\354=\230\217.>\020\360\003>I\\\234\2750v\254>\222\331\236>\274\023j\276\251\030\013\277Zj\203\276\004\251\210\275\304\315\361>\2345\230\275]\275\202>\306\233\271>9\027\315\2770*\344<\231@\206>\213\013\235\276\217S\315\276E\220\311\276\002\230\213\277\321\377q=z\322\032\275/\003\236\276\306\245\216\276\277[\334\275T\203\022?\356sJ\276\306\266\313>\022\323\223\275\017r\312\276\351V\324=\1773H=\255\247\231\276x\252\004\277\204{G?-\262,\275\373\033\022\277\315\024m\276\010g\022?l\371\366\276\373G\245\276\305F\375>G\206\375\275\014\361\310>z\333\340\275\365Y/\276\013Y\266\276\262\343\200\277@o\254\276\204hd\277,\026\213\277(>\364>\372\242#\277\340\017X>\270\205\014?%\353%\277\300\0345\277\232\024\375\276\256\\\357\276-b3>\333\327\255\276\275w\027\276\002\256\352\276#m\237<\263\237F=\024\"\312>\377\032\214\277\236(o=\351\245M\276\214H\262\276\224\270\200\277e%\025?l3\277>\245;\236\277H\031v\276J\325\370\275ih\323>\263\264\330\276\272\001\264\2763\260\036=+\302\302\272\005\337x\276\\\2774\276\025\204\261=do\347\275V\3502\276@\367Y>\300\244y?\206<>?\030c\014\274\202\202\373\276zUi\275\231\354\222\276\323~\355\274Jh\370=\032\024\222\276\356j\305>\250\217\376=\311>\212\276\256T\t\277\327\342\235\276?\201U>-z\266<\336\013\214>\211;\013\277l\031\001>\263\227_>\005b\232>\200eR\277\250\302??9\266\014\277\255\022\n\277\353\363\360\274\301PE>\255h\263\276\003/,>\255\021\021\277\334jU\277\207\3207\275\216\313\027>\001\246P\277\010(<\276\337\025&\277\242\332\212=\014\215\"\276:t\225>\235s\r\277\243\300r\276\213\231\212>kd@=9\244\302=T\013\342\275}X\021\277[\206B\275\023\231\t\277\230\350!?\263\030\346>m\312\225\276sx\016\276b\006\372\273{\344\\>jv\t\277\222z\336\276\032W\370<Ub\003\277 \377G>Z\253*\276489>Hm\310\276\302\016\206\276\003\204`\275\r\324\000?\032M\"?\232S}>\333\252\213\276u$\021>\336\206\254=\251i\326\275\212\031\253>V}\355\275\222V\240\276\243\021\311\274u\342\254\275+\026\020\277\254\205}\277s\023\212\276\363\245\212>3\333\205\275\213a\033\277\322\rM<\210\234\364\276\223\252\237>\211e\216\277\327<s>91w\277\376\202\264\275\220\205o\276M\220\t\2779\333q>1V\304=\320j}\276\235#\002\277\207\212\242>\364\231\227=\274\272\271>52\225\276\234\025\260>\350C\201\276s\324$\275\342V\006\276z\317>?\234.I>\254\220\262\275\314\013L?\306h\010\277\323E\310\276\370z\330\276\033p\350=(AQ>@\272\223\276kq\365\275\366_e>\326\346\340>9\334\331>E\262\211>\230\335}>\2034\017\276I9\351\2760j\3277\337\235K>\250\003\367\274<\360\017>\354\357\255\276\346\'y\274\357nM\276\236\034\014\277\177\201\214\276\336\022T=\365\234\250\276\036E\"\276\000\236 \276\200\241\257\277\020\367\361>\000@\236=\370-\311\276\r\026D=\326V\250>\230\263\316\275\3772\201>\307\231\272\274\320\002\233\275\304\276\254\276\030\316>?\363\322\203\275\304?\025?\231\265,\276\257\222\332\275\203\274=?h8\244>m`\303=WV\007\275\014\243\255=!L)\275q\367K?\216c\373>\241\367\256>\003\313;\276\355\321><y\327\324=\001\000\321\276pc\235<\225\220\253<\342>>\277\257D\371\276\031\'I>\220\254\005>\310\304+\277\324\347\232=\347\t`>\202\230\220\275\206\243\022?\201BP\275I\270\357=Y\275\216\276`U\365\275\246Y\027>zi\211\276v\241\306\2753\367l\276\\8\300;\240O\264\275\214\220\310=Z\006\033>\261,\211\276\032\300\216=(\335\237\276\0375I\276\203\340\350\275u\350\253=\210*\330\276{\375{\275F\355L\277\270\201X\277=;\271=\006n\260\276\034\365\271>\271\007\354\275\0270n\275\323w\n\277\014eJ\276\236\2121\275\2446h>\322\022z\277\177\026\271\276\227g\356\276\270\245\257\276\301=\r=\265\201\347=+\271\257\275<\205\231\277\270v\325>\211\302\354<\373*r\277C\241\010\277\331\366\363=\342p\247>\332\366\023\277\033\372M>\355\226\036\277\020\243\035?\225z\331\276\315a\013>&\334\333>\335\243\321\274\275[\363\276G+\240\276j:\261\276K\366\003\277\266*\316\273N\2003\277\005\205\372\276r`\203\277\201-a\275b2\334\274\221\353,>\0132N>\365\033\032=U8#\276\330\211N>\254\221\261\274F\307\027\277\266\355\252\276\300\244\236\276\013\323J\277\030\266\345\276\016/\231=\262\002\261\276\272\341\362\276\r\345(\275\222\334N\276\014m\222>\327KZ\277nf\226\276\324\312\200\276UMj\275\300\314\035\2770\233\205\277[\335t\277C\371\251\275\3034\320\275r\006\017>\311Lq>BV\355\276\304\027\032\276\244\030?\277\371bc\275\026M\017\277%\310\016>j\243)\277\372_\027\277.\3563\277\\\352\327\275\342\212\033=\362;\211\277L\004\253>\310\376\221=x\021&\277\363\351\032\277\330T\201<\276\001\366<\355UY\275~\245\330\277\305\033\016\276b\013\260\276\330\210\027>\227\005\356\275\306\317\252>(9\\>j\352\033\277\361\251:\277j\271\016\277\375\350N>\215\352N>B\340?=\365\333\204\276\010\300\352>d%X=\337IM\276\2107\320\276\343).\276\331\260\030\276\020\342(?\271\232\027\275\250\027\000\276\2332\332\276\301\300 >y\332\005\277\001\303\300=\357c\247>\351r\232\274!f\376=\227\350\317\275^o\242\275\325\235\271\277\376S\300>\366\332\313>u\037\317\276P\2724?\'\r\017\274\\\3178\275J\221&\276B\377\220>^\334\237\276\212\245\017\277\375 \235=\2477Z\276pl=>E\n\r>\346n\366>\023\030\201>\027\010\212\2746# ?\250m \276\332\253\030\277\331\300\016<\002G8>\264\343\325>\315\343\243\276\303\306\251=\353X`\276\212q\255>a\0248\277H\212S<\350\345\267=K\204N>Yf\237<X\347\023\276\234;\323;\326r\334\275\000\342\207>\225\220\224\277\223\227#\277\033\354>\277\000\354\257>\027c\021\277r\217\213=\302\360\271\276\241\n\270\276\335u\247>\372\345\370>\327\027\266>MS\311\273\033\375I\2769\315\240\2755\246<\277:~\201>7\236\224>8\352\212\276\377oR\277Z\224U\275!\201\346\275\300/i\277\300]C\276\010\337\341=\325\333S\277<\010f\276\226\370\332\274\325\211{>\240r\027\276\217\024\246\276\376aF=\026?\330>\212\272\001?\246N\260>\025\204\372\275)\337!=X\264\004\277i\036Z>\341\377\203\275\303x\036\277\357r\325\276\216,\216>\351\004\032\275>\306L\277\272\007{\277\355\"\253>\375\325\023?\224\220\244\275\032\317M\277\362P_\276\334-\312=n\217\207\276n\233\375\276\372\365\371\274v4\202\277\t\304\210\276\215\036\262\276\316\373\370>i\261\254>\214r\037>\363~ >(F\231\276\245:2=\306\2055\277t\\\220>\341\317\030\275\366(D\277\242\247\342\276m\320o\277V1;\27787:>\321\034\266\275\302\027\363\276q\376\363\276^\307d\276\272\277\224=\217\271\326>\010\2171>\210\335\365\276\210T\344=\020X;>\362\006Q?\\\235P\276nk\034>R\031B>b\310\376\276e\257\020\277v)\324\276iZ\363\276\357\032\310\276{x\024\275C\355\237\276\\\312\n>\243pO>\201y\223\274D\316\306=\246\337g\276\321\362\253\276\257Rl\277G\313a\277\010t\037>*@]\275)m\024>H\200\316>\2144J\276\300qy=\0259M\275\350\220\314\276u\366\016\277*BE>\030fE\277\232\242\202\277\204\210 \277\233x\261\276\250v\177=\307\372k\277\372\346\016>L\235\234\275\007N=\277n\254\"\277\004!\250>\245\314\210\275k=\334\276\331eD\277\3001\254\275p\240\002>:\210\201\275\177by\2768\240<=\02525?\324yX\276*w\322=\252\323\324\276p\303\230>\243\340\300\276\333:\224\276E\226\025\277\267j\030\276a)\253>\265\273\212\277\255\261\260>II\001\277\014o\264>\322\352j\274tv\211\276EuL>\347I\300\276?Mu>i\344~>\036\033\246>g3\223\276%\270\234\277\236\025\341>\270\267\346\276\253\303~\276\301\242\017\277F\215s\276+\216\243<\371\355\300>[\256R\276\033\313\373\276\035\010.\277B;\362\276d\321\331\276\327\r\026\277\210Z\367\276\236\'M>F\360>\276\364j\235>\027\214<=\215\333\363\275\331K\250\275\3058\374\275\001I\226\276\336#K\277\352\365\241>\327\265\271\275}bc\2772\330\241=\314\236\366\276\2014\n\277\\\347\211\27605\365\276b H\2763\322\035>\227\tO\276\327\311\321\276\026\215G\277\323V\366\276\202\330\353\276T|1\277\303&H\275\331\212\037>\264\365\205>f\014\306\276H\334\232\276\201\213 \277[\256}\277D\336\323>\242p\267\275\300\341(\277+|\\\277\002\223K\276\222\374l\275\361\255\323=\366\211?=\2005*\276\325:\251\275VU\t\274w\032L?4\276\235\275\316\372\257\274{\357\021\277\263Z\023\277\211H\322\275\377\302\205\274\027\324\274\276\355\025Y\277\270Q\260=\314\350\251\275\211\343\222\274g\rf\276+e\371\275\324\023%\275/\307\231\275\354\271\333\274\'or\277\361\223r\276\224\373U\275(o4>\255\270E\276\231\303\225>R\271\206\276\326\\\357\273\0322\006\276\254\246\271\275\355\365\223\277\247\265m\275l>4\277\212B\203\277\275\030\332\276;\273\350=v\010\337=\002p\235\277\321\352\007\2753\257\257\275\356\321\351\276\275\321\205\277=\2438\275]0\224\276\032*K\277 \230T\277\331\036\333\276\255\021\375=*.9\275{\355\234=\366y\217\277\371\002n\276XN\212\277\340\033{\275\013\231\242\276\261A\257\276\350`\036\277!r\014>\347\035\025>\331Q\213>\201n\003\276\311b+\275rc*\277\271\021\222\276\373\027\322\276\243\252\272>,\347(?\243\377O\277\266^B\277j+ >\314<\341\276\265Y\025\2749\016N\277\260\350C>2\217\373\276\000e\271\276j\027\316=o\203\262>\245\210D\276\353\243\000>\375\215\373\276z\002\357>\\\371\013>\205\276\000\275j\024\r\277\332\230|>\213\330/\277\203\212\026\276\340\332\017>\'U\251\276\014R\027\277G\234\276>\306\257\237\276\355\202\310\276\370\333\311\276\303\227\027>|\225;<\036\213\315=\343\3016\277+\202\276>\346\340\204\276\373>\'>\266\311{\276\271<\267\275\273\257\021\277\226n\324\276:\250\260=\005\016\023\276\250@\255\276\027~X=@\222M\276\253w\205\276B\"\237>$\'#\276~BL\277M}\260\276w*`\276\263\361*\276\215\355\014\277{\372\354\276s\207\023\277\257\377\246\276h3\320\276)\224\n>L\326?\277\204\237\016<\352\326\325\2761\240&\276Z\214h\277\032/\255>6\347\007\276\204`\204\277R\032\251\276\357}9\275&\306\325=kI\030\277\007\330^\2750\226\207\275\264\370\221=+p\006\277f\003\260\276\257\005\243=7\366\211\276\230\224\300=p\2735=\362\304\321>\035\307\241>o\336\215\276\230\225I\277\030)J\276\177\262\332\275\026\307t=<\201c=\375\321\322\276\016\206\225>\t\352}\276\"\341\232\276\224]\n\277D\360\326\276ON\030?c\013\365\275[\376\234\276\214z?\276\033\222U\276\226\243G\276f/\206=\033l\370\276\356\340\207>1/\312\276TZC\277\201X-\275\036\362\\=\016\001b\277ks\032\274\025Lr\277\016r\033\277\177\000\253\276\267\353\014>e\034\250\274If\335=y\345-\275\005\003\264>\"hh=\223Gc>\312S\266=O\226\016\277O\375\304\275\357\225@\273\222\277\033>Fv\341\276\031z\200>\301\243\343=\242$\217\276h\271\350\2742\250\004\277Y{f?\373{\005\275Z\340\001\277\244Q\210\276\002?4>E}9={\024G>\215{\n\275\312B\252>\010\230\245=<\027\345\275\374\275(<A\356\362\275\302\352(\275\331\026u\276dl\277\276\323\221m>\337\271\311> \223\241\276 \277\223=\222\337\334\275\213\025\202>\310\356O>fr\006>y\"\306>\331D\326\276\364\221+?%\324\016=\200\356\257>\\\021\311>\230~t\2762-\037?\275S\311\275?\215\231>E$\347=[\362*?\331\036\241=6Q\001=\370x\236>\332\2257\276u\267\347\276KH\"\276\327\242\330\275\201xg>\033\353\361>\306\234[>\236r\010=\234\345-\277<Y\'\277U\033O\276\32446=\\\037\033\277\033\330\023\277\026\027N\276\275\203\320\276\321%\361=\031\262\201>\251\227\327\276\341d\240\276J\334\316\276o\261\313\276\260\257\206\277\036Q\004?\260\370\013?\2574>\277\010r:\276,j\361;\245*;>\266\302\014\277\014{z;,v\334\274\360\375\276\276\037cF\277\007\302\013\277\033l\217>\346\267\207<XEA\276\037\331\327>$\004\273>\204\210\006?euE\276\rE\025\277\312\372\275\276\034J\322\276\361\253\262\276\001\335\347>\013\344\200\275H\200\307\275\226\361\307\276\354\262\330\276\3471U\277\017\036\223\277\361W\223>\027\345\021\276U\245\336\276\223|\\\2773\217\211\274AW\366\276\374\313\033\276\245\242\242\276\233R\256\274\270\341\261\276\005p\004\277F\222\013\276\020\242\267\276\\A?\276n\377#>]\311\212\277\001\366j=\250\375\230=\356\207\364\276\336.\354>$\177\366\276\302\006\233\275}\216\315= {\024\275\036\361\317>\367g??\376\243\254\276kC\374>6Vf?\252\333\261=h:\322\276:^_>\256\242\251>\314\257\321\276\316\265\300\276\213\331\364\276\302\243\'>,\301\036\276\364\305\032?I\022\321?\026\234\234=Jr\265\276\371\032\212>\324\0240>\007\331\334>\032g\210\276\256{\213=0\217\337=\305\332\343\274\221\302\215\275O|\004\276\206\374\234\276 v\020?3\374\210>\274\256\300=j\311\217>\202\265\263\276\314Y\311>\367\n\246>\304U\251\275_h\212=0K\030?\226\003\360>\002p\316>\035\371\004?\007\321\024?k\036\267\275:\311\237\276<\314\026\277\273\360\336\274\360iR?\376\374\224?\251\372i>\231]\223>O\0147>\364jL\277\232\264 \275\344#\363>\333\235\020?\035rS\274\351\214#>\025\310\"\276}\371\362>\036\\\364=\352\010[\276h\315\257\276W\rQ\2776\017\232\2775\254:\277\037\362\265=p\234A\277\004\002Y\277BK$\277\333\352\\>\013\222\314\2760_\003?\002\352\r\276\220\364c\275Z\265V<O\006*<\334\347\036<Y%\375\276\331\253)\276\010VT\277\245l\202\277Dhi\276\360y\316\275\250$i\276\231\363\314\276\310\016\354\274:\315g\276\327\374\314\275\205\235)\277u\344\341\276\365\323\310<[\'\243>=\320F\276\324\030\177\277I\0015\276\367\3251>\203Y\373\276\374\037\n\276\366!\200>\204\215W\276E\260-\276w\'\"\277\256\213v\276\231\260x\277\027\233t\275\363\305\314\276\023\206\353\276\331%`=\242\251\266\2763\373\033>k\244\213\277YWt>\201_\243>\271\260F\2778\241r\277~\363,\276;\246\272<N\024\030\2778\313F\277\242\261\021\277\250A\216\276\216T\005\276R\323\231\276\334&\220>\230\300k>\303\204\036\276&\373\302=\035\255\022?d\327\262>wz_\276\201\257\310\276\220\210\200\276o\305\031\277Q\223\202>\035\000\303\2743`\340=\255+\347>n\241\211>\007/\007\277;)<>\226\002\353>\244T\200\275\306\312N\277\377\235\340>|Gj\273\275\007-\277I4\375\276O\007\201=\213\214\007?\337q\225>\003\213\257> {\264>ACB\277\'\341\305>\371\254\032\276\336\312@\276\037\034f\274Hv\263>!\356\314\276\320\212\305>\024\017\222\276_h]?\203T\005?\315\227\203=\227\306V?\3177\032\277\363\\f\273FK}>El\332>\213\030\016\276\375\360B>e\357S\276\024\231;\277\370\017\257>\304\2230\276D\240\317\275\205R\020?\376\301\263>\367\360V\274\216\037\031\277(\206\317<\231\0106?\267\023\362\276\226\003\226>\231\005\366\275J\301\323=\366_\376=\217Lz=\"l\227=\036\311\023>\257\240O\276P\010\213>\310\244\222>\010\006&\276`\373\'\277FH\362\276\324\343p>g\315\034>tgF\277\270\273L\274RP\205\275\231Yv\276\344\260\327\274\334g\272\276\346\177[\276\313\023\033=\261c\267\276Y\300\025?\013z\347>_xL\276\342\351\223>\200\006\t>\325/\265\276\237\332\267\276;A\005>\250\366\032>\352\212\024\276\227\323\336>\351]\250>\275h%\277>\334q\276\343\020o\276\270:\034\277\010\370\246\274e\017i>\262\026\177>\230\346\336\274\241\242\270>\303H\362\273\364\214\261\276_\021\270>\332N\221>\034\206\231=dv\254\276U\361o\276([\032?$\345q\276f\333H>r+\377\276ZP\225>Y\374\232>\243T\245\276CIM\276\350\024+\276U\221\n\276K\322\014\277\201\306<>c3\251> Z\302=\303 C\277MZ\247>a\223:\275I[\361\276\344\375\004\277\026Z\236\275\303c}\277e\232\'\277Q\001\216>\371\362\244=\221@\004?g\"\255\276k\362\246\276\230uw\276\232\356|\276\376\370\361>\231\330\231\276\366k\033>Q|=\277Da&\277\035.\333=N~\334\275\370W\201>\233v\036\277\320\001p\276\361Ok>\363<\274\276\342&\202\277\030b\236>\245#\344\277\251\005\254>\tF0\276\327\2142>/\264\361>\242^\364>\211\n\366>\356c]\277M%\000?\253!\356>[\224\001>pB\236>}KN\277\257\'\r\277\340s8\276\007l\002?\337o\213\273R\']\277\255\034Z\276g]\261>\202\364\'\277\336J\200\277Av\000\273\322\270\306\275\301V\003\276r\002\257<I\2052>i~\365\276\253d,\277*\264\214\276Z\276\002>lLG\277\201?F>-IQ\277\n\347\016?.\231\034=\305J\354\276\226\240&>3\016C\276o\312?>\234\2379\277\301\373W>6N\272>\225\272\373\276\312\267\024\276\\l\340\276P\253\207\275D\217\335>\025;\021\276\262u\362\275\242\256\320>\3739\020?\002\243\210>\310TO\276\257\314\037>\363\200\233>\'\341\021=\336\031P\274\327\360\214;\303\331\255\276\320\304u>I\260\252\276\236\270%?\356\3376>\334\201\335=\322\261\313\276k\245W>\2625\033<\327\013\t>\201\024T\276\244\306\351> \332\314>\257\030\212\274\001\364\256>\355@\016?S\223.?6\032\302>;\316\016\276\346\020E?Tv\r=7\226\352>/R\350>&\365\315\275EB`\276O\025\351\275\201@y\275o\177j\277\320\367\202?O\033\212\277~_\270=\321@d>`\016#?]\265g>\232\211|>\234\203\002\277\377\365)>\376\033b\277\344\274&>\030\000h\276\220\245J\275N\321\332=\334s\006\276\250?\020\276\010\210K=G\014s\276\237\207\363=O\363\311>\005\326T>\030\360\353\275~_\242\276\025\022{?\320\267\327\275|s\034\277\333\317\245<\005\243\215>\'\362#>\324\024\200\276\255^\276>\310\\\005>r,j>_\373@=(nY\276\272\210S\2744\t\306<I\303\303\275j\022\004\275\247\323D\275\253*y\276)Y\235\275\004(\311>\314G\371\275L2<>\352\026\335\276\261\2713\277\213\325\005\277.\000L=>\274s>_\302\010>\221\260\376\276AP\303>\231<\372>\274\241o=\347\023\377>\010M\356>\3002\242>\034y\304>\352W\256>\005\242\326\274\272\006i>[4\302>\265@s\274\276\232\312=\242\023\254\276\310\016\223?\367\367\273=\242p\330>}\n\016\276\3022v\276FtI\276.\362*\276\260\265\022\276m\260\321\276\347\246\231>~F\366\276\235a$>z\257\367\275v\024{\276c\031O=.\335p\276W\210(\276\231\350\212=\257\323\345\276\253e\316\276\356\n\034\275>\3175>O\316f>]3\200\276\022\n\261\2765\367\313>qL\200\276\274\222\356\276\357\274\274\276\013C\316>\216|\234>@\303v\275\004\276\203>?\302R\276\037\303o>?\315\377>\306\277\005>\311\303\242=\374\375Y\275\361\006T\276\377\326\360>\272\213\216\276\2675B\276\021\337\332=\tL\262\275\361\370\273\276\225\215@\274\252\314\r\277\303\034\327\276\277\210\\\276\014\327a=#\226\235=!5+\276nj>>=\211\205\276?P\013\276o\211 >\352l\305=B\360a\275Y\367\275>\r\3473?\255\261I\275\341:\327\276e\313\217>\232\252P?\357\314\031>h\027\217\276\211\274*>\333\256\037\277D\305\206\276\265L\215\276\220P\276<\354(B\275\370\306\357\274\250\206\031\276\276S\366\274\350 \246>\276\200\224>\354\367H\277+\216P\276\302\302\247\277\230\305\347\2761{\241>\313\270\205\275ri\322\276O\334\232\275\001\250+=\242y\202\276)\262\003?\262F\241>\207\355\205\277\201\242,\276\242\313\010\277gI\225\277M\330\224\276lr\010?\376\351\036>\252 \261\275>\240!\276A\237\227>B\265q>\333\201\351\276\374\233\014\2759\233\007\277Sr\214>\005r\226>MZ\262>\'\265,\275\213}\025\276v\222\225=\033\002\245\277\247\245B=\375+/>7\304\216=\210/\200<\231WT\277b-&>$\307\227\276\326n\331>&\262S>\224\030 \277\224\363&\275\243\024}\276\022\267$\2775\245\253\276\220\220\237>\207rA\276\330\243\013\277\360\220\260\276\267\024\275\276N\3429\277\260X\224\277X\355\235>\257\236\242\275\273\237y\277\3255\270\275\271\316H\276\375\213g=z\n!\276\020Hm>\275\021\246=P\221\254=-\215\327\276M\347\314\276\276\361\204>X\242\242\276\232\0072=\305uW\277(\307\263\276\301\367\007\277|$\264=\202H\024\277F\031\000?!!^\275\262\371\233\276\021\210\223\276\265\033\340=`\226\331=\336G\356\276\327r\006=\357\222[>eT\226\276I\246\351\276\257\010\t=\341E|>\035\315G\277F\230G\276\323\220\306\276\245\026)>\235\317\013\277$0\256\275T\256\241\276yv\224\276\0179`\277\\j\377\276\337\213\t\277O;E\2777\\\035?7\366\271\274\rL.>\034\001\025>:\266\014\277\222\216\373\276\275\330x\276\306\003\264\276\371Z>=\251\025\027\2776\343\335\276\024s\361\2768=3<B(k>\231\333\026\277\035\216+>\024-\211=\237\323\215\277\302\375:\276\206\312\016?\344\003\263\276.\363;\276\337WI\277\255\356\360\274\233\323G\276\214\232\252>\006\226b\276\364\245\371\275\233\375\263\276\306\261\314\275$\336\207\276`MH\276u\352r>\366|k=\300~\221\275\340(C>\201\366\007>U\273\304=\346L\243\276\356\367\260\272@G\226\276\035\\\010>\006\027\004\275\230\257\224\275\241P4\276\224\341\033\277z:\225>\002\271\350<\227]\t\277\345\260\213\274\376\267R?\260\331\365=&\2629>3\2318\276MD8\276T\266\203?VC\261=[\345z\277\341\003$?\303\376\207=p\3057>#\322\234\275fh\250>\366\333-\277\242&\243\277:\207@>\236\205w>\207\276M\277\223\233\246\276\313H\375>\021\374\035\277`G-\277\370O[?NL\263\273\200\022x\276\277\2528\276\206\2514?;\244\221>\321T\355\275\212\277\375\273X\300\347=T\360\271\276\203#\227\276\017\256\016>\030$\225<18\271>.\257>>#)\"\277VE\225>\264\026\342<.?\024=\365*\376>\252\325\247<\211\177\374>\217G\217>5\272\004=\310\216\260\275\373\0246=\222\034\336\276\001\366\271\275\275\305f<\353\032\246>&\270p\276G\351\314>\031\210+\276\355=\224\275\202\r\010\277\213]I\276\025;:?w\351\233>O\254R=m\346N\276\026V\247\276\314\t-?o\013E?{\356\014>\265\2273=HJ\022>\336-\260\276\361Eb>U\262\003\277\004u1\276\301<\250<\200\t\360\276\245\254\262\275\336\243;=\212\370\225\276\017\0350\276\025\341C\276;\242\362\275AI%>\363\367\363\275\366\004\024\274\001\271\322\276Lk\324>\253a\220>\250r\241>\300\010\260>s\345\370<\346\326\260>\2370\245\276\313q)=\3161\314>Z\371{?\313\275c>\0165\254\275\003j\300>\010\337\222\275\335\315\336\276\236#R\276\252\254\354=\353\225 \276\237F\210>.\227\264\2766,\213<\035@\037>\213b\230>\362\250o\277\323A}\276\025\275\237\277\275\343\262\277\303\255\237>j(\262<\227kW\275#\267\263\276\200\370C\276\007T!>\307\003\317=\2161*=\313\354\266\275\220\344\003\274\322Q\213\275k\013\005?f\361\307\276\253\000\206=\227+\030\275\000\327\342\276\366\212\022\276\346LN\276uY\276=\276\324\254\277\3040\022>F\210F\275iz\371\276\206\246\306>\222\274\032\277\304+\203=\227c\262<\020\351\312>\246@\334\277K\242\321\276\372#\036>\306\253e=\235=\021>\247\341\357>\261\313\333\276\2649\231\276Th\222\275\265\216\244:\312\273\252\277\371\022\r\276>\331\232\276XX\243\277\366g\346\276\270A\334=\371\220>>$ch\277\351\303\244=>\276\265>H\265\241\277\237\246\276\277\225;\030\275\246\213z\276\256|D\277\342\233<\277\351_!\277\2045@>\314\242\257>\272Q[=\261\303\016\275\225\035p\276\243\352k\277\001\274\261=1D\227\277\363\357/\277W\027\031?/G\340>\354\340#?\360\344\327\276\341\354\367\276\272}\351\274\224d4>\035\300\">]!\206\276\337W\207>\245\224\353\275\301_\022\277\260\212^=G\234P\275Q@\203<\n\004e\276\371nP\276m\336\355\276Hs\242\277^\"/\277\230\tW>\235\020v\277S\263\256=6\222\n>\361\t\346=Q\270\305>$\374\023?\213\3314?j}~\277\023\221\225=\250\203\202;\365D_>\366\254F>S\266\033\277\374\024\013\277\213\333\243=\360b\330>\352\263\314=\240\357(\277\004@\275\2764\"\212>\320\203I\277,\036`\277p\341\244<\242{Z\274<\003\271\275\3605#\275!x\343\275Xt\320\276\376\3449\277\013\361&>\356B<\276Q\277}\276\017\275\032>w\261\364\276rT\203?\235E\027?\005\006h\276\247\226k\276\t\333\312=Y\206.>V\n\'=\344\215\336>IT\350>\020:\363=\346\223\027\276\004\244m\276\367\300\036?\343\003\270\276\255.g\276\357Y\036\277\235k\007?\257\2266\276\264`\037\276-n.\277\010\030\025?03\353=`N\345=\315\235[>X#\005\275X\210w\276\016h\366>%[\"\274\035\305\017\276+\202K>\362\352\r\277\370\022\260>\274\311\327=\334\272\325=2\235\t?\272K\264\276\2715\254\275\303\025\252\275\007(\321<\'\235\344\274\347\233\346\276\274\303\332=/x\316>\243<K>T91?\243]\177>\027\351\253;\353\264c>\360\343\324\275\342\243\240\275O\376Y\276\306\253\343>\rA\236\276\260+<\276\200\005\205>\377\375\342>2\037U>\313\244\275=\244\262\216\276\313f;\277u8\207\276SO\327\276\007\222\n\276\320\347\254\276I\265\345>G_\001\277\035\335\231\275B\005\r\277F\277\224\276\276IS\277\255;\037>\232\214\213<\014\235\345\275\207\247,>\224\001\261\275U\203\016\276^C\274=\013\257\331=\200\220b=\215\231\223\275+\220\016\277\326\346\367\275\224v`=\007f7\274&\0149\276\273\216\216\277\032%\007?\020\260\357\276\314\353\204\276\3265\204\276\037\374s>o\010#>\302\007@\277\250\035`\276\215\341\365\275!R\350=\245^\262\274\375\314,\277Y\260E>&=+=\r\360\n\275\306\322\030\277LM\234\274SF8\277\334\233\200\277@\272\021>w\260\205>)\270\035\277q0\023\277\022\274k>\255\274\373\276\021\326\371\276C\245\305>_\345\000\277\006\2745>\036[\351\276\200\311\353>\353\343\261=\037\212+\276\307\230?\276*W\320>\034d\222\276\002\251\315\276\365\010\260>\236LI\276\"\360\002\277\010-\013?\346f\202\277\245\301I>\321\231\014>\310\316 >\207g\021\275\033\315:\276\2465\202=\374\367\275>\277h\243>\253`\315=\000\235\202\275\214>\243>\'y\202>!T\255=\034\347\246=\341\346\001\277\326\247\\=\031N\213>\276>9\276\210\016\226>\007\270Q=\005\327\362\276\023\332\211>\341\234\257>\227\270\254>\255\370\202\276\023\215\355\276\211\260M?\323\0320>k%\351=\264P\277\275]\353(\277\310\016\202?\003\263>>\217\244\240>|\277\325>V\377,>\234\331e\276\335\037\373>\304\256\370>\221r/>\354x\"\2768\t\234=R\243\306>\006\255\035>\240~\210\276\261L2\275*U\315\276Ce\315:.\256\211\276\360\2405>B\355a>\305{\333\276\222\241\232>\034iO\276\230$W;\203\367:?=\217\003\277\010\305\246>\264\353\267>\230\2253\275\371\254\312\276\3748\260\275\031\346&>\230\020N\276E\244,\275\225\277\004=\336d\250\276?mE\277\316\221\202=\376\336\267=\014Q\022?\332\004\346\276 >5\276\231\3000\277\314\t\201=$wS>\031\333\205=le\305\276\320\037\316\275\352X\000\277T\014\021\277\253\020>\277\356K\030?\212\276\355>E_\004\27747\244\276\"N\250>/\275\244\276/\023$;\312\026\325\276|W\227>\210\301-\275D\031c>ac\036\277r\275o>\017\246\024>\023\232v\275\005\024I=\2425u?|[\277>K\243~\276H\326&\277\252\226\306<\032o\025\277^\237\350=\352\210\254>\362\265\n>\227\303z>\220\014b\275u+B\276^\026z\277\346h\306\276x\352\346>G\035\210>PrS\276\211\036\214\2762\263\t\275yL\263\276\247z\002>O\002E\276\020\316\310=\351\034\300\276\301\300\242\276\316\344\336\275\320@:\277M\"\341\2762\277o\275\377\375\243\276H\022\317\276\224AG>O\223\006\276\316b\203\277\rI\010\277\367\361\r\277\367|\'\276\250\361\375\274eAG\277;\3267>X5\327\275\224\351R=\370\177\221=\n\212q>\371s\331=QB)\276\302\\3\277\005#\227>CV\273>\373\357\214>\016\252x\276\356Cm\277\366\017\353>\317\205H\277=\3707\277\232f\007\276\316\305<>A\216\207\277\223\371)\277\207\026\254\276A(n>,\320!\277\354o\272=\252$\332\276\250k)\275\007V\245=\303\223\202>\260,<\277\031\020\200<\302F\224\276T\017\275\276\'\374\351=\030\314I\274\251\264\351\276\350\311E\276wi\r\277A\t\016\277\224E\243\277\235\2150\276\357H\201\274W\263\371\276\266\"\361\276w\035N>\327\356\027>Sv\324>5\354\326\276S\312j>\203\307\263\276\274k!\277\025\235\016\275\257\251\370\274\203\024\230\276\2647#?\350\037\345\275LY\335=\262$%\276EN1\276hW\370>\3103\013?\221\224`>C\210\030\277\364\327\250\275\034!N\276\213\2143\276\357\312\213\276\334\330;\276|\331\355\274\261\341\254\275\3541?\277\017\004E\276\266\325;=\273\316\343>+\342\231>)\3616\277AC\226\277\034\242\007>p3\371\276\275\264e;j\r\305\276\014i\037\277\204\376\005\275nd\224>2(\234\276\336\3447\276\235{\224\276N~\227\27555\\\277\200\000\256\276\215\\\232=q\315j\275\311\253\035\277=\306\004>\307\311o\277\t\016#\276u\251\254\275|t\310\276\227\226\237\276_\211\220=\324\246Q>\355\231\206\276\303{\035>\033F\316>u9\243>\212\272\'\276\025\214\026\276\342\303\005<R\3155\276g\365\331\274\006\177\252\276(c8\277\313V\010\276?\242#\276X\215\261<~\224k\276\237|\205\276\241c;>``\026\277.\316\326\275\002\315\260\275\204\205\343\275\377\375/\275z\n\330=m\023\365>b\002\207\277\tn\213>\266\217\202\276\033*\221\276\013\1779>T\303\355\276d\316\344\276\347\212,\276\n)\347\276\324\325\005\277z\351\372\275\017P\236\277HV\343=\202\004\324\275N\022\275\274\375y\334=\000\340\373\276\2145\022\277\213\240\001\277r\026h\277\021CV>\327\020\267\277\315\3701\277=]\342=2\365\377\276\025\233\023>\330\225n\277wx\270\276\014\310-\277O\260\341\272\270\302\350=\351R\217\277\252\0346\277=\352S\277pG\263\276\254\361\001\276\316\226c\277|*]>R`z\276\3474>\277\333y\270\276\241\354\273\276\353\350\251<k\332Z\274\360$y\275\334h,\276\317\004\203>pC\r\277c\341\221\276\255L\302\276\354\213\264\273\013\243\370\275p\027%\277\344\343\336\276\024@\205\277\326s\267\276\'+\224\276\013\275\026\277\351\371\367\276\033\177\200\275\346\023\034\276\031\246:\277^\207H\272h\322\235>\330\214\034=&\257\364=^\213x=\314\302\252\274\025\326D\277jK\242>\333\233\237>\242\017\030\276S\200\213<T\365\213\275wN\014\276\315Tk\276\254\254\262\275\023\320\232>E]\235=\021\260\261=h\324\232\276$$\032\277e4\377\276\267$\215\276\325\217\001\276\025?\204\277\257\356w\276\322Q\005\277\t=\211\275\231\rj\276\325U\240\276\213\001!\277\376\200\005?\257\301\244\276.\366.=7c\371\276\373c\253\272\304\031\001?\343\r\253>\3359\230\276b\021\n\277\273r\204>\002G\035?\204\374\226>/\335\255\276\244i\t\276\366\3621\277\250L3\276\227\336\004\276\200\336\247\275\254\265M>\002\227\271;vm\030>\362\035\341\276\013n\217>h\300\240\276 \376\370:DP\021=\024\233p\276\245\227\324=\360V\361\275\335\203\002\277\333\347Y\276\221\317}>>V\374\275\246\360\271>\177M\337\275\2177\343>\256\311t>b\236\367>\343\030\003\277\214?\233\275/\212\266\276\320\201*>\214\304\"\277Mt3\276\220Q\203>\226\r2?\t\257\232\275\374\246\276=\004\r\027\276\3663Q\277\023)\034\277\360\210\020\276\215\314Q\276+\275y\275M\342\024>\267P\324\276RL\266\276\215\023\203\2771\002\013\277\302\354|\276u]\256>\313\212\024>\200\210_\277\342\017\240=\034\0104\276\230\302\027>`m\325\276\215\360\030\277l\001\226\275\220\233\370\276\000w\314\276\033\021Q\277\373\334|\276C\3128>\376\316,\276\264\037\223\276\372K\263\275\312\316;\277V\331\364\276f\250\034>K;\376<\356\323D>\037\333\002=\254`\234\2769\025N\277\260\206L\277\251\312\253=%\267\222>\256v\013\277\344\234\217\275\230N=\277\271\006\372\2767\333\234=3\317Y=R\356(\277vKK\275b\213\020\276y\343=\277\014a\305>\251\376\335\275]\034|\276HXL\276\342^\355\276lC\236\276b7\250>\023%\364=\317\003\017\276b\026\311\275\360\006\211\276jG\001\277t\207\227>\334\341N\277\304\234@>\372\267\251\276\001\216\313;\274\010\363\274\336\227D\277\262\323m\276\262\002\314\276\027\364p\277\264\027\216\275\315\207\024\276*\312j>\232\305g\276\210\222\337\276+\313\240=\343\343Q\277\225\031B\276\'\nX<\335\325\307=\273a}>\234\366\331\275\274\325?\277x\204\013?\367+/\276v\351\362<!\373n\277\214\006\276;\r\325\261=\016\204o\277L,\326\276\321\266\270\276\316\243\203=\341L\236\275\373\337e\277\345\027\224\275D\323\303\274\315\007\014\277?Z6>\255\305\313\276\000\217!=\274\273\236<Z\263\"\277\267\244Z\277Q\212o\276\020\330\000>\344\236\002\277\251d\262\275\230i\214\276/`q>\320\254\333\276\340\2633\277\205\013K\275\337\363\017>\330\344a\274\301\3269>p\211\032?M\214\251\273M\371g=\216\343\020\277\002\253\003\277\264J&>\1779z\276\200xU>\t\313\342\276CP\323>\352F\223\275`\212\026\277\326\253\260\276\325\201\300\275\035\361\227\275\376\260Q>\307\307Z>\350\245\242\276\206\360\"\276\260\227\225\276\317\377\223>f\213l>0\317\036?\215\366\361>\263\315(<h\004\036\276\345r\302\275;\371\220\276U)\326\275\025\367\t\277\350\010\304>\355j\021<\r\252\231\276\371\275\375\276t\356\226=&\000G\277`*\347\275K\321\025\277\031\254r<ua\222>\353>\227\276>\233q>s\266\022\277\266\366\020=cd\252\274}\246\245>^4V\277\014\216\311\276\210\3132\275\004_\226\276\355\213|\276\345]\267>\010\223\003?\251\313\345=\301\336u>h\333\233\276\300\323\347>y\375\231\276U#\344\2764Q\206\276\037<A=\340\034K\276\354\207\020\277\3300.>\377\334\223\276^E\r>\021\354\022>Km\302>\004\225C\277\332\255\207>\307G\346\276R\004$\277\211\211\362>\306^\211\277\244v\234\275\374\364\020>\242\310\375\2754\001\013>\200s\n\277\350N\010\300\223\266\"\277\337\306j\276\344]\262>s\226\001?;\305\207\276)F\361\275\324\"\002\277V\244|=\366\026\237\276:\340\252\277-\257\000\277\363\261\303>%=\204>1\273t\277\255\354+\275`|2\277V\277\324\276\261\017\275\275\357\3310\277\231\263t>\004\267\217\276z\301A\277\222Zk\276\330\002\225\276\347P\226=\232\211\222=\232v\325\276/\000 \276T\320\324>\344)\261\277B\371\027\276A\325\343\276\014\\\371=\271\3310>y\326\247\277t\345z;\013\231\200\275\275\265\270=\003H\213\276\214\302\321\277A\310^\277\203\261\364\276\306k}\276{\276\206\277\177\315\241\276\013\000\016>\202\230\370\276Et3\277\254\263\203\275\344\037\306\274\\u\001\277\276\226\336\276\255\364\326>\213\025\247> q-\276q4@>\227pl\277\010\033\014\277 \325\350=G}r>|\200\254=\264y\005\277\262n\231\275\205^n=:\316\212=-;\026\276?\021\037=-\227s\276+4\340\276\340\377\217\276\240\030\357\276ak\021\276x_\265>\276o\036\277)\027\304\276U\340\324>\365j\313>\336Q\230>,\320\n\277$\267\301\275\204\273r\276\223\204q>T\354u\277\214\356z\277s\276\346\275\025\020\201\276\231\254\217\275\016\372\315=\351\236\200\276.\225\333=\240lM>\232\341\024?\315\341\260\273\271\200\247<g\237\272\276\231\230D\277\264d|\277\357\201\272<Y\226+\277&\373\305\275)\224q=\277\362{>\341\020\226\276\226]\024?\036!u\276\260Xd;,\2412>\350uk\277\0226I=`\334\272\275\206\026\224\276Lk\003\276]\270i>\027\345\200\277%\331\253>\375\305?\276\2725U=\016XP>\026\3357>~\326\231=\240\365\214\276*\004o\277k\010\346\274~\365\257>9R\341=\360e\014>\306W\246\277\240F\001?*\257-=\017\214\204\276\227\030\367=\007\276\233>\367B\n\276\241^\357\276\023e\316\276(-}\275yq;>\014\201\017\277\217[\204\276T\031\265>\310\t\n>\263\n\004>\357A\021\277\217k\313\276f\003Y\277\000\230,>U\004\231\277\267\234\275\276\t\255\371\275\033\"\\\2770B\364\276\2456\024\277\337\004\370\276\274e`\276\214\023\321\276h\317\006=\2413\024>P\037\265\275P\177&>\333\324 \276\271\307\023>\323:\232>\212\\\201\277\\\355\245\276\315%\216\276M\271f=MZY\276\255\200\373>\302\250\312\2768?\002?,b\007\276\323\207*\277}\226\314>*\345\025>$\334\227>|\303G=\177\316T\276o3!\277\266\265\263\276LBS\276\331\321\357\276\034Z\204=p\230\256\276\216\214`\277\201S\217>\375\\\037\277\223\200\325>\231\333\201>~\323\305\276[d/\27799\243>N\235Q\276\260\307;\276\253\3228>Ys\200\276Js \277\320g\">{r\307\276xN\007\277(9o\275\364\247\304>Hj.\277\'\351\342=\335\212\273\274\356\\\360\276\037\236-\277H\345\300>\276v\344\276\247\017\001\277\2505\000\277\255w\311\2767e!\276\320@0>v\tz\276&8\321\276\211\002C\277\215\312>\276V\034\247=\267QP\277c\346\257\276\226\253|>\024\337\302\276\305bt>\010I\277\276\243K6\277j\323\343\276\307\2274\277\3506\247>\245\307K\276N\002\266\273p^\030\276\207i!\277>\233\326\275`%\314\276\241\227\030>V\270\220\276\177\323^>\222`\227=\265z\027\277LTk\277\236\321h>&\330\024\276\247\375\021?\267+[>,\020\361\276\003\325\337\276\247\277d\276Zz\"\277|\177/>-\342\221\277\245g\212>l\\\t\276\361\265\035?\312\2425?\027\313=\277s\341\367\276\351\215\034\277\332z\202\276\220\005\374\274\003\010\204\277\261\273\256\2752\374!\277W\3751\276\r\017:\275\327\356\031\277\2363\025\276\201\201\243>\226\233q\276-\252R=Q\366\257\2764%\350\276\364x\n?\274\310\344\276Q\320\007?\326\225\177\277h\203\262>v\030c>\203il\276\010\302\246\276P\317W<\317\366\021\277\312\2113\276S\207\200\276\032\352\213\275\257\177\341=\210\254\303\276\252\365\332\276\267\314L\276\257\227\261>\303\034\336\275b\225\257\276\226\374\253\2767\336q\277\202+\010\277JN\232<{\363m\2772\373\024=)\355\032>5\003T>\351|~=\341X\226>})\265\276\333\354A\276>%~\276,\257\227;)\321\300\274D\364\032=\332Wi\2768\037\305=\221\2617>\323t%\277@\313\005\277#\004\372\274\352\340h=\020\306d\275\277\353\r\277\334M\246\275\350\373n\275\304\221V\275y\265\263>\225`\374\276\271\336\'\276,\224S>\214\302\335\276\263G\'\277\204d\031\277\210a\006\276\310\231^\276\313\320\035>\r\334\021?!\361i=\276\004(\276\214,\216\276?\027\013?\030\301j>IlJ\2769>\025\277\361\213U\277\355\n\273\275\016\351\000?\353\326\317\271\343w\324\276\263k\340=\317xp>\262\214\032>\225q\204>D^7>\026\204v\275\037 \336=\"\362\020<5\n\233\275/\024\036\274;\221\274>\335]\205<\204\212\226=\017\312^>\213D\256\275\261)e\276_\334\324>I\010:>6\221\334\276\362&t\276\316G\244\276\331]5\276\313\020\256\277\254\207\211\273\304\003\213\276u- \277A\025 \276Dyb\276D\361V\276R\234\006\277\270\300\264>F]\005\276\000/U\277\251\242V\276\325\017A\277\367u\003\277s\306\314\274X\222\235>9kv=\270\310a\275e\307B\277\022\032O=l\241\267:%+\027\277\001\305\310\276\322\032\263> \363\241\276sk[\276\274\212\244\276b\240+>\024_\310=\231}\365\275\251\243q\276X\362\305>\010q\037?\373\255\016>za[\276]^\354\275`\323\007\276\210 $\276Ueh\277\206\346\010\277m\314\373\276\317\314\232\275i\353\246\276;\301\240\275\211\036\035\277\203\226\304>\375\327y>W\366\200\276\202\2627\2764(I>(\354\225\274Ka\007>\354d\027\277\230\265\3458\261\022\t\277\006U\250\276\337\032:>\345_\251\276\264\374?\275\374\201\336\275\344\216\"?HS-\276\235h1>>\201\n\277\311\320\336\276[\000#\277m\371\374\276*\"\267\275\222\301\372\276\266\\\242\276\036o\357\276=X\031>vo\252>\231\273\002\277\205\262|>\250\210\276>w\031Q\276\034\016\345\276q\177D=\315\020\276\274S\275\001\277J\366\365\276y\333\272\277S\222\256\275\342\365F>\372\364\232\276\262l\231\276e%}\276\2023e\276\240\031p\2765[S\277[d\252=\3046%\275\257\204\235\276\005\216\315</\334\233\276\306\207e\276\207\311\247>qw\002\277\255\006\313<P\275=\276\2370\230\276Ot\354\275\312\2151\276:\316\037=\245I)\276p\222G\276Q\216\033\277l\"\256\276K4\346\275\334\r\303\276\217\213\200\277\016g\360>\312\347\"=F\256\212\276\014\304\364>\334\271\247>\2647\246\276:\302\333\276\031R*\277\305\372\234\276dCf\276\373\226\214\277\240}\336\274\324)\257=,7\235>Wf{=\037=\247=\320\2447\274\274x\244>\376\207\t\277\341\006{\275d\235m>%>\243\276\n\177^\277G%_>\251`!>s\025\250>\320\301*\277\375,\345=z\000\006?\010\245\242>\375%-\276d\334\316==\r\217>\213\227\320\275\034\375\230\2760Q\">\n\271*?\356\326\257\276{\277\304\277\255!\t?\275T\202>\220.\262\276^\013P>0\2046>\0214\025>\276c\010\275(1\223=X\246d>\201t\213>\263\000\273\273H\274\274\276Kw9>\217<5\277{3\362<\\YR\277\351#\273>\264/\304>\363\r>\277\332\240\235>\236o\270\275\025d\336\276G\370t?\224\257e>s\227\003>\320\007\024\277=\343\346\276\235\237\375\276V\277\023?\222v\353=;\252\225\275\327\025q\276\030\346]\2760\321\371>\000h\314\276=\2169=2\007\207=\030W\">\302T\013\277[4\307=>\372\017\276<5\271\275a\2065\276+u\207\277\233\235\225\276\316\362:\277J\331\025\277\356\234\362=\301\371k\275\344~(=K\252\200\275\205\031\341\276\241\246=>\302q\256;\316\372\252\277x\001\200\276\246\203\n\277\244:\002>\246\264#>\311_F\277\n_\247\276l\2334\276\201\206\'\277\0238\027\277A;7\277\223\010\247\277\253#\212\276F\211&\277\"\246\235=\301\234\250\276\n&\032\276\030d\263\275\"t\316=\245\001\330={\013\036?\227)\345\276\307=\374\275\3303\273\276\212\374\002\274\313\031\022\277#\372\350<\021\302#>\234\311a\277\n\320\377>\017\241\204\276m\345&\277\2445|\275\203\244\030\275\"\313\035\277\250\030\203\276\306\317\273\276\005%\003\277\264T\273\276\327fH=\016\267\362=\200y\217\277UR\230\277j\305\277\276\000\3162\277j\000\320\277\326b\226>\020:H\277\032\372\265>)\275u\275\323\236\304\277v\272\276\276e\344\374>\212h=\277\364\244l\276Ad\234:Kcp\276\241\211n\275Q\301o\2764\034|\276w\357p>\264&\333\276%\255\013\276D\334\'\277\367\315\033\277\252\271\236<B\342\224>\005\210\303=\375\253\335\276\230D\264\276\341ln\276\273Y\231>!y\017\276\027\2568\277\347fS\276}\017~>\323\n\241\277\023\361\004\277\314r\366=\330\366\257\274\333p)\276\016\247\254>\254\343\030?\237j\350>\206o\264=\327\241$\277(k\017\277\247\010\225\277\207\217\244=\025<\007\277\207\000\266\276\373\275\266>\344\023\250\275\277y\350>k\253\271\275\253\017\274\273\007\276\235>!N\360\275pI\302\276\'+{>\342\215V=\223\023\232\276\345!t\276\245\200\264=\337<\267=\023\271\344\276ZU\033\277\304n \276\205\273<\276W\232\212\274\266\244\017>s\277\013\276\036\3520\2762\204\356\2756?*\276^\354\333\276\177x\003?\337\223\346\276\355\336\233\276W\020\322\275\373WS=\332\021I\277+\034\\\276\030\034c\276\352V\301>O8\202>\325\255w\276\314\223\242\276\334[\240>\274C\341\276o\346d==\027\215=\314n\177=/\340\223\276\207?\244\276\365g\000?\373\327\377\275A\036\322\277\r\231H?c\235\221<\267x`\277\232\315\267\276\024\355w>\332*{\275b;\017\277ZY\377><\372\016?{\334!\276\306C\352\275\213\244\005\277R\030\021\277\005\251\263\277\210\220\035>\250\310a\277\365k\206>2\244\364>\377x0\276+\305F\275\266\007\372\276PWR\274\274\251\017?\375/\304=\327n\267\276s\360~\277_\277\351\276\261\330\366\276s#\312\276\326\270\036\2756u\232>\331\326\206\276f\223\271\276|\240,>\3046\'\277AK\334\276-\025#\275&\215\273>9\273\216=\262D\224\275V\367\345\275\3732L\277\231\031\037>\030\245\317\276\365\366O\275\213m\202\276\312\324\300\276 p\t\276+[\007\276\3239i>\222\235\205\275\305K\363\276:<\225;/\300\204\277\355\321c\277\035\262P>\301\376\236>\250nr>\020\326\r\277\353\344\341\276\317\3715>\365#\203>\333De\277\3205\212\276\343\2429=\222\024\245>\374\276\037\277\022\352h\276\303\262\270>\241l\201>\024\247-=.A\367>y\264\344=55j\275\020\304\220>\254\262\376\275\'O\024\277\325\t\200\275\035f\262>\263\344]\277(u8\277\3104D>G\371\337\276\325#\222\276\220\022\021\276N\327K\276\"\214\204>\357E\221=\274\257\231\276\324|\211>\272\257$\275<m9=\207R]=\006k\'\277=\250\205\275\306\320\335\27652\375\275\237C\202>\326\250\302\276\013On\276_\317[\275\207+\350>9HB>\363\375\235=O\237\351\276\325\342\235>\215\337}?\002E\242=\037\332\237=o\256\320\276t\225\370>n\034\235>PsD\276\353\336]\277\350b\333<\3335\034\276\327\242\246\276\313n\013?R\007\241\276\371\014\004?\022D\321=\250dD\276GUI\275H9@\276\366\266\374\276\324\346\244>\345\302Y\276cy\232>\351\376\311\276(\256\023?\361\3345\277\377\340C\275\003?z\276z\356\272=\2576\021\277s|\231>g\340\"\276\337\314v\276DA \277\316\276\276=w0V\277\273\261\360\276G\226!\276q\334N\277\230\232(=\270]\365>huA>\340\324\017>m|L>\016\263\265\276\275\263\032?\261qR=^Z\202=\252\361\241\275F4J\277\267}x>xf\253\276rB\350\276b6\324>P\354\251\276\n\221\211<\374.8\277n\244\340\276\251+\210\275-\304\312<\366J\366\274\010\345\r\277io\253\276\271\275\213=<\220\337\275\013\272)?\027\273\205\276\250\307$\276\332\244Z\276t8!><\364c\276\203\210u\276?\217\341\276\254:\252>\366\003\303\276\353\032\272>\rA\3408\034D\274\276k\362\274:\226wJ?/\\\211>G\365u\275\324\271\226\276\305\020\313<c\204\264>(\376I=n\223\205\277\"\321\'>\'^f>%\330k\277\211\3754\277r\367\013?\362\246\026?\233A\247=\t\016V>\277\255\001?R\177I>\351uV=d\351\017\277\355\317\014\276\367%\246\277m\341\032>\240\355V\277\226x\003;\0342\220>\276@\033\277\'Z\267>\206_->\307\334\305\275\300<\323>\007\007.<\240z8\276{\315/\275\214\0247>\350\347\243\2751\010\324>\375\224\370=\326M\352\274\357\004 \277q\341S\276ki\020\273\347\365:\277\261\3148=\210\'\306>>f6>A\250\307\276\231\0201>\332\264\221>\006\201\273<3\303P\277\255\337\006\276\252]\371\275s\r;\276\233D\243\275\3537S>\277\266\234=w`\324>g\035\322:\243FX\276\005\001\026>\004\327\255\2763\361\\\273P^\242>\277jJ\276\207\356\265\277(\357\237\273IA\210\276n\001%?J8\271\275\257\322\027\277N\252\200\277(\222\231=P\272\225=\221B\340\276\035Jk\276(.\t\277\361\006E\276\177\323\023>\n\005c\276\225\3103\277\266\316+\277\316\303\326>bd>=\343\376\022>\350}\222>C\033\024\277O2\314=\261\302?>\r\274\316\275\216\266k>\365%6>\274\245=>\2210\221\276NU\177\276\201\252\213>\0048J\277E\205!\273\347T\207=fM\305\275\272d\324>\323U\026\275\301\301\034\277\360\251\364\276RU\345\276d\265<?%t\270\275fup\277\352*\350\276\270\367\365\275\310\304\355>\000\275{\276r\206\251\276\312\344\000\273\243\226\275\276\215\224A\277\317>\346>\301\367\327\276\314\315\317\276\344\317C>,\016\260\275\377H&\277d\372\212>\216\2406\275\242\n\'\2765\310E?O\344B\277\261\247\274\276\357\3342\276\353\311\221\275_\255\243>\232*\016\277\000p/\275\217\337\235\274z&\364\276\260\265\203\276\"\305\344\276b\212^\276\3402\363\276\350;\243\276\331\215_\275s\216T\277\r\270\005\277\234\251\376;\001G\267>\355\025\177=\2419\370\276\364\017y\277\236\301h>o\216\261\276\227\224\027>i\023X\277\255o\211>i\246\306\276\262\256\214\2776\314\330\275\356\013j<\212N-\276\372\t\206;q\231\336\276]W\334\275#\3059>\355Im\277\003f\017\277Vu\036=3\340\272>\322\337\327=\335\251\313\276d\324\016\277\204\365\006\277>\214\243=&\\\007\277\306\220\215\276(d\346\276\236+\206\276\257\'\276\276\362\350\351\276\257\260S\277\r\014u>s%\003\276z\271\017;\265\322\026\276L\301p\276I\340\006\277\231]\204\276e\034\n\277*y\237<\010\343\277\275\311/$\277\243\034\005\274\304M\004\277&\233\300\2756\213\211>Mw\034>\017\320\263\276\216p\004<Bo\267>H\231s>\253\001\242\276\211v\335\276~oZ\277\356\"\264\275/\'\010\277\3072\320>\377\006\305>\177\245\311\275\204z8\277\236\367H?\214\334D>\337S\210\276\305\240b\276\317\362\n\277\272`\010\277A\266\373\276\304\344\360\273\232\354.\276\356|\020\277\033\242[?\210\244\300\276a\337\207\276B\n\332=\024\375x\276Q\237\232>\237\3133\276D\032\272\2754Q\300\276\220\300\264\276\206ME\276\367\023\201\275\036\236t\276\tP\321>H\\(\277\356\004\023>/\242.\277\032\204\017\277l8D?\224\007\340>\312\366Z\277b\356\036\2777+\343\276\355Z\224\276#]A>\370<\300\276\030\200\237\276}{O>G0;>ix\300\275t\301\264>\376@T>\250\235\335\274\022mP?\217\255\253\276\311Y\215=\352\3463>l\356\307\2757C\003=\376\245\304\275\273\327\264\276\341eT>\251\334\255\276\0207\266>\'\357\334>67n>\303\333\213\276\024e\236<u7\\\275Q\n\346\276h\271\310\275\266\004\223\275%\266\214\276\247\0245?\3223\340\275\314e\000\277\277@\335\276L0\253>4\250\365\275\036\222\311>\315.e>e@\026\277D\265\312>K\320M=\354\014\277\275\207f0?\255\351\236>\252\255\350<\240\035c>\354\376\324>\265y\r\2741\304\003\277\255\302\017?\217C\367\276*8\331\276\0046\235>M\256#?\251\354\316>Qn\247\276\233\266\000=\340\3441>\037\304\341>\212\"\201\2746#\274\2767<\261>\360`b>\370\202*\277\324{\016>\326\224t\276\237\212\227\275\372\351\206\275(n\201>0\223J\277T\366%\276\263\020\305\275\302\232>>\356q\037?\336n\004\273U\"\235>o\027\313=\356r\223\276eeD>\340;\211;\260\216n\275\005>\351\275\346\220\357\276\362\347\210\276L\202\366>\036\213x>bW\356\275\344\014\370\276I\361\234>s\310\034\276\243\376\274=\\\2368\276Lx\322=\362\370\275=\257\335\374\275$\323\341<R\242w\277\260\356\366\275\231\261\031?Pv\317>j\213\311>\244\021\031>h\020X\276\337\253\020\275\234\350\235\276\'f\220\276\255\261\020\277\355\376\336\275\360@\177\274\216\342R=\236q\t\276R.\277>\037\255\321\276\225\237\350>x5L?\313G\317<x\353\242\276\243\251\302>\263 \225\276\036\231~\276c>\217=G\301`?\216\373\337\276O\005\004\277\274\251l=w\213\236>\2637\355>\373\372\312>b\3532\276Z\030\025\277\033\243E>\252\234\241\276C\363=\277\202 \000\276b\233\224\276\377\375\257\275\335\364@\27633\375\276\342\002R=#\233\373\276u\t\034>\3170b\277\312q?\277\177\312/=Y0\264=>\217\256\275\321\323H\277\212l\274\276\032\'G>|\363!<\236)\242=PdL>[\321E\276\263\'\253\275\\\250$\277\361BZ\277\210\232\344=\325\350v>\227\376E\275\363~\265=\336\306\214\275\246~\027>T\005|\276\346\322\246\276`\276x\277\252\002\334\276\342\244\331=iw\017\277\23537\277y\255\242>\230\261\\\276\347\221Q=8\275\372\276\207\350\264\276\034t\321>|\241J\274\303\365\035\277R|\212\275\000B\023;\243\267\321\275\245\312f\276\"[\035\277i\340\312\274\342\001\223\276M\373\356\276\003\230\034\276\000\2340\277\261\026\022\277\010u\201>.&\317>\241\260\r\277\260\027\222=\202\345u<5\240\353>:\033;\276gW\024?\261\320\207\276E\221\335\275!$\221<@\205\002?\2637\202>ro\004\277S\213\301>\371]\225\275\2132\335\276\234\274\262\276\274\305\023=\303N\317>\036Y\216=\233\000\202\276\246S,\276\037\275\266=\006@\265\276m\341\201>\307|#>\272\'\236>b\210\315\275\"\332\t?k\357\030?\255\203\312=\2178\000?\200\335\020\275\253u<<\264\217\340<\374\250\301>\257Jo\276\313\3739\276\010\005\023\2769\377\353>\'\253$\275\3404\334\276\3558\013>\324v\207\275\336\247\345=nj\031?\255\303p\2760\357\354>\005\224\031\276\345\001\227>\226#\254\276\345\261\006\276\0368(>\352\032;\276\274\374\334>(e\332\276Ip\306>\340%\351>~\3569>\330\327\230=\t9\321>\316\312\244>\306\370%\277\253^\336\276\014\024e>\276\377\202>\224\212\204>\333\304\244\275g\034\002\277\036\000\244\274\226\2075\275\177[x\276\252\016\264\276\344\025@\275\300\200\304\275$\307\242\277i\331\272\276\204dH\276G%\234\276\245\205S\276 \354\244\276@m\303;;\234\030>\017{M=9\220\017<\3654\337\275p\342\341=\014O^>\001\215U\276\235\300\204\275\372\350\232\277\255\226\204>\016\267E>\367R\276\276P\266#\276\364\336\213>\343\361\000=\256\016\362\276\3664\267\274\277\237\250\276]`\374\275\223\333M\276\007\277\364\276\364\305\203\277.\334\324\276\240h-\275\177;1\277:\352B=\221;\014?\354?\257\275:\371\377\276\332\236,\277\365\241Y\277\026\221\316\2753}{\2769\261C>#u\r<\337\367\326\276q[\257>Q\276I>\205\337\230\276[O\372=\236\2778\277h\333\244\276\235\267#\277&\t\327\276|o\264>?\250b\276?G\354>\331\350\004\276\006;\177\273<\336#\276\350\000\366\276K\215\313\276\251\013\320\276\230\325N\277]\335\260\275H\324\357\275\340\250T\275\000%\256>\256c^>\371u\227>\341\353i\277\005\352\370>\037\340\036\277\330\314V\275q\341\020\276\274\211n\276\340\035H>p\250\223\276\3321k\274\317\320P>\276\316{\276\231\2413\277]\t\007\277\026\315~>\327\357t\277\242\301\213\276\302\030\267\276\005Y ?\034\032\367\275yj\274\276\020\035[\276\312\224\371>{\000\241>xL\242>@\3009=\323;\211>\353N\202\275,yY>H\010o\277\327\344\256\276\223\222\017\275\025!\314>/\026\r?\252\365\365\275,ob>*\267\244>\007\2269>\331\204)>\327,\014>\240W.=\235\251\360\276\177\2343\275\323l\001=#\357N>\031&\023<\213t\030\276\335\330X>\346\317\242\276\311b\365\275\210\022\355=}\230\004\277\266\235\261=\007\376\306\276s\342\'\277c\303\017=\362\235\260\276\264\301\266\277\'\004\017>\300\213x\2761\307/\276\211\"\037\276\244$\227>\265X\315>\002\n}>\323\321\022\277\323\216\251>\362t\270<\021\316\214\277\020d#\276\240}6\277\273\332\260\276K\325\013\276C\324)\277\235\301\037><I\364\276\2224C\277Zb\214\277\217\222A\276\266d\226\276\377W\261\276\3774%\277\203/\263\276\022s\230>\222\264??*\362X\277\235\263\223\2756\364V\276\227cg>\350_G\277W0\272\275\007^E\276W_\256\277?\311\322\276\320@\030>\201v\373\276\360M\367\276\242\203\305>\225\230\213\276\314\033\004>(=t\276\333gw>\215\211@\277\344B\211=\305\360\271=\213\241p\277\307\274\340\276:\240\001\276\271\234\212\276\355\326T\277F\025y\277w\317:?\254\013\315\276\244\344\265\277\277\"\035\275v\247b\277\320\312\376=5\374\257>v\252\263\277\033\363J\277P(\226>\3258\264>\025\232B\277\267\344+\276/\353\330\275z\302\032\276y\374\274\276\026B\377\275$ \251>\\\365\245\276d\361b>V\006~\277\206\261H\277\024\356\263<?\375\000?=\343\234>\325\312<\277\031\204\215\276\0233\256\274F`\000=/\324\263\276\264,\010\277\001\353\013>^M\326\276\343\234 \277\033HH\277\013\323D>#\215)\276\237F\352\276\225\034M>\321-9?b\022\317>\2258\271=s\222?\277\341\270>\277O\002n\277\n\321\223=\322G?\277\275\231X\277`\035`=\t\024\036>\007K\240>\363\345\331\275\334\370g\276\343\373\307>\000\374\235:<\244\255=\220P\243=\244\023\303\2757\353\033\276\003\032\205\276\240\2476\277h\217\323=\255\203\022\277Y\270\262\275\366\330D\276o\375\'\276-S\235>9\3459=\036U\222\275\"n/\276\347\273\275\276VO\027\277\346\237X\277\376\346\253=\331\242O\276#\340k\277@\356\226\276Q\262\313\276\360q\243\276#\240\241\276\253\365\245>\"\2611?K1\230\276\200\230\256>y\002}\277\003\327\341\276b\356\203\276\241=\032>\210y <m;l\277y\363\036>XR(>\351@\320>\026\272<\277 j\014\277\232\364\222>\247\256\344\276\370\266N\277\225\361O\275y\035\027\275\036\367\216>\2750f\274\035\005=\276\234\353\022?f&\215=1A\223>]8\003\277\266Z\342>\177\321\242\276\247\016\324=>\342z\277\\0^\277y\016:\275\354m\245\276w\242\365=\224E\241\276]R\243=\233\342\252>\315~\237<_\267\337=Y\233\005\276i\306\373\275F\266\361\276\253\311,\277sf\032\277\235\302\275>v^\003\277\270\376\276\275\300+]=\211L\256=\321\030Y\276h%6?\244c\313\276-\266->A\016\315=X>*\277{=2\276\226\322\271\275\020\320\210>\033\325/>\005\303=\276F\351\337\276\350t\007\276\353\3022\276Gp\347=\017\304F\277\372f\200>\025\251A?\304\207\317\276\237\262z\276\001\272<=\240\340\266\275W\332\321\276\363\232H\276\224\375\352\276I\325\217>j\302\311\276\235OT\276\314\026\366>\365:\317>6D\n?\240i\374\2765n\253\274/.7?\217\272\260>\341\320;?\'\345\025\277\371\372\035\277\324\240\205\276\251\330\300\275B\n3>a\013\202\276\243\330\203>\202\326l\2761\366H\275\nX(\276\305\277\216\276F\362\307>\260R\241\276\311\227\240>\276j0>\2571\200>]kz\276\261\304\035\2773\0109?\246\243&?7\256H\276\371\316\010?Wv\243>\231c\205=\375=)>\276\023\263\276\256>\337>P\0327?\233\214N\276\373s6\276\366\'\236>Dk\324\2766`N\275.\224i=\200\274:=3r\327>75\014\277\t6\324\275\324\317/\276\354\030u\276\3338\000>\3367#>h\316%\277\r\324\331\276\333^\337\276\346\331\327\276\324V\006\276\002\3240\277\340\210\315\276u\360\352=\"<\003>\251v\257=o\372\002\277o\016\250\277\215\342\314=\220N\017\277G\200q>\341Hr\277\261&\"=\215+1\276\035\032\324\276\334ig\276LU\317\276\333~\261\276\2605\353\276\032\021\376=\240f~>\002\250\'\277\302]\230\276>-\331\275\334\223\377\276\271\214\302\274\203\371\367\276:\352\343<.[\363=\217a1\277\207\276\035\276\353\201\357\2761\230j\276\373\270\317>\315&P\276e\001\013\276\30605\276\274\226\226\276t\205h=\307\325;\276\200\350\350\274b\377i\276\350\177\010\277\036\370\347\275\207\255\016\277\355\330}\275\331\316\270\276J|\255\277Y\264C\277\371\241\266\275\034u\'=\315\311\370\276N\205\213\276s\251\367\276\"\366A\277G>\375\276R\333\222\2764p\232\274\216\315_\277\301\322\322\276o\022\345\276\r\342\236\276t\311\235\276\310\037\334\277\314\241\360>Y!\200\277\227f+\277\037\334\370\275\024;/\276\013\306\354=\352\263\031\277\317\225\276\277D\\\n\277\360\370\036\276k\303\246>\037\017\253\277\275}\260\275\030\272z\276g\247\316\276T?\321\275\321\322K\277z\201\322\277\324U\004\276\022\334\275=\353c\217=U0\007\276LmF\277f\233t\276\354;\216\276v\306\267\2744\244E\277h\036\340>\253\370\237\276?\223S\277\251\224P\277#\230B\277\356]\266>f\252\256\272\316\274\034\277\216\213\302\276G\320\022>I\317\353\277&fL\277\r:\203\277\374\nX< \370\251=\326|#\277\230g`>\275N\022\300\365<\241>\337\317\340\275\t\3626\277oE2\276\224g\352\276\030\013\001\277\213A\n\277\206L9>u/5\273\251J\003\274pi$\275\236H?\276\213\033\203>\376G!?\3345\337>|\247[<\310gb\276\376j\324<Z\000\036>\r\342\206\275\330\262\324\276|\361\021\276\0132\366\276\265\267_\277\312\307\220>\211^&=Ki\304>(\016\005\277\301\312r\276H\223\270\276x\342\202\276u#\211\275\321\227F>>,{\276G\220\017\277dl\353=a\252\014\276\201\366c\276\264\306\235\276\'@,\276\222\310?\275\315\340\273>\213\177X>8\332$?_bj\277\177b\371=\022P\"\277\241\305\001\276\337\3443>G\251\236>6\n\307>\276\367~\276\207\340i\277\267\347\224>\352s|\275G]q\275\346\002O>\002c\274\276\270\250\n\276U\315\037\276\203b\225\276k\221\"\276\010\005\274=\315\270\351=\263\000\027>\235\317\251>\2303\250>\203\371k\276\325\236J\272\230\250o=\240N\311=\343)\301\276\267\255\231\274\217Y\t\277\001N\344\276\264D%\277 \364\332\276687>\354D\224\276{\"\321\275\340\207\027=\315`S\277\371\363\036?\301\234 \277\247j\272\276z\220)\276s/\232\275\361\271P<H\"\370\2766Y\345\275\320`\334=\016\277\024\276\366u*\277W7j\276\234T\033>\303\2103\277/\226\005\277\004\276:\2760F\226>\262m\317<Lp:\276EA\376\275k~\214>\255\230\001?\365\334\325>\314\013\242\276\253\005\">\306\202z\276\253\032p>\356\2671\277J\027-\276\325ZF\276N\3539=c\320(?O\214\200=\217\353j=\261\214F>Qmg>\377\222\203>\033\253\320>\230\2603\276\350\334w\277\213)?\275U\201\204\276y7\246>/\240!\276\000\022\232>\246\330\032\274\325[\366\276T^7=t\225\207>\027{T\277\223>P=\272\327\032\277k\003\230\277\035\354\013>\016@\262\275\331\344\355\2756\024\346\276\230\276Q=\334J&\277A\203!\277&_1\276vS\317\275\020.\373\276\"|{\276\311\357Y\277\362\220J?V\0034\277\364\253\335>\3265E\275(a\353=K\017\362>\333\3403\277\323\024\006\277j\2032\277\356\313\014\277\014\377\222\275%\ru\275\241\245U>S\367w\276\177l\035\277\275\254$=O|\232\276O\365%\277\360\331\031\276\306\034\206\275\220a\213>\324\273$\277\216H\241=\376\034.\276\016\037\345\276j\325\265\274mH7\277\013w\006?=\237\262;\205|H\276\005@E\277P\316\300\276\t\")\277i\0317>\243\251\273\276\313\337\262\276*\340\262\276E\000\231\2764\346,\277\331r\036\277\234\342\022?\335g6>\002\017]>\255\236\t\274\332\200\326\275/\021\262\275\007\214\321=\263\276\202\277U\013\225>* \035\2770^\244\276\314\211\277\276\276\000\036?X\227D>w\016+>\355\026\244>\312\263r\276`\226\345\276\335\341\215\274\270V\353\276\254\3144\277\221\304\231\275IJ\254\276Ii\021\277\027\037O\275\317t\251\276\220\363\002>\261M+\277%HH\276\273\372~\277\362=)\276\345\3628\274\375\375\244\275\326\316\002=7n\010\276\343\034\255\276l\217=>\333\332b\275\265\275\267\276iu\032\277>\250$\277E\274\204\277/s\223>\215\033b\277\215X\270>wt\025\277\013B\320>\344\341\374\276\013\252\220>\021\271T\276\260\031\000\276\241:\022?\351\255\016?\275f\\>aX7\277\205B\367\275\304W\"=9\344\220<\014d\202\276\262\236D=\263jb\275L*\207\276\t]\035\275\273\270 \277^YN\276<\241^\276\2050\247>(\250\240>\031\214(\277\351r&\277=M\302=u\275\255\276t2\235\275\026\275\005\277\351\325K\276\272i\265;HM`\276\026\320\214<H\354\232\276\016\310\215<\230\360h\276\305\357e\277\235@\351<\264c\275>\235s\000\277\215\034\n>\000\032\232\275E\364Z\277\346\340\264>\212\222\226\277k\204\342=x\036\221<\032\205\024\276\211\226@>\264\207.\277\021\367\254\276\237\014\361\276\305\013\000\277\177\213\240>\303\240\343\276\'a\035\277\262h@\276\233\331\362\276\214\0213\276\332\002\001\277\246\r\n\277\313S\n<s;\003>\373\373\251<z@\200\277\202\257\001\277pmZ<\237\n;\276)\tc\275\300N6\277\225\020\024\276\373\013\r\276\033\351h\277bU\233\277T\355#\277\236\002\230\275 ?\024\276e\022\336\276G\035W\277k\355W\276\363*q\277\022\252\003\277\177\246\202\277\257ne>\203\2466>\240^\026\277\320G!\277\255k\232\277\361\226/\276\267\361j\277i\346\243\277\006\322\005\2779\204\310\276(\030\221\276\240\220=\277\323q\\\277\237_V>\360m\317\2763\177O\276\221\250\005\277\232T\017<\363\212\352\276O\200\261=\340\217\260=\'\260\307>\210e\236\274^j\003=\017\247p\277\310\305\021\277E\360,>\004\010\021\277qe\002>\007\360\024\277[#`\276\255\233@=#\241\337>hvl\277\274\303)>E\310F>7n)\277p\351@\277q\314E\276\367}:>$\235\267=\027`3\277\3538\315\276\235$&? \372\316>\206\177\330>\205\247t\276\204\305h\275\216\"{>8tj=\351\0276\277[\372\016\2779\321\255\275q0\365\276\360y%\275q\226-\276\322\200\177=\255\214N>\365\241\244>\222\211\222\2751V\307=\371\233A>\003v \277\034\351\253\276\322\272U\277\307]4\274.\317F\277\266\'\305\276\346\233\256<\'\270E\277\375\002\">Mk\256=\000\344\306=\020\\\210=7\377z>\353\343b\277\203\3279\277\"?\366>\200&\273\276^<\351\276VM\331\276%\224;\276\235[\352\275\250\310\240\276\353\252\361\275p1\343=\236`\r\277\345\240\340\275\332;I\277\233\241\037\277\274\265\231< x\026>\rB\233\276ms>\277\301I\000\277\307\345\362\275\336\343\366> @\313\276\266<@=\204\316\227\276N\334\245>\212t\201\277!\315\027\277\304R\016>c\267b>\202\177h\276!\260\036>\024\n\274>bp\314>[Y\264\276\334\016\\\277\236P}\277\316\034 \277>\005\354=<\276g\277\356\001\360\276\321\316Q>\356?~\276\324B\303=*Zb=\314\031Q=\254@\321=\355\366\212>\312\375\255\276\253\022\225>H\251%\275_\303\231\276\3039\231\276\020N\243\276\222\213\254=\307\205~\275\"zT\277\261\312\314\276\023S\000\276\206\226\275\276\020~\020>\270\302\200>\361\206\201\276\230D\323;\320A\217\276\277\252\000?OB\315\275\220\255)\276\0361\207\275\344K\245>\225\315!>3\030\225?L)a\276\335p>>\022\355\233?\336\303\303=w\270\327>\215Q\240=j\212\316\275\312\013}>\243Ck\277\332\314\301\276\230\212\310<\212\307\023\275\315J ?Yj+?\370&T>\335\316\016\277\321\324L\276)\212\346\272\016\354\245\276\214\331\201\276\004j\026\276\3678\376\276\356\0345?\337\360\035\277M}[\275\035\250\214\276_\265z?\260\256\302=\301\210\267>FkC>\020\233/\277\370\320\253>*\234\003?m\223\203<\210\302\273;\031\305\231?s\250\221=[\326Q>\247\273\346>\030f\361>v\337\214\2767\022\305=\345\247\322\276\230\0228>\231\327h>\233CQ\275\327\3260>J\300\022\274\340\300\371\276\314\027$\276\264\'\305\2760\201\253\276\216GW=C\277\004\277\373+B?\364\3078\277t\212\033\276e\254\205\276\313\207\314>a\206;\277\211({\2765\366\003\277\025_&\276\3526\014>\275H\r=\2478u\2765\367i>\335\351\331\276x>\005\276S\3064\276\361\327\240\276>c\261\274\274\243\314>\366\363\347>L\270\262\276sc\034\277\3427\033=Cr\277>Y\232e\276\223\014\322\277\037\215j=r\335D>\211;\245\2770\372\225\274\201\321\"\275_\217\215=d\236{\276\364.\343>\037\327\016?\017\004\023?\243\206\351\275\256\230\215\277\324\334#\276\233\014\244\277\033LT>n>\030\277\306nA\277\017\020\022?\267\205G\276~1o\276,3\006\276\301\236/>\033\256\207=Y&\'\271i\324\211\276\222\351\305\275\\b\212\2752\032\340\276\266y\014>4\361\347\275u\260\306>g\240?\277\2062 \277\214\267%\276=gH\277\257\210*\277\324\320\264\273\376\245\310\276e\214\252\276\366v\211\276\003\224#\277Fi\312>\342\000\031\276\376\261A\274\332@\270>\334\306\224>\312\253{>\257\306\215;r\212\313>LB\260>4\021\271>\223U\251>c\354\034?\373M\007>\226\344\303>\215\230$\276\r8\246\276\220+\037>\316\017\326>)\016\037>\320\365O?\033\336\304\275T\001!=\261-\'\277\3440\220?\277\001)>\300?\344<\307\242\001=\307\022t?X\361\332>\357\260\257>\266\317u\276\201\262d\277Q\223Y\276\017t\331>\t\034w\2764\376\300>G\264\024\276\2525\350\276H\342\301>\231;\200>\370\370\202=9$l>\330i,?H.0>\250\0365?\237\313\307<%$n\276:I\362\274>\232\037?\014\242\034?\210\026-?{\315n?\016\272\002?\177\202Q>\252\321\253\276\037\037\270=3\262R?\376Y\032\276c\257\005\276m\t\225={4\344=M\010\265>\310_\227>^\3130?\254X\260\275L\341\347=\307\r\007\277.\335\362\275\t\005m\277\323K\032\277>$\024=\026#\225\276\371\354D\277\331\254\201=B\304r\276\241\366\205\277\3304\003?\034)\272\2776\270\026\277\r\372;=\326\024\300=$v\277>_\333\200\277\370\323B\277\000\'\313\276\321\311\225\276\001\337\220>\240B\370\277\356\023\373\276\216o\303\274\373#\r\277:\247\002>QS\236\277\276/u\276lU$>\270\204^>\221\010\014>\203o|\277\236\234\006\277.\331\271\276\"\236\001\276\330\2056\276\322\370\374\276\346\246\222\275.\016\232\275\311p\373\276\277\030k\277\r\000\232\277L\217\202;!t0>.@I\277\223h\270\276\270\374\304\274v\251P\277\376\247;\276>\n\351\276\365\250\272\276\003\243\001\276\373\236\r\277\324~\236\275!\215\255\277\205O\312\276\217\363\220\276\212\227\006\277\034Gg\277\001\\\203=\205\267)\275&\000e\277\231\263\206\276\3766\364\275\363M\232\275o\263N\275\311\rB>\357\327`>D\374\231\276_\3648>p\232\257=\003U\273<\034\275p\275\221\257\204\277\300\253\216>m#/>\301\271>\275\207\344Y\276\202\375\374\276{\321\307>~iO<1\007\311\275\252\214\304=\316r\270>\254\236\245>\037+/\276-\347\200>\002=\257>\t\262\177>6[%\275G\345^>\026N\261\276\377\271\245>rn\232\276\266\005\337\275\234\212\\>\370s\363>\341\360\002?\327\261.?9\312\307\275\001\021\017?\267\264X?\330B\370<S\335H\275\014k\371\276\3116\202<Y\030Z?\202I\027>T\374:>*G\367=\024\242\244>2\336\323\276-C\226\276\305m\032\277\037e\267>M\3735?\372\276\206>\203S\315>\270F/\277\037\256P>\223\367J?\322I\365>\310l\"=w8\236=\275c{\277\277\315\217?,