node {
  name: "input_1"
  op: "Placeholder"
  attr {
    key: "dtype"
    value {
      type: DT_FLOAT
    }
  }
  attr {
    key: "shape"
    value {
      shape {
        dim {
          size: -1
        }
        dim {
          size: 13
        }
        dim {
          size: 1
        }
      }
    }
  }
}
node {
  name: "input_2"
  op: "Placeholder"
  attr {
    key: "dtype"
    value {
      type: DT_FLOAT
    }
  }
  attr {
    key: "shape"
    value {
      shape {
        dim {
          size: -1
        }
        dim {
          size: 2
        }
      }
    }
  }
}
node {
  name: "model/conv1d/conv1d/ExpandDims/dim"
  op: "Const"
  attr {
    key: "dtype"
    value {
      type: DT_INT32
    }
  }
  attr {
    key: "value"
    value {
      tensor {
        dtype: DT_INT32
        tensor_shape {
        }
        int_val: 1
      }
    }
  }
}
node {
  name: "model/conv1d/conv1d/ExpandDims"
  op: "ExpandDims"
  input: "input_1"
  input: "model/conv1d/conv1d/ExpandDims/dim"
  attr {
    key: "T"
    value {
      type: DT_FLOAT
    }
  }
  attr {
    key: "Tdim"
    value {
      type: DT_INT32
    }
  }
}
node {
  name: "model/conv1d/conv1d/ExpandDims_1/ReadVariableOp/resource"
  op: "Const"
  attr {
    key: "dtype"
    value {
      type: DT_FLOAT
    }
  }
  attr {
    key: "value"
    value {
      tensor {
        dtype: DT_FLOAT
        tensor_shape {
          dim {
            size: 3
          }
          dim {
            size: 1
          }
          dim {
            size: 64
          }
        }
        tensor_content: "\034\207G?\367LA\277\027\013\021@\320\0372\276-\264\323;\024N\002@\334WJ\276\202\3352>V\263\314\276\264\216*?\365e\234\274_\204\250?M\031m=\215\377q?\016\276\t\300T\300\222\276Y\014`?\332o\226?\324\216s\277\372:\231\300\274\247,\275Eh\005\276\312%\202\275\317\253\242?7\366d?vMO\275\256%N?\030\374\013?\274x\241\300\201\305\254\277\312\366d=\352\264\270\276\215\257\324\277\220\270\377\274EM\177\277H\205>\300\033O\013\276\345\nv?t_\276>\334+\214<\t\307_\2773.`\276)R\031<\333\354\344\277\323W\006\276T\363\300<\362\230H?\tN\376>\n\266\246>2\001\013<;eJ?S\364D?\037\310\350\275\372\243-\274\273a\177\275\361\000??;\250\223?&!\306\277f\354\246<B\266\035\276\316\255\266?\007\346\216>\314!\021\275\201t\014\276\020\\\354>\364\301\270=\031\010\"\276\242\315\036\276\262\272\023<om*\276\'N\336<K\212$\277hJ\r=\007\227:?\300:\221\273?\342\233?\217k\023?BR\350>I\003\020>Rb\217?\375\221q\276N9b>>\363\374\277\225\205\267>lr\017\275\027\272\326<u\253\206\275\262\231\215?\266V\246\277\0101\t\276O\357\217?\004\367\265\277t\301\024?\313\321\251?\037\346\260\277N5\005=\276\274_?\000e\243\275\215\213|?:\254\206\3015\213\253\274\336\267\374\277\316\343N?\315\275\323\2751\316\004?on#\273\271\226\245\275RTD\277C\260\033\275\266\224\256\276\355-}\277\377Z\001\300H6\212\277\261\272\373:\"{\207>b5\007\300\356\364$=\222\014\220;V\216\004=\245=\013?U\370\010?\212h\016?\212o\t\275\322\005Z\2753K\257\277V\314\032?\020\002\r\276\300U\253\2749.\277\277\333hN?c\215\331\276\3314\n\276s\331<\274\232\201\305\276\202\327\030\2760k\245\300\247\320e\276\\\247\233>N\366U<\034\337\200\301\241&\240?*\2652\301\251\251\243\274\345\361W?\026\245]\300\300\216e?\000\366<?\254\3408?\000\226\366\274T\323\317\275\202\322s\271K\315\032\276\023\214\306\300\310%\337\274\335\237 ?o?[?\353\375\260?\177\033u\277\226\007\024=2\274\241\276Ty\325>\370\343.\276E)J<s\252\203?G\017\317\274bP\212\300s\336\317?\200\014\270\275M\255\035>\306/\322\275Y\267\217\275\235\266\177?Y\325\"\273x\367\264<t>C\300\021\223I?\250\223\267\300r}\347\273+\200\221\277&\274@?\025\020\252\277\354\357M\275\365\263@=\355/\202\301\027^\033?\300\001\"?\0339\212\273\340\215\372\274\305\361\330\277L\335%?c\374\022\276\350\306\307\274"
      }
    }
  }
}
node {
  name: "model/conv1d/conv1d/ExpandDims_1/ReadVariableOp"
  op: "Identity"
  input: "model/conv1d/conv1d/ExpandDims_1/ReadVariableOp/resource"
  attr {
    key: "T"
    value {
      type: DT_FLOAT
    }
  }
}
node {
  name: "model/conv1d/conv1d/ExpandDims_1/dim"
  op: "Const"
  attr {
    key: "dtype"
    value {
      type: DT_INT32
    }
  }
  attr {
    key: "value"
    value {
      tensor {
        dtype: DT_INT32
        tensor_shape {
        }
        int_val: 0
      }
    }
  }
}
node {
  name: "model/conv1d/conv1d/ExpandDims_1"
  op: "ExpandDims"
  input: "model/conv1d/conv1d/ExpandDims_1/ReadVariableOp"
  input: "model/conv1d/conv1d/ExpandDims_1/dim"
  attr {
    key: "T"
    value {
      type: DT_FLOAT
    }
  }
  attr {
    key: "Tdim"
    value {
      type: DT_INT32
    }
  }
}
node {
  name: "model/conv1d/conv1d"
  op: "Conv2D"
  input: "model/conv1d/conv1d/ExpandDims"
  input: "model/conv1d/conv1d/ExpandDims_1"
  attr {
    key: "T"
    value {
      type: DT_FLOAT
    }
  }
  attr {
    key: "data_format"
    value {
      s: "NHWC"
    }
  }
  attr {
    key: "dilations"
    value {
      list {
        i: 1
        i: 1
        i: 1
        i: 1
      }
    }
  }
  attr {
    key: "explicit_paddings"
    value {
      list {
      }
    }
  }
  attr {
    key: "padding"
    value {
      s: "SAME"
    }
  }
  attr {
    key: "strides"
    value {
      list {
        i: 1
        i: 1
        i: 1
        i: 1
      }
    }
  }
  attr {
    key: "use_cudnn_on_gpu"
    value {
      b: true
    }
  }
}
node {
  name: "model/conv1d/conv1d/Squeeze"
  op: "Squeeze"
  input: "model/conv1d/conv1d"
  attr {
    key: "T"
    value {
      type: DT_FLOAT
    }
  }
  attr {
    key: "squeeze_dims"
    value {
      list {
        i: 1
      }
    }
  }
}
node {
  name: "model/conv1d/BiasAdd/ReadVariableOp/resource"
  op: "Const"
  attr {
    key: "dtype"
    value {
      type: DT_FLOAT
    }
  }
  attr {
    key: "value"
    value {
      tensor {
        dtype: DT_FLOAT
        tensor_shape {
          dim {
            size: 64
          }
        }
        tensor_content: "s\263P>\240g\003>t\270\246\276\000\000\000\000\201\323\366\275_\361\230\276_2j\276_m\000?\252\361k\276\215,\\\277\037g\260\2758\340\315\276\204\250R\277\270\240\373\276\326:\026?Y\033j\277]\034\276\275\207\343\211\277\247\310\271<\307\t\003\275\000\000\000\000#\311.\276\032\325\306\274H\344\316\276u\220\273\275\000\000\000\000\250kA\277z\256\017>\326\305\347\276a\217/\2751\313\265\276\362Vd\276\236\337\241\276\000\000\000\000gm\"\275\324$\267>\022\211\016\275\231\203\202\274R\234T\277\201_\327\275\037\234,>\376\240<\276\243I\273\275\035\304\300>\332\302\300\274\327\274\022\276\247)\235\273\263\200=\276z\373\335>1\017#\27684\010>8*\t>y\035\203\276\3670\335\274\366.\243\276\371~8\275\026\3218\277\325\025_<ZV\014\276\000\000\000\000\213\250W\275\355\\$\277\000\000\000\000\000\000\000\000"
      }
    }
  }
}
node {
  name: "model/conv1d/BiasAdd/ReadVariableOp"
  op: "Identity"
  input: "model/conv1d/BiasAdd/ReadVariableOp/resource"
  attr {
    key: "T"
    value {
      type: DT_FLOAT
    }
  }
}
node {
  name: "model/conv1d/BiasAdd"
  op: "BiasAdd"
  input: "model/conv1d/conv1d/Squeeze"
  input: "model/conv1d/BiasAdd/ReadVariableOp"
  attr {
    key: "T"
    value {
      type: DT_FLOAT
    }
  }
  attr {
    key: "data_format"
    value {
      s: "NHWC"
    }
  }
}
node {
  name: "model/activation/Relu"
  op: "Relu"
  input: "model/conv1d/BiasAdd"
  attr {
    key: "T"
    value {
      type: DT_FLOAT
    }
  }
}
node {
  name: "model/conv1d_1/conv1d/ExpandDims/dim"
  op: "Const"
  attr {
    key: "dtype"
    value {
      type: DT_INT32
    }
  }
  attr {
    key: "value"
    value {
      tensor {
        dtype: DT_INT32
        tensor_shape {
        }
        int_val: 1
      }
    }
  }
}
node {
  name: "model/conv1d_1/conv1d/ExpandDims"
  op: "ExpandDims"
  input: "model/activation/Relu"
  input: "model/conv1d_1/conv1d/ExpandDims/dim"
  attr {
    key: "T"
    value {
      type: DT_FLOAT
    }
  }
  attr {
    key: "Tdim"
    value {
      type: DT_INT32
    }
  }
}
node {
  name: "model/conv1d_1/conv1d/ExpandDims_1/ReadVariableOp/resource"
  op: "Const"
  attr {
    key: "dtype"
    value {
      type: DT_FLOAT
    }
  }
  attr {
    key: "value"
    value {
      tensor {
        dtype: DT_FLOAT
        tensor_shape {
          dim {
            size: 3
          }
          dim {
            size: 64
          }
          dim {
            size: 64
          }
        }
        tensor_content: "\267\033o>\317\326\017?\327]\313>yJ\316;\276\322\n>\337([?*6\256\274b\355p?\227\307F?\177\242\322>\365\344\271\273+\352\021\276\336\215\327<*2\033\276\010\372/\277\242s\233\275\345\207\016\276\210\r\367>6\006b>\361?\227?!\277,?\004u\363\275\221\275\362\276\320\264N>(\306\323\276S\211\335\275Q\026a\277\0202;\277\\\232G\277\030\226\020?Y4m\275\341\337@?\350Y\303\2773\365\365>r\241\272\276\310G\017?\t\0375\275\347\017J>_\346\220\275\374\214y\277\331wQ?H\n]?=\253\240?\305V,\275\036\233\316\276O\345Z?yqH\276\353\222\204\275\232\277\'<\250\310\312=FO`?\014\344\037?P\337D?\343\356\212>\326h#=\250Y?>v\376\211>`yz\277\363\320f?!\226[>\035g8?\025\035\261?}\370\343\276w\355\320=\033\371\346>=,\014>^\372\031=\275\016\204\275S\013\343>\356\207\031>\236;-\276\232\006#?SzC\276\\\202\230>\356\300\353=\373v\272>\241\341\204\277A\004\360\276\270{R?\330A:>\r;\013\276fX1>\372\t\256>\302X\360\273\207\244<\277\030\273\277\275\202h\200\277\017UN\277\021V\032>\347\306e\275\354\324\261\276\215\251\250>\025:#\275\024\372t\275h\270\261\275\362\033n\277.\320\360>p\332%\275\000B\343\276\276M\021\277\3518\203>\357\037\004?\227\242\244\2748\347\036>L\317\263\277c\272\261\276\330\340\267\276\"\234\213=v\364\t>\032CZ\277\221\326\362\276Z\223:\277\250\325\213=\017KX\275\223\006\n?\323!\207\276\355<\205\277F\334\222\276\3320\264\275\235\034\352\276\233;Q\277\314\357\025\2758\255\310\276\234\323\025\277\333g\266\277AP9\277\004R\271>\2301\n?\366_\335\276\347\001\316>B.\370\276\246\234\331\275\316\223\333\276\275\202\021\277Q\223\302\275\373\305R?_\322\356>\212u\344\277\363 \327\275\307\325]=#\267x?\375\322\341=\363\027D\277a\007\210=\343/\213\274\261\202\367\276\003\262x\277\326\204\366>\210\222\231?\267\207\216\275LT\232>\275\2439?\232\215\330\276\324J\016=\367\032\353>\314{\237\277\374\311\264=\023#a?\301\255\237;\354y\247?\224\013\236\300g\206\177>1\010\004\277/\263\330\276$7\240?DE\316<(\035N\276\033a^\277-\336\001?%\261\266\276?K\312>Q\034\226=\300\325\223>e\207$>LKj?\373\002\222=f\2325=\0107H?\237\2225>\345Hs\277\033\023\247<\201\377\325\277\027_\300\275\333\002\330>\220Q\207>K\313\000\277\323\261\245\274W\004\320>jF\237=AXB?\371\241\021>\266\243m\275\\\202\357\275\340\245\300=|\250\343\275P\362\214\274`\211X\275\300[-\274hWO=`\217\307<\3204\226<\320\264\224\274\264\311\350=x\262l\275\200\226E\273P\301\206\275\360u\000\275\270\337\230\275\304I\336=\024y\361\275X\331m=\310\313\307\275(\004\364\275\000Mm\275\000G\302<\330G\350\275X\016\256\275`\215\026\274\220x\317=`X\244=\350\266\300\275<\024\334\2758\363\371=x\354\336=\260\357\340<\214\333\252=\360d\252=@\213\237\275\020\377\244\275\204\347\317\275\000\'f\274\254\016\375=\220\273\350\275x-\311=\260w\347\275\260\251\313<`\303W<\200\321,=\030\n\277\275\220\206\366\274 \030\263\274\220\236\372\274\200\316\214=|\303\321= \032\365<\360[\356\275\204\274\256\275\224\263\202\275\304\272\352=d\363\350\275\024\320\353=`\243\327\275\000\216\325\275@@^=\254\206\377=@t\304\273\226\363#\275f+\266\275\225\355Q\275\305\253{\274C\335\212\2751\337\007=\327Dv\275-w\277=}u\036>\177Q2\275\221\333(=\342Cr\275\225o\254=\252\030X=\000\364\261;}\304M\273\024\005o=;*%>d\205\212=\372\306]\274\000b\313\275\343\243\316=\267\363\225\274)\020\361\275\372\342\205\274\236\262\373\275\022\020F>f\037\316=\177\260\333\275/\030\275=\313\350\177\275\365+b\276|\321Z\2746~\231\275\322\3375\276re!\276\2045\373\273n2w\275;`\323\275\271\035\351\274\201w\355\275=\3130\275\362K\373=\306i4\276\010\210Q\275\2415\345\275.\264;>\2033\000\276\227\235\307\275\357\211|\273N\270|>\260\253O;\302\030L\275>7\017>\2044\014\276XXI\275GX\026\276\323\325\365\275\020\014\265<\334a\235\274S\r \274\3207\360\275wc\364\275\n\304\002<\372\014!\276\340\316\212>u\030\223\276pH\333\275\356\344\206\276aEu\276\330X\355\275J$g?\324\272\325>\277m\345\277\323`H\276<\345.\274\230R\204?z\275;\276\300I\224\277\274\210M=\335\r\253\275O\023\031\276\265\2121\277\257\211\346>\320\334\215?\225\"\026\2768\310\215>\352\215\000?\035\032V\277p0\273<3g\275>\373\253\266\277\376W ?\211\247\024?\260\276\343\275\333\316\216?\350b\260\300\376u\032>\t\0257\277]!\223\276a\354\217?`\353!>I\231s\276T\215\255\277*\205\031?&\211\201\276f\254\032>\031\377b\273&n\210>?\032\277>L\000N?\356\221 >\276\264<<\322\277A?\025\265#?2L\224\276\216I`>v\242\302\277@\375?=\206\226\210>Q\207G>JN\252\277x\313\304=w\306J>\022t\247>\2723;?\370,\343=\331\333L\276\004\353\347\275\254?H\275\241P*\275\225-\273\275\214]!9\335\020\336=\235L\326=\337\r\017\276Uj8\275\375\022\343<\346\347\025\273\200\237\272=\037a\000\275\r\023\"\275(>\002\275P\363\226\275\224\3707=\237T\000\276\235]3\276\224\326u\275B\2145>kj\001\276vw\004>\344\010\271\274\374\3710\274\303m\234\275Q\334#=\tN\220=\203>\027\276H\327a\275\257#\004=\251\351g\276H\372\204\275\215W\235=\331\244\226=\201\177\t\276\2331\264=tF\r>\262N\'\275\301\035Q<(T\271\275O\002\027\276\362jl\274X\206\003\275\325i\260=\365\265~\275TA.=\237\177\271=\025^\253=\274\034L\275&\324\355\275\255\374\022\276\236\376\017>r4\327=S\"\351\274[\343\025>\003$\345\274\301d\271\275[\0330<=w\034<\347\t\376\274\201\266\266\274\310\243\371\274p\\\025\275\257 &?\251^\"\277e}\227>\370+\356<\346\020\351>\0031\n?6Lo\274\257\335\"\277ZK\273?\264J\"\300j\023\277>=/\234>\312\324\200>\036\223~?3\031H?%d{?\004\341\021\276TiK?\303oE?\363\207K\277\276\344\231>\3508p\275\376\300)?\373\210\"\277\322\360N?@EA\274\305\254\016\300C\221\216\274\344A\374\275\272%\205>\267\\9\275lPx>\"\332\361\274oS\233?\220\177\227\277\215\262A>\222\312\270\277\005l\030\276\026\230\033\275\351\014,>\313H\245?Mmh?Kn\234;\313\270\205\273\007\232\017>\021r\252>;\177-\277d\364\014\2776\250\341\275+\030\202=\013\372\345>5\357\010\2772\264\307>\226\223\313\277\323.a;y\217n\277b\273\027\300jj\313\275\364\242\244>;h_?T\021\237?\335^\247?\205\320@>\013\r\037?\016\352\247\275\3422\327<\315T\261=\222\315\030:\230\236h\276\254\354l\276Xf\242\275dav\276\246\317\342=x\302i\275}\363g=\317\356\001=\332!E=\016\275\267<\264\244\336\275N)\314=k\003\367=S\031\360=\024\360\263\273\276V\232\274\242`\366=\362\352\353\275\326#\313\271\273\375\257\275/[\364\275\364O\243=\254-\226\275\370\312$\276\013mM\276.\311\303;\236]\020\275\035\243\235\275\010\346\315\275\274q\317\272\357\252\221\274w\212\334\275\343\034\342\274v\355U>F[\006\276\364\360\026\274N\006\260=\00759\276qv\326<\310\226\014=e*\320=\305\202\003>\354\035&<\305f\250\275[\024h\275\035\213\006\274\345\302\005\276-\000\016>b\237+>s\2613=\241O\000\276\010B\022\276\213\2724\275\215)D\276L6\362\273\0062\234=q\373\031>\321\206l\275\237T\036\276\270h\214>\340\267\255\277e\350\327>1\372\307\277\276h8\274Rt\324\276x!\243\276z\"a=\247\217\211\277:w\021?\233\343\352\2762\315}?\241s\212\277\216\267\360=\216\264F=\342[\233?\016\010=\276\016r\323\275\305:\021>\234@C\276\354\3149?S2/>\014\305\017\276-\245\013@&r\207\2777\022\305?\'.\242\275`\330\307>\001\2201?\312\354\366?=\310b>\265o\350\275 A\375>\202F4\300cCm?\355\323x\277\355D>\300q\344\324=MnO\277C\255C\276\257\256e\276\002\277\346\277\255\203\036?E\373\266=\327:\317\274<q*\276\021;\252=\343\0225?\214F\016\300\353u\217=aL\255>u\2515\275\335#\354\276To\264>\261V\273?\205\261\235\275\334\222\205?\037\241\014\276yH\220>\204\347\254\276\014\325W?\367Z\255\275\254\344\241?\236x{\277\363\231\304>\273\265\026\275t\227\261\275\343\255\315\275\0001\244<\225\3235\274C\232\310\275\362\277\257=\035\023\266<@\367\002\275\222\261\201\275\301\306\251<8(>\275uA(=\327\340\211=;\325H9\225D\263\274^\236\321\274\370\010\272=\207\231\032>\266\005+<(=8\275\246eL=I\033\340<#\3239\276\222\372\027\276\2664J=>\273\377\275a\360\206\275\350\370\301\274\020\353\016\275Vu|\274\261/\031<\300\346\027\276a;6\274\371\353d=\037r\302<\364,X\274u\254\"\276\234\236&;\223\226\253=kS\346\275InX=\315=\226=\354>b<\201\302\257<Y}\311\273\321\2352\275c\253!\276\t\327\267\275vJw\275\014\214\354=*]\n\276\334\022a\276\034R!=\020^(<5\250\037\276\2634\227\275\177\016\213=\313S==\213\340}\275\224Q$=\326S\244=|\206:\275\334\t\023>3\277\332\276\202\203\237\277\217]V\277\355\322\253\275>1\245>\006\037\271\277Y\t\215\274\016\327\261?\334m^>\200<\034\277D)|\273\221(<?fd\247?\340\023\333\277\034\377\241?\277\177\303\2775\320\236\274\301G\026:f\000\360?\004\251\025\277\327\230\377\276\337\354\222\275\206sO?\252FD=T\235{\277\334&\374\275\2223\350\277`\322\371\276{\326\373\277\376\356\214\276}\313u=\214#{\277?\r\340\274\321$B?\037L\354>g\3177\300\004h\313\276\212)\375?\214@\253=1\336\203\276%*b\277\356\312=?yI\307\277`\302\001\276\r\373\001? \301@\276;\271\016\277\027\2714\300C_J\275\265\221\363\276?\233\325>\024]\307=LY\323?\356\271\274\276\330\273r=\030\333\203>\213\034b?\177tY\276.\233\234\276Q\344\036\277\227\277\333\276~\360\227\276\244\231\036\274\207FE?uY\014\277r\221F\276\355\271m\276g\037\342\275\366XX>\005\361\200=\233\301\n\276l\237\222?/\264\275>\306O\003>\036\322\207\276p\360\224\275\265.\366?@k\315>SB?>\245\017F\277f\363\"\275\214\212\251?i\203\217?\353\004\'\277\261U`>\327\250\241\275\227\356{?\361\230\310?5\324n?x\374w=(\233\212?\255\263\325>\216\222\230>\r\226\264>\301\3112\275\356__\276=\372E>\367\036\\?Y\002\265?`\250\243\277\331\0318\276\314B\246\277\222Zk\274\337\202\322=\326\364\035?\337B\003@c\343\016=p\034\224=\005\316\343=\350\254\240\277\003\257[>\365\272\235?\376\301.\275\210\3020\277\374\tW?\202\232\356\277\216(\300\300\007i\207>d\325Y\275\261\321\246??\"y?s\005\332\276\263f\362\276\325\252\'?\337\023\266\277\367kv?\360\244\347\275\244\270\206\277E\333\000\277\253\361\303\275\240\026\013\276\274\032\275\275\325t\361>\360\'\217\277J\254G;\304\244\223\276=\330\262\273\357\222s\277\035\201\266>&=]?\312\334\251\276+5\271\277\355\277\324\277E\030\321\277\271\322\201=J\264\220?\216\324\r@QvT\276\220\204O\277\207\326\276=\252\231D?>\214\014?\240\327\247\277b\267\334<T\035\310\277.q\271\277\003\343\000\300\343\007c\277\301\264\373\275<\317\254\276\217l\306\277\344-(?p\006\232?\325\234\304\277\324\271\033\276\275\007\325?G\037\214\276\260\332\332\277\255\201\213?\230\036\261>\241\263\212\277\343{\002\2769\274g?r\270\227>C<\230\2759\362\311\275U\353\333=\021(\252=\211)\024>\260\330\224\276\310\005\251?\322\255\023\277C\214\007;\257J\325>\354\246\222?\206\310\212\277s\002B?\262t\260\276\333\006m\275e\245\367\276>\201\037\300\010#\032\276|\265\357=X&\203>\355\023\301>\007\226\202\275\2278\035\276D\241->\306\r\034\273<\204\311?\005]\010\277\313v\322>\350\216%\277\023s\304\276\266}\t\300_\225\305=yz\240?\212*\203\277\2761\243=&\231R\277\003\000\301\276\275\325%\300\364B+\277\3174\n\276\006A\272\277\266\027,=<i\021<F\360G\275a\270\017\300\005\206->\304\375\203?+\245y>\227\345\310<\002\271\002\277+\266\227?\363\265j\277\300\223\356\276\204\236\020\2777q\201\277\257\304^?\204i\214;\030\272\351?\'\232F\277U\264\247\277\215\213B\276\014\244\363\275[Y\200\277\377\214\206\277a\260\031\300!\257\354\277\253<\251\275G0\030\277\240\360L>\277\037{?\336\367\255>`\"\313>\035o\033\274\304\200\277>\317Dl\277}\n\001@!\022 ?\313\276\325\277$y{\276l\324\251\277\227\227\231?\3005\035?\360\ns?,+\245\277\3157;\277,\350\264=\231\333\364\276t\3375?=\225x\275\275\247\214>r-\306?pT\366\276\334\033\242\277\375\230\314\275VJ\265?e\256\207\277\375\200\267=\177\374\002?\241\303\004\276V#\270?}\303\214?\235&;>\364\275\335>\224\314\242\275%C|?\036F;\276\335\351\212?\005=\006<a\246\226>\242\236\363\276o\375\010>\307\331^=|\335\204=\010\023T\277\254\375\336?\002\244\316\275\360\311\235\275\017\2621\277\301\251\254=\341\010\331\277\223\323\233\275`\000\366\276\333\370\036\276\220\235\255?\254\3204\276O\233p=y:\353\275VX=?\211\353\255=\002\032\336\277\262\315\005\276\253\242\277?\277\342\017?\364\352\266\276\222\322\376\277\310\017\235>\031\032\266\275\310\345\220\274L\203\000\277\315\016\310\276m\353W\277\346\322z\275\252\237\211\277\343\200&\300,\014A?\230p\217\277\201\336\221>\231\331\344\276\222\\Q<\361\235\365\275\220\227\322?\000\024\336\277\316\215\302\275\236Gt\277\216\371\361\275\226W\201\277\000\334\315>\306\375\252>\274\360\006?\311\261`<_8\314\277\327Fu>\307\264\357<9\177\022?\256\306\251>~\031\377\274;\304\323\276\271\217\250=y\220\357>\345R\027\276F\035\241?|B\315;t\272<?h\013\353>\000\222\236\277\230L\334=\251J\035<\'#\222\276T\227-\300n\344\216>\251\304&@\235O.\2779~\346\275H\251;=\272\277\035\276u\374\017\300\375B\277>;+.>0@\017\276fn\021\276\'\276\314?\351=\017>\006\366\237\274\273\350\007?\214t\013<;\325\r?\317\352\263\276\304\341Q>bP\253\274\036\313J\300\033\3700\275e\337x?\220R\232?\311\267J\277\370\010\030\277\276:\372>\026\241\026?\316\022\343>\262\204\261\277?\371\214>\322\241b\277\"\374><\000\226\225>\350O\253<\355\032\211>\\\304\337\277\250\276\355\275\037J\373\277w\r\251?\331\255\216\300\277\003\246?\304\341\270\276\363\033\215\277P\2438\277/A\265>\320=\270\277\221M:\275@\255D\277I\021\036\300\264W\351\271 !\321\274\017|v\275I\250\332?\273\r\003\300%\037\303?\005\345\026=\027\254\253\275!<Y\276k\220\235\300M2\277>Gy\346\275Ns\200=\232\333i\277\346G\234?S\234\333\277P\252\220\276\027\200\331\277\205\233m\276=Z\276\275\324)\036@\272[n\277\247\\\264\274\010\242\233>\300\017\377\274\332\317\242\276\247\225\341>[B\251?id\013\300qo\367\275\030\355\n=@\372\253\277\265\242\272\277\217\373\207\277\345\257b?\357\307\241=\336EC?\275}&\275B\246\013@\347\0147>\265\235\204?\313e\016\276~\014\304?\007\203\332>ZN\256?[\370T?\345\007\275>\220>\036>\275=\252<\264\261I?`\016\217=\226{k\275\300\351G\277\021\216\021\300\230\361\002?q\360\231\276\267\200=?\372\375d=\231\234\315\277s\314a\277\246\023-?\021_\224\275\247\363\366\275|\277\337\2751\342\035>\345k\332?\310\374)\276\205\316\245\2775\244m\2752\253\237\276L\003\260=\330k\003?g\326\350\276(\030\323\276r\373|?L\236i=257?Xq\007\277\350B\032\300\246R\302<\023\010-\277\272|*\277\026x\274>\004\332\226\274\376\276\025\277\366.\r\300\233\002\232\277\333\240\266>\365\265\273\274\021\033p?\224i\363\300\356\360U=\220\305G>E_M\274\340\273\r?\256\256\226?\251\342\355\274\nA\220\300\320\010%?\246\020\275<\300\3476\275\276\310\311<\304\237\214\276R\2734\300\245{j\276\030\360\247\300D\'\266?1\377\204\276w;\027\277\325\036B\276I\356z\276\000\"\200\276\374\377\273\275\301pq?\221\353\243?\262\216B\275\244\252T?\356S\326><s\225?\346\327V\277R3\201?\005\330h?\022\243t\276\021q5?\315\003\005?\036\260\307\275\n#\237\274\276\304\231\277\024;\253>\231%x?\363m*\275T\354`\277C\000\332\274\323\005\220\277\276\255\315\275\332\270*\277!\023\032\277\306\253\242?\314\256\032=\352\343\335\275Jb\270\2751\332O>|u\252\276v\375r\277I\332\022\276\262\220\260\275/z\200?\262\334\307\274\362\317K??=\022\277\250\0336?]^\021=\225\241\245\274\037\217Q\277\221Ll?\301\2624\300~\317\214\277\036\371k=\207\226\360\276R~\022\277.\272\202\276i\320\213\300\270\223\374?\313\303\260;\2537\027?\314B\031?[\327h?\'\240\004>\3541\331\277\014\232}\300\rAy=3\226\253?\355|\263?Lb\353\275\360\237\360<\250\256:\275\200y\036;\014\240\274=@\307\331;\304\356\223=\200x\224\273\354\034\205=px\331<Tn\310\275L\226\202=\360&\t\275x\216\351\275\000\241N\274\300\334P\274\274\034\322=0g\261\274\030s\307=\300\352\331\273`\362\322<\020\217\242\275\360\t\275\274\200fH\275\000i\335<\260^\357\274 \277\001<\320Y\271\275\220\303\361<\360\217H=\234\253\234\275\260\263J=\264\257\315\275\010\331\333\275@\231\004\275L\354\237\275\340dA\275\354\322\322=\244\013\245=\344\241\274=`w\326\274\220\277\323\275\014Q\233\275\250X1\275<\016\242=\220\237\226<\350\304\212=\000\233|<\200,V\274\200\307q<\300N\216=\304\234\247=,r\322\275P\366\207=\230\177\265\275p\034\020\275Tw\364\275\020F\255\275@\330\307=\300\313^<@\005[\274`6{\275\260w\347=@\3370\274\361\235\227<\306\235F=\321\207\256\274a~\265<\240\365><ez\034>u\n\325=\335\377\224\275\303\032\000\276cA\341=\243W\265\2758c5=\202\010m\274\n\313&\275\034T\273\275\037\341\271\275\202#\212\275\225\272t\275P\365\"\276\347\257\216\274#\363\244=\034\232\267\275q\236\016\274E\353\307=\325\006\272=W\320\332\275\364\322\262\2756\037\324\275Yw\323\275k\004\343\275\256G\246\275\031\362\004\276\013\374\251=/\375\210\274\256KB>\265\340\024\276\214P+=p\276\253=,\212.\274\361\351\242=\224\234\007\276\254Wj<\223\rP=\300\326\346\274\033\334X=\316Z\256=\247!3\275\030\214\203\275\000j\253<\321\365\272=*\342H<\024\244M\274\007GQ=:\277\213\275#\320\363\275n:\025>\260l\351\274\025a==\331~\215\275\211B\347\275\366W.=`\355^<\255\257\241=\330\253\036>=\367i=\n\220\246\2759\333\365\274\030FR=N4\231<\237\\\272;\245\212\253\275\237\302\213\275?\260U\275\037\274\336=\316\201\244\274l\324\340=\036\220\215=\340\214\252<\217z}\275Q\366M\275\242U\324=\007\341\311\275\314^\334\275\204\340\361\275o\334\241<~\027\r\275\232\230\320\273\030\265:\275\212\354\231\274\2140u=\021\361\222=\361\206\331\275\177\225\263\274\266\323\000=-_\376\275\005\344\r\2740K\376=a\337\327\275\017*n\275\217)\213;\275\336\354=->\267\275\377\006\356=\223\376\364\2756\203\257\275\273\231\301<\312\"V\275h\357\306\275\232PO=hMv\275gE\242\275\321\316\213\273`u\271=\333\023\006\276\031\034\306=?\375\262\275K\341~\275\004\221F=Q\207\234;\334\351\353=\320\214\345\275\343\354\373=x\227\370\275z}&=\036\350c<\222V\230\275\254*\354\272\330+\237\2748\226??:\327\032>#\212\302\277\375\300(<\031*\000\277\241]\030\276\031x\225\275\037\356\204?\302M\037?\261\276v\277\177\346\231=(\010?>\323\314\214>\002/z\277\300\253\271\277\375\030&\276cZ\346\2751\t\202\276(~5>S\267\227?\016.\250?\032\361\226=\3422\256>\265^:?\233\027\374\276084=\033z\010?\242,B\277)\246\005\277\332\202\232?\0333,=\251b\362=\360\t1\300\307MQ>=\325\023?gl\266>\376\275\222\277\275\363\206>3\316\253\276\306B\352\277O\214c\276\334\250%\277\021\212\222?\332\332\242<\224*\036?\013\310\236\276dt ?\263x`\2766\212\251=\226\341&\276\007#\260?\275\310\302\277\021\362 ;\252\207\214\277r\003%=\200\236\251>Z\006\r\275x\255\331\277\276\370\352\275\3045\310\276x\345(\277\333\316\037?\216\311\254>`^\344\275P\'\350\277\222\357\263\276\"\245\213?\333\306\340=\327\256\023?\211\350:\300\'\331*<\213n9\277;|\245>P\225X\277|\272e?Q\352\237?S\360\370\277\321\334&?\006>\214\277\004\347\017?N$\200=6x\013?\220S\274\277\3556/\276M+\317\2761\377\350\275z\tl>\247\267M?\367\222\316\276\\\031\271\275\357],\300\271\0073>G\266\253\276\362=\245\276\334\204P=.G\017\2778\367\321\277a\2661?\323\302f?RC\221\277\213D \277\215\240\260\277D)\240\275M\"\227\277\205\306\210\276\235\007T?[\261i\277\325\371\346\275Q\037\261\277\312\031o?=\214\000\276$\217\304\274\301\317b\275_Sq>\270\272l\277\204\200F>\353Jg\277J\310\204\277>*f=a\316h=\251\223\016\277\n\334N\277\301\262\255\277n\217\367<\024]\201?,7\346=]W\315\277\342\232\230?P\"\334=\310\234\036=\264\211\210\275\240\277&<0`\310=H\335\261\275\\\363\333\275\354H\356\275\374A\205\275\020\267\014=\214\213\236\275\300\226\373\275<\266\223=\374\317\341=P,\035=\000`\204<\200\240\274\274l9\334=T\025\366=\200E,\274\220\332\252=\360t{\275\220\220\206<\000\365_<\300\030.=p\020k\275\230\242\233\2750*\262\275\324\263\274\275\010\372\254=\354\177\220=\310\326n=\200\255\372;,L\247=\000\323\020\275\240@\002\275`<\204<\000\352,\274\240\036\237<P\215\245\275\004\332\307=\220\232\326\2740d\264<\010P\360\275\340\036c<<\312\305\275\364$\267\275\250\n*=\360\314\264\275\200\205c\273\300r`\275\260\306\325\275@ \265\275\260g\305\274P\272\245\275\020~\314\275\270\357\035= ?(\274x\350\275=\300,\317\274\200\232\326;\020\314\337<\240,\356\275\3005\030<\301\273\362\277ooU\277\241\277\257\2776\314\356\275}\224\324\277\233\035\226\277\0266\006\276\271i\272\277\311\tT?:\217e\277\337)\227\277\373\"\301\276\000\025\226\276\007c\343>\t\200\200\277\r\216]\277\203\357\026\276`\326\314=\357B\023?\312\367\255>\010E\216?\222\020\027\275C\254c?\313\217\247\277\213\247\212?a@\330\274Y\331\355?\332\220\313?q\001\024\277\344\321\315?\276X\312\275R=y\277YhA\277\256\364B?#\366\205\277{\362\216\277\001\2337\300\362v\234\277\240U+\276\000\305\311\274*\253\215\300\304\021\001?S\223\200?\324\037l<\366a#?n5\272\275\276\360\311?\332\313\005\277F\221\237\275\201{\004\300p\341\207>E\350\320\277\216\233l?\'B\203\277\236)\367\275w\313+\277U\004\326\277C;\206>\216\"\376\276\250\025\321>f\234\2349\224\224\016?\3066\247\277~\377\236\276\010\374\254\276\207\331\260?j\354\377>\002\251\301\274+%e\276 \241\215\277\003\026\354\273\036\024\371\277SGD\276\026aT\276\016\234M\276\261\323\030>\210\257\234\276&;\321\275\337-\003\277\315\004\222\274l\332\355\275\222\002\356\276R\244\261\277P\261@\2774\023\000?\346\374\231\276^\320\347\276c\267\312\274w\204a\276\211\3540\275K\237\237\276\251lA?5\2637\276VZ\234\2766\033\341\275=\030\332?\034L\372\276\337\340\246\276\024\304\304\277\254^\241\277P\361\215?)\344\325\276\312V\272\275\036\204\203\276\rog\277)\232Q?&\004|\277\2138\355\275B3`=\033B!\277\310\314\030?V\376\330=\035\202\210\275\221\357\226?\243;\232\277\'6\314<\201\3720\277\006\207\206\277E8g\275r\2729\300Ds\005\274w<\326\276\255n\177\277\325\250\234?\260\335v\276\032/\276\276\312\274\221\275N\321\t>\017n\207\277\307\350C>\222\000\212>\262\002\261=k\332S>\325\316\376?\000\330\003<Y\210\033?}\n\314?\026T\314?_w;\300\020\317\027@\375\337\214?\356\023\206\275\022\250Q>\216\350\370\276:\332\306=\223\025\371\275\214\357\207\277\241\364\316\277\202\220\021@\234\351>\275\223P\027\277\320\254\233\276\307G\025\300\231\304T=9\325\370=\322\246(\276\321\016i?\027$\261\276\013L\232=2Z\214\276@\335\204?\216\343\207\277\006\213\344\277D\260\252\276\306di?\351\370\242?W\377\005\2762\014\365\276%e\204\2777vf?\'\320\202\276\226\331\221=[B\002\277\220\251\230?\023\313\343\277l\014\256\277\022S\034\275cU\304\27732 \277|\300T\277O\355K\300Z\344$@\336\271\330\274\304\313\201\276-\337\014=ajy\277\226\205\243\276\311\274\367\277\257\'\220\277@\255<\277\227\217<?\t\357\265?<\307\027\277\007\244\264\277`\013\225?\310\323\374=\240\2309\275W\303a?#\237\227\275Z[\016\277M\315\327\274:&\t?F\306,?G\262g>>J\213\276\344\362\271\277\226\300\020\300}^(\277\330\225t\275\0210\307=z\\\241\277\311\337;\300\201\273h\277\223S\331\273\310\017]\277\037r\226\275O^\232\2762\217>=DN\331\277\366z\373\277\214\277}?\341\241\n\300|\305G<;\351\360?\322\364\351\277&\3138\277\306\033c\277\201{\236?Cg\303\277\026\3336\275\213$\302\275na\315>[^\252\277\372\323u>`jV\276F\037><<\352h\277+\2437?\307q\234\300o\211\267?n\2705=\253\266\366?$\250\262\277,\322\253>\002\234\302\277\305\261\200?y\007(=\014_`\277\275)V>\373\274\360\276\304\025\215\276\t\000\357?d,\242\275\036\003\242\277E\022\001\277\201ws?\261\002C?\205\377\263>\365\030%?_cz\275\034o\253\275Z\326\222\277qwW=\225\312<\276x\251a\277)\247\367=Q\360\225\276\227{\330\276\341\315\246\277\203>\245=Mr\257\275\3672m?Q\002&=\207hj<]\273\230\277\3425@\276\025\'\366>\305<A\276\354\343e?<\315o\277\217\201\310>r\231\346=\006\343Z\277\024{[>\t\\\212?\2046@?\257\032\301\274\220\235\263>\267\326(>X\347U\277\252\345\362\277\004\360\246\277\257x\217>\303}\357>\210B\222=\271\222\364>\240\313\006\277\353\016H\277\241\037\231>X\334\325\273\333\377\025?\254\237\233\276\016\332\350>\270\257h\276\264k\255\275\320\203\340={v\272>NW\271>wS\252>\222\013.>\031\206\245\273\202f\313\277y\020\227\277\020\207\336>\016\213\347\276YB\325>w\240\201\276\230\177\220>A\nV>@\355\001>\316\302\230\276\320q\240>\223\343\036?\005\336e\275\006Px\275b\322_?_\023\376\274\307\337G\276\323\2069>\243:v>\302\324\316\276\t_\243>\006\007\223\276\221s\020>.\342\242\276\001\343`\277g\335\221\275\366\020L\275\371\177\367\275H\010\361\277~um\275B\315\014>M\201\270\276N\257\221\276k\373\372=V\217\302\275Z\227\320\276\213{K\275\257sg?Z\362\347\276$\034\271\275pc\241>_\203.\276\330E\230\275\270j\006\277/\351\213>u\301\253;\250?\244\276\221/\274=\256\235\024>\363\321{\276\036\260k>\210\010\271\2769\335\r\276\026V8\277\252\325Q?i\030\236\277\r\244(>\tm(=}\033\323>l\276\003\277\r\201\032\275\331\354\007\277zl\237>r\266\251=\320\310\314\276\253\272\243\276`}\306\2763?-\275\220\361\274>oU\361>\373\324\233\276\320\250p\276=\355\002?J\271\325\276\251\322\250\277\357\333d?.\341>=M\303.?z\325!?\245\032\353\275O\026\r=(\276\r?\301\244\337>j\314\003\300\030\261B?\255z\030?w#\251\274\342\326c\276:\330\351\276\250\236\346\274\336\226{\276%\003\027\277L\275\203\277u\300\261?6\035\002\275g+\000?g\365\241\276\263p\316\277I\207\341\275\007\021\356\276\231=\241\277\016\021\370>1u\243=\335/$\276\217\326\207\277\0208\035?\021~d\276\275^U\277B\360\365>\352\036\t@Gh|>\006\237X\276\344S$=\263\351\330\276\277\234\376=;\200y>/5\234=\265\t\005\277\267\010\213?\321\254r\277\305\006\241\277\\\272\231=\000}\244>2\223.\276L\214%>\240X\377\277\022\005\330?\301\323\014\276\326\237\252\275\331\215|?l\025\210\276\206.9>\367>^\300\267\024\010\300\364\036\033\300V\\\337>\330*+?\300\231V\274<\352\254=\010\375\032\275P\351\366\274\230\307\370=,\256\322\275 \027/<@\237\304;\360\032\241<P\257\234\275\230+\306=\3505\253=\270\016H\275Hn\013=T\377\236\275\340wc=8\000\000\275\354\346\232\275\200/\016;\374\256\346\275\304\014\350\275\234\243\356=\000j\224=\214\216\276\275\2405\243=\\E\217\275\020w\241=\314\264\214=h\331&=\354\355\231=D\014\323=\250QI\275P\253\273\275\204\230\376=p\373\371=\014\t\377\275x\334\257\275\200o\361;H\210$\275 \245\377\274\354\353\200\275\220.\203\275\030\257P\275P\212\367=\300q\302<\024\221\240\275\010\0358=\370kw\275\300.w\275\200\315C;\340\215\335\275P\"\326<hF\216\275\264\356\243=|c\301=\230,\n=`\033r< \243%<0{|\275\034G\375\2754\003\206=0\351\354<P\2628\275\300\236\323\274!i@\277\245\235)\300\327\343\332>s\335\326\275+35\276\277W\\>v\330E\274\372\"\266\275z\030\213>5\345P?\300\205\361=\'md>\027\353\314\276|\256)\276\261\354];\017`\244<\337A\362\275\230;\211>\027\327\004\277\242\330\245>:\031\322\277\363\351-\275\266\322Z\277\275\206\236\276}vo\300\363C\240;!;\216\276\350\024*\300G\rK>\353L3\277\r\030\325\275U\335\316\277L\017\331=\241M0\277~//\277\000X[>\205\254??=\236\350\276\017\327i\276\203\325\301=t\230\212\277\305\235\036\276\025\316:\277\022\266\n\276\207\035O=\341\2235?\003N\312>\371\034\001\277\004\'#\275W\202a\277\3711\316>\334\264\036\2766\200\002\300\020\3439?L\014\030=\26476\277W\320\254\276\342\347\211\276\210\302\017\277\257\375y\300$x\310\277\360F\361\277\334ud\276\027[\376>S<\014@\234-D?\311D\216\276\334\\X=\344\371\312\275\321~\005>\360\366\251=\340\251\001@\325\023\211?\231\313\314\277\025sT?\016\023\t?\3759\231<y\024\001\2773\307\231\276\203o\261?\220\221D\275aA)\277\207\377+?\345\264\341=\333\254\242?\262\276\267\274\350\261\335>\004\3222\275v\031<?i\212\215\275\345\253k\277SJ\227?\234C\021@\006_\316?\320\373\200\275\317\000\341?eWg?\006\206\020?\0257\201=\246\376\354\275E\\ \277h\031\301?a\201H=\014Nu?\203+%?`%P>\201Ki?MT\000\274\266\'\323?\024\016\033\277}\373\027\277=\352\353\277\352+\273=W\n)?Y\302\222?\355-\031\276\203\220h=1:\326=\334\327\357<\370\364?\276\313\201a>\203\236\242?\020\225&?\302O\341?=\023\000>m\330\354?]\340\210?tC\027?u\2377<\333\360I\275\006\233\274<7i\231=\243o\177\274\246\021\270=G\250\274\275\363\377\330=\272\030\263\267\252\200\265=\340\244\312=\326\344\005>\372\315\274\275v\365\177=\351\253\r\275?Lx\273\300\214\014\2766\006\023>M\032\362<\313M|\276\023B\244=\353\230\351=\345t\n\276s\300\211\275\223\033\301\276\250\306\017\276\375\316\354=\205\005\373<\231\222\320\275.\216\\\274\nx\227\275\212a\201\276\003\203\254=\360\342\232\273eZ\034\276\352$\210\274Zr\332=#\314#\274\010\365{\275\340\362\351=\266\242\351\275\004\374\372;\325\264\312\275[I%\275\335\020\034\275\013\370\202\276bXD\276\333\223\213\275t\347\341\275\344\003R\276\271\314\364=\022\337n=\203\363+\276\325C\216=(\035\032\276\207n\313\273\3600\307\273\026\273\241\275\342\275C\274|\331\222\276o\305\300\2744\267@\275\003\272\'=}\217\260\274\030\017\367\277g\030\226\276zj\351?\371Y\260\275~lo>\256\241>\300\226\214\314=\024\357\262\277\320\356\225=\240\277\242\277\007\200\225??\355K?\316[\001\300\035\314\200?\223\233X\277\215\222T?rE\202=\210\234\344>\236\301\334\277\226F\317\276(\225\262\276\353\013\016\276/\233\251>\350\365>?\034\273\243?D\227\214<i9\r@\324!w\277\242\203#\276\016\234\342\276\260\301\312\275.\342E\277\377\302\004\300SzL?\204\034\372>\200(\263\277\246\366u\276%\345\370\277\353\004\214\275\210\016\314\276\331g\031\2775\302Z?^53\277\030\332\360\275\337\313\277\277=\354x?\r\207\245\273\355\007u\276\215\334\227\274\346\306\304>\370\347\257\277\343}!\277\034e\225\277U\340\232\276\231\"\217=\224\301\t\277\272\305\324\276\222\332\306>\304\366\267\277\206\346_=\307\354T?\315\333\n<]\305\330\277\311&\277?\352n\006\300\337\222L\277_\035\226\277.\342\264=\r\311\261\276>\240\361\274\362LB\275\t9\252>\241\014\n?~f\205=4?\000\277;kU\276\273@\216\276\360qi?F3`>\275\317\335\277R\003\024=\276\202\300?P.\254?\231K\325\276X\274&?\267W\220\274F\025R?.d\371\276U|\247?\367\314\007<\005d\366?\223b\350>\317/\326>/)H??H\016=\263\270\276\277\221aR\276\235u\203?\274\301\340\276\266f\217\300V*\256\276\356\275L\277\3059\232\275\007\3665?\265{b\277\214h\004@\231\330\346?)\275\032=QH\247?\377K\237\300\220Ct>iU\017?\203\267\231=\232\263\035\300\254\002\345>{D\366\276\327\310?\300\000\245\245\276\270\202\305=W\326\026?cj+\277\354w\201>@\203\270\277D\r\203?[\302\204\277n\3511?\351\210\334\277\325#(?\375\202\327\275\252S0=\202\t\024=(\323\032\275\267\234\335\275\3327\365<\223\362\t\276d\261\366\275\014\023\302=\322\n\333;S\017\346=$\227g=B\314G\276+\346\016\276\177\332/\275\251\356\277\274\341\0301\275\334\215\242\275\253x\303\275\261\234\324=,\377\244\275+\364\321<\026M\305<\003=\201=\"\206.\276\352\223\177=\271\343_=R\353e=Dy\376\273\213\262D=\314J\006\276\001\206\342=\347\000\273\275\310\003\316=I:\350\274\3167\310=\304:\023>\034a\230=\377i\277\2750f\227\275W,\250\274^\355\'\275\276X\n\276\247\264\004=\373\364\256=~.\260\274\370\342\240\275\016\246\234\275\252`j\275z\353\272\275\303\264d=\020\257\\\275\335k/\276\006\017\021=\004\327\202=\301\306\206=\204S\013=\275\275\307=\222s\252=Et!>\362\316\206=\322MC=\256\306\272\275l\250\220<\247X\t==\"\023\274+\206&>\267\226\374\2758\301.\275`\301\024?\277\246\003\276O\303\201?\037\273\001>1\341\333>P\026\010?\236b\355>\256\231\177\277\244-\032\277X\266\231>K\253=\277\356\226\241\275\351\250\004?\022\036.?\007W\236>&\233\237\277`\264\312\271w-\206\277\223\245\231\276dV\035\2767w\222\273\241PT\276~\276\001\277\257\304\271=[Ye\276\277j\371\275]R\254\277*\t3??\013\304\276\325\227*\277\233\r\217>\270K?=7\022\253\275\3203\314\274V]\237>\365\375\335\276\r\353\031\276\260\264@\276I\304&\2761\242\010\277-H\331\276/\254\342>\244XJ\277\300\376\372<\274\245\004\277\034\006^?w\231<>\313\371\244\277\377o\254>\266I\373\275?t\204\277\013\331\240\277EpH\275\362_\207>\001i\266\277\342aW\277P\327G\277\0106v>\200\010a?%bN\276;\361\206=\276h\277<\370\262)=\210\014{\274\303\356\362=\306\246\004\276\377\3607\276\324\032\017\276\251W\t=<\035\311\275\3365->\\]+> @\234<T\335\206=\024\371\016\276\2303\232\275\276U\340\275\312\037\354\274\246\317\024\275`JW>T\306\336=\310&r=$c\343<\377\244\320=\354\311K;V(d\275 >\223\275v\360\237\275\273 \276\275U\255\002\276h\321\360<\251\372\221=o_\302\275o\235\200=\364\227\232=\230\344\030\275/\267V>\351\311\207\274\262\352\267\275\235\3443\276?a\337\274\225\333\270;\000H\212\275^4\004\276s\307\310\275\355:5=Y>\215<\020M\327=\314\036\222\275\365\312\267=\232zN\275m\343\2569~\240\251=\307;\244=`\257<=\325\230|\274m\355\314\275._c=\301X\235=\260\000\004>/PE\275\366\212\315=\204\026#>\230]J\276\271\310\313\274Z\\\251\274\260\330\312<\036Q\222\275\245\355K\276\216-H=\256z5>\272\t\n\275\307\224P\276 `\261=u\322\r\276@\357\013=\325\006.\276\021O\366<\354\266\036\2737\037\324\275\245\000#\276f|\004\275\3031$>x\\]\275\252\223\370<\361\331\244=W}!=\3040\263\275\352\366\001=\241m\002>\301\373g\276\334\235%\276\232M\322=n\351\356<\266j3>\362\311n\2762@\202<wiZ<\314\003\254\275\222]\\<\027\325\310\274\n\211S\276\310\252\375\275Cs\316\275O5;=O\277\340\273%\336\003\274\340\310\311<\203\355\020\276\3358\035>\325~\375\275O\345\341=\226\300J\275\22446=\327^\000\276\341\263*=\312\303@\276\031\300\365\275/f\214=\313\332j=YN5\276sH\203=\220\307\342=_\244\247=\326tQ>\374\202S\276\024\\\214\275\233P1?!:\021=\177K\354=\245D\005\276WQy\276J[\227\275\300`&\275p\362\014@!k\252\27679\365>\n\213\n\277\013nJ\277\025\342\252>\005\362\037\277\327,\247?v\022^\276x\247\305<\360v\361>\212&\231\277K\312H\300\334\367\241>2\373\331\275\003\014#\277s\226\366?\200\376\002\277\030\225\331\2755hn\277\320\271\"\276\212\346\221?u\316.?m\204j\275|\376\t\277g\224\014@J\r\231\277W^\206\300)Z\301\277\336DG\276\377\276\216?F\307\265\275=\312\271?\003]\212\276\205\331\010\277\332q\n>Q\336*\276G\340\274\276\234[m\277fs\204\277/+\246\276e\261,=x\350K=\315\000\222?\266\026/?\317\346I\276\2633m>4c#=\276g;?\'\341\021\300\033\226\331?S \372\275\372\030&\2766\267\024\277\307\027\205\276,\304\261?\023zS>\247\347U\275\205\376|\275\016\314.=f\241l\275i\004\246=Iv\322=G_\343\275g?]\274\261\347\211=T\223\213=j\371\036:\335\316\212\274X\212n=\212M\230=\345\000u\275\033\221\277\274\255\370\210=r\362\227<\314<\023\275`\031Q\275\343\212\367\275\276\341\214=\344\226\210<D:\373\275\245u\302=\364\317\202:\351Q\215\275\373\373:=\007\371\216=`\0342\275zE\323\274;9\261=*\r\325=\225\\\313<\374\035\262\275\357\227\250\275\330\321\337\275\tU0=,v\316\275\346\227N=\265\370\334\275\370\354\024=\363\362\367\275x0\331=(\210\236\2752\223u\274\0237\224\273\273\251\200=\\M\351=:\\p<\321\262s=A\314\014=\005<i\275\342\\\361\275\010\026z\274\236\223\265=,F\323=4\335/=\\\037\220\275#\300*\275N\330x\275W\304\320=\2758\270=\200y\307\274\312$\217\276\273\335\243>`\216\237\2768\220\217<\353/2\276;\327\n\277E\225K\274J\276\007\277\\O\014\275i\002\257\276m8\247\274m\353\005\276a\247Y\276a\344\216\276B\200\311:\356J\274\275\227\353\272\275A\333\276\274\305`\312\276\020Ci=\303{!<\276\312\023=St\227\275+\217\034>\031\277p>\2066\214\275\326\2727>z\334\340\2767\214\232\276\266UT>p\333\023\274`I\263>\362\321\266\276\n\257\242\274\267m\006\275q\002\255\276.\027\300=\312\nW\276\274G\237\275s\036\272\276\322-\230\275\253g\351;$n\226<\237\321g\275\272s\227=\207\227\246\275\240\002\267>g\265\252=O\214f\275\032\276\225\274Y\270/\273\251\365\215\276S\313\354\276\340\317F>\302K\352\275\3308>\275\265\260^\276\"\002\261=\313\021\177\276\254\214\303>\356\266\004<S\304\014>]^\377\275i\304\314=P\337\373\2774\332\327\276(\224\204?\327\212w\275\312\3338?\362Sj\300c\247#\275\377\234\306\2773x\347=\022J\260\2771/E?x4_?\200\265\217\277\020R\010?\312\252\254\277\212\223\325>\262\266\234=\265\034\r?y\305\276\277?\243\033\276\232;\365\276\342\024a<\300\203X\274-JU?`\004\305?f\022\311<b\225\305?\'=\036\277m\260\331\276O\271\351\276\234\'U\274\273\321R\277B\316\326\277\231\232\246>\266\334\361?p\376=\275\327\252H\276\221\205\320\277\374\3549\276r\256\025\277\247\324\301\274\236ef?\\\371\375\276\203\n\303;\377\336.\277\030\263\215>\367\375\001\276\221R\"?\310\243\005\275\273t\305>o\337\271\277/\325\005?\272[\211\277\215\225\256=,\214\234\275\352\016\212>>fM>\253t\274\2768\202\346\277\353\361C\276F\2612?\227Q\226=u\266(\300\270\206\235?`\302\306>\3402\222>\003L\313>\264ui\275Z\211\006?\212\324z=\260\033\220\275\032\332\002\300\'z\362\277\302\021\310=u2+\277\221\374\232>\217d*\275_\311\205\277X\354\331\276X\350\231>F\265\021\275\225\263\324>O\362\031\276\304!\036?/m\221?\243sD\275YR\276?\347l\016=\021\344\231?`\330\314=\377Ro?#\024|\276Q\352U\277m\377#?:G\216=\217eX?\032\2612\277\336\342\006\300\373\000n\277\003\301\017\277\257\315\277\276\0229C<O\271\275\275\375\240\253\276-\256\013\277\007\200\311\276\203\022\272>z\031(\276W=o?\260\313\371\277\354\363\203>\260\303=;HJ\376<\254S\312\276\3143\226?\362=\276>nT\004\300\025\353I?vZ|<\023i\203\276\300\215`\277\311\"\263\276\304D\322\277\326Z\030?\335\241\231\277\321>\005?\017c\324>\224\234L\276\033z\305>\210\t\035\277I5\002>Y\351p<\335K\001?\356I\245>*\035\274\275ut\350\276#\341\323?\271\262\206\300T;\312>\353~\271>\220s\352>\024Gs?4\376\034?;*u?\2109\007\276HZM?I\217S?\344C\n\277\247\377\022>j\202\025\276`\311\251>jm}\277\226o@?\354\334Z\275\356?\"\300k\307\344\275y\272j\276Y\234\030>\240\002\020\275\"M\277>\265v\214\275\250\203\246?|\371\303\277$\002\301>\315E\337\277\303\025\222\276\274\3725\275\206\332E>`\247\255?\261\274n?\317\035N\276k\000,=\341\200\226\276m\235\362>\033@\333\276\354n\017\277P\333\267<\2612\021>\3238\001?\226x\321\276\333f\213=g\370>\3001\365r\275\226\005\273\277\207\246\037\300\331mb\275xW\022>[\"]?\024\023\220?\020\221\234?3\340\023=\331HJ?f\203\376\275\227vs\276\312\336\221\275S\252\302\274\234_N=\023\031\212\275\320y\006\276GQ\200=\0259\353=@\315\204\274R\344\023\2763\235\362\274\364i\217\275I\262%\274{\373\266\275\205.\335;9Zm<{\263\003>h`,>\030\t\260\275J\010\244=\304\035\212=`\264\351\275^\200\317\275\327\246H\276\001<\t\276\321\014==3\275\277\275 Zt\275\334\254\307=\367\375\231<\242=\265=\236\365-\275\312\035\256\275\365%M\276\357s\275\274K.;\276\006\030{\275\255\000\242\276\367\365J\275\247?q\276\267;\010\276):)=.\0008\275\320\245\247=\204.\377=N\260I\275\250\367)\276\027O\331=pX\271\275\210\313L>\322\342\276\275\262\024\265\275\357\350\233=\352m<=0_7\276\335\236\371\275\261\361M9It\335\275\306\305K\275_\343\032\276b\025\340\274{\374B\275\001&\375\274\363\305p\275\021#K?|\026\211\275}#\301\275m\350t\276\003\000\"?\313\2460=\325\316\034?\346\002;?\3341o>\010\201\226=\226!\007<Z:\350>\203\220C=C\354\306\277\274aZ\276\260?\373\275w\234!?%\317U>\205@\220?\335\377z?\222\243Q\275\223ID\276\325sm=\260\255\322\276\264\007\267\274\215\327\273;\014U/\277\275\260q\277\326\246\342>\250\350\307\275\270f2?\371\351\342\277\210\302\n?\000\377\220\276R`\372>\2052\260=\021\361\203\274o6w\276\2209\372\277\336\376\036?5\212#?J\327~?\247\374\356<\211\350C\276/XN?\302B\245>\000sm>\261\023\352\275\253\\\342>h\326n?@\014\003?\227u$?X\315\357\2712L4\276\252`\320>\013E\251>\tK$\300\225\370\010?\203&\026>\261\014\001?\215\267\247?\005\221j\276\325\035\210>CDi?p\024/?\237\216\256?\274\2408=\230\314\324\276\222\232>\300\030k\'\275H\306k\277[\006\270\277\222\272\237>H^Q=\001\032\254\276(\003\255\277\365#\005\277\031\213\037\277\204\340\213?\375\210n=\227L\301\276\034\314\004\300V\221\\<\334+M>0\217\201\276lN\255\276\017\024\237\275\367>\013\274{\022>\276\305U\032\277\n\030\222\276EHL?#Z\206?p+\336\275wc\002@\336\006\207\276\225,{\277\275\t\352\2765\226+\300|\205\237?*\336\217\276\3705\t\276\r\027\217>3\336\216\277\342\211\272\276z8\315\276}l\"\275\225dJ>q\340\340\275>\341u?\242-\353>9\027b=\300\027\263>\035i\r\276\200\331\244\275M \243\277t<\274>~^\216\274\346\252\340\277\031d\352\276\211\013\245=\222\353\271\277 iY?\250\265\326\276p\253\213>2F\034\2769\\*\275\200DB\277\2724\026\275\321\224l\276\325\302\263\275;\241*\277\336\026R\274T\247\020=\360\354{=Jj\260>\346\301(\275-- \276\263\223X=\363\215\203\275tI4\276u\004^<$\330\013\276\n[~;oH\010?\320\373\013\276\317]\252\276\226\322\230>\003\310\254\275\317\367\332\276\212\304\215=\375\247\325>HJ,=ICb=\204o\243=\256\017\276>\023\346\030\277\256P\302=\323Dq\276\347de\275\004X\006\276.\275\260\276\222\347 \276\251@)>3\016\227\276\205\264^\275\004\326}\276\2172\367\276\245:4>E\244\274\274,\266\360\275\346/\277>\230r\212\275\233T\263\276r\021 \276\003\037\335=\036\317\261\276z`\260\276\367OK=n\031\212\276l\326\216>\305\361\275<\324\265\030\277Y\033\226\274\347\243\322>_\361.\276\217 \252>\n|\324\274\272\353$>\240\236u\276\037\271@?S\205\257\275\357d\330\275\300\372\013\275\207\317\312=\211\215\322=\021@A\27487\203; \274\212<\006!u=]\034\307=\207p\336=(\370,\274\300*\032=`\350\217\275\032B|\275\034*\325\275{\201\350\274S\024\272=\021\346\021>\212\205\272=\326\302\202\275\377\007\203\275\226\344\240=\r\246\336\275\313\220{\275\235n\217\275M\2154=\372\016]\275\327|\217<u\330\004\276\373\373\310<\351\354N\275\037\2418\275\036\334s</\265\256\275nH\212=y 1<\365\027\325=\342e\\\273\372\340\002\275@\'&=NVm\273\311\343Z\275\2632\355<\360b\243<\337[\270=-\234j\275&F\334=Uq\304;Y3m=\262}x=\254Z~<\"\311\260=1\323\337=\302\222\265\274$&*=p\2129\273;(\270\274\244\006\0009\247q\205\275\245\336\267\275\262-\205\272\275\013>\273\377\367\331<\241\315\270\275:\227\225\275\"\317\231\276\300\377x=\356=\004\276\000\206\246>\206*\276<T\271K>\261>3<\244\336\223=\027\205\206\276\2544\272>U\225\320<\365\310\241\276\333\376\211\276i\032\'\276\255\004\272<\303l\177>\322\010\275\275\211\275\r\277\336\202.=@A\370\275}\367\242\275\372\335\245=\017U\255\276\247\300\013\276/r6=\002{\211\276\262QB\2762\322\265\275\021\r|\275HcA\276u\351\266<\305\236\270\275\346\210\267\276@C->S$I\275\271\331\254\275\332P\270\275\264DG\274H\207!\276\2644\267=\235\277e\274(m\n\276U\215\263\275J\334\253\276\255\262\360\275D\273\240\276mq\342\275\267r\002\277\312{\004=\023\353Y\276zw+\277\366\334U>w\300\322<\370\037\330\275\216\326\232=\207\311\004\276\207!?\275\tW\350\275W&\271\276Z\000\335\276\2538\253=\210V\004=\201\237/\276\3549\253\277\360\361?> \362\244\275O\034J>{FF\276Po3\275\357\035>\277\314\030d?\373\267j?\326A\272>\340\247-?\005\237Y?\376\342\241\275\010wA>\353\026\026\276\300\262K\275o\323G?c\031\220?\006ST\2772}\364\275\037.\253\275\345\'\021?b\301\000>\353\016o\276/\017\230=\301\020=\300`\252\355\275:A\t\276\200\325\030>\004\2772\275`u+\277\341\362=\277\003\351\220?|\3177=\320\nq\277\365\322\224\277\3477\231?u\265\t\276\245B\254\276fV[?{%\254?\326\302\033\277V\350\324\275\255j\335>w\274C;L\235\013\277\002 \226\277B\341\263=}\376C=\305oN<\r\353\325\276\250;B?P\330{\276\366\376\314\275I\277\337\275\231J\016\277\374+\037\277\237\271\222>k\246\036?\0203\371>=\331\177?#\213\017\276\257\344\215?\261\221\335\277\303\005\223\271L\330\232\277{\021\233\274{-\366\277NT\360\277\220O3\275U\355\236\277\203YZ?\366/\"\277\367\362\007\276\005&P\276\210\250\346\2769\253$>,\2449\276\2354g\277\177\353\351\275\n\256\033\277\364+ \276=J\277>\2416\260?8!\204=\346\374\361?{\215\r\277\327\306\216?mm\321\273`\354\206?!\324\330?:\263:\277\303\301\320?M\355\212=\02715>\025\221\t\300\004\335;?l\247\210\277\3406\352\277K\033\317\277\317P\210\277Q53\276\030%{?4\322\032\300\n\304Z>g\037\016?i\247\350\274\244\037\273>Z\263\002\277\344D\233?]\216\234\277^\204\302\275\220H\332\277\346c\260\277Zh\321\277<\n\006\276e\3357=\317E\265\275%\260\213\275\326\234\344\277V\037:?5\313\255\276\244\'\031\276\270D\362\2765J\005?\n6k\277,\202\235\276=J\027\277\346\3530\276\320\374\247>j\342\206=8\313\245>i\201\235>7\034#\275\'u\207\275:-K\276*\266\251>\nH\317\277q\027I>\013\224\356>5\244U\276\000\205;>Y\031\226\276\303\204\004\276\r\2276\276a s\277\261\031J\300\025=\010?\005\220\372\275\3058(?M\227\226\276(\3172\300\356p$\276\215\306G\276\326\252\022\300\3459\030\276b\263\t?\374\3653\275\246c\'\277;\r\243\276\356\206\361\27646K\277\035\257$\275\333O\213>\347F\331>\224\354\021\276\367\364=<3\213\"\300P=\003\277x\tv=\2553\366\275N\r\272\276\323\2576?\331\222\362\275&\205\266\276\265*\271\275\317\201\216=\360\220\326>\376\341\273\275\365y\366\300\350UF?d\010\034=\317B\002\276B\255`?J\365B=R\242\202>e\216\312\277\006$\320\300:#\363\276-\224\262>\021\332\316>\306\350\352\273\332TM=\313\373\t\276\315[\273<U\216\223=\367\372o\276\010\030\263=v\231\237\272\201\375q<|\315\211\276\031\202\265\274&\242\230\275\247\225\276;\371\245Y\275\'\314\271\276Lc\025\276WB\201=#\352\007\276(\032\354=\030 >>\303\364<=\224X\244=\001\313>>%Y\241\275\217\2532\2761\002\271<\003)r>\2211\342\275\035~\021\277$\346\244\275\241u\214=\370b\336=`\003\353\276\2018e>\360\260?\274\004\260d\276tzZ\275\002\364B<Y0\225\2768\033\217\276@\252C\276\255\022\225\273v\232H>\034\326\n\276Q\373/>\003\363\037>\t\223\200>\255\350\003>y\366X\275Y\276\272=\032\026\260\274\265{|\275\032)\224=\026\326\023\276\265$\344\275\306,)>zt<<\210\213\t\276\216\242+=\254,k\273\356\020\215\275a\221\211>\237\226c\276\333\014\036\276\324\032\222=\224\320\344\275P\201\357<L\235\374\275\320\333\317\274T\177\350=x\223\277\275\200\276\373;\000\244\272\273`7n\274(6\317\275\000\250l9\220\342\323=84\322=p\377\237\274LN\265=@\000\270;\270\023S\275@{(<\360\267c=\310\016\300\275d\205\230\275\200\347\343=\210\266\"=\210Jr\275\320\225#=\320zC\275Pf\336\274H\324q=\320A\372<\240\005]\275\020\017\236\275|_\372\275x\013\323=,\333\364\275\020X>=\354\223\315= r\'\274\330\263y\275\310\2102=`*\036=\260/\363<`Rh\275l\367\254=\240\326l<\344@\341=\314\010\212\275\370yX\275\340\016\t<\250\304\351\275\260{\216=8@j=\210\321\313\275 \275\023=\030\212q\275\340\337\345= \314m\275\004Q\241\275\000\243\214\273\350I\320\275\230\347+=X\232\313\275\340\251\225<\330\250\257=\177\256^\277\"T\307>A\206%?\342\006\273\275#\344\344>i\341\007\300\214B\300\275\373i\214\277\002\271\261\274\225\320F?\255S\034>\242&{\2771\371\223>\243\030\374=\267\357\322\300\030*g?\330\026\250\2749\257$\276\262\223\017\277h\205\230\275lq\201\277a\253\200<rL\244\276\374\273\367\275W-\024?\023\223\353<\323\021!\276\206{0\300\026\264\334\277\230\004#\277\225\024m\275j7\272>\266\002I\300C\313\227\276\247q\213\276\376\n\177?\020\362\325\276\360\251\301\277\016\337\257\275\030\306\001\301t\264.\276\333;\026\277h\223\017>\001\357\273\275\006Q\267\277\034\276\346\276\2626\262<N\351\206\277\260X\301\274\311\346>>E6\336\277\233\234`\300\373\353\252\277\300\220\301<\"\365\375=yT&\277\271\247\226\277\325\325\312\300\373i\337\277\232\035\313=\023\361\246>3\237\207>\212\177=\3000\365\233\275\312\247\332\277\237\214\213\277\027\247\250\277r\222\346\275\356\021\332\276=\000P\277\241X\251\275\025\010\271\276\035\324\226>\330v\037\276\270g:?\240\236\206\277\374\242\020?\350*$?\t\307\002\277\333\372\321\276\366\023\307\275\277\336c?s\024\333>\343\204\005?\007\245\276=\306t\025\276B\'i?\202\305i\277g\327R?\243\312\026\276qQ\223?N]\027?D\245\020\276\266\026L?\216\362\313\275\324!\303\277\344C\201>C\013\267>\345\224k>\256\271\316\277$\224\235\277\227;\306\277\'>\203\276\000Y\247\276\215\000G\277Q\355\210?\323\276\030?V]\312\275\r\367\272>\022\341\375\276\230\301;\276H\341Z\276\331r\365\275ODT\277\313L\200?z\207-\300\227\343\035?\215\210->\271\371\254=\004>E=\240\272\315>\200\311\301\275\\\357\220\277\316\000\277>\266\231\312?\264A\243?\246\030\031\277\267\266\313\2760\031\375\274\324l\215=\000=r\273\250\t\340=\340\022\260<h\233\367=\020\300\241\2748\320\320\275L\n\346\275`o6<pN\376\274\300\275\025<\220\237\352=\364~\344=\200n\216\273\234\205\365\275\360p\242<\\3\225\275\220\240W=\354\263\310=\300\254\265;`\301\271\275@_\207=|2\312=\300\322\311<\210\365^=\300\020\237\273\000Nj;\354\317\374\275\320\036[=<\237\352\275\0103\027\275d\022\226=\340-\321=\350\304p\275 \225\020\275\374&\204\275\350!e=P\206\210\2740\304\224\274\004U\304\275h\232\242=\230\247\311=P8\016\275\300\204\354=\240\215\202\275\240\007\331\2740O\304\274\240\242\020=XG\261\275 \002\303=\304\337\374=\\6\301=\220\334\346\275\000\025\332;\370O\357=Xs\325=\270\351\003=\254n\212\275\000\3202=\260\003\304\275,\'\366\275\304d\375=\220\254\\=\200\261n\275\010\265\257\275,\222\226=\214\315\260\275\250\222\241= 1\230\275D\234\307\275\374\236\200=\020\025\375\275X\370[\275\2240\202=`I\206\274p\370\305<`\260Y<\000\014\332\274\004c\244\275\244h\212=\240\372\211=h\033X=\014\243\317=\334\345\314\275\304~\211\2750\357\343<p\246\357=0nf\275 \242\365\274<\263\340=\274B\247\275\200\212%<\030a<\275\350M\354=PM\273\275\354\236\311= \241\266=\300\r\324<P+\306=tG\326=\000\0302=\320\265\313\274 \272\306=\240\224h=\214\005\262=\3746\237=\034\263\372=<C\365\275\214\212\260=X\3511\275\000L\016\274\334\261\250=\300\260\305\273\000fa<\274\351\325\275\260\350\255<\2402k\275|/\212\2758\346q=\354|\261\275\270OQ\275(7P=\364\260\337\275\220\2071=\270S\016\275l\351\275=\240I\313\275R\362r?\035\021\027?Swd\275\316\024\031\276F\276\255?/\307q? !A=02\302>\343s\346>\277Ie=\274\313K\277\316\346\347\276\345MO\276\376#{\277\357\362\001\277gC\244>\332\343\241\275\003\220\302>\340u\025?Z(\314>\324\025x<\362H#\276\312|\272\276ZIZ>\236-<\300)\027\341\275\270o\010?\203\033\020>E`\246\273B\001\213?\036\2230=%5y?xt\356\276\236$\317>$d\277>Pc\205?\211\361\002?\026\2222?\246w2\275j\213\207\276\212_\341>\t\020\017\277\334\033\347?\017\374\276\2750R\230?i\270\305\276\320\355\355\276\216\370\n?3\324\266\275R\3302\275\300]\250?\370\307\251\276\201\003C\277H?\312>h\262)=\320\340\232\275m.\263>\023\310\034=\217f\235>>\343\375\276[{m\277\356\320\214=\351\220L?<\241x\277\370\343\204?\024\240\203=Ds\\?.wx=\364\333\312\277\225\"\250\277?J\035\276$bw\276\0269\007\277\372\022\022\277\235R\247?%>q?!>\254\277[\317\230?U\260K?\225\244r>f\221~=x\344h\276=|\333\276\002\322\203\277\333\035_?\223\234\302\275*\3011\277\017\225\037\300\370{\036\277,0t\275\305\266\371\276j\277\350>w\363\301\275\372\007n\277O\356\322<\257\326S\276\327_l>k\344\213>\001e\352\277i\275\260\277q9\351>\273\260*?\260\325\310\275<\361b?K@~\277\224\201\r?-\267.\277\033.\204\273\254\374\007\277\270\017)?\032\326T\276\021\332\350\276\235<o\275\343w\366?\t\2522\277\336+\352>\223\363\261>\234Y\017\277\364V\027\275\236^\373\277XK\323=\0257\030?\366B\375\276\"\2702?\363\024b>\320^\362>e\315\340>1\204\273\276\374Ry?\035=\000\3008\nw?Q\245=\275;\212\350>\250\201\276\273\024\2063\275]\227\224?\322fV\276\225\014\004? \300\276\276\245\376Q>::\234\276rm\321\277\364\301\022\300\242\215\346>\200\2513\276X\311\026\277\362\3246\277Y\273%>\3767\273>\354\343\276=\000\316\002?d\231\257=N\372\030\277\023\033\333\275Kj\226\275\230B\243\277\327\027k?\3622\232?\3700\204\275l\334\014\300\320\024\321\276_\025|=\274\212d?2,I?)\370\253\277\2554\036?\345\211\211\276\034\371C\277?,T\277\214\301&\277\207\003\236?\261\346\251\275;\212\211?6e\235?pS\025\275\325\350\275\276\333&e\275\273M\r\300J\272\230?>\261\341\277a\323\202?#\256\325>\262g.\275TdG?\tR\024\277\231\202\214\2763\233\033\276SH\007\300\204\345\311?vX\257>\022\315\266>\241\2275?00?\275\300\237\324;\360\374\216=\014\276\220\275\334\334\224=\240W\354\274\240Z\036<x\227\245=\320\253\212=\260\303\237<\000\374-<\340\257\255\275\310\242\014=\270s\215\275\000tx:\260/\342=\260\'\315=`\243\023=`\310X<\364\260\313\275 \225\253\275\324\360\326=\244\263\217\275\250\373\317\275@\210\303\275\020\034\034\275T\210\357=\324%\246\275\020\357\316\275\340\200i<poX\275\364B\345\275\250\365\361\275<\346\374\275\330\251y=d\335\237=\250lx=\210\336\331\275\370=\\=\000C\346<\024W\243=4j\235\275@;\307\274\200\350t;$\000\202=@\277\372<\000\276\355<\270\025j\275\300#\370;\304+\367\275\270\3621=|\215\202=\020\352\344\275\010\313\312= \363\035=\220W\257<\364\273\355=\024\272\333\275\014\327\314\275`\225\353=L\253\264=HK^=\024\245\330=8\210Q=\361R\274;\266\221\036;\253K*=M\020\250\274\363\363\031=\023\342\366\275\244\014\225\275\324\356\254<52\320\275\334g\027\276\007g\000\275\241\303\235=\216\031\246<\366\242\320\275\004+\331=2W\016\273l\023\210\275\367\342\367<gP\243=,\246\313<\272\300\262<\217g\350\274\t\336\337\275=\373J\276c\034\202\275\315\265x=w\270\037\275\263\t\033\275\243\235\177\274\010&\237\274\003\360\275\274\006\207I\274\252\267\200\274)\2712=E\301\203\276\254\021<<nO\007=\272i\034\276\225\343\202\276\350\257\320\275QG(\276\300d\037>\020\357\201\275\332u\321\275\334\244O=\"\016)=\'\321\353;\301\302\221=\207.\341\275\0315\002\274\003\005k=s\027\376\275\037g\014\276\"\214\361\275:F\307=G\315H=\001A<\276\211z%<S\365m\276\306\351\023\275i\036\021\276&\2712\275\016\036\'\276c\031.>\322\357\205?\020\224\322\27750\201?n-\343=F\316Z?\345>\003\276)\236\220\275&\205F?\210\250\247\276\317\231\005?\332\013B\277+\234+>\365\203$\276)\314\303\277\231\030\003\300Z,&?\364\354j;\221K\026\277,\302=\277\020\335\271\272\372\205\244>\373\246\032\276\332\216\321>\213+d>R\355c\277VG\r\276\271{\364=\377\035X\277\\\200e?\273\307\177?(\324\023\276\335>\324\277\214\360\314\276v\233\376<\270\300r?\325\021\r?T\241\255\277,\325A?\037(^\2768\223\016\277\301\351\004\277\211:6\277\364\250\203?0n6\275<\332\212?Z\350\032?\2562S\275\007>\272\276as\013\276-\3453\300V\373\221?\202\235\360\277\036\346\010?\007\363\305>\355\372\267\275B\331K?:\316\206\276\014\367\335=<\3139\275\366\232\013\300\035\372\212?\363\361\373\275:/\327>uO\337>\'\000\276=\272\331C=y\373\256\275M\354\342=\262\321\002\276</\240=\235\014\241=z\254\236<\213k\320\273p5&\275\344`\033<\t\326\336\275\270\373(\274a\037\002\275[Z\325=!\370\226=\026o\257\275k42>\237\240c\273_\354*=i\216J=\224\313\260=\247\231n=\373\347+\275\352\353\304\273\324~\370\272\014\205\037=+\221h=\327<\000>\261\375H=!\337-\274IsQ\275\'\3761>6;\305;\301S\205\275\361\365\335\2735\314:\274\223\037:=\037\2052\273\373\024\323=\305\023&=\247\363\026\276\213\202i\273\363\325\235=\022\321\360\275\242\251\203\275\247\312\246\275\253\246\244\275$?\\=\3336\322\275F\307i\2752.z\274\2156c=C\340\300=\214\027\353\273\031\005K=\250\302\276=\337\370\276=\007[Q\275j\306\270\274\376\334\264=\004O\201\275\211:\323\275\251\022\002\276\273\266\301>+\n??\224\200\335>5\326\215<\302V\027\276\343%\247?\344L\263=\306\037D?\322R\203\276W\035H>\355t\251?\267\000\202?e\335\332>-`c?\206\021A?nyc>\317\334U<\n5\351=0\361\230?\334\036\326=7&\304<N\0172\275\010\325\025?<\030\376<\030\211\r\300\342\227?\275\316\205\232\276\326\214\303>T\240\234>\237\330\006\277\375\t#=>\2245?p\313\371\276\332F\205?2\372\314>\244x\205>\364\352\331\277\273\224\327>\274w\004\276\317\323;?\234\027i>\021\276n?\031\341%?\334\025g\275\336p\215\277\315\334_?K\322\003\300p\372\320>\321\342\301\275\362\203\310>0\023\020?C6_\275\357\020\261=\3667\301<l{\350;)\340\007?\300p\007=\t\324\026?\373\2517?m\317\326>xQ`=\334\026f?\364t\237\275\334\220a?\277.\203\275\257u\226>\211\020\206\274\322c\244=\354\354+\276\255\274j>\276\306\325=\343\\\025< /\212={\365c<d\310_=\205\2377\275O\200\343\274\321W\203\276(\022\302=\305tD=\343\337\023\276?}\255>\326\312y<d\030\207\273\000rR=ko\014\275\026\362\225=\314\342\256=\236\231N=<r\013>\346\326I\274\216Z&\276\333Q\215;\236\237`\274)n\202\275B\353P=\210\017\266=\231m\365=\305\360\351<f\030\244\275U\234#<\3269\221=\261|\367;4\252\205>\203C\'=8x\\>\215p\266\275\373P\221=\252\256h\276\236.*\275\213Y-\274\373\"$\274\210\301\205\275f\035,\276\246W}=P;\316=(7?\273\005\010\234>)\214\315\275B\006\010=\267\255\370\273\251=\020=\214X\366<\313/\001\276H\212\007>\351L\n\276\337\'\312<\006\377*>\005\215\255?\237\010\210\277\300D\023\300\2228\256=\277cx>\202]\332=<\004\024\276\333\026\340\276\265u\023@\210_\270>\002\263\270?<~$>1\"\221?l\021\202\277`Z\231>\306dB?\010\331\014\275\302\333\274?\337_\370?\313\000<>q8\365=\2506\377=\345\n\301?\224\255\006?\261\333\226?&\300W=op\007\277\035`k>\243E\\\276o\237\n?\272\271\347=J|\231\276\210\310`?\321\2157>\357\000\351>\253\351\354\275\224{\020>\376\333\265\277\024fp\2756\266\275\274Am\270?\350\355\263?J\315\260\276Bf\234=\344\360u\276a\350\346\276\016Iq\276[\003Z?[\t\221=\325\326\203?(\005\017?\240\214\310\277\234;#\300\371\276\363>[\277\244<\032P@?\363\257\303\276!\r%>\244\365\230\276\213\313&?O(\307\277\326\276Q\277,^\220?\032\214C\277RU\251<j\364\320<;\262E\275\365\353~\275\032\035\005\276)\270\235=3\177\265\275\333\036j\275\343\020\236\275I3T\271($\247=\245a\024\275\201,G=\264\245j=\033\327n\275\230`@\2760k\237\274%\207\260\275s_\367=\252\023\346\275\266O\316\272\003by=\256\331\321\274\233/\006=\025\343\036\276\273.\273\274\330\006\024\275Q\370\217\275a\377v=\0337X\275k_\037\275f\217\322\274\306&\224\273\300Bu\274<\317-\276\010\267\313\274\014V8\276\276\357o<\201+\272\273\235f\300\275\336q\253\275\031\260\014=\317\t\216=.\226\016\276\272t\021\276\312\344K=\351\256\020<\277\265@\275R\373\004\276\364\264\307=\033 \216\275\003\215{\2757M\213=\257\221\317\275t\370\221=\327_B<Q\357\322\275`\370\250\273\262q-=N\212[\274\264\022\207\275\276\216>=\256\366\242\275M)u\275!\177?@S\247\004\300\263\017\036\277\246\303\344=\004\246\000@\246 \273\277\223z\'<\240\320\252\277[\371\260>\365\242\245\277\312\342}\2779s\007\277:\235\253\275\227B+\276\204\235T?&`\240?^A\215<\307\274u\277\270{\257\277\314o\307\277ON\241>\330\255\362\274\000\257l>\033-\216\276U\347\033?\367\305H\274\357\036\371\276O\223@\300\214\034:\300Dh\213\277\010\001\311\275%\335C\2776%\034?I\001U?\325\336\312?X<\306\276\3559X\277>\341\023?L\346\\\276\354\035\312?C<\031\300\024/f\276l\262J\277%\003\243<\360\005\375\276?\022\305\276&f\237>\260\370\305\277\242\231\274=\3411\270?\356\317z\277\370d\303?O\212\036?=%\352\274\'\366\236=\324\354\265>\014\265i\276&\225\347?\341\346\313>h\205\251?<\\\256\277\227\306\007\300\027\021\016@\347\365\272\277E\302,\276\177`\327>\222\224 \2779\246\312\275\245\206\262?9\320\354\276\360\317\255\275\023+\323\276\300r\336<t3\304\277i\301\005?\272\247)\276\016\2334\277=\266\261>vv\275>J\237\002\276Q\013\232\275aj\256>\n\311\202>\336\314.?\201\345\246\277\001k\021=\274\324\022\277\260\343\303\276\376~\230>\342@\277;\261\244j=\332\313\243\277Q\\\327\276\r9\264\277\243\276\307\2750u\275>\335\324\000\277\342J\263>\332%5\277\327\030\006@\251\t.\276\335\352R?\227M\225\275\324\360\273?\035\n\010?\272=`?\350\350=\277\300\010\237\275G\221E\276~\032A>\333\206\233?\250\2268?\214\032\204\275c\2504>O3\321>\317N-\277p\323\237>\004\2454?\016Y\346\275Q\006\212?\350\014\211\277Vc\226?\313\353\004?\320\267c><\360f>^m\t?aOf\3007}\271\277\237\261T?\250:\323\277\"z\321\277\221\033U<T8\342>\334(\246\277\240c\260=\364\330o\277\t\312B\275\005\251P\276\213\363$\277b\021\025\277=\tw\276dF\322\277\320\007\233>\'\215\003@\314Q\205=A}\335\277\322\203\271\276ZE\223\277\237\227\343=\266^\254\2753\263\203\277\220\366\233>\320eM>\253\316\021\273\352M\037\277\3646:\300|@E\300V\320\023\276\020\273\026= \315N\277h\257\310\275\325\016`\276\323\376#?\024}\241=\207\t\307\277\363\373s<\264\263_\276\021\354\223\276\345q\035>\020\363+>64=\277\324]\202\275\000\332\371>o\177\373\276\2064`\277\207\337\214=x \276=\200\300\364\277>mV\277\"\210q\277\225l\276>3\204\027\277S\233\021\276\215n\203\276p\005\371>\273\326\262\276\360|\031?#\205\377?\237\325\224\277\371\303G\300\236[y?\023\000\311\277\351\016\322\275\334M\001?\004J\246;\367\366\036\276\205I3\300\3772-\277h/3\275_\332\263=\255\201\314>\253`\346\275\351>O\277Pa\017?N1\316\277\325\274\237\275\235}a\276AC\337>[Z\207=`\337\305>!\001\257\2761\270\203?r\372\247?DUS\275js\264?\304\262x\300}\270W?P\004x=\354\007\320\277\2364\251>\213\244\210?\250y\303?\005\362\260<\'\n^?Zo\342?\262\375)\276\367<\033\300:\312\033\277\t\271\345\276\276m\000=#\327\022=\277vB?AU\322<\346>7>\024\272:?\263\306\216\274%\352A?\030\3400\276\376\320\272=\276\036\313\276\320\357\002=Y\333C=\337\037??c\\\374>\307Ce? b\034?\n\003\215\275q\210\266\277\254*\224\276H\323\255?\312\301F\277\021;j?h\325`?\224|\027?\240<\303\276\221r\032?\221SY\277\306\317~?c\373\203\277\032\014\263\274?\330y>\256\275)\3004\352\241\2754\234\354\277\333\222\246?\337\007&\300\204r{\275\020P\277\276\231\320M\277\347\336\240\277\344\324\027>\272\214|\274\214)\264=\000\307\251?\004\222\304\276l!\273?\2345\000=\346\314Y=D\315\002\300\t\254\216\276UJ\206?@\361\201=\240\303\256\277^\350Y\277\371\001\020\277\225\236\332\276\033T\270\2743\014\265>K\253a?\323\370\210\277:{r\300\217\222\270\276\342\356\371\274\372\010Z?\372\\\212<r\257\274?\\x\322?F\363\215>\367}\226\275\265=\n\276:v\316<\223\233\277\275\254\354\021?_`$?\303\r\207\274K>C\277p\277\365>e<\251\277\242\322\210>8\363R\277\ri\232\275\300@\214\276\204\306=\277\364`\225?-\235#?[\021\262=X\210\235>\023\202=>\032\305G\277\025\022\223\3008\364^?\267\250\211\277\320\261\264>p\2212\275\353\335T>\202\212\205\277\247\200\005\276\027\0020\277\374#V\277g\227H\276\377\010\365=0[\332>\017\335\267\275Q\354\002\277L\317\320?\007\360\340>%\016\033\275\370m\340\277\210\355\325\276\326/\231\277\030RA?\001\276k=\312\340\357?V\305\337>\237#\244\276\231A\262\275Xx\335\276\325\327\027\277\236q\'\300\321\021h\277\341\360+=c\030\224?p\003W=\006\373\007?\221\227\207>\206\255\"\277\014\204\260\277\177\321h?\202\024#\276\366\276:\276\237\312\022\276T\347\267>Yy*\277@@\211\274\346B\243\276]\236y=|\323\222\300\372T<\277/8\217=n\262\020\300\266o\213\277\264\270i\300\203e\226>\331\207\323\275/\307\206<)\312\275?]\305\376<\315Nm\277\010\027\211?q;\355\276\366\204\000>\305%\311\277tu\301?RM\306>\227\303\003?e\273\274\277\033\335\006\300Y\202\250=^w\270\275`\311N?k\272\201\275m3\035\27624)@\016\006\260\277I\313\222?\233)W\277D\020\205?\267U!\277\244p$?b\204\217?\207m0=b\026S@\312\244\013@i;\213\276c\250m\276\250\267\315=\017\024\017@\014\244u>\005\3066@\275${=<;\210\277\232\364\004\276\227\270\022\276\237\365\030\277EL\326<\032r\275\277O\223\306\277\373\212\203>\330\037)\275 \3277\277T\374k@\266\212X\277\211\370\014<\341k.?\234{\025?\020J\332?>\321\271\276\177\236\003\275\210\210\202\277\337\307\\\276\310\356\332?\350Xr?\200\216\351\275\226a\346=\344.\324>jA\277\277cY\321\276)3\014\275\227\n\207=\350\250)?\002\2613\2767\362\250?\347\314\261=\367\203V\277T\325q>\375\335v=\000~\232>\016\233\001\277\005,\031\2777\231\350\275{\2329=\251\264\331\275&\017T\301w\035\010?\0269\324=Yq(?\262\'H?\351\360\024\277q\203\277\277\277\227\314\277j\270\311\277,\027_\276\266\330\034\277\0077\027\300\351\037\252\274b\263v>\350\032\233\275\374\337K\300\013L\336\277\307$\315<CPA\300\302e\024\277-\225\254\2761\365\314\274q\315&\300c\214\375\273w\256\315>~\002A\277\376\352\326\275 T\310<\36685?\357\330{?\247\337\327\274\220})\277\222\325u\277z\224\305\276\234\205\372=\374]\337<\013\024d?\024m6>\211\367\023\277\206\2264\276~l$?\277\242\213\276\253\346\365?(\r\254\276\225r\017\276p\373q\277\356wl\277\333\247\223\277EB\036\277quH\300\035\315\200\274\315\335\270\277\324\344\036@\372g\247\274^nF?\312*\'\277\241\026\244\276\177\230\203\276\345Xu=\360\314\007\277\361\272\317=\244\321\372>\207\026-\277\351\013<<\227D^<\322\334}\276fpn\275\236\205\210>\330M\001\277>\336|\277q\252\010<He\222\277\200j\214\300\374*\213\277S\233\004\300\235o\245>P\261\034\275\324n\353\277\033\261\235\275\333\360\033\300\205:\360>\026\n\325\275\363u\264?QwJ\300\246^s\277\317\221\234\275U\t\003\300\253y\"?r\316\251?\274\3568?\302K\241<\331\344\243=\276\0377\276\353\356\027\275\273\332N\273J\030\206\276\240K\210\277\025\317\004?\357p\236\275\023y\031?\362W\267\275z.\324\276\220\345\335\276\271\251V\275>\036^?\2565{\277\207kc\277\336K\320\277\033~\013\276R\342I?a\356\t\274\010k\025\277\325I=\277\312\337C\277 \362d\274\217\350\350\274\317\223\260?\274\367[?\246\343#\276q\2103>\211\223h\277*\203\341>\217\301\372>h\230\354\276\210\216>=X\370\365=\224\254\220\275L\275\366\275\364n\266\275\200v\010;\330q\r\275\350\313\260\275\000RK\272do\267\2750\323\267=\2103\361=\230]$\275\330$\266\275\300\267\203\274\024x\365\275\350\006\372\275\02063\275\000\263\306\272\240\303\026\274\350\314\304=pK\335\274H \261\275\310\nO\275\220\373\220\274pU\010\275\234\306\363=\020\214\207<\244\030\243=8\314F\275(w\312\275@\250\367=\000\2541;\360\301b=\374\243\344\2758g\234\275`\377\337\274\340.\256\274\220\233\255\275\244\265\310\275\360:\243\274\200f\201;\020m\374\274\300B\354\273\000\247\354= \313:\274p`\344<\200\371:<p\266W=\304E\235=\254\236\236= \306\271\2754d\246\275\234|\232=P\006\240=\314\207\305=\240%\204\274\360\355\001\275\000[\335=\034>\303=Pz\316<\334\346\230=@H\247\273P\312\354\275\317v\016>\375s\346=z\220\343\274k\327\207\274&\023\024<\350\014\254=\272\254\240\275\332\377\332\275f[\201\273\341{\025\276Q\242\252=\034b\325=\347\315P=\242k;\276\nD\374\275\027d\347=+\376\364\275\007GS>j\345\316\275\364\2651\276T\324\037=\222$T=\377/\311=\211\235S\275b\335\351\275\000\323!\275O]Q=\240\215O=\315&*=\306Gx;\207\376\273;H\321\023>]\362[=\305\324O=vu\000=\341W\347<\356\227#\275l\367\325\275a\372\032=\236P\207<%:\000\276\220^\n\276\340R>\275\310v{\275\227\311\261\275O\003\324=<S\315\275\303\347`=\004\207\323\275\333\342\377\275\353\032\221\274P\210\244\275\3568\254\275o\266\253=U\250\251\275\232\350\220<\005~\204=\n`l=5\200+\275\225\350\314\2755\257\253\275/\263\361=\313\366b\275\371\364\027=\247$\007>/\004\346<\222,\237=q[\207\275\213\'\321\275\200)\351<\360\020\310=\021\030\330=[\356x= \006\210=w\313\005\276M\220l=TK2=$;\355\275\360J\331=\2106\001>\357\374\345=\034\375\211;\374\225r<t#\310\275\304<\210=\3208\271\275\"\234\3777\200v\265=\202s\010=\363&\322\275\3142\247=\326\t\261=\037\371\300=]\016\330=A\n<\275>\303\247\275C\305\301=\014\372\221=DE\034=V\010\243\275\t\207\306\275\215T\001>\020\205\204\274\3536\246\274V\201\251=T\365\000>\360\233\000\276\360j\363<AG\363=m\372\207<\320U\367\274\250\342\003=\251?\263=u\370[\275\325[\000\276B\203m=\221p\313\275\"\273\004=\236\252\351=\331\310\220<Lt\314\275-\211\251\275\264:\350\275\351\031\272\275\237\367\316\275\234\004\032<\003\231#\275!\005d\274S\234P\276d\226\203\2777^$>g\220\240\275\242\025h?\217\270\025>\314r\010=\363h;?\r\235\333>G\255\333>\2268\244\276F\013l?\237\367\327\276\357\021\216>\211\3578\276<\2135>\255\252\261\275\220\227\017\2779\026\217\275\251\203\034\276J\003\360<\201<&=\036=\243;O\364%\277\343\000\204\277\034\314\354;D\271_?\307\032y\276\277n@\276\307o\276>\240Kj<\341h\277\277\3037?<m\3330?\356\301N?p\267#>\352\350\"?\023\305\220=%\275\327\274X\210\263\276=R\t\300\3635d\275\"\233\032?L8)\276=\321\251?q\376\221\276\'\3136=\033\375@\277\377\351\023=\345\344v\277\252\375\301>b\033\255\277\275\236`\277\264\265\250=\036\000\204=\320\034A\276\260\240i\277\215q\002\277\356\257\214\277\316\220\250\276\010\323\277\276\'\360P\276\000d\002?\362)]?\363\237?>=\225\256\277\235\274p\276\345\351\000\276\001[\005\277*\263^\276\240\220\364\275yI\361>\347Y`\277\023 R?A\231\217>\324\000\303>X\376\355>\243\017\006\300\366\302\344>\334D\234>g\257\257\2741o\272\276\345\223\227>\346S\310\277\332\262\013?\010\266\020\276\0064\341>\271\007\250?\277\363\370\277b\014\r\275\345\3323?\305\241\202>*\n_\277\016\257\202;=\022\350\275\265@\016>\030\326\n\300\262\334\343\276P\214\355<#\000\340\273\223\001W\277\310rT?u\377*\276\027\031\004\300{\rc\274\363\3238?u\246\t>\243,1\276o\020j?;\203\203\276\017\305p\300#MA>\314\215\242\274~\2237\277\035\243^\274NL\234\276L\236\356>S\337\267=:\335\026\275\244\356.?\023\312\014?\222\316\226\277\220\344\234?\264vN\276\312\001\271\276\2643\221\277*\315<>\033,V?\274\223\307\275\230\376\373=4}\327\275\270\006\272\275x.\265\275PX4=\240j\365\275\334\231\375=\250,\006=\020\302\373<\230\325\302\275\024T\373\275\010?u\275h\016F=\020\251\326\274\314\347\211=\010\025\332=L\333\227=\204Z\241=\360i\222<\260w\272\274\300\311\357\274\340\277\303<\254\347\207\275Ld\313\275\360{\332\2754\217\272\275\200e\240<\300\360\334\273\250\321n=h\221i\275\320\201\345<\364:\320=\000\031\022\275H}z\275D\373\225= <v\274\230T\017\275P\244*=0\367\355\275\240\344d\274\350\206&=\300\303\202<\200\014\222=\260`\201=\220\233\341<X\246\374=\210\230\020\275 +\346\275\200\355D\274d\202\351\275\374\023\364=xG\251=\020\231\202<\270\030\276=\210e\350\2750.\227=0\304b\275\240\371\201\275\230hY\275\240\r\223\275`\201\010\274\214\272\317=\034\335\310\275\263\035-\277\"\240B>t\271\247\277*|\331\275\032\303\021\277iE\201?y\365\235=\241|\">\030\003\036?\223\223\317\276d\034\000\277\240#\365>\022\177\207?+w+\276\213\350\256>\3478\020\276\376\357.=\003\210\275?\r\236\217?\017\255\365<\372z\202\276\'\302\300\275\251\035\342>w\024\354\276\312\034s?\2034\354\275\274L\374=\327\003\">\245\246\236?\343\021\265\274k\203\325<gl\346\276\216\3712?l\226!?\010\206E?4\000\212\277W\310\244\276\367H\033>\034\2131\276\270\022T?*\360\021\300\375P\241?sc >\'yb\275\374`\256>\247c\003\300G\300\262<0\310\275\276\256O\273\275qe\336\277\022\377\247>\314K\013\300\3409O\277\341\213\266=eH.\274\241*\212>\366c\367={\357\200>\333\263\236\277=\374[>\337-/\276q\256y>\203\370\224\277\212\330\230?\243\002\272>II\022\276\341\250\022\276\023.\244=\223J\364\276l\274\002?iJ\241;\353\032:?[-\343\276\004s\021\277\202d\224?`\234\035?\020\367\010>\317\206E?(\304\352=\231\271l\300\302\324\344<@\300m\276\250\001_\275\"\000\254>\027IH?\352\315:\275)\252\232\277\256A(?\022\241\354\276\355\017\014\276\3205\315\277\261h&\277\357\354\021\277\027zy>\270\340=\274d,L\277h\'\247\276\210\207 >4\026A\275)\242<?|\304\363\277@\214\275>\206\324\222\2751\005C\276\003\033e>\032\372\231>\200b\201?\244\227\203\275L\014\315\277\345\022\001@g4+\277\260\324;\2770.\261\275\225X\034>l\245\373\276l\335\321?\210E9?PT\001\276\021\021\036\276\346\3158\274o9\363\275V\302\315\276q6\016?\316\221\027\277\222\362]?\366\362\202?\213\023h\277\223\364\020\276\235_\"\277\352u\342?\250\370\356\276{W\321=0$w?\271\316\241\277Cy\326;\\\267\201?\035i\202\277\211\233l>zA\215\2770\273\017\276l}\223\276\234\313\017\300\270*\014\300<\262r?B\t\301<\215\020\033\300\236\375Q\277^\005\037\300hx\000?\206\3469=\275X\t\300w\314\212\275\261\022\276\277\250\235\276\275,\363\264\277LLw?\237,\312?\357\250\226\276\030\371^=\203\214\323?{\r\234\277)\241\'\2770\373\334\275\265b\013\277\204\351\257\277Pe\347?h\220^\275\251\013\223;\335\\\001?\246\030I\277\246!\342\2779:\264\275k\263\027=12\361\276\266\356\250\277q\363\243\277\037\'\210\273\355\275Z?\0233(\300\321\326\013\277\350\307\341\276\322S\234\277R/\274=\256u\367\274\004\304g@8\366U=\377\367C?E\0220?\212;U\277G\016o?K;\337>=4N\277\303\335\004\275\243\236-?\256c6\277\343\226\003\276F\245\357>\327\307\237\277@\266\367<\303\\+\276e\2011\277C%\343\277J\306g\300\210j\006\277\205Rq\300\226+\307>\356x\020>\003rt\277\364\251\347\275i<.>I\023y\276\347r\373\275\007\266\201>7\337k<\2566\237>\3737\024\300\003h\262?\177\230\225=\3641\016>\336*\266\276g\r\204\277E%\351>FA\302=[\341\314?\202\333)\277\262Z]=\277\316n\300xu\316>\264\027\032>\312W >\026\010\013>p\036\246\277\216sH>\305\376I\277\262\367\347>\314\220\023\274v$c\276\013d\037?\010\253\030?>\252\354\275\306\257V\275-#\204\277(\271\275>\203\347\313?\353\355\271?\005T\364\276L\032\225\274\223\335|\300q\214\316\277\313\265\205\277\001\303\277\275\326GE\2741\005\266?\024\026\260\276w2\216\277{\373#\300Q\343;>\253+\335\276!D\365>5D\017\276\213\341\351\276\370\375\206?\373\334\024<H\'\241=g\001??\341\302+?\261;/>\257j\014?a\337\025\277\236m7?\211\034w>P\377\203\277\364\342\001\276T@O\275B\221\376>\203C0\277\321\220&>\350)\002\275W\366n\277\372\257\354>\"\213\300>]6\361\275\021\250\263>\215\352\307>\036E<\277\023\010\221=}Ko\275)5]>\230\0079>\354Du?|/\n\277\355~\021=x6\327\277\231du\276\260,G\276\013\232\005>\030D&?\252F\377>5\366(?\233\272\372\274\322\265<\277\330\263I?\240\345-\277\327I1\276Y;\241=Gu#\277\257\320\250\275\247k\207>4\035\016?\234\367\214>o\200\320\275\177\245\215\277\300\371\020=\252W\206\276\235!\356>AWF?B\367<?-\327\360\275\263\022\211\270\255\351 \275\331<\203>x\254\007\275O\227\031\276\006\355\220=y\366\277>\314+z>t\222\025\276\\\304\216>\307\235+\276\017m\204\276B9\206\277e\245L>\230\332\354\277E\3208>M\277\203\274<@(>.\026\025\275\024F\246>\340\247w>\226\256\262>\0264\230=\250\n2=\204\332\020\277\300F\275\277\312,\020?N\241\260<7\261\270>\344\374\354\274\314\2400>\270\226\035>\362\3245\275\033\205\240>\274t\310\276\031\376[>\261F\200;\036\340s\276\327\356a>\212t\035>,o5\275\000\356J\2766\265\324\2758l\005\277\036\332\357=\301\002\032<RO~>D\320X>L\016e=o\312I>\364\336\365\275uO\217=\366Z\311>\245D\207\275=\332\361<u\352l>\233\234\020\276\265&\222\277w\035(\277TfU\274;9\253\275<\210\215>4\222-<\"\346\327\276$(\215<\206Fj\277\177\313+=B\206\361>9\252X>A?\323=\370\354r?\320\026\372\276\251\024^=N\253\213\277\177}\r\300Hy2>\256\202\t\2772\023\031?\330\311\364\277-\001\345\277va\202\277\207\345\252>HH\224=\225I\325?\226\200\336\276Q\203C\277\t3\221?\364\023)\276\217\272\250\277\331\344\215\275\217\342\205\277L\200\033=\213-\013>\232jQ\277\360\307\323\276\272\032\026?\352\232\"=&OW?\016\\)\277\362.\020\300\260=\320\276cb\201\277\3015\216\276\241\302]?\037/U=\224\241!=\245e\241?\020\307\230>\300\347\"\300\231i\311\275\206y\273>.(\375\274p}o\276SSM\276\361\310\317\275\273T9>\013\004F?K\343q>\034\210\200\275\3219o>\265(2\275:G\017\300\034\014\255\276+\'B?\351\233\"?\225\331a?i\252<=O\312\357\275\266\216\360>\355!\007\277\020,j=\200\006]=\3206\327\274\244g\205=\2042\335\275@P\371; i\354\275\030u\223\275\260O{=,f\207=@\020y=\260\3530=\260<w\275\240\232\307\275\200\205\312\274PW-\275p[\336\275\000\357\356<\240\021\000=\220\253\277=\010\275Z=\020)\017\275\000\033c\273,\326\227=\200\010K<0O\273\274H\227\211=\314S\360=\220_\265\275\200\337J\2754\277\307=@\267\314;\034\211\257=\2409$<\310&\355=\210\377\350=\354\273\352=p\254-=\320\231\274< r\t\275\200\260\016\275\000b\014\273\254\241\376\275D\031\335=\010\030\272\275\274\344\224\275\324\267\345=\240_\016\275\370\344\254=\000Vw\2748\277\201=\324\344\277\275\344\352\232=\240\2734\275\010\3217=\300\211\357=\300zS=\000t};\020\360\215<\254\236\221=4P\255=\230Y0\275(\002\010\275\020\361r=\246\315\022?/V\227>H\204\327>;\361\033\276\346P\035?\006G$\300\332\233\034\276\332@\245\277\340\277\301\277\225\311\236\276l\216G>\356PV\2777\355C\300\265\007\267=}%>?\365\336?\277hb\235={P?\276?\210\024\277\031\277\267\277P\307\331\274\346\2158\276?G\333\276\0338\357\277\306\256\204?y\n\307;+4\347\276\325o\215>\335\234\027\277:&\206\275\344x\214\275mV\337>\r,\364\276\247\346E\277\211\244a\300\270\311\241\275j\354%?OO\003?z3D<6\310\243=\275Zt\277H\034+?\232~H>\035)\355\273\313<$\277\252\205\326\277S7<\276\036\344\302?m&\353<S\353U>\270\343\273\276X\272\302>\366B\244\276; \234\277\231\370\000\276]\037\265\300\253\010\002\300<\242\010?[Yt\277\307Wz?\224\243\227\276\363\010\r?\231(=\277cX\355\277W\005\032\276C\225\001\277\356\301\234>J\354\245=\230!\003\277\330\371\205\276\255\014\334\275\261\353\211>>\351\257?\006\366}\277\227\316.<J\327\037\274\377\255\237\300M\313T?\342\351\244\276\313O)?~r\273\275E\330\203=\022L\341=\263U\373\277~\367\376=\021X\253\274\t\276\252?\032\324~\300*`\255>\n\254\327=\307\014P\300\336Ez\277-\244\260\277,\226l\277\364\224M\275\221\353\350\276\323\315M\277\375\016\230?\360v\206<\316h!>\325\342\241\277\313FR?\231\265\227=oh}\277C\210\241>\"\034\177=\316F\315\275H\000\242\275\242\310=>bL]>\241\347\033\277\340\"\244\276k!\202<\335\306N\277/S\376>\262E\332\277\203\322\363>\217{\000\300\037h\207\2759\306\001\275\353\266\341\276k\341x\277>o\'?\331\331\241\277@\361\361>\226\022\345\274\352\212\230>>\201\031?\037\253\222\275)\255\n>\243\330]<*\221y\275\233\003\255\276,L\205\276\241\223\237=j\016\237\275\361\203p\2751e\016\276\232By>Pt\024\276Y\'\000\277a\3314>\251\027\003>\026\312\205\272\241*\033:\313\222\020\276\272\330+\275\235u[\274/\344\t\276\245\356\007\276O\\j\276\360\334\201\276f\332\'\275\211x\023\276\274\207\236\275\006K8>\232S\245\275\362n2\276_|\341\273O\300\021\275(T\307\275\335\207/\275\210\222\237\276B\331\262\276\243>\007>S\247\010<r\000\342\275\330\2079\275\337\373\276<\323\353^\275\361\2219\276\242\177\021=\216\n\206\275\343\336}=\210CY:(\000\004\276\355,\302\275\354\301~>l\021c\276\363\254\010\275Y\221\006\275\320b7\276e5N<\222\362`\276ff\023>\242(&>\255O\034\276M\234\246=\304o\035=*\261\335=\330\323\261\275lA\252\275\232\257?\274\2534\243\277\300\220\232\276\266p\214=\242<z\277c\270\273=\020>\335\274\211\006\001?f\r\004\277U\244g?]\235\350>\340{\227>=U8?\225\361M\3008\343\240?7b\337=\003^\301\275\003\230\354=\200\342\355>\240\313\205\277\207F\025?%\021\233\275\3673\213>\271\'\235?\243h\251\2775\263\262\274C\316\332>\262\220\245>\004]\241\277@\232\014>\241\215\315\275`\006O=,\372\322\276\317\274\031\275\362Fw\276%\020\001\276ud\030\277!qS?\241\213\346\275\221\373\371>\2536O>\366\3219?\227\001#>\331^\216\274!\271R?c\017L\276\002\210\204\300\377\266\r>\036\372\311=GV\r\276\225\370\212\275J\030\254\277F\306\270>>\256o=e<\351\275E4\020?\026\2564?_\355+?\330-\260?J^=?\350\010\336> \364\277\276\307\217\030>\2610\200?\224\375]\277|\364\013\277\223\004\210\276\226\030\277\2757\3462\300e\324\022?\346\222\222<bU\307=I\213i\276\2653f\277\360 \366>,A\202?T^]?g\333\377=a\341\030?\204uC\277\307\330@\274]0H?\206\n\304?V\336\272>\037\303\230\276\036\350\035=\217;\224?\240\373\373\277|JE?\222\'\362\275\322\204/>v|\336\277\202\237\014=\214N\207\277!\220\334=\001\313\205\276\222\227\323\276\376\n\031?\005Dy\276D\036\330\275\354\224\204\275yk\316>\177\024\n\276X\331\211?\033]\267>p)\253?\274\332M\277h\216\006\276D\301\342\277m\256[>DP\302>\276\251\007?|\253S\274 -\207=\236?W>\311\336<\275rc\212\274\315\004\211\274\324,\330<W\340\244?\311\206\374\277m\004\237?\002\3170\276|\335@>+W\220=Z\351{?\237n\210\300\034\001\206?\316j)>m\214\260=\236\005\273<\272\346\370\275\255\036\341<\323h\243=\243\220\351=\326\332\032\276\257\000\276<g\327\274\274-\330*\276\273\003\347=\034j\254=\323\211\004\276\272.n\275\035\205J\275S?f\275W\240\266<i\\\241\275U*\006\276\004\237F=2H-\274\247u\000\275\335\246\375<\371M}\274\006c5=e\231\305=\253E\005=J$/\275\323<\326\275\254\300\310\275\006F\263\275\376\225Y=\001\030)=\351\252\006\275\3277\231=c\217Q=\251\301\002=\017/\247\275\222\017\271<\325Q\010=\301\267\010<\272\204\316\275\261\261\321\275m\364\007>\320\352G\276c\032\200\274\317\332\326<\372\007\322\275\247\275\353\275\323u\035\275\367_\311\275l\322J\275\2673\226\275yA5\274J\256-=\254\177<=\212P\260\275$a\026\2765\341\006\276e\234\021>\367{\'\275[\241{<\304\200\253\2754\t\343>\250?+?\037\357\352>:U\233\275A\320\362\276\364\260]\277\353\230_\272\007\241\337\276\326\216\362\276\236#\302\276D\025\225>\270\201\251>Y\027\225\277\264\310t?=\274I?\240\357\002?\003\355\341\274\223\377\025?\033\262h\276E\374(\276\370a\213?\322\316\215\276@6i\275a\254\204\300\226+\002>\341\274\316\274o\036\340\2764`5?\211k\252\276\226\2405\276{]\005\276\344\222\360>\233\352i>B\210\233>!\206J\277\300\221\243\277\373\331d?\330\371\026>,;\334\274\350\303\205;\033p+\277#y\215?\305A\242\276\330[\200\275\243\256\372<\361\217\000>\222l\303\276\023]{\275\030\200\334\275\002\242n?\300\t\277\276\366\376\327\275\017\345\204?\210\035\037\277u\331\257\2753\026_\300n\301\202>\232\007\231\274\307\017(\277\355\326\020?\362r\207>\261i\317=\263\245V\276K\352\247\276\254\277\350=\307YQ>\376\244\344<\014\0369=^Y\337\275\364\267\272<\303\366\312=\243\300\376<\226\266\260\274\377\n\025\275}\000K=\'\177S=b3\275\275\247AX\275\346\010$\275\205x\007>YSm\275b\210z>\204x\241<Y\226\220\275\355\277\013=\004\302\271\275\235\031\246\275\300\014i<\330\275j\275;,C=\336ZW<\356]\337=\r\313\236=\334\"|=\010I\277=k\327\364=\351\0044>\356\257\317=\277P\311=\364\307\271=<\t\006\276\336C\204<\365T\214=uI\354\275\t\033;=\016M\312\275\311VZ<\330\353\302=\344V\022;5\213\027=\261\003\225=z\2348<.g\023\274\220\017[\275\000\3229=\341\344\352=\205!$<\004\341\367=\312\177\236\274\322K\244=\356z\245=)\202.>\036\357\254\275\264\315\252<\362\364L=\325a\202=\242\r\315=\362\311\014\275\230Y\006=\237\262#\275\225\347^\274^\241\313\275\276NC>W\341Z>\221\031\271\275p\024\036:%8\250=\237\342\310<\002\030X\276{\002u\275\200\030\242=\246\216~\276\376\024l\276\347?\013\276\032\225\336\275\2430\n\276P\243C\275\003\2638\276\352r\240=\266\374\360\275\036\363\217=DBO\275\336\351\030\276@\332Q=\201\205\320=\022\231\236<\267\356\363\274\337\014~\275[P6\275\306\350)\276\376\334\256\274\010\035\254<\037\t\340=\007\335\302=\245F\241\276O\337\027>\266MC\276\013VI\276BD.\275\027\273u\275j\013R>\210#\342\275^\020\365=\374JJ>_\336y\275#o\025\275\\\340\345\275<$\260\275\017\234\016>j\324<\275^\021\373\274\241\344\006>\251^\034\275\036\357\032>\363A\312<_\014\r\2762A\212=z\306\235\276\210C\033=\212\007~\275\207\320\306\275\257J\027\275\370\326Q?\247\267\216\276e\265\271?F\320\022=\026\363\324\277\354\025\014\277S\321\214;k\374a>\274C\273\276ROE?c\273\323\276\364\023\'?G\307\232\300-M\301\276\337\024\016\2770\373\251=\272\026\275\273\314\230!\277\261\330a\277\033\016g>2\345l?[\304\263\275`\370\016@]=\254\300^\374\221>*f\210=\313&\023\277\\\216\302>o\250d?\003C$?\035\325v\271@N\277\276d6(?b+\337>:\375\240\277dDA\277\335\334\007\300vj#?\222\375\322\274\217k)?j\311Q\277\303\267\236\276t\307\240?\363\013F\276\330W\240>\365\374\035?9x\211\277\234\315?\277\177\270\201<n1\036?\221k$\277\222\246\354>\3107E?y(O?z\"\016=\022%Q\300D\235\311\276o\371\240?\360\301Z\277\210\362\001\276\031n\213?\262\226q?M\006\312<\300\357\311>\270\276}\275.\245\035\275\371\016\032={\204\'=\214y\002\275h\034\014=h\251\265\275\226\235\354\2754O\353=}\2127\275\327\016\232=\001\202\332=\331>F=J\312\211=L-\202=m\337\367=\242\367\341=\321\342\343=\360\\\343\274h_v\275\200\313\035;p\272\354\275k\365\324\275\220\333\\\275\233\322\373\275k\305\252=\247\272\227\275\373+d9G\201\360\275\205\241\361=\035a~\274\034\007=\274qLR\275,\300\362=\247T\271\275\003\212\333=\347\325\317=\275\346\241\275\337\360\332=\006\322\236\275\315\247\213=x36=4\360[=(\331\276=\370\347v\275Y\372\371\275\031\204?9eR\247\275\343\215\177=;A\376\274\232 \207<\362\254V\275\036jL\275\352\270\243=iX\355=\"\317\252=\312R\330=c\203\324\275\240\314\361\274x\247\256;(\033\213=%n\264\275\017\270\200\273\007:4=\307\251\204=\026\270\376\276[\371e>\344+\356\275R\177\034\275\370\343\200>\230\230\261<\365\361\347\273\306k\225\276Y\243\234\273;\201A>\036\222\213\276E\005\322=\236\220\365\266q_\272\276}\001\331\2752\205\360\275\257AR\276\203#b\274c\3521\275 \243.=\376{\261<ZC\260=\200\370x>~\034\261\276\350b\200=\222\244\336\275\372U\000\277\362\200\251\276\251\226&\276U\342\204\275\307\032\007\276\037\025\277\276\213>\314\275\377\240\025=\010\271\010>\\|\316:\253\221\273<\014&\225\275\217\371U\276;\023\330=\247\266N>\274\n\274<\252\277\240\275\256\331\310\276\004^;>\310\201\266\276FDZ=\352\312\004\275\272\257A>\245\003\245\274\036\236\303\276=\007n>QQ\013=\352\344\031\276\363pv>\001[S\275\004>L\276\r?!>0\233\220\276\331\'\216=\023x7\274\357\021J\276wl\005>:v\321>\334\025\343\277\tE@\276\260=\262\275\337[\305\276q\254\017\277\324)\246\275\031}\355=\316r\031\277\231\351\030?\201g\250>\201\337g>d\213\271>\2247l\300o\206\230\276]\020\237?|3\314\275\323\266S\276x\236\202>\304~\307\277\330\221\024?\331F\350=\021<\227?\215\'\033?\330\341p\277\353\315\313=\253vD?\2346\264>\244\000\003\300`\332j\276h1\215=Cah=\351\003\253\300\037Q\337>Kn\344<\215\314/\276L#\337=u\266>?\225\211\250\275,\276;\300X0)>\371l\323>]y\351\276<\"\260=\371\001\035?\352\035\225\276\021Mm\300\371\335\r?\373U\016>\355\237\343\276\230\317\207\276\000S\037\300X\010\337>\227\353\026>\266\306\233\275\212B\250?\355Q\250>\366\215H\300~ \236?W\261\327\275D\026\242>6\310\251\277J\340\022?>L#?\207T\272\276)}k=\233\353?>Ci\234=7\330J\300\230\025P?:s\372\275_\216\233?)\222\251?>\0106\277R\027\243\277\313(\257\277\376T\233\277\340\205\254=\350XZ?\030\177w\300\312\221\013\275<\305\366\277\266\331j?\006t~\300H\347\276\277%\272\345=\377L\014\300\213<\221\276}\2132=\254\274\373\275\010G9@wo\300>\210\344\317>\243\301&\276\033O.\276m\252\311\277\271\251\237?\034y\313?\336`\205\277e\240F?\361c\004\277I\026\003\277:6\021\276\272YI?\003\323\312>\340\216E>\350\037H\277o\211\r\276\316\rN\277\244\262\372>\216\002p?i\312S?\320D\r\275\201c\n\277\036k\332\276&Pt\277\0371\020\276x\210t\277V\240\272\275\260\336\\\300\361\3326?&\2631?\234\034h?\356\"\317\277\276Ca>\223v\232>\362\0042\277\333\2578\277\372\331m=\274a\304=\323\013\307>D\216<\275s0\032\276u,\206?\303{\014\275bYF?\232\264\232\276$\317\334>#K\242?\3415\210?\255\341\336>\211%\001?\2515A?\314\002\310<\030j4\274\230.9>\010\017\210?\215j\224={k\346\275\257\210$\275\023G2?\265 \266>\322\213-\300\304\037\320\275\237\250\223>?\313\205>\331z\222>\021\352\244\275\033zG<\376\025@?\345L?\277\361\357\213?fO\275>\263{\313=9\014$\300\261\256\'?\353GL\275\025\3249?J\274\022>\342\305\200?\244\n\375>\020\267\251<\325fB\277g\266\026?\216\350\345\277\2176\030?\257@\355\274 :f>aE,?\240a\201\276ZR\243>\246\314\027>\302F\325\275\217b$?\302\365$>\320\014?>\'\026\202?\035{\360>\022\241\234\275\254Hx?T\334\206\275\205sT?\177\017\024\275\342\250\217=A\327\221;K\362\267\274e\210\207\274H\0267\275\211\236\266\272\334\377=\275\030\2407=\252s\304=||\311\275\322\342!=4\023\304<\031\303N\275\n\347\256=\036\005\252=\323\233\005<V\354\225\275\337\031K=\005\242V=\332\374\005\276h\233\327\275vZ$\275\377\274\025\276\214\243\213=z\250\253=-\214\226\274\252\010\020\276_\021#=\030\353\252\275\022\232\343\274\322\221\307\275\304\024\274<\311\221\027\275\314\363\227\275\350\337\340\275d\335\002>\'\213Z\276J\022\031\276/w\230=\215\347F\276\t\250\000>M\375\252\275\350\212\020\275\336\356E=\372\376\350\275\277Af\275\257\010\036\274=J\367\275}*B\274\312\344\226\273\231\332Q\275\347\374\362\275\254m\341\275\032\000\013\276\0169\265=\247\374\014\275\376\356\n>\310\001\352\275{\371\211\276jX\246\275P\364k\275\215\305\227\275\337+\350=\032g\003?\214\031(>\310o@\275\276\276\013\276g0\210?Kd%?\335\005\010\276\225\3504?\372\365\364>3\t\255=+\331\010\277_\227U\274\310\214K\276\201S\266\277Z\232.\277\026\372\352=\326 \034=\260\201\304>\306!\267>\024\217\264>:\330@\275N\355\222\270~\327\017\276(\305\316>\206\315j\300c\231 \276\302\235\302>\364\211U\274R\r(>\363Jp?o\214\210\275Q|\232=\323\307;\276\210m\220>\271\3520?\023\277+?\325\216e>&Q\036?n%;\276\315\014\345\275\230\001\276>\246\230\324\276\t\341\273?I\216\304<h\351x?\227\2071\277\177`\313\276;\301\024>\034\273\370\275\316\022@\276\220\247\222?\370\257J\277w\335m\277TeF>\257\342\022\276\243\260F;\005\304\250\275,Y\254\275\351\371\266>J\367I\277\351\376\216\277\024+\214: \0046?\203\365\223\276\003XG?\206\216%\2771(\262?@P\231=\'zV>\037f\013@\277\252\262\275\357Zn?\220\006q>\322B\376>\320\361\241?\003$\347>\315\020\017\277$\321\376?A\333q?\254kv\277\214u7=\262n\031\277n\235p?\010\261\231\277\024\032\032>rMw\275\367\243y\277pfg?\321\307p>\305.\020\276]\2644\276\2404\003?aF\224\277E_\327>bR\355<X\027\251=x\035\233\276\302\215\300?\271\020\332\276\020w\031?]\025\277\277\276\037\232>\300\372\014\275\274M\177\276\257\243,?\263\301F?\212\257^?\376\333\010\276h\034\311>h\035\275?\037)q\277\202\026j\274T(\354\275\363\354\210>\335\256\016?\215\343\212?\321$L?\331y$>\230\234,=\202\201*\277B\316\351\275\372m\346=\232Y\202?Y\265\372>fI\207?\212\003\205?C\330G\277\033\031\224> _\313\273I\216\376\275\377\014\372\276S\370x=@\037\036>c\322\332=\253*\371\275\210]\027\277\377B?>\004ws\277\317\177\255\275S)\240?\004\007\310\275\242y>\276\310\2201\276vU\014\277\224\024V\275HxP?T\2661>\026\234*?[\374\335\276V\021w\274\363\357;\277\234\014%>C\312%=\027\321\031\276\271\352\000<\224n@\277\353\273\332\276\004\371\207\275\361\227q=\227\003\262>q s\276\221u\035>=\247\032\277\353\375\002?\21160=\324\200\335>\335\022\005>j\235\\\275vbc>N\026\322\276\007.\232\276\333}G<\030w1\277g\334\311>\331\230\303>z?\222\276\247\2218\2750H\013?\020\363\203<\344>g>4\340\354\274\370\202\005\276\376z\301\274;\252x\277a\366\215\276<l\246\275}?\330=Pn\237=QUF\275;\366q?zF\203\276zJ\301>W\302\033=\236\037\031=\006\366\371\275\210\001\244\275\325}\331=\351\307\000\276\331\300\312=\t\366\272\274g3c\275\356]\031\276\337D~\275\361\303i\275\255\316^\275\256\251\377<s\241*;\331\231\356=\230\277\260\275\344t\204\275\326D_=\"(}\275\244\026\201\275\3633\374\274f4\023\276\236\273\247\275\017\257C\275\037\306\033=\213\250\001\275?\226\017>\033\001\022\274\374l\177\275\324\244\367\273\317\375\030\274\265 \261=/&\242=V\315\371\274\237\263\247\267\310\250\035\275\303\031e\275\370\260\261\275\251F\014=\270l4\275.\221P\275C\256\277\275\362\003\r\276\266\223\322<,\302\213\275\306\223\244=\3579\001\276W\334E\2750\245\252\275\351i\301\274\213\377\221=S\362)\275\274\301\253=p:\023\276\245|\207=$9\275;\337l\312\275U\275\020\276\353\013\004\274\005T\003\276\250]d\273/;7<\212\245.=B\036\020\275\320\207\037>im\226\276\023K\350\275\255\333c=*^\340\276\255\032\300\275\004\\o\276?N*\276\2668C\276\017\010R=\267\243=\276\276?\303\275\355\217D\276\300\032\202>!\326\364=7_\004\276\344\330\230\275\304\273\352\276pB\214=\271\322\216>M\"\326\274\003\003`\276\366\265\342\274\374\316\232\276><\005\276\'7\'\276+\376\032=\377n\237\275\266\200\260\2756\375\351=\001Jp>\332\344\221\275\310\341\313\275l|\005\276]B\233\276\251\241l>\010\314w>\203C[\275\271Lm>1M\255\276\357\306I=\202\234p<\2525\200=\'\300+\276\032f?\2769\243\"\276\251d\247=g?\311\275Y\274\007<\337I\031\276[\323\264\276\276\327\004\27486\276\276/!N\274\nK\t\277:\335e\276{\273\212>\300r\030\277S\201P>\004m]\276aC\214>o[x\276\354N\332\276{\347\303?\202\206\256?\260\020\003>EE\222=\262\222\264?\302\241\222>X\r\023=\034\256\233\277\344\223\367\276\\\000l\277\347\002\024?6\001\303>,0\361=\226S\350>K\273\031?2\235.?\206\177\344\275*vN\277~\341C=\026n\230\276\224<\335>#1h=\333\225r?&\246\036?J\356\032\300|\306{<\361\251\300\276\031\256\244\277m\017\003\277\0369\266\277\212\256\235\275\255\363\022?\036\032X\276\024<\245?e\330\352?\372\241I\277\322o\222\277\026\275D?v\356\240\275\214_\262?\245\317\335\275\343\025\257=\t\302\231\276\022\241\303\274,zE\277O\023\207=\240\337\200\277[\341\223\274\357$\220\275\374\003\353\275\213\245\204\277\234\007\007\275\375@\356;aaJ\276\001^\021\2767gK?)\237\206>\371\274\256?\255\200\212?[\330c?\354\216\311\276]\020\\>\r\\\243?\327\335\002\277\372!\000\277\330]3?|n\016\300\036\006\346\275\"\262\035\277\220\355\311>\320\014\321\2757\366W\277\344\244b?E\342\356\276\337b\032\277X\177E\276\016\233@?\002\353\252=\346\233\342\276_Z\243?\244\302\014\276\004m\302?AV\207?,\311.?5\376\240\276n\251\274<b\232\037;i\241 \2771G\017?\353c\227\274Vq\253\275#5\305=\342\271\255?\274\214\010?@\'<\275\021?\230>\263\273\277>\250vp>\023\t\326\274\261\241B\274^K\240\277\346\307-\277\021\205\221\276b\247\010?H\204G\300UF_?\"\232\216\275\213\206\375<2\272\344<\027\224m\277\207\177\217?\254\345\036\277\316t\327<\303\016\247\277m\353\236?\0325\016\277m\304\032>$\355\234\273<6\014\276\035\337\265\276J\234>\276\264\245\n\276\356\216G\277l\351\326\274\266\371\303>\003c\024?\200\014\276\277\2344q>\203\337\211?<\351\234>\234~g?\324\272\270\275\027\314\255>3\2549\277\360\303\336\275+r\267\276\022\021\271\277\211\327\t\275\2046\342\276\330\210\222\277\312\366,\300\360\315\037\300^\266\202\277r\352\006?\255E\353\275<\013B?\"\020\227\277\313}\036\277\027\225\353>q\245 \274\235\333\346?\235+\000\277\206\206\363\27689\324\275!\034l\275\026D\207\276\203\373\346=m:r?2z\276=\204\004\302>\241TV\276\252L\005\300c\340\316\276\276\252\242\2752\331\177\276Sf6?l\341\024\276yX\225?\023\224\304\276\312;\004\277\254\207\276?h\\\315=?\363\305=P\206\037\277\335Z\226\276\331\201+?\017\273\223\275\177\206\r>\211\365\217=\010\316-\277\331V)\277\250c5\277\344\321B\275pA_\300u\036\262?M\302\374?\037\366\372\276e\365\223?|\032\220\274\263`\267>5\023\010>@\002\001\300\3065$\276\215\316\201\276\342\2406\276\272\034c\273EK\215<\221\241\003\276J\354\326=L\036>=\356\325:\274\202(\004>?\355\221\276\010\264\315;\2457\236\275\316=\365\274n\351\206\276\031w\253\275GE\017;W\3769\274\265\002\023\276\005\3177\276\371\010\021=r\270\313\275\332\351\301=\242F!\276\300u\033\276\255\271l\275\022\'\001\275\032\224\210;\006\2555\276\205/\037\276\371\t\255\275)\372!\276k \206<\375@\0209t\025 \276Dj]\275\303\255p\276\255.\332\275\033o\363\275_\230\305\275C%\267\275\336\305*>0\202\010\275\2501\337\275e\034\207>\023s\213=3\221\351\275\346=\256\274\235*\261<g\035\361\274\222\350\351=\251|.\275p\332a\275\013\324\t>[\226\306\275\002s\010\276\351\311\343\275\013)\017\276\317\324\\<+Lf\276\270Y\205\275dpQ\276\303l8\274~\027Z\275\324P\215=0%\363\275`\274v=\030P&\275\260}\360\274\300(K=\264(\370=L\335\302\275\000\033\336\272\360ga=\250}\206=H\232U\275\000j\237\275\340\253\300=\244W\301=\370\316\246=D!\224\275\\\030\205\275t%\200\275Xg\271\275\020W\327\274T\370\345=\230\036\216\275\024\200\222=l\007\353=\254j\252=\350<\231=\250\325;\275\010\364/\275([\276=\004\331\267=8y\003=\320\004\335=H\327\266\275\370\035Z\275X(\350=0\346e=,\361\373\275\230a\031\275\200\334\357\275\010\235\340\275\020\314\373=\330\223\314=\224\215\226=P\270\203\274\230\315h=\230\271:\275\240\352\237\274hN\265\275h\177\362\275\2441\263=4\034\307\275\310\003\317=`\252#<\340t\304\275|\n\364=\374S\232\275pp\331\275<\021\227=\330\n{=\020\336}\275\020\352\350=\2202\213\274\350\t\333\275\277KV?\322\361[\300\006h\320?V\350\000</\313M?\214\245+\277\230\367\274=\231\225]\277\034\311&\277\336\211\331>\367 \020?\277w\022>\376\326\327\276&\304^\300U\322Y\277\335\247\014\300\304\365\343\275\2444q\277\\\225\016\277P5\262\277\321\006m\274?e\210\275\213\266\253?\335\222:?\330\264L?\351\210\231=\214Q\205>\024\270\206\2771\204\351=\325=x\277\355G\213=7\375>?\207A\306\300\315\311\000>\276fD>\3100\n\277\214\352==\001v\333?\250\022\t\276\023\366_\300\n\217\234> R\203\274a\2100\277\371\235\004\276\215\322\322\276\253\275h\276\\*Y\300\017i\025\276\244x\342=\335\263L\277\014\345\014\277v}\304\300\203`\340<\014X\376>\267\035\374\274\303\263\313?\340N\310\273\252\363\242\300!\024~?\257\323\376>\301\177\030\277\302\331\263\277\t\'J?\225Q_=\334\314f\276$N6?h\240\205\277\205m\244\274\022\371\211\277\200\305m=B\037\255\275\332\336\322\276\245!\303\276\262\357`\277\000\252\200\275\252\271m>\320\324i?\177\003\331\276\356\201\314>}^\376\276\036P\263=V<\\?\233\274}?\201\326\315?\256\335 \277\235_\033=\310\346\341\275wR\215?\222^\252>\371\356t=\202\321\312\276`^\233\276\340Y5\275,\215\025\277\215\n\371\274=\307\360>\266\207\205=\351Q,