node {
  name: "input_1"
  op: "Placeholder"
  attr {
    key: "dtype"
    value {
      type: DT_FLOAT
    }
  }
  attr {
    key: "shape"
    value {
      shape {
        dim {
          size: -1
        }
        dim {
          size: 21
        }
        dim {
          size: 1
        }
      }
    }
  }
}
node {
  name: "input_2"
  op: "Placeholder"
  attr {
    key: "dtype"
    value {
      type: DT_FLOAT
    }
  }
  attr {
    key: "shape"
    value {
      shape {
        dim {
          size: -1
        }
        dim {
          size: 2
        }
      }
    }
  }
}
node {
  name: "model/conv1d/conv1d/ExpandDims/dim"
  op: "Const"
  attr {
    key: "dtype"
    value {
      type: DT_INT32
    }
  }
  attr {
    key: "value"
    value {
      tensor {
        dtype: DT_INT32
        tensor_shape {
        }
        int_val: 1
      }
    }
  }
}
node {
  name: "model/conv1d/conv1d/ExpandDims"
  op: "ExpandDims"
  input: "input_1"
  input: "model/conv1d/conv1d/ExpandDims/dim"
  attr {
    key: "T"
    value {
      type: DT_FLOAT
    }
  }
  attr {
    key: "Tdim"
    value {
      type: DT_INT32
    }
  }
}
node {
  name: "model/conv1d/conv1d/ExpandDims_1/ReadVariableOp/resource"
  op: "Const"
  attr {
    key: "dtype"
    value {
      type: DT_FLOAT
    }
  }
  attr {
    key: "value"
    value {
      tensor {
        dtype: DT_FLOAT
        tensor_shape {
          dim {
            size: 3
          }
          dim {
            size: 1
          }
          dim {
            size: 64
          }
        }
        tensor_content: "=F%\301\t\352Q\277\034\235!\275\316(B\300\373\360E\277#o\023\301\221\237\017\275\265U\342>\360xx\275\360\003%\276\211\274\316\275v\242x=\256e\\<\003N\353<?[=?\371-;=[\023\220=\0210\024\275\222\0032<\032\352a\277\330\341\000\301\323\3242\275\310\014\211=\345\225\224\275(\210\261;\002\237\354=:}\250\274;\337F\277)\006\007?B82\301L\000\252\276\233\021o\275@c\261\275\211\006;\273\351\320G\277\315\r\215\275F;\364\275\350\373\246\275)5\250\276\2751a>J:\303>+\023\220\277\211\254(\276\222\367\313>\340\002\002\274\221\"$?\002\235\267:F:\341>\321\261y\273\333\241y=\020\374\372\275\007Pm>0\233\030<j\242n\277YF\321\276\323\344M<\003f\255\274/L\317\275r[\352>\212\354A\277\227kH?s\325\316;[X\373\274\251~\350\276\3139>\277\326\n\265=\300\036\260\274\260\336\352\276HG/>+\"#?\253\305O\276H\305\031>\000\301\026\272w\251\000=\267Y\231<\346@\354>\224~\002\276\341V\330=gI\310\300o\314\276\275D\266\204\274\315\316\372<~\320\345\274HH\323>K\343\010?;E\267;\256\002N\274\030\307\333\275\305\263h\275h\300D>p\263\225<\014\265\253\277\004\020e=EO\300>?f\244<\021\036P\274\247\277\214<w\323\220\275\326=\006\277\027\215<\276B\001\010\276\346V\256<\371p==pr2\277[\237\246\274\370\236\264=\235\373\361\275\244\362`\277\0305\037\275\307\005$\301{\025\332\275\365>\341=\036u\367>u\227P\276\321*\300\2754h\033\277\r\347A\276\335S}\277\247C\005\301\216\351%=I\333\222;\3345J\274\272$6>\254_\250>\202\010\007\301\204\221u\275L\314\216<\005\266\217>\r!\222>d\323\353=`\374A\275\236y\t>+\310\002?\225\313Z>\341\337\275<#\034\234>\274C\023\276\305\027\312\274\270v\357\274n\265j\277;\305\356\274\304\177\311\277b(h\277\377f;\274X>\244=\203\250\177\276#@N<\332d^\277)d\341\276\003\2410\277\027 \235\276\364\t\350\275\0071K=Hi\022\301\006\226\371\275,F\311=\307\300\001\277A\007\370=2\tQ\2767\235\\?\244\336&\274\221\027\352<\000\326\276>1G\220<\334\224\033\271\240i\236\275\20142<mH\005\301\202\324[\300\270*\344>$\373\016\275\034/\256>\205\256\354;fL+?\026\227\207<W\260Q\277|v.\300\r\022\370<\242\226-\276\201\373\262>Q\320\365=\374\213O=\222F\007\277\321\035\217\274\217\026\313<\013\246<<\335\014\225>\014\2420\274|p7\300M\263)<\336\270\234\273\003\2532\277"
      }
    }
  }
}
node {
  name: "model/conv1d/conv1d/ExpandDims_1/ReadVariableOp"
  op: "Identity"
  input: "model/conv1d/conv1d/ExpandDims_1/ReadVariableOp/resource"
  attr {
    key: "T"
    value {
      type: DT_FLOAT
    }
  }
}
node {
  name: "model/conv1d/conv1d/ExpandDims_1/dim"
  op: "Const"
  attr {
    key: "dtype"
    value {
      type: DT_INT32
    }
  }
  attr {
    key: "value"
    value {
      tensor {
        dtype: DT_INT32
        tensor_shape {
        }
        int_val: 0
      }
    }
  }
}
node {
  name: "model/conv1d/conv1d/ExpandDims_1"
  op: "ExpandDims"
  input: "model/conv1d/conv1d/ExpandDims_1/ReadVariableOp"
  input: "model/conv1d/conv1d/ExpandDims_1/dim"
  attr {
    key: "T"
    value {
      type: DT_FLOAT
    }
  }
  attr {
    key: "Tdim"
    value {
      type: DT_INT32
    }
  }
}
node {
  name: "model/conv1d/conv1d"
  op: "Conv2D"
  input: "model/conv1d/conv1d/ExpandDims"
  input: "model/conv1d/conv1d/ExpandDims_1"
  attr {
    key: "T"
    value {
      type: DT_FLOAT
    }
  }
  attr {
    key: "data_format"
    value {
      s: "NHWC"
    }
  }
  attr {
    key: "dilations"
    value {
      list {
        i: 1
        i: 1
        i: 1
        i: 1
      }
    }
  }
  attr {
    key: "explicit_paddings"
    value {
      list {
      }
    }
  }
  attr {
    key: "padding"
    value {
      s: "SAME"
    }
  }
  attr {
    key: "strides"
    value {
      list {
        i: 1
        i: 1
        i: 1
        i: 1
      }
    }
  }
  attr {
    key: "use_cudnn_on_gpu"
    value {
      b: true
    }
  }
}
node {
  name: "model/conv1d/conv1d/Squeeze"
  op: "Squeeze"
  input: "model/conv1d/conv1d"
  attr {
    key: "T"
    value {
      type: DT_FLOAT
    }
  }
  attr {
    key: "squeeze_dims"
    value {
      list {
        i: 1
      }
    }
  }
}
node {
  name: "model/conv1d/BiasAdd/ReadVariableOp/resource"
  op: "Const"
  attr {
    key: "dtype"
    value {
      type: DT_FLOAT
    }
  }
  attr {
    key: "value"
    value {
      tensor {
        dtype: DT_FLOAT
        tensor_shape {
          dim {
            size: 64
          }
        }
        tensor_content: "\230\374\036?\3200\373=\000\000\000\000\365\325\256>M\324\371=\235>G=Q\245\331\274\244\245\301\276\000\000\000\0006o\n\275\002\245\241\274H]\020>\217\005m\274\204\361y>\303\247[\275\337\213\213\275\275\373\030\276\344\025\003\275WR\300\274!H\254=\274\217\255>h=\207\274\3502\214\275\000\000\000\000\347\026P\275\304\301\t?\326\335\254\274\023*;>Jf\027=\212\006\004?\232KD\275\357\237l\275\211\351\223\274*\365\024\275\362\270\224=\371\207\233\274Y\372\200\274{\207\257\274\262Yv\275\240\355\351>\332\336\">\365e\031>\000\000\000\000a\244\351\274\361Vo\274v\264j>1\311\234\274\021]\232=K\001{\276\257\014\306\275\000\000\000\000\365i%\276\301P\t\276\250\331!>\243\024\352>\335\372\\\275\242F\005\275\321\tz\274kz\\\276\233=D>\274\025`\275\250^V\274\014\240\233\274\260\2635>"
      }
    }
  }
}
node {
  name: "model/conv1d/BiasAdd/ReadVariableOp"
  op: "Identity"
  input: "model/conv1d/BiasAdd/ReadVariableOp/resource"
  attr {
    key: "T"
    value {
      type: DT_FLOAT
    }
  }
}
node {
  name: "model/conv1d/BiasAdd"
  op: "BiasAdd"
  input: "model/conv1d/conv1d/Squeeze"
  input: "model/conv1d/BiasAdd/ReadVariableOp"
  attr {
    key: "T"
    value {
      type: DT_FLOAT
    }
  }
  attr {
    key: "data_format"
    value {
      s: "NHWC"
    }
  }
}
node {
  name: "model/activation/Relu"
  op: "Relu"
  input: "model/conv1d/BiasAdd"
  attr {
    key: "T"
    value {
      type: DT_FLOAT
    }
  }
}
node {
  name: "model/conv1d_1/conv1d/ExpandDims/dim"
  op: "Const"
  attr {
    key: "dtype"
    value {
      type: DT_INT32
    }
  }
  attr {
    key: "value"
    value {
      tensor {
        dtype: DT_INT32
        tensor_shape {
        }
        int_val: 1
      }
    }
  }
}
node {
  name: "model/conv1d_1/conv1d/ExpandDims"
  op: "ExpandDims"
  input: "model/activation/Relu"
  input: "model/conv1d_1/conv1d/ExpandDims/dim"
  attr {
    key: "T"
    value {
      type: DT_FLOAT
    }
  }
  attr {
    key: "Tdim"
    value {
      type: DT_INT32
    }
  }
}
node {
  name: "model/conv1d_1/conv1d/ExpandDims_1/ReadVariableOp/resource"
  op: "Const"
  attr {
    key: "dtype"
    value {
      type: DT_FLOAT
    }
  }
  attr {
    key: "value"
    value {
      tensor {
        dtype: DT_FLOAT
        tensor_shape {
          dim {
            size: 3
          }
          dim {
            size: 64
          }
          dim {
            size: 128
          }
        }
        tensor_content: "cq\312\274#\002\003\277\023<\225\274\316DM\277N\347L\276\244\371\327\275\2159f=\'yo\276W:Q\277e\2143;\266\340e\276\003.M=\224\214\032\276\254\246F>\371\247\215>u\200\034\277\336\257\251>\315\334\246\275x\215\241\277\323\036\302<\006\355z\275&\335\030\277\310\035`\272}<\244\275\002\366\354=\270\207\271\276W\035\303\276n&\230\274\307\364\202>q\020\214>\2567\220>D\273\237\275\360\204\310<\202&x=\325\305\233\276Ik?\275/\000\350\275\016\237A\277Q\210\332\276\243H\261<w\271\353\2756\277\203\275)K\260\275^{b>\373\327\223>\366`\352\276!\232\r\276\016\201<\277\003A\210\275=\3543\274L.G\275)\236\013;\356\341\247\274\030\356|\276\023\360B\277}\234\255\273c\223\211\2766\'\207=\332\234\274\275\214=B?\320\035\343>=\231\004>\371\332\206\276\177\342\177>:e\227>\206\215\205=D\350\207>o\001\354\276\344\t\242\275\265Kd\275\205n\252\277~\230\275\275\376\275\r=~2\351;!\033f=\252,\032\276\253\005\310\2776\3167>\230:\246\275\224`0\275\335G\353\276H\260L9\317\305\356<\022\000?=\327\264u\275Q\210\203\275\206\240\211??\3220\273E\207 \277\253J\020\277\333\322F;\246\027\027\276\231s\255<|\357\365=\345?\217\276\\\230y<\347t\367\275\335\334M\277j`\320<1\236a\277\3244\237=&\300H\276\250v\003=@\337\254?\004\213\241\276\234\"\233\275$\001T?V\257\225?EFJ\275!\316\213=\366\n\212\276*3\016\277\204\333\003\277\322\234U>\247\035\010>T7\003\276\2415\241\273~\363\371\275|\3342\274\365\240m\277;\232p=\226\301E>\335\332b\2764\332\250\277\002\274\013\277\240K3?S\374\213\275I>\340=Y\035\264>UAK>\301K*=\223o\206\275\255\n\232\274\237\204\225<\014\247\276\275\026\002\206\276\325\375\301\277z!\r=\255\315!\277\014Y3=\017\254\312\274\261\312\353=ihP=\240\315c\273\331P\251\273f\351g<\350~\216?7E\305\2745\304\036\275`\033\332=\013=\007\276ru@=\236w\206=;+\324>\206\364\307\277\370u^>\t\315\256\275\t\336%\276D\305R\276\014G\r\274S\367\251\275\3239\253\275p\351\316\277\024\'\233\275\355\211\244=\247/\037>\330\357\n\277\216\260\033=@\372\000\276\000\250\206=\023\335\237\275\256\007\235\276J\211\030?n\003\322\277\372L\250\275G\023\217?l\'\302\275\024\251\273<R\210F\275N\017\320=\257\316C\275\\\304\234=}+0?\226N\241=\227\254\333\276%\372\276\274:*L\276\303\323\241>\037\260\024\277Z*T?&iV;\377\030\243\277\260\317b>H\343\276<\353\230+\277\3326\302:\323\n\234\2756\236\233\275\242\213\375=\270X\362\274\231t\021=\246\220r=\020N\203\274\202\373\025=$\231\007\277\377i\242>6\332-\276\365i\010\276f\\\222\276!\271\325<9l\240=\r\234.\276!\227\370;h\241k\277\224\260\000<\321\034\302<\275D\244\274\215\306O\276\363P/\277\374[`>{\217\337\275\343\017\232\275I\344#\276!g\025<\336\316\033\276\3451u\276\323#\330\274\016\375>\277\017\237\227=i\227\361\275Z#\363\275\307p\026>\240s\330>\"\227\337<\366\222\177>\354\307\325=qz\003\2758\367\225:\320\366\226\277\t\367\356\276CV\365>\277\304\010>\013\021L\276u\231\376\275F\004\372\275\233Z\306\275|\222\033\272)<q\276(\t<\277Q&\003\274\333\032\247\277&mH>6I\242\277\274`\340=\003\377\256\275u\203\261\275\342C\255=~f\216\275\334\333)=\222%N\275\3208\027=\244c\215\275\002Af\275\000\322!9(\006\010<\222\266\301\275\206\2230\275\2636\202\275`\367\021\274XC:=\330\241\221=@\341\201\275\337rd\275\334\264}\275`\310\340<\362\016\202\275\210\333\246<\200{\243=\000\016d9:\177\231\275\000)5\2745\240A\275=\272\215\275\224\270]=\204*X=\320\220\026\275\212\245\276= \307\223\273\020S8<\316\345\200\275\304\005\316\275D(\246\274v\344&\2750#\230\274L\355b=`eG=\314\215\004=\270\007\262=q\006\311\275\210\372V=\020))=\376\371z\275\230l\361<|}\222\275\365\222\311\275 \243\033=\200\361\263\273\354\3220=V_\273=\320\320\306=\244j\006=\222.\213=\030\353\246=\264+\267<\262\271\'\275\360O\276<P_W\275\354q\302\274\364\214\277\274\020\306\204=\344\342\006=\260\2018= E\001=\014!\306=\222\t\266=\204\211M\275@\024#\273\3168\242\27579\257\275\354\325\263=8\2757=\253\\\264\275\005\036\226\275\234\013\254<P\332\244<X\210\250<\010N\035<\344E\263<\373G\261\275@\r\275\273\002e\002\275\340\207\274\274\216\214\255\275\2745v=K?\273\275&\202\276\275XZj\274xfF\274<W\200\275\240\375\016;`0\200\2745\nI\275~9\254\275\020\341M<\304Q\037\275\300\215|=\374xD=\300\261\003\274\243[\267\275\370\2149=\000%3:\030\365\204=\220Y\265\275\240\304\270\274KLc\275\000\250\341<\226;\"\275\334Z\223\274\274\006\252=\274\345\264\2755R\206\275>p\232=\3241\322\274\314D5=\344\030\004\275\330&\306\275\000UK\2744\361s=p\235_=\314\247\314=\320A\263\274\320!\215=\030R\001<\302\317\256=\301N\177\276R`H\277Q\223\242\275\217\374\035\277KN\243\275\030\211\014?\232\262\'\275\243\246\305\276\217\3116\277\3024\234\275\334\376\222\276\220\314\334\274Fs\t\276\000\321\020=L\361\236>a\232\024\277\323L ?\212\267\001\275\031GQ\277\337\n\223=\200k\322\275\346S\306>8\232\004;\231\332_\275=R.=|\226\240\276A\365\316\275\007>a>)\010O>_O.?\374\3319=/\032\253:4sv\275\250?\030>\224\210U\277\242\"/\275MA\377=\304\336\016=\375\337\332\276\204\\q;\262\376\000\276\366\261^=\370\375\221\275\347-.>u\334\036?\343d\204\277\315c\211\274@\336\301>\336\023\313\275z\306\332\2752\3728<\203)\207\275\362\267D=!(H\276\300\242\032\277\013\245\245<\330\256\310=0\265\220\274\256\252\340\274\313\032N?\326\2205?\010\013\307>\2524\230\275\225\220\321\277fF\246>(\333c\275\005\3073?\260/\\\276\355\204\254\275\352\003L=\320\315x\2773\377_\275|\034H=\240}\t=j{(=z\311P\274\002\350Q\277\251\334\312=J\356|\275\217c\262\275\306$\327\276\213+\344<D\2128\273\360\205\313=U\036\370\275\263)\332\275P\235o?\t\315\021>\223\035\221\277\336\241\363\276f\340\237\276B\210\032\276\376~\032\275\017&\023>\024I\212\276\235\005\262\274\344ig\276\022Ec\276\347;\233\274\242\264\275\276\036\377C<R\230\350\274r\003\342:\3536\244?;\243\364\275\025\355 <Y{\216?\301\220\214?\305:\227\275dz\\\275\315z_\277\200\030\351\276\260\031\200\275\222\231)>\351)c<#\370\210\272\355d\326\274\262\236F<\311tB=\364\027(\277>\r\224?\341\366\036>A\2616\277m\317\304\277\367\231q\276\362h\036?ut(\276Rx\236=_9\014>|H$?\201_\305<\322\271\247\276Ep.\276\2601\024>\224\006K\275\004\272V\276K\222\344\274!\250\267\275+ \223\276\362\320Z=\017\242\254\275\232\313\367<\204`\345>\267\232|\276\025\243\030>%\310\304\275\254\035\221?x\345\226\274\313gK\275G;C\277\244:<\275>#\243\274Y\257\372\274\271\363\206?WG1>d\2149>\373\r\213\276\261\357\200\276\325&\304\276\335\177o\275\351\366\347\275\376\373z=%\225\010\277\262\240\236\274\016-\325=n!\354\276:\303#\277Q\236w\274\303\340\"\275$p\031\273:\241\346<\244\023\005\277k\264w>a \201\277\370\021\206<\263\277Y?\r\037\336\274\251\256\006=\243\304\253<\206\032\231<r\271|\274d\330j\276\3554\363>P\033\317\275\340 n\277d\230\371;\243,\266\276\322\223\240\276KIM\277-i\032?1\024\276\276\271\014\"\277R\320\254>\006e\312\275\254\274{\277\247Y\037\276\030\010\226\275\254\246\351\272\000L\021?\302N\026\275(`\372\275\366\021\345\275\310\345\205<\244\323\017\276\317-\254\276 \365\024\276\336,\347\274\005M8=h\321\300\275\224J\201\275\343x~\275\241KV\276o\014a9\303\214\037\277\305#\025;\362\325\005\276\361u\323=\240\231F\276\221\323\\\277\303.\272>3gH\276y\310\377\276\274\375\202\276xN\033\27568\016\276\033!x9e\036k=\034\023\n\277\017_\325\275\307\037j\2768-)\276\315\215!\275\224\020\317=I\241\250;\204%\301=\\s\233\275\252X=\275\275\364\343\272a\305:\276S\351^\276+\2713>\022\032\001\277eG\377\276n@,\276\354\334H;\346\310#\274A\254\313\275\n\205\320\277\317\362\n\300eE\265>A6L\276\242\252\t?\001\000\"\277\351\333\262<\333t\005=\026\222\027\276\"\207P?\220D\224\277\010\3546=\241\2114=x;\255\274\307!\310\2768\261\235=7c\267\277\331\377\271\277\026A\300=\000\243P>\354x\001>\226\355\315\275\324\300\255>l\210m\277\323\021\214>3\307\372>\014\260\035=>\276\353\277\252\222\001\275L\334\216\275\3464\233?*`\261\275\001t\320\275y?8\274\233\267\032\277$i\274\276\335U\032?A.\336>/f(\276\023\030\022?l\250\010\276\246s\3578\022\231\325\275\023fc\277\306$^\275\212_\016?FVU\277SZu>\200K\220=\234_\206<\352\214\205\275\236\336\037\2741gO\277\203\003\211?\300\265\t\277\021,\230\275\330\374k\277\021U\323<\310^\260\275^\206\256\275\023\267\203>5f\266\274\322\343\022?\213\223\233\277;\215\311\275\205`s\275\313\000\261\275e\021\202\276\210\315C\274\227\356\343>\300l\366>\270n\304=\310\223\227\277\242\315\224=\264fQ=\347@\246\277\241\204\376\276\\\271\017=qC\215=0\036\237\277u\3639\275[0\347\275f\001\254\275\300s[\275\t\202\312<\205\031\227\277\204\263V?\356\0035\271.zn\275(\310\307>\251kJ<o\261\310\275\205\301\270\275\r\315\254\275\256?5\277\006\211\351\276eD\345\275\2310\306\276\312\0248\277\321\201\233\276\325\373;>\320r\342>F\t\211\276\033\'\275>`\324\262\274\347\347>\277\r8\312>k\346\003\275Nx7\277\\O\t=\371\031\316\275\017$\010\276,\276\306\275y\222@?\324K-\275\324\366\025>\354_\336\276\225\"\240<%BS\274\311{m\277_\322?>\274/f?\317\337\345>\030\177\360\276\225\263\254\275\210\031T=\350\301\023\274`\303j=\277\2728\277\332\003\033\277\237F\320\276\205\030\177\277`N\263<\035(\252\277Z\332\306<\014\264I\276\325\312\272=\370D\230<\030\367\374<\267\377\337\275\027\237?\275\2350\226=\262\206\377\275c/\255=\251\214\260<\261c\231\2748\2466\274\311\334\275;B1W\275GJ\365<\007\022\263\275M;H=\253\001\230=\312p6=x2\225==\274\001\274cL(\275\274\373O\275\257\023\371\273\210\010\351\275\350\342\227\275N\204\322=\016\364|=Z4\222\275\005g\212<\366_\230\275\030R\323\275\276\325G=\237=\361\274\222\207\207\275<\322\362\275\'R\263\275mP\355\275 \237\236\275B\257\247\274\033\355\007\275\035\360h\275]\201=<fpL\275\325\213\022<\322\005\221\274\327\267Q=c\313E\275`\213s\274\031M\223\275$\205 <\314c\243\274)\023v=np\330<\223\032K\275H8\354\273EB\234\275b\007<\275\327\347\232;\322\300\016=\t\263\003\2742$\375\274y\266\316<\253\225\222\275\373\351\017\275\202\207\350\275B\316\335=`w\240\275^\326!<*^6<\223\302\370\275\334\\\363<\344\025\344\273H\354\230\275\254\226\276\275]\035R\275\026\177\217=\341mf\275Z:E\273b\261\276<\225n\247\274 6\213\274\005\342;\276\255\231:=)\267j\275.\266q=\253\330\337\274\214S\237\275\311\346\031<\360\243\322=\236\220\313\274\227\215\267<;9\375\274\' Q=(#\225\275\246\371\013\274\2649\204\275\252\257\327\275S\207\301\271gl%\2763\240\322\274\026R\004\276\245\3142<\300\236\235=\256\205?=\271F\211\274\027\364P\275\266\230\237\275\204\252\201=\351\025,>b\002\r=.\322\236\275\330\3540;Dl\235\275\324k\014<n\330\253\275\'hF<c\027\032\275\027\225\264\275H\223\336\272/\230\265=B\362D\276\tA\247\275\264\203\320\274\341E1\275\342\271\330\273]3@=\3714t<\365\245`=\325=n\275y#]\277xz\007\276\373W\214<\276\263\037>\305OH<\365U\327\276\234\235T=A\345}\276\036\374\215\276\031\016-<\267\177T>-\242\002\276.\301\024\275\203\300\352\276\253\275\033\277P)\346<u\202\250\276\322\020\254\275\201V4\277T\032\205\274\216W\237\275[\351\256>\032J~\275$6\274\275\327\\\340\275\222c\037\277Y\213\226=\302\364\362=\t\305\035?\024\203\371\276Jn/>m\210\005\276L{\017\276\236\033\252<\236\'\235>\006$\207\275\226n\031\276\234=C\277\310\202\023\276S<\275=\246\014\304\2741\333\277\274\375\321\314\273\255\242\007?\001\377u\277\342\253\301=-\204\337\275\341\001\357\276U2\331<1\361\267\275\371\352\321\275\317\336\321=\010oR\274@\376\016\276\317\307\026\2771\315u\275\3309\224>\320\336\261\275\271\207\365\276\372\226\\\277k\317J>\367P3\277+\223\244>\351\273\341>\264\2068\277\215\255x\2756\305\342=\225\207\"\277\356\317\373\274\005\375\312\275{\033^\277\223\006O\275\321Y\232\275\323\200\307\275\302\244\375\273L\005\\\275$\202\231\277\312Sr?\221\031s\275\222w\264\275\321\312:>\374\256\366<\177\001\361\275\262h\203\276\304\275\327\275%\2031\277\r\017\010=l\274\265\2755\356><\030\323=\277\3143\224>\241\022*\277~\221\353>\367X\202<|H&\277\352\332\013=mJ\220>\330)\227\275\310\013\025\276\333@\002\276\354d\322\274\326\343\272\275\252\277\004=\030.\365\276\225\020%>y:\375\2750\331\332\277\004`\213\277\275\025V\275{\034\323\27527\201\275\303)4\276\327\r\033\276\230\2476=\373\207(\277\374\242\310\274\033\\\303<\264\236\016\275\261r\035\276\202uE\276%vQ>v\262\233\276\316\006\360=t\023Y\277\266\353\317\276\215\005\356\27610d\275\255\331b\276`\222\242\2750S\212\275\372\021\215=\344\235\261=\272(\320=\0009\300;0.\314=\2204k=\305\321\307\275\\\306\365\2744Kh=pB\234=XK3\274\224.\037\275\010\301\305\274\300\340H=\036\024\267\275Ds\262\275\"\347{\275&7\252=D\207\007=4\230|=NQ\305\275\361\360\205\275\034f?=Z\316\030\275\266T\215=\362x\316=\350\253\231=\370\301Q=\300\277\314:p\372\000\275\226,\211\275\240H\371<\014\244\027\275h>\230= \333Q=\016t\274=8\270\363<\240\245\025\273\242s\241\275VH\032\275\270\2402\274W\355\264\275\021\035\207\275vq\207\275\024\243\237\274\000\304\235\273\225\265i\275\320Y\251\275~\006\233\275\214\340\227\275\"\323\303\275\336g\201=Z\006\267=\340\021?;\311\007~\275\220QX=5@W\275d\212(=O\335)\275\273\202V\275\210\032J\275\024I\007=\374\220a=\247\306M\275\240\274\211=v(\206\275\300~J<\007q\317\275\350q\213=<\005S=\230\327\230\274!X@\275\311rC\275\200z\251\275l\004\216=p\372|=#j\320\275\306\r\220\275^\250\244=XD\326\274\300M\246\272\000\272\37592\300\221=\000\237\252\274bK\257\2757\342\306\275,N{=@j\266=N\312\206=\024`\255=0HJ=\360\000-=f\221\262=\010\265\257=r\203U\275(\231\242<\230\205\002<\310\030\263<\"\336\305= \330\354<\020\022\301\275\340\215\024\274j\203*\275zR\016\2751z\205\275\210@\234<oFi\275\250\350\277\274\243x\273\275\376\2721\275\320\313\307=\273\0338\275\270HV<^P\275\275N\352&\275\274\243!=`\311\232;\036\030\313=\002\247F\275\236\2379\275tJ\223=d\033\272\274\\\266\312=\030q\251<\214\267\215<\000\356M=\266\337\364=\366#\257\2758\333\347\274\273\226o\275\333\254\220<\261\275-<\231\343\010<s\213\265\275\261m\333\275\",+=\355p-\275 \363\017=\3443#\276\301F\334\274G\372\373=\205\230\262<\220\373\267=\370Y\302\274?\366H\275\314z\236<\372/\301\274\253\013,\275\250\325#\275R\276\314\274\340\265\024\274\033\374q=\027gC\276\036X\374=)\026n\275\001\336_<\035\246\024>\362\221k\274\265\372\320\275\020\305\257\274\352\344\205\275\365\302\232<|\254\215\275\353O\353\275j\217\350\275O\205\361\274%\307\333<b(\346\272\205\024\313\274\032*\024\276\tq :!\354\274\275\220\270K=\345lT\276P\307\353\275Z\213\300\275\305\262\364\273\202\310\017\2750\235O\274\23502\274\272\031\364\275]\215\210;\001b\331\275\021\025\346\275\036m\245=\331\256I\2742\371\232\275\0348\317=t\022\267;\235h\216\275f\304\233=r\373\215\275r\312\343\275\215:j=\027\344\347\275\226\036U\273\275\241\230;\314)(={-\327\275\300`.\275~\337\247\275\311[F94\254\000\276f\325\366;\211BC=\242:\314;\260U\234<\307\230c\274a\005\253<\363)\001\276\325\232[=\350\243\346\275\020+*\276\004\022\\\275!r\242\275\025\022\r>\212\\n\276\331w\014>,\027\332\274_@\276<\303\341\223\275B\263\362\275\027\231\356;\330\364$\275Ic\360\275\340N\'=\350\033\236\275\362E\260\275F\201\202<\213\225\227\275\210\223\243=\250\273A\273z\016\232<Z%l=o\312\233\275.\234\351\2740\271\226\2768\t\227=s\2200>\323_\031\275E\025j\276\341U\261\275\260\030\235=)\345\022\276\306\325?\275\252\355\370\275\341\321\211\275&\345E=\006\306J\276\341\325\\\275G\205\036\276\007`i=T\215\312\275=]\207\275\2041\250=\360\230\234=\331\255\017\274\016\317@\275\234,\202\275\031bj:\303\371r\275G\306L\275H\356\251;q\025C\273f\336\240=\006p\233\275\222\032\016\276\315R;\274\330Y\337<\276\263\357=\210\274\316=\325\000+\275}\366\020:\212z\241<A\243:=i\026\236;\220\342\362\275\207N\202=\221 \033=\035\367\213\275\316\024\200\275\276\020\013\275\345]\002\275\257&\330=Et%\275\247\004\204=\"\312\323\275\302\213@=\312\003\246\275\212\251\366\273|\252\305\274Md\317\274\252A\035\276\177\227z<\367\205\336\274h\270X<c\275#\274\321\352\033=\2058\305=\301\026%\275\323\205p=A\032\277\272`^H\275m\314<\2755\001\263;\240%\302\275\235\231==\030\245E\2745\372p\275\312s\206\275G\033\014\275\237\250\000\274\013\325k\274\207N\257=\217~R\274W\370\340;)M\t=\247\024/<N\310M<@Uf\274\242\010v\275\373!R=G\253:\276YE_\274X4\226\274\n\215\234=\032\320\201\274\325=\204=\006\264}=`\303\020>\276\035\014\276\227\215\242\275\n\312\037<\217\213\362\275\376N\215<\205^\376\275x\025&=[V\333\274\013\374\370<\341\322I\275\250i\r=\255\n\001\276\337\222\260=rl\025>+T\370\275|7f\274QM\221<k9\005\275\336\207V=\224\247\336<n:\021=\013\n\277\274T\214K=;o^\274\3740\267\273oO\350\274\273\006\324<\036\020\254\275\325\326\354=\206\000\025\275\360\300\214=\226\375\223=yZ\247\275\367\206\270<\'?\332\274d\365\000>\355\364\">\337\232.\275\335k`\276\263I\222\275|\320\255\274\305\016\026\276\\\301\265\274\335rS\275C\014\006\276\267B6=Z\236\261\275\006\266\303<\324<\220\274\\\371j=\3312\016=\025\363\323\275_k\273=\217 M?\233w\223\275\357\336T?\271/\005\276\014{\220:\302-\253\275\031\301`\276#\005j\276C\354\030\276F~\303\276G?K\274\305\335\256\275\207\330K?\212\270q>;E\n=\344\377\250\276\r\325V=z\317Z\275\242\205\376\275_}\245<u\372\272>\276\351\303\275V\273\364\274\202Q\033\276\245\002\367>\306\364!?\240h\034\300\366\324\340\2762\354\\\276\321\010}\276@\231\362\274hV\251<3\335\274=*p\334\274\317\216\206\275\202\243]=\237\023:\277\271\316\026>\253\315\274:n\227\201=\301\366\224=)\255M\275\273:\365\275\207H?\277~\333\241\275\321\200\010\276\327\327\335\276+n\217\275\"\337@\275\363\'\206<8mb\276\366\211\251\275\037\274S>\241\216\373>D+6\275\365nJ\277\261\035\234\275L\342&\276\216M\231>J\321\232\275\203\021\201\276\rt\357\276\373o\223\277\r\311\203\276\342\032\022=\350\n\254=\213\003\000\277\365\316\244\275j\240\320;\014\021&\276I\232b=\274\371\232;\346\246R\275\377k\252\275(\353\260\275\266\357\022\2774\307n\277\364%\007\275\026\370\316\275\002\235\265\275N\\\205\275d\312\014\276O\273\207\276Fj\375\274\032m\336=\311\216F\277\214\301v\275\232P9?0!\247>\3112\237>\027E\224>D\374@\2766\333\375>\303\302\005\277$\201\236\275\003\311\024>1O+\276\327\301\213<\013 F\274\303\0178=#\225l\2768\022u<A\013\027\277\206\366\036\277\007\035\r=\232r>?\235\306Q\300\204\376\211\273\322`\025\275\367\226m>\2004\006\277\342\034M=\\+p>=\245\036>=\370\021\276\342\266.\275\234\361\n\275\351^K\275\241\340\003\276<k\373=\227F\276>h\237\334\275\3439\341=X\353\004>\325\376\351=\022\205\r\276K\314[<O\330\266\275\021\313\302\275Nk\235\272=/!<lDp=\242\341\376=\275)\341\274\014~\216\273\212\363r\274\"B7\275%\202\316=\337\037\312\274\236[\244\275\1774\246=e:\344\273|f\251=\325\250\365\275\017(c=PN;\275\254\333\322\275\240\213\001\275\r\021\226\275Svw\275\317\270;=\246J\263=\246Vr=T\310\'>=\"\021\275x\361\305=Fs\215\274v<4\275\037hG=\200o\204:\264-\212=\305\205+\274\033Zx\275\002\252\316<\201_\033\276\274\005\014=\337y\330\275\017a\327:\317\232U\275\003=><p\353!\275{\304\274=\017*\245=0\266\310\2746=\326<M\201\270=DA\257;b}\275\275\213\216\261=\206\270\226=n\266\016\276\216\233\360=\207?\307<\252R\335\274\223\034/=\016~\201\274\265\300D\276B\314\272=\010<\303\275\35305=A\261\255=\326\354\231\275\250\231F=\277\006\200<3\262\256=\nt^\2746\302\032\275\263\312;=\245y\343=\326cC\275\3705S\275Y\243\255\275\316\034@=\037Z\306\274\251t\247=\243 \342\274\325\207\211=}\247\375\274\331\277q\275\031\376\252\275\031\255\337\274PX(\275\237p\257=\241\207 \276\316\3237=}\014\255=\276\203\006=:\0330=D\345\215\275\363vG\274\033\227\016>s\027\221=\t)\354\275\266F\024=\230\006\263\275Y\221\341;6\221\013\275[\023\273<\034\177\211\275\233\006\233=\315CU\276*\324\274=\3620\221\275\235\3000=\037}2\275OZ\350\274\214\202\274=\311\204\305=\031\312\007>4\372\355\275\0304P=&R\272=c\306w\275x\2268\2755p\206=\217[\220\274\226\013\300=\223\205\232\273$1b\273s\346\214< -\242=b\252\034\275{l\024\276\324\022\305\274\253\014\201\274\336\245#?\365y\262>\374\027\362=HiO?I\333\021\276\267<\220>\314\375\301\275\245\032\373=\303\004\004?Z\221!\276\306\262\027\275(\340\217\274a\266]\272\351\312\214?\004\231\214?S\223M>5\332_\276\007d\310\274\241\"%>\r\000\223=\310\224\260\274\302\3111>\211\232\305\275\256u`=\372\227\013\276\265\302\032?\327\010\017?\324\262\337\276\267\024\264\277\322rd\276D\'\232=EG\000\276,\025\333\273\216\377\033?#7\342\276\240\325,;@\216\244>\231B\371\276\023r2?\273\350\002=\021\230\311\274KT\202\275\nMN\275\364\007\014\27610e?\337\277D\276\262h\325\275\313\360\351\273\232s\301=\232\225\307\274\347\217\257=o\262`\276\343\341\034=\270@\210\275U_\031\276>q\250\275\027+k\277\013(i=\3239s\274\250\311\325>nB\206=+\023Y\273\354\315m\276\326\227\222\277\"-\021\275:\003n<\241B\346=n\240B\277\035K\372\2751U^\275\351}\302\277\314\221\016\273\022\206-\2744\202\326\274\217\361\323\274\007|C=\235\002\316\276\'\205\247\277\375\177\343\275\361\270\205\275~\202\310>\331W\321<?S\314\274\372se\276\277^9=\247e\037>i\346=\276\3202B=\312P\010?\305\213\000?\340\241\335>\007\021w?x\370n>\023\r\363?\310\206n\276o<\220\275_k\353>\026C\265\275\234\007\202=)\334^\277\357\346\351\275\215D\333\272sr\361\274;\224z??\002\023=\035\002\035\275\251\241\321\277\313\'=\300\\k\233\275\032\255 \276D\261G>\337\202\013\277n(\002\276\332R\307>9\032\332>\265 v<\226\237\003\276\210\331\272\275\255qZ=,B\246>R1H=\245F3?wx\242=\227\357\216\274W\346\t?\031\223\367;\240\003\r\275/\213%>ZC-\276Q\350\200>e\001\277=\277\351\340\274C\354\363\275\037\331\276\276\005F\235\273ojv\276j:\036\277\215)\000=&OY>,\n\262<\032\327\310<]\032\366>=\356t?o]\234?WC\326\275\272\207q<\232\277\326\276\305\215l=\250\n\233\274\223\351\247?\031\373Y\275\264R\026=()F=\221\250\361>O\337\216?\200\375\253?\261\341\016>\231\367Y>\3711\t?\2419\241=\254w?=\215\366z\275\004\r<\276\023w\337\275\261;\306>\360\361`\277u\351T\276\tw\262:\007\317\363\275\224\260\201\275kNX=e\257\200\276\017l\326\273\244\336m?Zs_\275`\347\034\276N\\\225\275b\026\306\275\321@\222<\265,\315>\2602\270\274\004\354\266\276\373\036*?d\202\257\274@;\305?4\212\225;i\217\330\275\225\205\010=q\\\212?@\312!=\376\262\002\277s?6\275\213\300\343\277hoY\275\300\377g>\025c\342\2760\225\276\274\341(\324<\2749}\277\177\221\n=b\177d=\225+\232\275E\t2\275;\237\223=`R\235=\353\213\327\275\352\177<=\346\325\"<\000\373\211>\302\372\217\274\\\002\341\274@Z\253\276\340%C\275%A\373>\020;*\277\241\017q=$\035\213?\306uC>\274\215\361>\267\347p?\340\346\233\276\253\020\256?\320\322p?\364\325\237<H\311,?\223\351\007? \367\316\272.\327\202=\335\304\002=d\240\213\274\273\332\230\275\"\327\373=\242{\203;]c\276\275e\345=>\232\276z>\t\203\301=\202\355\334\274k\244\021?\361\333E>\275,P=P5\316\276\257.\252\276u\363\033>\034\253\212=\243\340\002= \224d\275\234A\330\276\231\227\371\274\rhd\276\005\003\307>\301\256h\276 \310\312\276W\362U\276\357\311\243=\246\030g>\227\205@\276\370k\240<pZ\205\275\257v\317=\364\373#=\346\214\371\275Y3\270\274\364\362\330\275\215~V\275{\010\337\275C\267\264=x\354\225\275>Y]=6/ \275\216MS\275\311\234\236<\261\375\025\276\256\001c=\003\236\256\275C\246s=j\301\255=b\351\003>\024cw\275\037\3122\275|\022k\275\344\221\372\275.8\245=\205S\233=,)\377=}\265\300<\370\227C\275\235\274\245\2750*\331\275\270t\315<s\342G\275>N\000\275\316X\275\275\303\2070<\t\016\023\276R\\\365\275%\344\322\275\332|8<\253A\372\275?U\355=}\303\304<\001\006F=\00432=U\315\031\274\342\200b\275%\003>\275*\372\022\274[d\236=:\001\355<6\243%\276n\206\254\275\013\014\275;\"\326\322\2714\307\263\275Rb\375\274\304IN\276\266\341\003=r\345\013\2764\374\367=\032\203\356=*7E\276(%\177=6\365!\276\225\023\357\274\277\037#\275K\346[\275\233\362!\276_\0211=\250\274%\275\033\010g\275\237\017\210\275\274\323\260\273o.\205\275Vq:>#\315W\275\206>O\275[[~\275\\\215\220=\0317\301\275\365\371]\276\273\303\316<\214Z\371<\247\213!\276+\363\314\275Z\361\342=A\365M\275\010\257\242\275(O:\275t<\350\275B\273\014<E1g\275\336x\242=Ha\254\275\220Bc\275N;\217==\231(\275\242\257a7\026\345\253\275&\003\244\275\270\216\253\275\235\374\036\276\322]\200\275\004<\t\276;\340C\276\027|\037<\272\316\260=\3312\236=%\205J\275\007\003\200\275rg\353\274\021\234\323\274\337\201\023\275;\314W<\006\265\303\275K\260L\275(\223&\2759%\t\2758\211\024\276a\251\266\275\205\353\014\275\235`v\276pC\267\275\321\334\365\275K\357\327\274Y\013\252\275\rX\017\276t\247$=\370D\260\275\256\0331\275>\331^\276\352.\006\276\271\224A\275T\024r\273\220_\002\276\201\013H\275\267\202\306\275\247\274m=F\366\221\276\324\232\210\276\251\244\260\275R=\377\274\"(\330\275\016jD\276l\036\033\2752\236c\275\001\021\'>\"\241\304\2750 \007\276`\264\256;U\027W\276>\n\016>bn\3328\372\023\216>C\251a\276\240\366\277\274\314\322\004\276\245%\251\273\312\311\212\275/\232\350=\252\325\002<\353\320&\275\275W\334\276\237\367\377\276\366\260!\276N\0215\276}\244\274\273(\017\013\276`Ry>\326\352J\276\347\316\362=>\330M\275\207Pr\2767\216T=$\033\r\276W\252\376<\261\252k\275\243h\215\275&h\316\275\214\235\343\275\225\216Y\274\210=\310=\023K\262\275\302\302a\276\326\013\260\276\233 5>\227\244t\276\212\334\024>\341\344O>\343\347\200\275\342\367\220\275i\373#\275\346B\256=;\215\246\275J\367\213\275\327\027\002\276\312\324\033=\005\314B=\363\314Y<\033CU\275\003\253\006\276\267\007\225\276\341\033\361>ik\212\275\3148\306\2750M\336\275\272=\013\276\374\210\324\275-\324\254\276\276\215\243\2755\005\004\276G\r\273\276]p\r\276\032\334\t\276\244\n\277\276\017/*\275\253.\021\276QH\253\275\021\007\031\275\201\024\235=\222\271-<9D\010\276*MM<\256`\375\275:\365\263;\340\224\020\276\347\243\033\274\026K\224\275\006\222\305\275)d\037\276\251\0038=B\341\363\276b\234_\276\363U\355\275K&\323\275\274o@;\036\236\212\276\252;\252\276\347C\324=\211\004?\276h\237a\273U\322v\274g\334\022\276n\277\3359\003i/\276\023Y\\\274rf^\276Q$\r>7\032\004\276\r\023\321\275U\001\203\276\341\345\003=P\250w\276\317\263\313\274zE\356=z\345\265;tl/>\230\372\003\276\202\242\332=rRt\275\224\025\025\275\t\227\035\276\013\366\336\275.\234\261=b%\234\2750\227\357\275:S{=\003\341\373<\244\246G\274wcQ\276\373\027\222=\\3\247=\220\' \275\030AO=\023\352\033> =\223=f\027\311\274\200\206\302;O\035[\274\335~\257=\245\022V\276g\346\253\274N\200A\275[\222;\275Tf\254\275\003\022\214\274\337\367&;(\256i<4\004\220\275>\256#=@\315\004\276;\346\027\276i\222\341\273\330\232z=-.D<\034\222&\274]%\202=\255JM\274\347\234M<\246\231o\274\261\243\207\275\212\222\227;|\023\325\275\001\373\371\275\240\005%\275U\325I\275%\250Z\275m\213\201>\033\340\210\275&\3175=\271^\222=kR\370=\353\275R\275\206\320|\275N|K\275\346n\377\275\364\361\225\276\316h\213\272\332\207*\275Zv\225\275\204%\314=\342\335(\275\"\317\345\273\214\n\312\275\254[\251\275_\363N\275\035F\220\275(\0359=\004\344\200\275\343V4\274\371\333\014\276\210\177!\275\036l=\2756\227#\275\021A\260=-J\036\275\332\324\023\276\033\t\245=\315w!\275 \363\330<\025\343\330<\315zD>\321\365\003>\265\000Y\272\237\001\n<c\020h=\350J)>z\253\013\275q\nc\275\233\347\320=\227pR<\024\335\316\275\212\003\345\275\355\260{=i\301_<z$y\275v_\013\275\370 \227\276\363\327[\275\324CC>\235\332/\275\355\006\330\275e\356\340\275\360\242m=\217,)\275^\210\217<\201s\202=\235i$<Qv\212\274\317[b\275-\263\231=\032\203\360\275\032\245\035=\031\243(>D\354)>\322\222\273\274\353\031\325=\260\252W>B\027\254=g\312\244\274.>\000>\222v\224\275\010,\235=T\226\266=W\022\244<-\247_=;\0051\275\341\307]<)%\370=\243\352\3777\263\272\242\275\337\256\357\274\331\240!\275\265\000\030\275M\253\361<\220\352c\274\205\357b\275\'y\247\275\251\261\212\275\034\371\237=\0325\031\275\274,\303\275\r\034U\275_\212\367\273\031\241:=\254^,\273UY\034\275\021(\271=u&\204\273\334\031H=V\247\362=/y\r=\177\021I\274\355\027.\275\223\375%\275|\230\033=B\022Z\275_^\366\274\325\210\361\275\231,\3639\272\260>=\014\007\236=\215\t\t\276\013\'\225<%O\323=\354C\307\275\r\304\020>\310_\246\275\224;F=\373$K=\346\362\214\275\006)\313<E\377|=`\365~=\274\312\n\276e\305\313\274\262\332\001\275\332\373\241=6~\273<\034\201\347<B\256%=\353\305/=t\251\017\275\003\217\346\273\204\t\241\275\202\022m\275\362\245\220=\3376\274=2\333\331<\014\301a<\313\027\257=\361kl=9jV<k\031\036\274\234\247D\274B\214\325\2738\316\025=o\376\230\274^\323#<\222\304\223\275\034\221\177\2741\300\200=\266\325w\274\232\223\334\275\017\"\371\275<!\337\274\0358R<\231\232\341\273\251\2561<h|\030\275\215\007\004=\304\243\006\275\241w\213\275E\023e<i\364\276\273\375\301\360\274T8\221=F\227\266=\027\337P\275\340~\000=vv\001<\006\270k=q\306\200=\266\n?\275\255a\221;r\206\246<\004k\201\2754/\223\275\343\251\260=\204\265\241=\270%\266=\265M\336<\331\2157\275\323\351\255\275\267w\204=\014X\257=\031\267\264\275\370W\353\2742\253)\274\361H\215=Z\r\263=2\310\237<`\351\"\2759 \225\275\357{\257;\233\273s\275[W\026\2768\342\t=i\326\217=\333\273\375>\245\032&\276\341\013\273=}Q\200?\251\226P\276\375\355\335>\354\371M\275`\001\347=\353\257\216=\257v\247=\346f\227>\322\026F\275~\252\254\275<\354\255=\236\037\223>\355%\321>\313\314\200\275bh\277\272y\212Y>\014\342\263<\343\252s\275\005\021\252>\311\267\035:\255\336&\275\346,\017\275\275e8\276\3313\205?\242;\313\277I\342e=\255\006\353\275\317\212\007\276\337\254\311=\336\224\266<\253\301\210\2761\3039?\035\354\203\275t\r(\276\313\354\255\276\317(\373>A\353\232=\352\207\347<\3349Q\275i\201\177\275V\034D?\376\201e\277\215\243\034?\023D\374\275\256fr\276i&\366\275<;\216=\240\251\276\275\310u7>\356\352;<wY=?\243\033R\277\033h\221\275\3021\260>\202C\212\275\231}~\276\035\261\251>\222\307\230>\t\2701?\310\363\236\275i\360.\277\356\243{\276P\034\333\273i\215\255\275\037\257\217\276\255]X\275\246\307\203\275\341\370\022?\2678\376=\010\001T<\300;\210\275\212\235\242\273\225\023\034\275\276F%\277\024x\373\276O\370g<\370\366\324<\356\312\336\275\303:\275\275c1\343\274y\324\263=\331}\322\274\315\322q\277=\301\340\27672\003\276H\252J\277\214\263\353>\247\264U\276d\264\r\277J\tK>\362\321\243\277\016N#\277\327D\276<\247\202\353>R=\225\275}\201\212\275\333\221n>\030\203\236=\245\254\257\271@\357\332\275m%^\276\216\2310\276H\266\203<\363C7?=]D\300\307,\247\275.\2500\276W\022\255\277\342\001\r\277\354\225\277>5>F<`\214[\275%J\315=\"\342e\274\227B\247\274\232\370\237\275#\327\306>\334Xw\276R\007\004?c!k\276,\250\360\275\033\003\034?rHt>m\302$<\002\305\251\275*l\273=\227\227\207\277\307\3105=\257\303\315>\327s\247\275\352/\364\276\237\215\213\275(\335\013\275S\310u\277\n\2124\275`\304O?$+\214=\026O\221\274:\244W?t\367\325>Q\004\253?\377\322\236>\004O\202\275wZ\313\275\246\007\031=\351\020y=\312\362\272=gP\325\275\217\213==\336F$\276yE\357\276\354^\330>J\2151\275\241\025\375>\216\225\354\276<`\307>\363\345\312<\r\315\311\274a\344\036>\304\010\030\2779\261\026<4\242\322>\3337\231\277\014\316\216>B\225|=\347\343\001=\241\230\253\275\027\377\376<\210\237\027\274B\266\314>\344\201S?\201\356\002=\375\013/\277\025\275U\275\327\177\242=\345\304\275\275\356c\001<\224\315\231=\367_j?\025\351t?/\350\261\275U$<\277\332\231\205\275\334\325d\276N\021v?\3606\270>\n\245$?\002.\223>\256\325P\277\037oW\276\324\364\247=s\201m\277\337\275\247\275\334^\372=\315\000\\\274\313\"\357\276\330G~=\225\216\224\275\234e\336\274p\202\227\274\277%F\274\027\313\363\277W\014A\2755\225\255;\003!G=\374\n\027>\332h\217\275\257\3130\274z(\326\274\026Vy\273V\250\021\277\254\315\276\276C\245\202\276\247\352J\276>\347\264\276ST\024?\"[S>k\230\376>\312\205D?\204\212\353>\325R\225=x\331\315\277\266\0326?\220\331:=\222\rn\277y9s\275\261#\253\275\257\234\014\275\023\254\214>\235~\252>I\273\023\276\221\272P>\332\307\302\276\253<\205\274\315\257#\276\256\260\325\276C\213x>\033\321\312?\252\002\324=\275\237\363>\354\263\332\275\377m\017\275\312s\337\275\351\301\273\275;p\252\276R\004z\275\225\372%\277\343\214F\2773\210\202?\371v\007\276\311[\273<_\206=\276\007\251q\275\223\340\006=ds\256>\025\2405=M3\177=\030\211\220\274/\002a>\337/\316\275\330\031\016\275d\361W=k\236\244<m\n\377\275\274\002q\275f\376\244\275\246\006\361>\236\225\245>=.\213\276\250Z\352\276\271@\340\275Q- \275O\225\271\274\226\n\276\275\212(r>\254\'\343\275\207\005\265;\305\352\373<\342\242z>\232\275\242>\246i7\273\r\276\255\276\315\301\317=\r- \275)\236\354\274\243QK\274\237\265\236>4E8\276\320\362\300<(\366\314\275\030\036\276\276/\020W\276<\312\t\275K\364\361:\024gv=>6\372\275\206\2710\276\204\005\000?\245o\030>\257e\013\275]CA=\013\247\230=\250b{\275j\236\256\273,\t\365<\326\305\327\274\245\344\'\275\265\020\n>;59\275:\255S\277\344C\304\275\333^\337\275\374\240\345=S&\t\276V\245I\277\250\275\235\276\300\264p\276=\254~\275l)\222\275\374k\016>\231\320p=\352X\017\276p`\020\275\226d6\277y\r\033=N\234k\274\256P\340\274IN\031=\351x3\276O\315\311\275\240\025n\277Y\227\323\275\307\307m<\232 !>_\223\275\275d?!\275\361\201\206\276\033yE\275\205\350\001>\327\323V\276A1\352<\350\246\270>)n\017> \374\212\275\232m\327>\216\325\001>r\326\013?\304\232\246\275\267\354l=d_X\274\232>\326\275\243\336x\275*\236\313\275\264\311\037\275\311\346S\275(\240\233\275\250\266|>qb\300=\242;\203\273\362\376\020\277\010RX\277s\275\000\276\241S\023\276\317\306\324\2745p@\276\003\357\030\273\237\210\201>\315MG>M\200\272\275z\0315\275\327R\235\274 U\030=|\253\017\276\273\343\326<k;H\276&}/>\257\025a\275\232\353\254=\325\013\264\276\316>\334\275\242\261\024\275\226_\016\276l(.\276J\023\267=\324\350\230=\353\216\014\276A\254Y\275A\204\213\274\377<\004\276k\016F\272\003(\214\275\006\3772\275&\205\263\275\354<\207\274\376\226\254>%\323(>+j\376=\327\354\376\276O_\236=\310\232\010=n\376\235<\226\360\177\275\322\373+>\347\350\331\274\341\002\034\275\004\0204;\232\326\367=q\211\n\275\010N#;%w+=\300\035\302\274\221\340P\274\326\345G\2756\263\205=&\201\243\272b\233T\276gv\023\276\235\353\250=p\230\177\276\2763+\276\276\215\231=\031\270\300\275\360\272\342=\251\312\244\275\347\373\333\275B\3026>\341s\r\274\205\241\313\275I\220\254\275K\243\334\275;Y2=@\260\343\275C$\221\275\245\214`\274\"\327\230\275J\234.>\340\266\213\274\373\377D\276xe+=\370\220\222=\252\321n\276\035}\"\275\to\274\276t  \276\323+G\276\206y\2059\305\343\020=\227&\370=+\366\204=\266|\243<\262pS=E\326\206\276\310\244\r\275\262\372\n\275\341\020\241=c\340:\275\251R\240\275\370\201\274\275S\272\016\276\017\334I\273.\022\214=\035\270\267={r\213\275\362\207\323\274C\036\025\276\310\213K<\276\310\232<k\267\026\276b\004\200=~i\034>\367\242\312=sA\t=\253\352\323=\363\216\211=O\210\230>\346s\247\275iN\325=#*)=#BL<\201\313\232=\232k7=!\377\355\274\365\245\261\274N\260>\275\265\n\231=\366uu\276\036\036\005\274\206D$\276z7\353\274SI\001=\310\317\360\275\330j6:.\262w;\\\273\013\275\227G\276<Y\026\357=\200\336\021\275~\203^\275P`\330\274\343\377n\273}$\343\2750\213\352\274\rR\240\276\006\300\020>\354u\331\275\224\345D=\004\301\224\276\016\357\235\275\204\276\241=8i\202<\370$\235\275\256\016\213\2750P\341<\000\031\023\272\336\035\232\275\354\016\037=!\302\242\275\246\272\255=h`\213=\200\311q\274\314\245@=\202\366u\275\234\314\215=\374\033\306=\004q\247=\265jm\275\364`_=\221\210\313\275@\213\274=\025\326\264\275\315\020\205\275pY\201\273&]:\275\207\361\216\275\000\360\207\267\016\320\251\275\020\251/<\262\360\005\275\236\265\206=2\000\224=\312T\232=\264\t\213\275ix\265\2752#\267\275<\311\254=\256t8\275\200\236p=\220\023\005=N\211\270=\242\274\233=R\322\252=\310\237L<|\346\271=\340E\354\273.\374\200=D\214k=\"\274\202\275\273\034\251\275p\225\014=\361Q\274\275\360y\363\273\312\310\234=pys\275\3239=\275\022\313]\275R\202\215\275f8\260=\312h\313=\354\031\262\275\205\252\305\275\256\257\302=\224\304P\275\250\033\303<(\r\004\275<[z= #\234<\216\220\317=@\301\274<\330HL=-\265\272\275\304B\203\275@\000\365<\010/P\275\370\037.\275\264\241\r=\002I\005\275\200\020/=\004\235\220\275Yz$\275b\274\261\275t6\261\275\362]\274=\222(\200\275\316\261\267=\260\267\256=\304\345\251=\377QL\2752\031)\275h\377\223\275\352X\254\275\n\247\310\275Le\277\274\350il<0\005\225\273\230\260?=\356W\236\275\221L\271\275@\262\240\275\000\353\007\2734\263\217\274\270\322o\274\202\341\232\275\346\341!\275\200\331\241;\'&t\275\2575\267\275\216\020\267=\\\272\306\275\300\372\331\272\206\325\252=0\200\001=\320\014\007\2741!\306\275\020QZ=\220\216`=\240\326v\2748\227H<\327\211t\275dK7=\263z\\\275\020*\240<\250/\354<\230\006\304=\224/z=r\306\222=@\364\306;\n\360\310=\2358\276<\373`\023=\035*\211=\003\373t\275\277\260\222\275\016\336\354\275\232`\037\275\200l\327<\320^\014\276\200\000\277\275\324\346\376\274\031\212\353\275\272\224\342\275\374m\261\275\355\032\252\274$%\345\274\245\371\262\275\006\313\000=\241\313O\275\371\264\254\275\270\376 =\014\324\006\274\304\311\230\275\350m\315<\272\025J\275\254\370.\276\"\\5=\024\2528\2747v\302=vx@=\364\2036\276\355\230\325\274\215\350b=\r\032-\275\211vN;p[\356\274R\3362<\370\033\014\274\232\274u\274\263\355\323\273\304\200&=J\377\362:\216\014\244=R\277/>\326\013\207\275\034\337\003\275\300\250y=m\275\013\276ep\267<\240y\'<\002Z;=\345\207R={\254\t\275\263T1\276@\036\264\272_\013\311\274\t\272\264=\3519o<Y1\304<3\020\227\274\324\021p=Dp\206<\243s\034=(\262K<\237DD\276\006\257\222=\'\233\223\274\226\306_\275j\263\260:zo\324\275kg(\276\244]\250\274\331\r\035\274}\227\356<m;\236\275\256IR=\3307\030\276\255\t\027>\366\351_\275\333\204\220=A\026\231<4I\206\275u3B=\324\037\205\275\275$\311\275\270\245\037=:\237\223\275\336\314@=\255E-\276]\261\352\275+\330\t=\260\177:=j[\350\275\342\221\265\273\201nh\275F\343E\275*.\017=)g~=\'y\225\275\211r\224<k\355\r=\267\033\320\275\322\177@\274\277\365\010=\252y\033\275?\036\303\275\304\036_\275\324l\234\275\253\202\267\272\244\315\274\2759&\345\275\236\250\336<\335\305<\276og\202<A\021\202\275\016\360\312<\332\312\327<\013\317\367\273\314\266\007\275\304)\373:\252\262J<\201\036\037<\322\345\333<\021M!\275\370\021Z\275\027H\252\274\225\336\253=\230\216\262\275m=*\277p}\262\277k\341a=C\n\027\277\037\220\003\275F?\001?\246G\371\275\321?~>31*?K\031\024\274\343O\202>\032\356\245=!\276\357\275\311\233R\277\376\334$\277\205\307\243\276Q\326\030\277\365\200\324\275K\202\220>\330\332\206\275\211j\264\275\336\212_\277\0312\200=L\343{\275\006\255\033\275iJ;\277\252\241\240\274L\243\351\276\270eY\274\340E\267=r\004\370\274\231Z \274z\303]\275\242\304\'>s0]\277\236\032\022\276\266B\257=|\353`\276G\216R\277?\tS\275A\250\220\275/\335\302\274\034\200\300\275a\233\201>\'\004\361>*\314\016<\243\226\227=\036\311\325=\245\221\324\275\310\025\245\274\246-\307\274ya;<W\326\007\276}\212\r\276\267j)\277TF\350\275\312\217\221>W\036_\274\376M\223>\347\257\277\276Zg\211\277i-;\277\320\035\345\273\222\364\316>uQ\223>\324|\257\275\202\031v=\020=\224\276\2144\002>\251;\270\274}\266Z\277\356\026\005>\374\3475\274\233\036\245\275\215\262k=6d\333\275\215\311\304\276\357\352\354>2\260\262<\243V\304\275\031\302\'?\010\0315=J\367\200\275Y\304\034\275\202\334\230=\241\304\230>\345a\013=\340\326K=\345\200\330>\350D\366=h\3306\275`\204\270\276\342Y3\276\321v\274\277\013\336|\2768\360\236\275\307\356~\277d\243\010\277\006\032\320<)]\232\276u\300\273\275\005 Q\275\030\377\025\273p\263\201\277P\264\004\277^\342\251\272)\004<\277o\373\236\277\330\013\203<Q\017\177=\362\r\337\274\276\276\332\275\313\033\317\276\032!i> \214\233=\277\232\303<\376w\310\275}\350\262\275\215\253\024\276\253\313\006?\245\035\323=\243?2\276\322\025<\277mp^\277|\236\337\276\026?0\2774\3364\275\r\355\212\274\002\353\257\275\006\312\035\275\326|\254=\266y\213<gP\306\275\256bA\275K\013\225\275\215\230f=\347\244\025\275\254\300n\275\220\351\252:v\027\245=\340\004$<\326P\314=+K\220\275\367\265\210<\232\025\347\275\026\345\375\274 \020\346<$\316\270=\333@ \275\366\t\033=\244B\033\275*\275@\275h\013\221\275\241\235\001\275k\202\374<\341j\010\275H\001\260=\037\354\247=4\357\021\273\373\0240\275A[g\2754\\@=D\2522\275\266\335\350\275\366Y(\274\350T\262<\211F\332\2759\346#<\331I\263\275>\274\315<\001\371\336\274\373\240M<-\"\027<\303w\300\274\007\360\236<\251\236\316;?\"\216<$6Q=\215h\031\275\300\214x\275\260\004\346\275\032G\001\276A\202r\274%\005\005\274,\200\376;3\n\273=\256Z\003=b\033\377\273\371\346\232=\035a\307\274W\024w={\\\204=\311\234\266=T>\002\275L\255\201=\025\370\355=\301m\r\275\2254|\2750\n\200<\3133(=e\251\211=\034Or<\305\376\301\275\252s7=\204U\311\270\307d\216=t3\213\275)3\234\273\366 \222\275\226\303\311\275\357@\276\275\355\016O\276\273\227\235\273\2335\205\275KfT\275m_\027=\027f[=\260*\\=\276\216\351=\325bG\274\333I\212\275#[\222<Gu\307<u\244\326=\232PT\274\373\340\321\275jj\206=\207 \177<\253\027\323\275$\252E=\317rn=\t\013\025=\354\002S\275\nw:\275OpZ\274\266\3112=\300\027\264\275\317\022i\274R\'\203<\024k\243\274)\306a=\302\250\023=T\331\223\2756\003\216\275h]\240=\311>\271\275\306>\224=\253\302\307<\\K\330\274<\277\214=z\320\212\275\000\334\036;\324Ql=\002\342%\275c\002\374\2754q\3039\311\222\206>\334\2041>\004\271 \2754b\017\276\371V@\276\211\027\004?6\220\244<\272\217B\2768\0145?\036\201\014=I\351\255\2767\270&\275@q\306\274F\333-\277\246\000\355\274\354\240\001\277\007|\307\277\247l\027\276\237cT?\320,\202=n\331\030\274\227\254\335\277E\322\n<\315\273\357<U\366v=\177\020\305\276\005x^>\203\273\256\276\270d5?\344a\004?\311\017\277\276\2406\245;l\240s=\322\357\364\276\247\234+\274|\235\r\276\332<\326\277#\227o?\274\344\002\277\301(*\276\360Z\342\275[}\006\276\025i\214=\356\376n>#\371t\300\377N\205\277\027V\024=:\254\234?\n#\204\274pt\252<3\022>\274\001,?\276\205\267\323\274\337\246\305>\230\346\261\276\205&\010\275\205\214\374\275\315\036\276\275Z:\013\276R\240\247>\201\025\255>\232Zv\276\304\n\302\273\222;\004@\230j\004?\263UK\275\311\030\256?W\271\024\276\243\223V:bp]\274\227s\001>\257\257\203\274C\365\212=\224\337\256=#\371\334<\360\014g<\364\037\357\276Z\233\017\277\337\017\216\275\020PS=\366\230!\277\373\230o\275T\037\231\275N)\241<z(\350\275=;\221\276\034\216\247?^k\014>\204\006\211\277\216\304\013\277 \236\n\277\207b\037\277T\242\346>\331n2?Y|\212\277h@\007= \016\333={c\266\277\226\341\230=\373R\336\276I`4\275\367\014\023\276\'c\337\273Ms\257>a\326\016?\262_\241\275\357\335\234>B}\232?\306\335\240\274\234SM\275\t\307G?\331\"e=n\212\375\277\213\224n>lop>\237\031Q=\t,\262<\022t\320<\245\243\255\275\222+\353>\020\324\216?\2233\002\276\032D\213=\257?\364>|\206\362>\227\177\206?\023\314\032\276i\333\312=[\227\243\277^\3142\277K\017\303;u\205\342>W\277\204;\307\030\304\2757]W\275\035\345\004>/\037\'\276{/\213\275l\366N\275\352\233>\275\231qW\275\301\3667>\342`\350\275\311\373\234\276y\235\235\277\317\367\022<\220\361\245\276\037\351\314\275\301\300\360<\230\033\340>\252\355\303\275\274\231\277;\270\370\225=@\2205>\240]D\276\341 \017=\337i\210>\243\200\225>\"\360\231\274\304\2138;\220\"\020\276(\331L=\212=\235>\201\334\201\273\021%!:\"\350\354\276\204\211\227\277\352\344\213<\3747\353:0\342\236\275\307a\t=\341{\240\273`\343\'\277\352^\227>O\300\277\274b\022\246>z\321\017\276]U\272\275\000\013\205\274E\243\357=\0107\r\276}j\r\277\362.\234\276e\022\344\273\216\2125\276\364\217\276\275rb\034\276b/\211\2772\t#>\272n\213\277\360\035\">\333\006\226>\264\2211\277o$1\274xh;>|`\003\277\320\373i=\365*\200=\033\275\225\277&\023\325\275\306\030F<pa\231\2755U\261\275\021\005#;]\006,\277\n\300\210>\347\332\035;e\312\024\276h1\325=\033?\371<\022D\350\273D\365\021\277\020\020\207\275#\006\337>sJ\222\277\267\266\345\274\367\253r>(3\225\275i:\303\274 OF=\357\252\256\276#\255\004>\007\222\311\276\030\275\206<\347/\207\275\324L2>\177q;=\275^\024>\302\024\036\275R\001\255\275\'`<<\341)^\277\222\316N\2770)\002\275\346\202\241\277*V\002\300\362\205\034\274\266\200\224<\340\035\377\275\2448\014>\370\364\250\276\204<\324\275\342\334\227>@\375W\275\362A\304\275&\375>=\257j\023=d\3762\276\214\342\n\275\351\311\210\277Y\371\r?m\332s\276%s\272<\rN\355\276\'\275\341\275\022@\272\275\035\213\023?\271\210\247\277\004ue\274\255\340\206\275\301\370\006\276\005D\036\276\221\364c\275\263\362\030\277gE\200\277E5\246<*A\031\276\037\213\217\275\342<0\275e\007\343>\002\216\257\276\242Wf>\212\365#?k&\275\275M\311\353\277\025\356\247\2758\312\'\275\265\030f?*\265\025<\356f\002=)\036\355\275\217\250\020\277\307\014\001\277\314\355+?\253NE>d\224\030<U\"\353>\n\214\336<\007(\346\275\265\271\261\275\316\2560\277\302\335\207=m\211\360>c\023\214\277%\276f\276%+/\275=\230\326\274\301[w=\233\002\217<\321\371\257\276\357\277\213?fH\326\276\013\026\242\272\205\205?\277(\255\205\275\272\235\237\275\366\303H:L5\265=e\016L\275\2744\277>O\356\236\2771\034\267=:&\331\274,\1775=y\230n\276\332\021\020?\321\335\233>\363\261\371>9\222_>\316\245\022\300S^l\275b\331\036\2759O\001\277\323\221*\277\275\305G\275\223\365g\273 @\332\277+\251@=\253\251\227\275\231\023\225\275\247\347\272\275\246\351\002\2758\211\320\277-dL?VO;=\216\234\270\275r\330o>q\252\313\275>\253\320\275\326P$=\344UF\275V\317\010\2769\200A=\260\365\335\2746\377\211\276\310\251W\277\366\264\300\276\203\234\276=\213\222\251\275\254\242\325=\246\323$>H\341\243\275\233\007\351\276<}\222>\341\3361\275\200BG\277\317\313\230\275\261v\363\275\221R\364;\365\201\006?\035\366E?q%A=\217\0107?\024\306+>\321}\\\275\243\250\223\274\272B\023\277\245\250\371<8\\j?N\236\304<iT\326=\003ZI\2761\010\n\276\310\033\032=\033d;;7\035Q\2778\202C\277\304(\345\276\200\327)\277t\310\314\276\225\243(\277\356U\271>\327j\231\276\362/\215\274\237\n\370\275.\322\213>\"sd\274\352\334\027?1{\033\276X\343\351\276\230u\343\274\211\332d\276?\\\214\276\347\2244\275wp\367=\316O0=\357\210\t;\334p\261=\326\342\">\317\334\025>\336\311\222>\201\010+\274\203\236E>\224\226\242=]\234\302\275\333\362\244\275\225\324\214\275z@o\2751\017P\275\264\365z=e\364\253>\216%\n\276#Q#\276aNs>\305\253\342\275g\343L\275\264*\324\275\211Z\206>\230\247_=\002}\251\275\236\202\007\275\347\357\354\274;\203\362\274\251\'\024=\240B\302\274\331\316\031=,[\254\275\004<\003\275\342-\300=\200\256\372\275\007\364\237\275\312\037l\276]h\203\2750k\361;\343\320e\274qJ>\276\216]\'=s5x>\325\366g\276\314\002%\275\241A->\274\300\207<\'x+\275\243\202%>=\264\004>\000y\252=tX\305\274#<\317\275B\263\367=\\K\027\275W\\\214\276\361\202\271>\341\027#\276\347?D\275\t^\225>vuZ\275\035\016\\\275\356(\337\2759\031\340\274]\217\370\274\301R\231\276dQ6\276\367\361\337<rC~\274\225B.>6\001\201<\252\202\200={\350\315\274l\3764\275r\375\373\276zK.\276z3\323\275\221\260\202=\345\300\035>\025\335L>p\004=\275\302-\210\275\347g\331=\222\000\r>\310\022\312\275\337\234\037>\311b\227>\0168#\275\037&O\276\226c\"\274p`\312\275z\277\275\273\000\336\222\276 >\016=\025\002\253\275\353.@>1\004\304\276x8I=\3300\253\275\003\246\037<M\331\372\275\253T\206>\264\331\337=\306~\203\276f\032d=\252\236\261\275b\314/\276t\211==\2651\302<\246\306\262\274U\2462\276Gw\234\276\013&\230>\321\304H\276d\217\333<\323\262\230\273!\214\000\271\220\364\235\275\2502\232>\024\253\002\276\367\264\013\276\320\023\264\275\300)\315=\263\272u\275 \310\204=}\323\371>\306\210\017\276\236\224C>4\354[\275\211\023\310\275\023\212\007\277\236\233j\276\3701\200\276\031(\273\273\262EB=\231\\y=\014\252\"\275\276e\221<.s\226>n\325\270\273\231\313b\275\324\340`\275e\260\261\275\341\277\035<\004\257\260=\316\251D\275\371W\245\276\n\315m=g0\203\275U\227\364\274R\'a\276\370J\373>zc\224\272\030z\025>\026\275\306\276a\\\221\277 k+=N\211\010\276|\213\242\275;\033U\273I\344\325=\311\201\205<(\365\374\276\211\000p\275N\017m\276\365\026\321\274\341>)=D\231\343\275\275\375Y>\3524\334\275\224\376\270\276(\232\261\276\265@ =\364<\330=\371\207\215\275\014\t\250\276U\221 \277\337C\013>\370.\333\275\360I\033>EB\262>\022K\034<\262\024\276\275\324\230[\277\031\005\003\275\366\023\351\275\375\301j=3#\003\276\320\'\227=V\325C\275\003 \267\275|\032\231\275N\2602\276|x\003\277e]\254>\205\244\215\273\010\213\300<\311\206\250>*\250\332<[\321\275\274\312\371\336\276\245`\212=\242p\034\277\002\005e\276\221\037\314\2756LM=\245\217\t\300\342\036\035>\273l\362=\005+\317\276/\353_\277nW\353\276\014\025`\274\300m\375\275\365)\224\274\3412\217;\336~X\276\310\2102\275\r(\023\276-Z\222;>\372\034\276\202\035\337\275\0247\373\274/oO\276\331\256\341\275\341\013d\275\354\021\032\276O \001\273v\245g>;!\323\275\352\325\020\300\350\212\217\277\310\243\020\276\251\326(\275\211e\020\276\203\217\005=\'\256\013\277!\r\027\277\020\275\r\276\256\222\271=1\214\217\276,\333\264\275<\272\242\275\3638\212\274\253\211,\276<\320\031\275\364Y\206=\nMW=\231\032\255\275\244\271==\342\310\'<\025q\226\274ggj=;\013\237\275\254\214\233\275\226*\007\275t*\235<\n\376\036\275\346\216\210<r;e=\226h\316=\237\356\352=\310\017\206=\234\325\226=\261s\260\275\376\326x=\2203\005\276vOt\275K-Y\275\315\002\231=\255\033&;i\242N=\027\025 \275\362\322\006=3\313)\275\243FA\275b\230<\274P\017\372\275\361\332\237\275\357\3526\275\371\337\267=w\0070\275\211\204\026=\177,6<\0074_\275\302\316\207\275\214:3;Q\313\007\274twA\275\255\200\335<\325;Y=\314_\374<W5\221\274\021d\262\275P5\346\273\372\262\301\275\300\345[=2\307\262\275\221@\r\275\205\230\327\275\3246\274\275\265\326\255:G\205\031=\331\034\351\273t?N\2757\004\346\275\321\'\264=[\373\202=T\"z\2756w\233=\314\374\221\275:ww\275\250>\216=D\243>\275\331cE\275\321\036\031\275\263\314\223\275p\235C\275F\276S=\322B\312\275.\307\032\276p\361\326\275\2369\316:\257\225\\\275~i)=\r\215\266<\222jZ\275ua6=/\327\007=B\364_\275\350o\315\275\'\314\343\275m^\244\275r\216\226\275\334\355\337=\2528\274\275\236\3176\2752\253\036\275\n\317\027\275e\335\206\274k/$\275Y\332\266=\352\314\255\275\346\201Q=\2272U=\251g\177=/\370\203=\016g\210=p\325\034=G~\332=#=\327\275\337\341\347\274\326ir\275\365\246\324\275\304~\276\275\276}-\276F\375*\275\341\345\223\275\257\031\245\2754iy=\236\003E=\377\303\265\2758%]=*\0218=\213\021\240=}B\277\275\240g\202\275\354\301\025\2760Q\204\274\264q\320\275zim\275\226\260\236\274\220\r\330\273T\223\017\276\200\264\247=\230.\\\275\231\276\023\275\320\231~\274\263\375\035\275m\232\262<\341\264$\275\010D\217=\265\265z\275\344J\201;\322\240\247=\245\362\217\275\204(\332<(\316\331;-\312{<)s\270\275\214\266\236=\371Rn\274n\370\327\275\304_d\275m\357E\271\017\231\370\275\252E\210\275y\035A\274\325u\352<\327\033\347=\354\242~=\244\264I=\033\333v=#7M<\345\007\037\275V9\000\276;\036\035\275m\315\255=\354\270\256\275\314\227+=\312\216(=\262\312\231<\001!\001<@$\371\275\342\200\316\275\232hU\275\021\022\313=\272$\205=\311\216\300=\302\276>\275#\034\275\275\374\304\277\275e\360\037<\310u\305\275cbT\274\2269y=2x!\276\305\2133\273k\223\343\275\\s\213\275\340\215\327\273\366\004\333<\002DB=C,\203<\364s\271\275k\003\022=t\377\314=\306?e=G\237\223\275\302=\003\274\017\251e\274\300R\234\275\343\350b\275\236f\252\275yc\246;\321H\003\275\371\027~\275\360;\332\273\300\251\370;\244\320e\275wqX\275\221\253%\274:\322\373<\320.[\275\336\215&=\243\264\310\275\'n\247\274\251\002\205\275\353n\036=\271\252\031\275-\317\246\275|\322\360\274\2131\245=\035d(=\246\304)<{/\020\273Qj\217\275\375$\026\275\205\315\346\274\256\254\233=\366\3517=\222\353X\275lW\303\274\231\226\273\275RU\234\275\324\332\201=Dq\214\273\2159\222\275+\277\315\274\223\025\313\275f/^=\212qN\275\003\177\250\274\225\303\'=g\334v=\360\231\335\275R\n\377\275\237\232\206\275\203\215\217\275\334C\365<h&\257\274\364\261\203\275\013Ky;\316\343B=\364\375\006<\335\227\253\275fbN<h\232\345\275\016;<\276\316w\362=u\033\330;\372\257\217=/\255\036?#\275\004<6c\020\277\310\207\001\276:[\324\275\016\325\032=ob\002=\234X?\277\372\342y=z\221\006\277\'9\242=D|~\275,\220\367=\"c\237>,p3\276f\236\r>\377\345k=\276\245\332\275_s\365<\313\303\317<\346\353\323\276\036\312\262\275\273\3248\275c\234\255=\n\361N>\325:\202\277I\336\202\276\236\342\247>0\212\203\275\007C\320\275\334\025\241\273\330\270\343<\373\000<>\321\376\212=kU*\276\360\233\230\276\372Uw>\307\366H\277\n\271G\273\034\206\215\2755?\276<[\250\374\274\231\211\014>\352\037\202\276\322M\235\276\271>\362<M\342\347=\353\376b\275f\246\215=\247\203\213\275\305m\273=\314\361\203=I;\244\2755\014\227\276T,b<\335\234{\276\236\246\221\275\322\371\r\275-E\003>\323Z\241>*\021R>\266\350C\276\246\035V>\327\341\206>\020(\363\273\354\305\215\276\320\324\275\276\346\241g=+\314\330\275*\344\356>\275\002\312\274\370\203\022;\373\n\232:R=\024\275(HV\275\333,d\277\206s\354\276\333N\361\275\304\230\035\276\255\0264\277\336\223K\275n\217\177\275\273\312\377;M\214 =\307\337\234>7\327:?\'4\353\274;G\014\300>\226\333\276W\371n\277E\213\330=x\335\373\275\205\303\276\276#\010c\276\372\326\272=m\310x\275\257\361\r\300Y+\250;\311_\277\276_\270\263=\244f\002\275\337\365\345:,M`?M\231\277\275\016st=\034\320\006?J\323v?\3053L\275\241\334`=\200(\263>\242\343D\277\261\226\224\276L\334g>\222.\246\276\027\347\341;\215R\217\275\306(\004\276^\213\325\2754j\307\276\020\231a\276\254\341\226<u\234\010\277-\216\227\276#\"\230\2734 \330>\210y\010\276\350\377\027>Au\246\275ua\233\274\035-\004\275\356F\t\274\277\250\227\275\007\2748\2756\254\350\275\030\035*=\t\217\206\274\013\322\222=m\210\271<\373E\302<i$~\275\370\246&=gi\332\275Q\\\300\275\313}\306\275\327Zq\275\364\345!\275A_\210=\247\327\303\275=\005\026\276\315\237\255\275N\217(<\233sR=)\266\030\275\033A\026\276\r\361F=e\265\262=?\331\267\275\377\320\334=\341fP\275\340e\276\275\260Gi\275\362VO=8N\251\275s\367\226=9\207\315\275\343\310\016\275RE\013=aFM\2754\\\001\276\023\007\217\275<\332\236=q\257\343=6\374*\276\002\213\266\275\324\2206=MN\207;n\226\205\275bI\304\274\221\321u\274\255V!\274\310\007\360=]@o=\3323\206\275\213\364,\275\356gG\2752T\212\275\306Z\217=R\250c\274\245\253\271<\321\311\306\275\247\242\317=\021\224(>\355\311\301\275q\327\226\275\010\373\215<\030\252\254<\317\276\233<\271\315\277<\362ys=Z\"R\275\241\372\225\275\267\264\343<\307\335\360<\216\315k\275.\260\304<P\023\376\274\206\001\221\275\306\251I\276\021\274P=\010\022\320\275\337[\251\274\332i \275\024;4\275#\205@>\363&\030>Mz\013\276PT\244\275\342\376.=\020\367\203\275\343W\340=\256\211\202\273C\032i\275b\264r\275\357\004\"=\007kU\275\370\037\002\276\213\224\206\275\223Cx\275\177\227\330\274q\341\343\275`\224\016:Qr\374\274`\337l\275w\027\337=\347d\020>\226J\365\274\242\035\303=/l\247=\017\355\335\273 \316.\276\323\343\220\275\256\320\206=\2666\377\274\334\210\304<\177\375J=I\220\345<\030\255\277\275\262\276i\275[5\210\273v\226\016=i\246C\276\330\202/=g?\216=\354g\260\275\302\335\322\275\350\253Z=\272\226O\275)\014\267\275B+\217=\002g\251=\257O\023=\tM\200<\214\334e=\351~\343\2749\\\346<V\013\221\275\326 \n\275\311-D=\211\377\213=Ugb=?1\013\275`B\014\275wst\275K\252g\273\3020\267\275S\034b\274F;\231=\027\344\257\275\217r\237\275\374\334\215=V\332q\275\343\273\237\275\016~\263=\224\226(=\301\322\303=\334\235\213\275\200\026h=l[\221\274\355\036\230=[@#\275xzs=\325<\203\275\377\337\213\275$\320`=\215\363\016=\324kd\275\310\340\212=\305\203\230=\022\310\003\275{\271\237=\245\025\210\275\350\362\242<\260\246\002=kK_=\334<\006\275u\307\252=\266k\360\274q\356\372<\264\257l\275\305\317\016=\213:\023\275k\362m<m\303\307<\250Rj=\313u\304\275J\317\033\273\313\000\035\275\0249}=\024\223\002=\342\306\336\274\340\032\263<\026\207\254\275\014cU=7 \304<_&\261\274\213\250=\273\370o\206=\360\231[\274\026d\203\275J\177\242=yI\206\275)\243\206\275\302\317\300\275aq=\275\257#X=\222p\230=\000\235\034:K.+\275%L\367<\261\204\367\274zb\274\275\234\226)=n\304\202\275z\374I\275\0163\205\275;\005\324\275\363|#\275b%\353\274\316eS\275|_=\275\320\312\342\273\301#Z\275\366?\230=D\032\246=\311\261\252=\200\331\023;\030\005\030\275lSE=:\027\234=\"\320\t\275\31608=O\343\245\274\374\314w\275\376j\324< g\267\275\336\320\341<\224\232\301\275\020%\213\274\010\270B\274\357\222-;\270\030\225=\367!\226\275He(\274r\215\225\273\274\t\246\274wLS\275P\232\347<\0147\314\275\310q\272\275/\237y\275\2357g\274P\331I\274`\317\377<i\200\261=\364\264\261\275\325\026\026\275\034M\326\274\023~\230<\010\\\360\275\314\353\232<p\276\211\275\025\277\262\275\014S\271\274\354\336\252\274p\274\354\273^a\201\275\370\277\332<\231j/\274A\0103\275\027\366\312=k\357\257\275\244.\306<\372U\313\2756\250\226=\025\365U<-\272Q=m\243\276<)2b\275}\032\255\275\365\223\311;X\313\241=\216\226\241\274\202\221\002=\204\362\200\274=D~\274\204\004V\275\',\220=\235a:<$\265\305<\264\271\207\275\225\333\246\275\337R\371\275\205Q|\275\201\251!=\252\013\017=2\303\213= \210&\272J\347\311=\031d/\275\343=\215<=\203\345\275\213\203\274\275\254E\212<\006w;\275-\212}=\333Gw\275M\235<\2757\017\n\274\322o\346<\025a+<:\r\377;.\215\023>\315\365\311=M\023\277\2754{P>\210c\373=\207ZM=Wi\245\275j\034\037\275a\221\327\274R\275Q=\035n\266\275\311\004\253=\363\335\250=\250*\271\275\232<\254\275\211om=\217\t5=]\210X=OS*\274\365\007\371\275I\313\215<a\261\241\274$\031\320::Q\314\274\253\214B\275P5*\275\235Q\205=\005\r\261\275\266l$\2751\333t\272$\343\273<\345\240\003>\330\005\177\274\237\327\232\274\343P\005<\334\247\253\274\360\252\013\274\315\242\021<\340\214=;\267}\247=\233\017\245=\264\021\035\275{\371\263\275\264\301\327\275\272\224\371<B?\214=\255\027\006<\033\227\330\275\030F\212\275\237|>\275\343\263\362:\2700\031\273\322n\203=5]\016\275f\206\004>\221\r\212=\022\342b\276\335q\206=\211J\240<Hl\021\275\014\265,\2736\025\372\275\271P\032\275$nx\275\243w\206\275\2710\234<M\021\311\275\275\034*\272\037ev\275\322\212\265<\254\204\014=\333D\301>!\350z\273\337\256\035={\343<\276E\342\034<^7\017\275_\201\367\275\n\371y\274>\337\322\2756\260<\276B\257\326\275i\0146\275\223+\001>\026T\013>P\017r\275\241_o>\320\010%\273\272}\031?\t\345\264\275\007\270\230=U\3731\276\020\032U={\"\360\274\257I\246=sb\240>Z\"E:\230\261M>\351\225\333\275\371\036\272<l\020\216<|\310U\275$\211l=\356\346;\276H\031t\276q\357\300;\341X5>\024\326\203\276\333\312X\276/\342\223\275\021\374\243<\230\242\351\275|\313\204\274B\2372\276\337\341\016> \001\235\276\255d\300\275wyg>\021P\327\275\241\034\t\275\242{\214\275\225\233\374\275\304\353i\274q\344\256=\t\247\016>\354\277Y\274\307:\231\276F\356\335\275\374\335\026>\255\200\225\275\'\354\330\275\363\314\223>u\335\347\275@T\303\276&\035T>\240\247\036\275\312NW=\247\367\002>\205\357\367\274\370\026A\275\343s\177>\273q\236\275\254Pa\275\026_\237=x\232\254\275\031\257\237<\0066\357\276\345< >7{]\275h\003\377;p\335\306=\3409C\275IC\250\275\002\032\014\276\275N4\274\020\240F\276GN\204=r#\030\275\335\204Y\276\300&\302<Ed\034\277e\020\'>(\350\200\276w\367\177\276\330\007\277\275\340\332\037<\320\243\340=\341\3772=\003\024\255<\351\377v<z\300\220\275\254\032\375\275\372F\340;\010\023\265\275\2532R>v\361\t\276\315Gz\275\247\'4\275X\232\250\275A\3132\276/P0\277\240m\272=\3661/>(`\372\275\326\262t\276ol\314\275\037\036\360\275\\vW\274Q\345\001\276\343\234\342\275!\"c\2763!\344=~\255\264\276\234W\016>\361v\260\2761\304@>1nU\274Id\016=\337\222)\277\363|?=\tI\241<J| ?\352H\375\274\216s\347>$\253\260\275\021M\323>\374\017h?\333\322v=\3621\246>@\346\204=\365f\355;\251\256J=\325\367@\277\211\t\353>\037\022\235>\256\206\337<\260\325!?\253\236\211\275\271\016\310;1\317\237\277fK\020\276Q\311\313\274\310Nj<\254C\205\276?\334\241=\272?\325\276R\347(\277\n2o\276\357\025\361>\367\010\024=\356\013\215\275\311\021\214>\331\257\351\276\022\334\375<O\n\002\277*\003\236\276\361#\203\277\243\034|;|S\r\276\005\366\005\276\207\345o=\035\017\037?\334\025\371>X\207\314>\266\257k\275=\235\354>\347H\253\274\000\300*\272\241\375^\273}~\322=D\210\241=\356\306H\276\350@\212\276\020I\306\275\204\317\251\275\023@v=\311OE>n\343\305\276\2003\201\276\225D\254\276}\2570>\221\364=\277\227\316Q=\020\n\211\275h\261r?\262\272\206\276Y\002\331\272\262H-=\235\253#\277rf\320=\356\271O\274\326\252$\275\250J\260\275\243\272%\274\376HG\276\351,\307>:\340\'=\250z\352\275&\375\234>\366\320\276<\334\260\026\275\014+\034\276h\270\252\275\31532>$\372\200\270+\025\033\274\016\025\330\275n \250\275\215v[>\014~\310\276\2077y\276\356\257\265\277\251rn\276\220\223\177;\266C\032\277\260\313\017\277\377\207b=\264n\234=4\265q=\364f\331\275\201\356\224<\332\010\232\277e\225\034\277\363\243\340\273\333\005\264\276\354[=\277\257om\274fUx=\226\2218\277F\352\361>t\233_\277\376\003\037>\356\321\313=I\205\224\275 \0217\274\202q);\355\236X\275\217MA?\225\3561\275\353\311\302\276\t\210\330\276\256\236\223\277\227\316\035\277\276\315\030\277]\327\343\275t,A<n\036)\277\321P\331\276b\013y<\374\226\206?\300\223\303\275>\211\273\275\320\177`=\3174\3769\037\375\327>AX\231<\273>a>y\341\273=\206uF\275Fp\240?\036\371\006\277\365\3073?\035b\335\276\006\340\\=\r*\244=\272\273\220\275\016\016D=Uj\"\276\266\006\362<\300\231\330=\374\230B\271H\177.?\366\376\327\2768h|\277\325\262\023?7$\260\275\031\246G>I\342\306\275^\271\300\275\264\316.>r\025\017\277\242\0348=\355\376\372=\207:\301\276\324x\222\277\272Y\220\275\212{k<\337\220\'\276\215\036\341\275\210\032\225>v\203\311>\'\365\214>Nh\371\2752\014\370>\022+\213\275h_G<\222\364\225=jB#>c\377\010\276|\253\343\276\\\231\007?_%\243<\217A\254\277\364\373\364\273\354>\357<h\247\251\276\234\007\020\277\013|\021\277J\3317\275v\350\315\277\266\\\255\275\364px\275i*\235>\344\272\377\276\003\345\357\275\332\177^\275\364\302\243\277\3777\207<\305m\345\275\036\355\006\2753%\354<\240Xc=\275\365\364\275K\323A=\235\354\272\275\301-\343\274\\\274\305>F8\311\275\216\002\002<\265\255\214\276!%\030\276%\266\242>m\3066\276\324\272\252<\035\315\227>\360\316\010\276\305\373\205\276\017<\343>\375n\245\276n\342\030\276\201\347\373\275\220\207%=oR\306\276e\252\014\276\205\020\332\275j\276#\277\374\216\356;\302\313\325\275\205p\027=\310\004\325\277\353\006 \277\t\320\272\275\377\001q\277\320\336.\275\017\272v=\217\357\002\274n\r\210\276\034\322.>>\373 \277\3601.\276\355\266\221>\321\361=<>\340\311<\374N0\275f\373\306:\243\361\310\274?\347\246\276n\255k\277\321\374o<\361\247\246\276\372\260\203\2762\355\200\276\016\267\216;\372b\217=\343\\@>\010\013\300>\261u\326;\367\264\270\276\210\333\345\275B\023\024>\344\271\314\275\241/\211\275=C%\277\037\202o=\234\301\021\277\2516\236\275\351+\263;\223\231{=\354,\030?\356wY\276\274=\233=[\312\204\275\013}\301?);\206\275X\340\007=\026\232\206\2774~\375\275\237\307\317\274t\300\320\275z\327f?;\345\026\277L\215\234>I\203A\276G\230\301\276[\263\216\2768e\301;UC\030\2753po\276\200\003\202\277\206\013\257\275\275\221\235=\210-\243\276.V\014\277\316\257\213<\332\rA\2761\246\023\2756Z\325\275x\237B\277)~\332>\014n\274\277\017x\361\273ne\231?\316!\351\275\210t\216\275\ra\310\274+\311J\275u\214\355<\302\307\336\275/\344\216?}\276\255\275%\254\213\277\200\220\221=\340k\226\276^&\362\274}zL\277\362Fw?\335x \27507\240\277\303z\306>\020\313\252\275\360\226\211\277\241b\000\277w\3667\276\235\276\006\276\347t,?\245m\037;\r\261\377;\241Q\355\275\363 \267\274eP\205\274\376B\361\275\274\300\376\275\300b:\276[F\036=\216\000\246\276\362`\020\275\316\023\010\274\335\300\277\274\n\rf\275\331\211\217\276\205F\340<\263\362\371\275\366\231\255=\210\351\024\276y\231O\277b$\353>1\253\244\276*\221\261\276\030\274\001\277q+\230\275\276\357L\2764\233\236\276\336\013\304\275qJ\006\277\234\255\005\275\300\025\350\275\301\0336\274*\247\257=\357C~>\210\356\331<0\330\024>\261K\237\275\201h\311<\271\362$\275\262v\215\277\315\267\037\277\346Y\206>\236\004\243\274C\036\230\276\261\341\362\273\360\325\033\275\242\277s\275\344\331v<6vu\277\374\021\307\2774\376W>D)\006\277\367,O?\t g\277\237\244\004>Z\303\224\275\315c\255\275T\204\240\274(#p\274\355\010\224\275Ln\350\274\221j\244\275\300\306==R\340\005\275\374<#\275P\027\025=\260\335\335<\004\243v=t\271\242\274@\347\260=\025\352\226\275\000o`=S&R\275\250\304N<`$\250<\3304v=\262\014C\275D6\217=F\345p\275\206F\216\275\365MO\275\245\206w\275~U\210=F\316=\275\220\221\320\273L \022=\370\332\202\275\310\316,\275\304\260\257=\256CM\275$\256\252=\330\322\002\274\300\247\007=\000\232\237\275\231\216\307\275\340y\274\273I\334\274\275\203\237q\275\262\207P\275\240\277\031\2754\266\243<XC\241=Xv\016\274\314\216\303=8\022\215\275\263\374\320\275L\t\r=\374\330\253<\330\306\342<4\014\214\275\024x\224<P\264\361\274l\005\247\2746M\232=\004\3723=\204\035M=<9\230<\364\330\024=\342\332\275=@<`\273;\027\267\2750\021\366<\003@\236\275MI\312\275\354YH=\345V\310\275\254\007`=dm\353\274\000\232\035;\204&\245=\330\206\256=<N\317\274lG\221<|_b=\013\332\273\275\347\370%\275\314V\210=$PZ=\240\246\376<\340s3\274 \213\214=(m\272\275\302\246\244\275\360\302\326<!\212\315\275\204\372G=\2153s\275h\2632=J\327\014\2758\2519=\336\'\272=\374\310\234\274UcH\275\2502\220\275\030%\317<\322j2\275\336\205\273\275\364\251\346\274\250\354\272=\2409\n<Zt\221=\200\202\025<\230KA=h{j\274h9\270=\330\213\206=\016\334\216\275\220\016+<(r\341<q\323\246\275;\251\245\275T|\357\274\377\001>\275\330|\231=|\334\331\274\332\347\250=\330\363\344<f\207\004\275(\272\275=\000\365\372;\330\210\033=T\271s\275\007Ek\275\250\245\016=\320\351\366<Z!\266\275\275\247\263\276r\231P<d6^?\310\230>\273\375>\r\277\271\314\301\275\320\375\265\276\365K\332\275\037\237\017\276\243\263$\276\347\014\013<\262!v<Hi.\277:g\362\275f\2122?}Z\245\2754\263`=\346\216\372>\274T\242=\334\227\263<\233\236\204\275\025\372\341<??\213\272\022\254\363<KDC?Acf\276\024x\217\276\356\3042>o`\310\276\334\ns\276\350<q=8\365l\275\372\177\373;\'M\362\276\353\3529<\240\357\216>\355\r&\277\214\251\235\277SU\221\275\236^M\275<\327E\275\005\002u\275!\343\226\276sy\217\276\'\216\327> A?=m?\372\275EP1\274\320YU=\021r\013<6\023s>e\275\216=$\033\251<c\224\022?\211\305\002;\240S\260\275.\254\026\275\2738\025\276\215E\303\276\tA\327\276\241s\r\277}\007\366\276\032\337+\276P\205?\276\350\002\220=\220\216\346\275\203\277_\277\364t\014\2741T@\2754\367\t\277\352\010\245<,\330!\275Qp\266\275\317\343\r\276\366u\220;\355G\250=I\353\222\275\274\350\360\2747)\230\274\362e\354<\242m@=\202\305\030\275+\177\024\277zU_=\326\316 >8\017+\277\326\266\n\275\336\006\370=y1\214\275\317\206\200\2776\253\275>\007\343\302=Lz \277\2326]\276\010\351\264\275\311\240\034>\203\240}>\260\265\252\272`\244%?`\004\342\274\315\216T=\306yQ=\364\323\002\277\233]\305<\365\335\246\275V&\211\276;\271V>\366\266\220=6\"\017\275I(\252\2764\362\364<\263\330d?\027\\\035\277\301\343x\277\177\323\344\273\307k\036=\324m\036=\347\336\026\275~0\022\277p\207\250\277\021\005\211\277(\237r\276\332\253\243?\247\372Q\277\177\177\333\275\353\326\272=\274\252\r\276X\223\010\275\351#\213\275,\303\370:`7\216=\342\265\214\2754\023\241=b]\257=\t\350\262=\254\227\222\273\007\325\205\275\245F\263\273\005s\305\274\327\342\212\273X@\241<\331\211\233\275 =\211\275\"*\343\275{kD=?\305\225\275MRR\275\031<,\275\337\203\357\275a\030\222=e\202\276\273N8\317=\34790\274\327\327^=\351\010\235=\'\003\210\275\315$\325<\324\315t\275\354\333\360<\037\r\231=\016xC<!\336\327\274t\253\200=o\324\250\275\314[M\274\343-\216\275\261$\273\275\370\371\336\274\346\016M=7NZ\275\013\232V\275\211\215\224<\202\240\210=>m\241=\'\007\323<\224\376\216\275K\270C\275G\005\226\275]h^=d|\260\275\314\355\300\2750i|=\241\373r\275V\267\013=\003\033\236=\261tX=\215\005\277\274eC\212=\344\232$\275b\316\312\274\237K\203=\314\001n=\312\320\235\275\332\037Z=[\330~=\327J\261\2751,\330\273\3001\231=\333\312\206\275E2x\275\365\264\256\275I\303\354\273s_\016=\354\331\226\275\010 \034\275\023\376K\2759t\256=\230\'\217=\323S\301\275\207\303X\275\\\033\342<\342W\002\276@\036\200\275\216\361\255=\207\017\202=T\363\207\275\336\030\254\275Z%\026<\004<\324=\273\275-=2@\252\275\211\264\321=\325\026\215\275M\351\013\274Rx\217=\247=]\275\200z<=vI)=\313\220\261=JPQ=\010\276\242\275\273\334\302\275\247\341M=\024$\256\274\206q\240\275y\252\240=T\257\007<p\232\376\275}\353\003\274\370\027\221\275WJ\024=\342\005\232=\261Eu<\030J\214\274\251Ph\275\3674\302<aQ\215\275G \305\274\017\205\312<e\377\302<\314F\216\275\374\313\2419G\037\261=\r\314\334\275\260\254I\275\200Q\227>\n\213s>\326a\230\275\251\373\366\276e^\355\275\214V\253\277\276\322X<o*c\276S}o\276\240\375\247\274\324\255G\275\340pA\275P\300\303\275\321\251\336\276\310\317\203\277J\214Q\277\215\312o\277a\330\324\275\006\2234\277\033\360h<\232B\217\275\202H\344>\327c\325\274]\257\210=n\340k\275\321t\n\277$:\336\275\246J\242>\306UK?\016@y\277#\334\306\276\355-^\272\214N\303\275\331w\231\276h\243\t\277n6\206\275\032\254\204\275\364J!\277\255\247M\277br \276\027\373\344\274\002/\360\275h\216\352\275\006\240\2308\336\211\316\277Q\247@?\211N\306;\010Y\025\277\341K\277\275h\004\303=\2041\230\275\355h\021>\366\360\221\274\232\365\220=\350\010\247\276h0\372\275\007Jt\276\341\003\t\275\217\037\220\275\300\322\366\276\003\243\315>\022\035\024\277m\273\371\276\352\263\025\277H\305y>-8\243\275\ns\'\277\321\030\237\2767w\007\276\202\"\272\275&\310\007\277~wC=\031%M=\224\266H\275\315\341\362<\325\324\017=\300\272\t\276\275T\005?\022$I=4\325\240\275j\244\277>S\263\004\2754\363A=\317\340w\276\220\365+=\377\342\314>\311\327\246\276\3070\010=\267W5?r!\n>\243\361\222=\221\312\210\276j\262\264=\206!\214\276>\321<\276\321\\,\274\236\211\227>\027\034\315\275Q\'\304\274\242\377\255\276X~\342\274\360>\342\275\201\256\360=\274\307\255\277N`\003?\'w\372\275\213\034u\276\231\215\020?U\214\270\275\025D\207<\032t\004\277\262\"]\276da\207\277\343`\024\276\337\370\210\276\255\324\205=\034\337\274\275\033\0169= \354\330=\243!V\276\272~\210=\243\243\321\276E\240\025\276\377\322\232\275\345\002\310\277\220<\265\276\034\315\007>\315S\277\273\005\235c\275\251\277\266\275j\270\221\274\336d1\275\013j\267\275@\211\200\274\23576\275\000\003H<\234H\235\275O\030\310\274\234\320\207\275\254\200\241\275>\277\322\275\017m\016=\227\004J\275c\016I<N\215\004\275\371\272J\275\022\344\254=`\031\022<>\227\225\275\221\035\204\275\220p\276=;lR\274\246\206\372<&(\3659\rx9\275\251w\364\273\311Ss\274q\251\266<\232\2102=N\000\235\275\324\265\271\275\216G\t=9\027\027=\r\374\270\275\312o\247\274\006\304\306\275b\265\306<X\235\242\275*s\251\275dZ\244=`\027\177<\200\020\343\274\005\333(\275\211\346\000\275.6\312=\316\364\245\275z\034\363<\334>0=T\031`<\013}\247\275\244\237\035:|R\266=\331\253\205==\013\244<\254`%=\001\275*;\n\2353\275\374\232A=\343<\224\275\n\020\r=\311c\203=l\362\231=U\331\372<\346\036\010\275\267\365\271\274\311\254M\275\231s>=\003\022i=\230\237\330\275{\232\353\274 \355\002\273\364-\215=*\325\207=X\'\246\273\321\365w\275\216*\251;\\\277\341\273?%\224\275\364\352>;X\016\361<4)q=E\207\252<\316\252\251=\017\352/\275\372R\345\274\004\373C=\346\331\025\275\277i\204\275\2615S=\311cd\275\342Q\200=k\327\304=\250l\307\273\033\321\336\274\267\374\226=[(\026=]\312\314\275\036\037\326\274|G=\275G\3439;mqy=\214\037\266=\r9Q;\014\266\225=\033s\325\271:\303\221\275\3134\022\2752\351^=;\025\350\274\201\315x=h\262\271\275\027E^\274\207\335R=j\301\261;\232\344\275=\217\215\033\275\253\366\233=t\240\230\275s\210\310<\017n\200<\241(\264\275\2417E<\326\263\224=\371\330\001=POw\272\272\362*\275\274Kx\277X\361\217\276z\001=\275\271\261\006?$\340p\275k=&\276\303]\310\274\371\177e\276f\202\275\275\216\3343\275\261\007\326\276\3344\033=\351@\307<o) ?.z3\276\253\036\315\276=p\365\277<\366\322:\273oH\276\"\367G=\026\331F\275s\262D>:\004\270<H\370v\274=7\241<\002?\345>\036x >\023\264\220>\024z/\276oD\000<7\002&\276\302\315\016=XkI\274\374\274R=\327\362\231\276\277rj\273\310\250c=![\031\277\245Oi\277>$N=U!\201\274ptV<\221\210\341\275\301\206\263\275g\225\014\277\340w|>\344^N\275\203Pg>\330\363\323\275\340\261\203\275\005\252q\275Av\221=gQ:=K\327\356\276\221\305\026?=\034\213<\010tO\277\312U\301=\001\233\345\275\330\263&\277\tj\376\275\036#\303\277Fx$\276l\032\361\276\2078\367\275\014N\314\275C\002G>\n\'o\277\316\224\366\274!~-\275\210\346\216\277\372\214\311\275\024\251T<\350\375*=\200\361\000\276\0370\363\2751\237\377\276k\371@\277\221o\237\274\350\222\204<\311\210\242=<\261]\275\213q\024=^O\332\276\360\002j=k \247>\307\264D\277u@\364\274\341\312\323>\223\320Y\275\034n\017\2765\355\340>\305\002\253\275\025\t\214>\250Y\361\276SEF\275\006\314\233=q\226\307\275\236\306\242\275\305\205\333\274\243\264\334\275G\316\347\273(&<\275\215\007\204\277V\221\001\277\306\323\370\275\267\204b\277 [|\300\357\361:=^k\346\275$\023\362\275+\206\006\276\010\031\270\276\305\007\022\276\211NW>\333\013v\275\257\261\022;\251\326\325<1\\9\275\247\032\217\275\001r\004\276\375R|\277\357,\315>M\365K>\304\030&\276TK\261\276v\277p\275\314\3270=\250B\324\276$\204O\277\200\006\213\275\277\355\322\276\255\235\203=\373\250\237\275\227\254\n\274)\021\200\275t$\213\275\217\n=\275\276\244q>\020\241\310\274UZ8\274\\e\347\276&d\031\277\3027\n\277\247pX>\224\\\237\273\206\344\321\276\025\001\324\275\325\330\206\275Yw\314\276C\205U=\034K\303\275\320\327*\275G\'\022\275\340G):\n\033\016\276PK+?9\355\373=\375\031G\275\232t\t\276\252.u=\"\354\274\276\277\225\265\275R\210\265=\025\353z\276\026\034\322\276\001\3045\277\247\025\363=C\016\262;\021-\235=,\307\211=<\212\027\276;\314\225\276[k\261>2\314\227<U\016\005\276\260x\361\275\035[\312\275\343\300\241\275\267\332q=\036\346\273\275\215\2067?\020\371\020\277\254\357\375<\367\367\221=\336\360,=\337)\017\276\331\224D>d\357\r\276\320\034\202\276\320_\014\277S}\263\276\236oG>\220\332O\274\003\305E\277\026T\264\275\255!\274\2730\225\377\274\013\314\226\277\n\231$>\031s\225\2754\315\307=\232\236\227\275\021\326\177=\327\205\020\277D\022v\276\010\233\227\275R\241\217=^~\332\2762\210\236\275\362,\201\275\204\'+\276\370\344\244\275Y\310\216>\357\221\014\277\237:G\275\222<\245\275\343\214K>&8i\2767 \225\276\321{y\276\264\363\203>Z@\277\276t\242\000>\342\001W>\220n\001\277\000\025\'\2741\020\211\276\223\230\264=\332l\226;\213e\333\272\364\374\007\274L\372\007\276@\361\333<\216kM>\240\363?\276\346u\357\274\355\273K\276\255\034\353=\253\231\022\276\017\361\313\275RQ;\276 \037E\277\"<\226=\3615\265\274\\\000\215=\201Ak=\352\376\025<\260:\271\276\037U\003?\352\205/?J\2477\277\251\340\027?Q\344n>\216\211\260\274\026\311/=xx\310\275\310\214\324\275G\201\023=:\354\355>\211\241\301\275\336Q<=\316\364=<\222I&\276\302u`\275\215;\263<\223\':\275\245b\302\275\311\214\204\274\346\234,\275\200$\261>\240\215\321\274\'\223(\276\327\367\321\275\360j\251:\316\037\211=\270KW\274\370)\213\276\301\007d=\242\372z\275\022\205\310\275\302\211\222>\243kR\276U\001@\275y\360\230>\366\367\377\274n\rs>\004\010{=\257\200\365\275CK\214\274\217\004D\276\n\366\n\276g\027\266<\t\231\325\276\3148\372\276u\3762=\222;!\276/\230\004\276\275\264\356\275\236\256\014\274\316s\t>\027\221\014>\347\343\311\275\310\014\t>\310\306\204\274\007\014y=?\372\014=\242\232,>j\372\243;\000\302\271\275\222\263U=\324\203\036\273\206dt\276I\213\256;\356\243\344\273\306#^\276\224\014!>(6\023\277\016?L\276$\275\342=\327N\263\276^\260\276;n\2758=\3679\t\2777\272\027==\017\261\275\344\035,\276\350N\254<[O\307\275\274\260B=\221\360\031=\321\272\240\275\216\353\025\276\217.w>\371U\"\273n)g=\036\201\215\275\234\203 <6\000\027\275\263=b\276\333\037J;`\206X>\312k\303\276\234\010\003=\306\203\022<\005x\273\276\t\177\236\276f\361#\276~(K>\231\033\240=\272\000\255\276-_\261=4\310\204\275\301\241\023>SA\245<\337!Z\272\244\263\014\276*\240\366=\335\342\250=\274V\005\277\230W\375=I\365h\275U0I\276\320R\r\275\022\263\212\275nQ\234=@\375r\275\247\361\016?\262\023\245\275p\360\200\275|\\\374\274\243\267\356\274cb\244\274\330\362\325<\360\300\207\274H\206p<\212e\216\276\370\202\372\276\376\224,>\t|\210>M\256\215\276r\"?\275\203\334\006\276\302\372v\274`r\372<\210u\201=&\261B\275ho\016\274D\004\275=\370\2323=\300\232I\275\030H\304\2750\001\313\273[\314\233\275LO7=\330\203\353<\032y\265\275\024\372\205\275\260\223\367\274\000\023\236<l\001T=\204\337\231<\220\n\366;@\357L\275\250\336\233\274\301M+\275\000\347\236=\260c\232<@a\033\273\243\016\303\275\240,\352\273\347\321\315\275\221\232\253\275\000w\252\275\300b\034=RO\257=@~\305:\370\250w=pk\225;\212x\021\275\317(O\275\030\372\320\275Cn\223\275\n:\231=\340\026\014\274k\224\235\275E\210\303\275\024\023\271=\340\266u=h\342\225=tz*=:\353\257=\347W\250\275\002\362\232=\220\262\270=\0101\272<\260\336\036\2752%\013\275\202\250\275=\000:\205\272\021\017W\275\320\224\312=\330R5<\3501\327<\264Ni\275@\331\226;\234\312\341\274l\217\316=X\276?=\243Y\177\275\270\245\346<Dz\332\274\364c\217=\364\2179=\026\275\272=\024\367\371\274\320NP<\024.\277\274ti\233=*\251\313=VT\213=\312\346\255\275m\004i\275\221i4\275H\331\252\274\000i$\272P\241\262=\240\247\003\275\036\232\032\275\212\200\243=\027$\227\275h\226\310=\374\210\317=\350\235c\274D\267\211=3ju\275\337t\274\275N\275\264=\024\307\231\275\374U\003=\010\257\022=\230\031\327<\263\332=\275\374\364\014=\017\344\304\275\304\004\214\274\364t\206\274\361\370r\275\333_o\275\000,\226:\363|\300\275I\027q\275\260\350\360\274\022\\\256=\374\342.\275\364c\235=z\254\236\275\021k\261\2754u\222=H\347\020=XDo=@\366\033\2730G\241;P\0379\274\350\240\303<\370D\310=0\t\032\275\3644\263=|S8=PC\322\273FU\243=06\020\274\261\201\225>\355\271\003?0\260\252<\037XL>\"\005@=|\351M\277\006\325p\275c\233D\276\\|\r\277y\373\003\276G\351\026\277)\034^=\035T\267\275\272\322\274\276!5\350>\257:!?\350\250\202\2762\037r=#\235\001?Z\325\264\273\325g\242<z\277\266\276g\320H<%p\200\275\005c\353\275F{\334>\010\325\204\275I8\025\2757\267??\312\302\337\277ii\205\276b\346\216\275\312\323+=6\375\305;\271d\305\276f\321b=C\275\242\276\366\270\241\277\302?\203\277\375\235(\275I\340%\274hY\021\274\013\004b=\372\276\352<\343\377p>S\037\367\276\345-u<\037\026\201>f\'\350<g\245J\275k\025\000<\010\240\033>\256>\024\275\326L\234>^\225\262>2;\373;G\305\006\277&N\276:\300\t~\276\001Z\021\277{\351\007>A\374\353=>\344\324\276#\224\353\276\234\305\215>&\354\211\275H.\321\276\374;t\277\003\n\223\275\207\344\256\275s|h\276\351\365\230=\273f\301\275\010i\346;r\377o\274\nw\003>p\270\006\277\037c\212\276\327\321\330\275\3400\025\275\nW~\276X\332W\275\271>\014\276\267\310\311\276\256\237\004\276q\317f\276\235\274\022\2757\255\325\274\007i\010>\262u\273=8[(\277\027\271\322>!zZ\274 Ra\277s\243\351>\222z<\2758\214\360>S\363\023\276a\314\022=\361\335\363>\021\t\221=\367f)>K\261\204\273e\027\312>\026\221`>\220iS<\321Z;\277\211\346w>ay\252\275\036f\303\274\244\325\374\276\265(W\277$t\234?%\'\320\275R\257\236\277G\033\275=\304\023\361\275\303\223\251\275\267\320\206=\276\247\007\277\037\365V\276\"0a\277\212\377\314=)j\235?\005\333\324\277\177\253\341>i\317\336\275\001\224\271\273\000\333\024\276\304\375\370<\264\331\314\274\376|\214=/b\205\275}\215\222\276\270\367F96\345\025=?\265\224=\2367\311\275\243\211\261\275\370\237t\275\244\001\233<l#\216\2753]C=\304\366A>\243\341\365\275\205\n\205=\326\230d\275\245\344\373\274\347\272\215\274\020\232~\275\220\341\006\275\207\245\206\273N5\262\275\035h\253\274\263m\311<O7T\275\200TI>E;~\276\275\345\025>\324\032T\275o\317w=\242?\216<\026\253\247=\271\362\361\275\367t\037\276\256\367W\276\023\010/\277:\027\347\275L\345\021\276P\030\000=\352\270\r\276\265\361\024>\221\255G\276\037f\204\275\243\266\007>\364\362\242\275\342\"W=\226\271\276\275\242,==\245\324\273=\345\245u\275\210\317\361<\320 \000>HB\274;\342\230)=\262;\030\274\211\320\352\276\024\264\223\274A\0072>\222\366\237\276z\210\251<\302\250\214=N<[\276\0318@=\317\t\261\276\307\261I\273\304\265\237\275\010,d=\310\367g\276|\237\007\274\222\336\343\275\324\224\251\275\233#\330\275.\226\325\274q\250r\276&\\\242>\345\033\345\275\r\223\373:>\372\002\274\224\027\372;\264\235\037=U\014\306\276\371_\026\275G\027!\276\014FQ\276y\250\017\275\036\311\300\275LE\222\276C\261\261\275\207\241\347\275f\211\253\275Ad\236\276\346\204\312=Imx\275\226\224Y>\251\235\017\275M\234\r\276*[T=7r.<\340_U\273\262\226\315\275\333\204~\2757\251T\276\023\361\353:\377\263!\276\306\270\203;I\331\253\275\333\000\226\275\261\306p>\266\342\276=y`\226\276\352\006\317\276\031\212\013\277\375\230\337\274\207\035\t\276+q\210\273\354\021\254\275\366T\301\276u\315\231\276\267\264!\276\217\353\221>a\311A>3\307\202\276\014\357\357\2748\306\217=T\261p\276U<\333=M\"\336<\343g\032\275\335\016\'>\345\250\204\2750\326\260>\003\236\240\275\252,\217\275\355\n\216>\036\346\332<w\363@\276-8%=\323\253\206\275<\370\267\276\177\306%>%\275\274\276\214\366\002\277\273\343\317;\020;w?<\250\244\275\201X$=\0263\032\300\360\322\332;\245\025u\275\031\303\352\274\363\363d\276\270\242\216>\210d\314\276\024z\r?j\014\214?!Q\217\276l@\021\2758X\362\274\216&`\276f\222\222\276\371O\371\274\202%\215\277?b\207?\232\036\365\276L25\276\000\315\311\275o3\350\275\275\322u\275\311\253\274>M\212\022\300\312;\"\300\340,\n\275-\240\234?\243\005\224\275\354 \207=<\347\000\276\231\256N=\301\301p;;|\263=_\251]\276\016n\022\275p\217\214\275\315\\\256\274\370\346\000\276[\371\017?\312\333\227>\350\274\273=\357N)\275\023;\207?[\322\237>\340\353\273=\3202\223?\342H\"\274\261\265\307\275~\354\247\274VU\273\276\004\310\030=c\213)=\353*\377\272\212S\357\274\303\370\215\274\350\202\264\276\220dM\277\323\202\346\274GE\033\276C\306\006\277cG\335\275\345\235U<\006\213\232=\223c\004\276M\346\236=\032\313\256?\014\245\262<\330\032\177\277HB\214\276\027\210\001\276\306\277\016\277\304\334\257>/\332\356>\215e_\277\tM\354\275\241\3512>\341w\275\277\376\274\017\2758h\264\276#\362+=\325i\355\275\374\367n\275l\342=?\243\320\210>\236\017\362\274p\023\221>\223\346\241?\261\356\216\275UU\273<E\3333=\300\314\242\2766=\254\277C\243\247>\010\004\001\275\362\255\221;\2453\233\275\300\003\276\275\310F\341\275\223\345\'\276\240O\364?3\357g\276\3027\026>\311u\220?h\240\343>\234<O?:y\207\275\030g\n=2U\272\273\315\335[\276\352\227\003<\253R\030\277KlS\276\361\374\211\277\223d\365\275\020e\326>\313\025\256?\340\203z\275\007\343\204<i\376\304\275k]_\275\237dQ\276\253o\230>\23346\277\216\324\n\276\236\355J\275\342\313=?*\227\r<\030\021\242=\236\273\246\275\005\310-\275\023\314+\275F\023\005\276\2006\006\277\256\200\006>[\360>\2770<X\276|\310(\277&\251\364\276\377\374\004\275\220bh=\255,3>\023\035\022\277\356\360\002=\016\233\203\277\331%\325>\374\240\362\275\363+&=\205x\027\274W\035\013=9o3=\367\262,>9\232\013\276\240\237\351\276\017\261\217\275M{\000\276\220*\004\275.\267\325\275\312S\342\2743e\310\276eE\266\275\007V\350>kr\223\276\250QE\272\256\361O\275\246-\203\275V`s\275\001\024\336>\177n\200\276p\301\355\276\2226j>\014\255\330\2769]?\2730z\033=\370\031<\277\242\257/\277\3276E=\313.\254=\316\275\264\277\014S\267\274\214\271\277=\261<T=\016\"\210\275\355\362\333\275\333_\035\277\rq\035>\353\322\200\274\271\2075\275\3218\263\276\255\266\n\275\272\374\373\273\326u\'>\371T\233\275%58\277\303V??\220\306\276=\327Ib\277f\317\177\277Z\263\231\277\216\320\014?\273\355@?\020\t\242?s\302\336\276\205\245G\275;\273r\276\205\220\317\277\214\240\261\275\372?\251\277\344\303\367\273,\211D\275\363\242\032\275\344\335O>h\203\276\276\366e\315\273/\241\242\276Uu\255\275\355{\230\275}oH\275\rQn\277E\214\250\276\306x~\276\267P\275>s\032!?\317Z\334<a\n\342<\355\203\177\275\360\0316=\311\234\210?\3277b>\020\224;?\346I\\\277\312\314\000\300\r\234\254\277T]\221\277\323\267\370\275\202\242\354\275\023\257\013\276.\343\300=\340\325\232=\233\035D\274|\025\251\2757\377\t=)\343\'=\334\340k=\2759\t\276\367l\311<\227w\240=\026\257|\275\277\3221;\314J\250<\236\260\216\275\010\331\356=RI\000\276\220\240\037<\021]\027\275\217\317\211=,j\344\275\253>\246\275U\310Y=\3703\214\274\361:\354<%q\301\273\264\234\347=\214w\n=O\375F\274\361\302\016<P\030/=  \274=\363\231\251\275\013w\201=1\271\314<C\317z=J\367\206\2730\2450<\363\310\035\275\026\311\360\274\257WP=&d\274\275I\323\242\274\252\202\302=)\360\262=,F\207\275(\212\227<\324\357\220<\305a\244=\377o\232\275>\267\025=\342\322\240\274\014\307\210\275\222\014\225<\276\255\334\274\325s\351<W?\002\275\204u9\275_\331\227=9k\241\275\372>\366\274\253\202O\271\222U\226\274\364\250\210<(\203\215\276\3042\373\274z4\277\274EQ\330\273\006(\215\275\240\245E\275\301\234\035\274\205\231\222\275\341)\022=\332_\254\275\305|\232\275l;6\276\002\"P<\367\254,<\377]q<\305\024\334\275\234C\247\274\024\313$\274\375\346\025=\305\223\313\275F\363\310\275\351\032\261\275\312\247E\275\025\222\313<T\022\225\2758!H=\312,\313\274tx.=>>\327\275\320W\t\276\2215\002=)&\231\275C\005\274=\226\241\257=\013(=\275\003\005\013\275WL\210\275\204\332c<}\264\257\274\261\273\323\275`U\256\274\332+\240\275\312\330J\275\240\235\006\276e\323\021\275\263\245_=\237\330r\275\250%\335\2734\226\202\274\222\227\223\275W\031\262;\024\014*\273\031\377\376<\021\370\252\274\021\034\266=\204Q\242\275\254\273\n<X\321\222\275\270\206\302;>?\267\275\354\350?\273\364n\270\274\246\325\000<\326\240\322<l\200\t<\225\"\214<=\301\321\273\016\311\377\274\332\2221\275\367\247\356\275\226X\236\275D\244,\275,\343\272\274h\345\030=`\207\232<4\351\314=W:T=\006\277$\275\026\353\244<^j\016\275E\234\306\274-\236\250:\245\010y\275\\\320\306\274[\355\263\275!\2077=:K\t=n\217\263=\002\336V=N\251\322\275k@!\275N\274G<RC\347\273\377Tn\273\257V\200\275\202\272\222<{\005\203\275\264z\302<\371\2118\275c-\203=\357\273\230=\206<D\275S<\224;P>x\275\022\342\252\275m\343\202\275\325\t\020\275gCX=\303\330g\274\260;?\274\230\033/\274\233\335\017<\224\221C\275\033zG=^\377\317\274\005x[\273\352S@=\225d\"\275\267@.;\265*\256<\026\276\332\2753@\312\2737e\214\274\tH\005\276\363\016\n\273\356\372\366\275\225\260\324=w\002\325=5\240\005\276\030c\316\2746\004\275\274\005\022\247= j\273\275\017\221D\275p\032(\274\212\023~= u,\275G\354\207\275\320\220\261\275\371\364\037\276OIL\275\210|\301<V\217 =\363E\212\275\306\307\277=\013\331\302\275\226\036\032\275i\006\022\276\310\302#\275K\007W=l\301\023\276\257\305\030\276\005\264\327\275\372\207<=d\336\261<\035;\r=\206(\034\275\023\232V\274hj\020=N\\c\274\317\025\034\2750\204\274\275\251~\221\274\006l\313=:\234\205\273\302\034\203\273z\313\t\275\262\204j=f\362@=G\261\335<\333\3528<\206\330\316\273~\221\245=.v&;\226\266\026<\177\361{=pV\330\273\275\245\214\275\375\177G\275\361\n\252=\213\351\246=\301d\'=\257PP\275\3326A\275h\352\277:\341\253\001\275\202ru\275\240\376\235=\001\350\356\274\177\2212=\331U\322\274{\373`\275\010\276\334<\240#\210\275\205\232\240\274U\314\261\275\222{\240\275]\001\301\2743\341>=\254\"\031\275\030\006\351\275\253z\317\274\327\307\332\275hd\314<g\356\241\275\345\371\264\275\024/\232<?\027&\275\331\312\252<\370,\352<C#r<\307V\227\275w\211\006\275\261\277\365<.`\'\275o\254j\275\342\351U\275\211\032=\275\316+\r\275\014\023:\275\t\374\257<z\233]==\034\233\273\264\313\350\275\357\262\263\275\247\235\270=\177]\323:\255\316\005=\341\354\305<k\324N\272J\364\217<\002\377\353<\214k\007\276\220n\250\275\001\373\343=~\322e\276T\022[\275\352T;\276\374\211\033\275\260\354\233\275VA\277\275\310\330>=\356\207\231=?\240o<\346^\275\274\232b\306\275\311%F\275\215\300\340\275s\340\021\275\354\236m=\002\362\217\275\372\226`=6%X\275\246U\n>\354\2100=\315}\316\274\331\375R\275`\010\200<\313wQ=\240D\254=?\273T=\025n2\275\013\363\254\275I\314*=.}\250;jq\244\275\003\262P={\211\370<\366\036T\275N|9\275d\300\200<\211\360\302\274\364\270\235;\304n\342<\026\340\217\273\004\231\333<\025$&\275\344\030\225\275#Q\205\271gA\233\274\215\027\321\274T?@\276\227\334\267\275\312a\n\275\322\252\275\275\225\215\004\276O\004Y\274\026\263A\275Ew\232=\371\023\254\275@\302\364<\227\262\336<+\357\206=\3348\321\275\30607=\220O\001\274gZ\312=v7F\275\354\243\002\274;h\346=\361^\010\275m\373\251\275\221\020\243\275M;\005\275\313\002\222=\213\236(\276\031\0237=nY\231\275\361\346\201\275hL\237\275\253\317\245\275|Q\207\276\304oY\276\301Q\003\275B\356H\276$R\262\275\301\217Z;\362\376\354=2q`\275\344\271\257\275&C\360\276\267\004\237\276\375>\277\274\317=\004\275q5+\275\315\354l\277~\205\267\275\370\375\364\275\313\264\210=\265*\206<b\\\253>\002\264\263\275\275\031\267\275\267\345\374\276!*0\277g\371\305<)|\261\276\323\2124\275W\tK\277\032\334\306\275\245Qf\275\306K)?t0\002\275V\252\327\275\370\366\252\2757G\014\277H%\002\275\336Q\226=nzG?\220\265\227\276\311\330\345=\023\222F\275\202\035\n\276\222\354\242\276M\262\r?B\007\327\273\033\362\212\275\364\003-\275\265\324\253\277A\332\001\276\307\307\"\2762\362\013\276L\343\256\274\207\244\235>%O\205\276r\335\234>k\302b\275\324U\024\277\\\263+\275\350\362\n\275\021\343\032\275\341\3229>\336\224\035=\2418X\2770vW\277vd\244\274\362!\256>\010<_\274\376S\026\277+\016\214\277\311\307v>\2629L\277\210\217\370> \320*?t\030\211\277\214S\354\275\005\344G>\311,\222\276\0320\003\275\244\255\274<X\324Z\277\262U\336\275\350\265\326\275\366\315\233<hX\272\275\333\0073=A&\231\277\000\265C?\315k\002\276\253&.\276&F\372=\n\251\254<\240\223\000=\315\037\243\276\236\324\261=\316\330\346\275\211t\024\277\016\026\033\275Zm\255\275i\231%\277\001\232&>*\222\367\276\026\375X\277\030\273\267=y\276\336\276\376\'\343\275y\010\223\275\375\210\020>\335\324\373<\313\333\\\275\310\005\264\274\364\350\235\273\243\224g\275\214w\306\276\211,\311\275`w\357\275\032\246\214\277\357\'\240\277Z\020\036\276E\373\344\274_c\024\2767A\351=\007\027t\276X9\n\275$P.\277\230\234\240\275\266\267\351\274\036&\330\275l\315z\273O\236\303\276\326\336\231\2748A\365\276^4\303>\267\211W\277=\216{=\312r\372\276\001\323\332\275\331@\030\274i\345\004?\246\370>?\0033Z=\025\204v\276*&\025\2764\217\027?O\371\230\275\363s\263\276\245b\310\275\2206\235\274H%\340\276Q\260\373\275\232JA\274n\351\376=\324;\255>\3048G\276\212\353\374>\217\016`\275\005\242\233?\357\374\306\275\342K\177\275\366S8\277\375\342v\275\335L\013\276\365#&\275\350K4?\r\374\360<u\032\252>p\020.\277\245)\026>r\020\201\2760\252\310\274\350\355\267<\004\232\034\276\220;@\277\225A\002\275\302x\201>ZM\215\276h}\212\2764\215<\274\322[\376\275\356\351\006\276 \330\206=\207\201Y\276\026\227\007?\356zV:J\324\230\275#wO?\251\237X\275,\277T\275\016\207\321<h\364\250\275^\265\341\272\257kw>\362\225h?\027X!\275\262\367\343\276\232$\341<\220\245\010\275\017E\333=\031p7\277]\343f?\256\207\236\276~\334\253\277M7\316>\342\337\256=]h\250\276\327\206\256\276\240\251|\27570\303;\224\377e?Rc\335<g\376\263\275\235\217?<\020\221v\273O\351f<\354\217\334\276\321\216\r\276\375e\331\2740\023u\275\223\000x=\201\364\214=\325\367s={t\002\276\257m\025\276\362\223I\277\212\256\226\276\212\350\355\2751X\270\276g *?\211\277^\277\0003\200>\345&\004\276>\221\207\276\347\305\257\276\371G\213=\310b\221\276<\212[\275Q\344\342\275u\300>\277\3452\004\275\014\265Z\276\361\001\212\271\317\177\244\276\336\344\003?\255\362\003\276w\337X>[ \273\276L\t\033\274\337\226M\276J\230\226\277\242\367\211\276\374V\017?\3310 \276\3157\275\276\037\271\271\275\372\215$=G\276.\276QJ\310\274\035\376\n\277\335P\201\277r\365e>\306\005\212\277\000\265\t?\013\n\275\276\376\361\213=\277B-\275\031ow\275\310\250P:\243\205~=\270\321\256\275L\265\375\276\315-O\275_\221\010\277y\240Z<|\303b\276L\002\024\277\273\3738\275\030\277\316>\320\235\215\275\265\323 \273/\177\266\276\375\364\205?{\366\212>_\030\360\275}\271\023\275\263\335\345\276\000u\013\275\211\334\256=\246\347\315>\014\370\257\272o\022\265\275\"\257\321;\326\321p\274\"\237R\276\344\225{>\372K\275\275\274\320\214\275\201\250\366>\255\023\262\275\200B\247\275zk\346\275\272\233_\276bc\314<\237\245\007\276\230\0204\277\327y\304\276\325\242\010\276\310\232\306\275\315p\241\275\377\"H\274F\342Y\276\026\3219>\326\364Q?\260\250<=\363\216\014\277\254\247E\275\300\021\020\274\314\035E\275\305\351\267>\335;\325;F8\233\276\006<\246\276\332w\003=\323\340J\276\215=\234<Z\357\252\275r\326G\276g\255\"?_\271\363\274\303`\010\277B}\021\277ru\372\277\221\323C\275-8\020\276\266\300\302\276`\004\320:\267Z\004\275[\232c\277u{\305=>\370\230\274\224\301G=k\311\251<\253\204`<N=?>P\245\315\275y\312\274\275\273\304\202=x\374|>\254J{<\004M\242\274\313#Y\277\373tQ=r\003\022?\225^0\277\355\2255=\003|\204?K\227@>or\255>m\334\270>|\027\250\276\232h\215?n\226\221<\367\224\303\275\021\241\202\277I\214\001?@_+=\200\266\220\276q\220G\275\334+\326=\242:\256\275{o(\273]U\201=\345U\033\275l=\310\275j}\365=`\304<<\375T\017\275\321\022\315<\232\323S\275\034f\226\275c\003\301\276\347\300z\276\360\266\343=c\272\230\275\"\223\203\275~\241\"\275\007\266\261\276\330\366]>DR\256\276\216\256\366=\037%\003\275\030\241\225\277\217\270\246\275\263\344\t<k*\007>Z+\247\274\307\365\212=\357\270\311\274\314P\240\275\r-\231\275\202\233.=\021\373\010=7GW<\005#\324;\031\254\003\275\'Z\256==\205X\273\027j\370\274\002G\323\274n2\266<\262\024\277=\034\243\324\274m\312\005\274\362\233\357\274\262\312\211=\237\212\004\275x=\007\276\304\034A\275\377\256\023=\021s@\275\202\222\221\275\366\316\212\275\013\302\304<\272\311\325<\255\005\\=\003\352\371<\357\003\312\274\2704\276\274\202\006`=\337\325\210\275\264\250a=\343x\246=Ej/\276\260o\257<*R==\nL\270\2753j\006\275u\312\246\275!\236\342=\226X\257=\327\313\274=\271p\323\275\302\023\327\275\010\023\366\274$X\313\274\260Q\027\273\207%\306<P\207z\275\003~b\276\027k\352<\311\\\002=<\371\024=8\365?\275\301Te\275\013\004h\275\377L\262=\004\325\025\276\222\262w=\247\246\335=\254\177\344\275\024\207\022=\204\006\255<\300,\226=8\t\273\274L\331\245=I\311\001=\367\357\020=\323\303\246=6u\261\273\335\313\002\276d\354\203\273\017\235\013\276\rP\245\275#\256\346;\013Nz=\335\351\020<*\364B=\035\006D=\310t#\276K\231\036\275\217\200\347=\261\370c;O\336\337</C\021\274\240\245\363\275]\330Q\275y}\274\271\201\367\275\275\237\016\031\276\275g\224=~\250\252\2750\375<<\224\331\372\272y\"\034\275\023;\032=\376\372O\274\036\2253=\214#\r;&\017!\275\317c\355\275eC\304\274+\251\215\2756\212\255\272\000\327\201\275\325\215o\274\351\275*<%B\027>\364\234r\276\r\303\236\275\245\274\275\275\362\343{=B\256\264\275`\226\264\274\275\315T\274B=1;\306>\322<\335L\265<\254k\355;\202i\350:,