node {
  name: "input_1"
  op: "Placeholder"
  attr {
    key: "dtype"
    value {
      type: DT_FLOAT
    }
  }
  attr {
    key: "shape"
    value {
      shape {
        dim {
          size: -1
        }
        dim {
          size: 21
        }
        dim {
          size: 1
        }
      }
    }
  }
}
node {
  name: "input_2"
  op: "Placeholder"
  attr {
    key: "dtype"
    value {
      type: DT_FLOAT
    }
  }
  attr {
    key: "shape"
    value {
      shape {
        dim {
          size: -1
        }
        dim {
          size: 2
        }
      }
    }
  }
}
node {
  name: "model/conv1d/conv1d/ExpandDims/dim"
  op: "Const"
  attr {
    key: "dtype"
    value {
      type: DT_INT32
    }
  }
  attr {
    key: "value"
    value {
      tensor {
        dtype: DT_INT32
        tensor_shape {
        }
        int_val: 1
      }
    }
  }
}
node {
  name: "model/conv1d/conv1d/ExpandDims"
  op: "ExpandDims"
  input: "input_1"
  input: "model/conv1d/conv1d/ExpandDims/dim"
  attr {
    key: "T"
    value {
      type: DT_FLOAT
    }
  }
  attr {
    key: "Tdim"
    value {
      type: DT_INT32
    }
  }
}
node {
  name: "model/conv1d/conv1d/ExpandDims_1/ReadVariableOp/resource"
  op: "Const"
  attr {
    key: "dtype"
    value {
      type: DT_FLOAT
    }
  }
  attr {
    key: "value"
    value {
      tensor {
        dtype: DT_FLOAT
        tensor_shape {
          dim {
            size: 3
          }
          dim {
            size: 1
          }
          dim {
            size: 64
          }
        }
        tensor_content: "\276\r\351\273H0\373<\250x\265=&\022\275=O\025\266\275\023\254\320<\265|\347;\331\221\230=-\246\202:}\367\215;7\372\324\277\320^\233=g\346@=\210\n\002\275(\225\257\275\024x\306\276\205\0104>b\333\250=\206\370\001<L\316\003>H\2630\274\215\365\214=\242U\233\2776\007\317\275E\233\030>\237q\325\276\207\037)>BJ%\273\314s\"\276r\005\030>\245\0377\274\211P\245:g\2746>\303:[\276L&\271\277\2433\210\276Qa\301=\214oo:\204\315\264=i\"\275=zR\252\274\240\\\227<\305=?\274\221\243\341=\337\321q\274C[\026=Z\310\014>\037\311\217<\312?\275=\235\374z\276\334\236\016\276!\272\376=\216\277\006\276\332\305x\275|;\021\275\311\004\033=\201L\247\272;u*<<\210,\275\316\263\002>\003\315\252\275\206f\202\275Q\200\213\276HQ\021\276m\355\317\274\033b\023>\212\300#\276_\326\360=\315\337\317\275\274x\\\274e(\230\2737\231.<\\u\377\275\333T\020=c\311\250=\317\002\232=\252A5\275\\*\343\275\211\026\360\275\337N\257\276@\374\332<KE\272\277N\342\342;\217|\"\276\312\250\343=\355\002t=\0030,>\n\223h\275\352\301\332\275\374\025\203=\217a\300\275\254\204\252<\342S\002;|\325e\276\327d\220=k\343\030<C\345\335\277]\255\033>\211Q\317\277\252\216\342=F<a==-\210\273\366~d=\345W\341=<t\366=\tj\026>\n\331^\274\355\3652\276\264uw=\'\272\361\276G\251\006=\321\371\235\277_\220\344\275\377\350:>1\362\034>Mb\277\277\300\240X\274\300Nn\275\207N\331<\255y\341\274\260\257[<`d\247\274y{\227\275c\250(\276%g]=\357\322\354<\235\002B<t\"#\276\200\\~<s\204\223\277\350\377\331\274\333\250X\276\260\252\357\274\005\0367=\327z\244<_\335\335;\315\202\356=Q\035\004\274\347\207\230=\231Q\302=(ZE<T\374\004\275\3602\355\274\350~_=J%\271\276,G\321\276\352\325M\274*\234\330=\021D\213\276\354\365\245<o\033\034\276\340y`\274\036u-\277\265l\220=\361\033\236\277\212\313\253\275\2601\353=\215.\340\276^(\236\275\221C\345\275\227\211\205\277V\325\210<\t+h>\357\033\005=\024\335p\275&9\320\273\333\221\006=\214i-\276\332\371\010>i5X\276\265\356\277;\230\225\247=\025\214\360\275b\017\264\276F\267i\276-j\234<\345\345A\275\274\216O=\317\003\374\276\035i:\276H\002\t\276hK\036\275s\r\356\274&-M=@\221.<\207\362-<\266)\320;_\212!\275Y\371\353<Z-\016=\3551\023>\340\230U\274"
      }
    }
  }
}
node {
  name: "model/conv1d/conv1d/ExpandDims_1/ReadVariableOp"
  op: "Identity"
  input: "model/conv1d/conv1d/ExpandDims_1/ReadVariableOp/resource"
  attr {
    key: "T"
    value {
      type: DT_FLOAT
    }
  }
}
node {
  name: "model/conv1d/conv1d/ExpandDims_1/dim"
  op: "Const"
  attr {
    key: "dtype"
    value {
      type: DT_INT32
    }
  }
  attr {
    key: "value"
    value {
      tensor {
        dtype: DT_INT32
        tensor_shape {
        }
        int_val: 0
      }
    }
  }
}
node {
  name: "model/conv1d/conv1d/ExpandDims_1"
  op: "ExpandDims"
  input: "model/conv1d/conv1d/ExpandDims_1/ReadVariableOp"
  input: "model/conv1d/conv1d/ExpandDims_1/dim"
  attr {
    key: "T"
    value {
      type: DT_FLOAT
    }
  }
  attr {
    key: "Tdim"
    value {
      type: DT_INT32
    }
  }
}
node {
  name: "model/conv1d/conv1d"
  op: "Conv2D"
  input: "model/conv1d/conv1d/ExpandDims"
  input: "model/conv1d/conv1d/ExpandDims_1"
  attr {
    key: "T"
    value {
      type: DT_FLOAT
    }
  }
  attr {
    key: "data_format"
    value {
      s: "NHWC"
    }
  }
  attr {
    key: "dilations"
    value {
      list {
        i: 1
        i: 1
        i: 1
        i: 1
      }
    }
  }
  attr {
    key: "explicit_paddings"
    value {
      list {
      }
    }
  }
  attr {
    key: "padding"
    value {
      s: "SAME"
    }
  }
  attr {
    key: "strides"
    value {
      list {
        i: 1
        i: 1
        i: 1
        i: 1
      }
    }
  }
  attr {
    key: "use_cudnn_on_gpu"
    value {
      b: true
    }
  }
}
node {
  name: "model/conv1d/conv1d/Squeeze"
  op: "Squeeze"
  input: "model/conv1d/conv1d"
  attr {
    key: "T"
    value {
      type: DT_FLOAT
    }
  }
  attr {
    key: "squeeze_dims"
    value {
      list {
        i: 1
      }
    }
  }
}
node {
  name: "model/conv1d/BiasAdd/ReadVariableOp/resource"
  op: "Const"
  attr {
    key: "dtype"
    value {
      type: DT_FLOAT
    }
  }
  attr {
    key: "value"
    value {
      tensor {
        dtype: DT_FLOAT
        tensor_shape {
          dim {
            size: 64
          }
        }
        tensor_content: "K\354\255\274u\316\340\274r\342\327<\361I;<\000\000\000\000\022\225>\274\324\027\335\274\342\177\323;\n\220\024<\"\034\"\275\002\364\233=7\t\376\273\230\321\242\274\000\000\000\000\000\000\000\000\333\347\215=\364\214\214<\256\3438=\021y\204\274\2429\237\275\336G\'<)}>\274\332<\377<\000\000\000\000\333\204D<\223\230\316\273\274\305\374<?\202\265\274>\207\220<\255&!\274\207\271\035<u\244D\274:\370\332;\247\374\215\272\214\342\245;\201\235\225<\037\3468\274l\313&\273\001\027=\274\224\203k<\275\377\034\275\346\3411<|0\337\273vJ\007\274\236~\230<\201\367w=b\n\236<\232\263\214=\230{\024<\3149&<g\322Z\274\321\216e<\000\000\000\000\000\000\000\000\312\253\352\274\204\021\361;\3523\305\274.\261\255\274\023A\334\273\217\322?<P\210\375;\233Z\022;\326\364\302<\000\000\000\000"
      }
    }
  }
}
node {
  name: "model/conv1d/BiasAdd/ReadVariableOp"
  op: "Identity"
  input: "model/conv1d/BiasAdd/ReadVariableOp/resource"
  attr {
    key: "T"
    value {
      type: DT_FLOAT
    }
  }
}
node {
  name: "model/conv1d/BiasAdd"
  op: "BiasAdd"
  input: "model/conv1d/conv1d/Squeeze"
  input: "model/conv1d/BiasAdd/ReadVariableOp"
  attr {
    key: "T"
    value {
      type: DT_FLOAT
    }
  }
  attr {
    key: "data_format"
    value {
      s: "NHWC"
    }
  }
}
node {
  name: "model/activation/Relu"
  op: "Relu"
  input: "model/conv1d/BiasAdd"
  attr {
    key: "T"
    value {
      type: DT_FLOAT
    }
  }
}
node {
  name: "model/conv1d_1/conv1d/ExpandDims/dim"
  op: "Const"
  attr {
    key: "dtype"
    value {
      type: DT_INT32
    }
  }
  attr {
    key: "value"
    value {
      tensor {
        dtype: DT_INT32
        tensor_shape {
        }
        int_val: 1
      }
    }
  }
}
node {
  name: "model/conv1d_1/conv1d/ExpandDims"
  op: "ExpandDims"
  input: "model/activation/Relu"
  input: "model/conv1d_1/conv1d/ExpandDims/dim"
  attr {
    key: "T"
    value {
      type: DT_FLOAT
    }
  }
  attr {
    key: "Tdim"
    value {
      type: DT_INT32
    }
  }
}
node {
  name: "model/conv1d_1/conv1d/ExpandDims_1/ReadVariableOp/resource"
  op: "Const"
  attr {
    key: "dtype"
    value {
      type: DT_FLOAT
    }
  }
  attr {
    key: "value"
    value {
      tensor {
        dtype: DT_FLOAT
        tensor_shape {
          dim {
            size: 3
          }
          dim {
            size: 64
          }
          dim {
            size: 64
          }
        }
        tensor_content: "ZV\252=\253\017L=\257\264\215=\r;\210\273*\307\212=\025\306\370\275S\325\376\275\301!\211\274f-\315\275\225\350\030=!e\312\274\331\226\337\275\206E\n=\0337\220\275\"S\341<[\032d=\013\270\031\275(\325\213=\2748\307=\245;\363=\366\017\354=\342\n\214\275\030\304\206<2\350*=\374\177\240\275\342?\n=\023g\204\275k\211\000\275\371D2=\\o\006\275\327\235Q={\033\001\271\023\036\266\274\311F\263=\347\273\010=\035\346\363<\005\367\320\275\026\254^\275\320\2565\275\304\242M=\276\316v=7;\322=V\376\273=\355a\001\276\333\317\211=k\255[\275\312\320\336\274\232N\341\275\207E\247=\013\017\212\273\240Y@<\300\267\257\275\253\211\260\275T\321\226=\272\013\200<zF\313\275\035\253{={/\245=\343i\241\275\007\022\324=\252\330\305\274\0048\327\275\025 \243\275\230\377\230\275JV\217\275\206])>8k\252\275\\\231\201=\375V\274=\222~!=\207\264\205=X\320\010\276\316\255.\276C\217G\2767\351->G\253\255=\205\035\352<\036z\325\275?\224\237=u)\215\275\353K\036\275\207;\301=\337\251)\276\216\274\324\274\316\204\227=\356E\022\276>ze\276^\2445\273\357\220\354\275\225\245\005\275.\323\337\2758RV=)\372A\276\210Va\274\037\366C\276\200\2655=\005\333\251\275\226\3228\276`\337\230\276j\274\005=\213\220\177;\200\200\007\275\230]\323<n4z\274\327\361\022\276\366\372\231=Y\2554>\255\2640\275\342AL=i\335\305\274\357\234S=\2175\025\275\276T\213=%#w\275M\311\326\275\370\365\342\275\276\252\361\274u\357C>`R\253=\262\275F\274.\352\004\2768|\t=\217t\304;\031>\234=\207p\027>\375\215Y\276\352\301\310<\257Jt\275O_\247<\177\036\205\276\227<\"\276i\274\254=\353gT\276\230\243\000>\372\002&\274d\025\355\275uV7>\360\332\203=\222/4>V\201\277\275\276\300,>K\263\374;\023\330\272\275\237\216\252<\202\254\000=\325\354M<\270\020\240\275e\032\210\275\342I_=\214\007\256\275\373\335\226=\321\337\316=\202\274\317\275\\0\217=\266\360\353=\305c\243<\374\017u>yC\307\275=Z\030\275U\277f>\r8]\276d\323D<\227\343U=\322\201 \276\354\355\314<\246\267\n\275I\t\373=t\022\007>\266\336\255=\026-\367\275\031X\336=\326]\220=\325\351\335\275\305|\025<\340\242\263=\233[\251=\347\222\035\276\357\214F=\377\262\246\275\240\372\363;]a\354=\033\313\224\275\360\000\300<\023\004\004<}\375\215\275\306(V<N\213\250=\305\265\260\275\034(b=\\\3208\273\371\300\024\274k\331\275=\025\223\240</\003\320\275\256F\273<\240\375\242=\177\220\210=6\243<=\254\300\217=2\202\316\275\352\256w<\364V\304=8\241P\275\2771\237\2754\253\343\275\202\035\263\274\355F\021\275U\215\026\274\357\030(\275\277\213\275=\256\302\027\276\346\004\216=\325\255F<\303\201\367\275C^#\275\223\301\003\276\005\261J\275\375\230[\275B\213}\275|u\254=\177\202\273\27498X\275\247\372\370=\254g\305\275\300o\242\273\210\206\242\274\227\267\n\275\247\362\002\275\274\226\262\275\016Q0\276\002X\037=\206\205\224=\371pv\276\037S\251=\322\314\322\275\327:&\274z\005\365\274b{\033=\264\233\343\275x\306\000\276;yx\275\225\033\370=@\007\231\275\010\314\207=1\233\"\276\3627\270=\3203\374\275)TS\275\307\370\250:\270I\232\275\344e\211\274jc:\273\022\026\206=s?\271;\2519 =\004C-\276\340\005\267=\320G\201<\250J\227=\034u\216=\300V\276\274\270\313\320=\340\260\325\275\220X\'=\350\231\035=\224\236\303\275 <t<0_\322=\200+*\273\220\\\334\274H,\370=@2\006<X\272\376\275 \225\234\275\250cv=@\240\216\274\000}\251<dq\333=(\264g=\370H\315\275H\037&\275`Jd<\000\035\355<\000\353\363<@\332\260\273\200\205\016=\240\211\236<D\211\370=t\347\240\275H\214\224\275\360\010\324\274\320[\257<\030h\t\275\344\014\325=@\'\211<\370\211\302\275\220\301v=\010\266\300=\010\372\313\275\264\373\367\275\250\2516=\260\022\256<\200X\310<\340\336r=\\\246\324\275 \0210=,\241\265=x\254\210\275\000[g\275\244\236\240\275D6\242=$\354\340\275Tp\360=@\002e=\250O)=`\275X\274\\\017\377\275\360\005}=H\006i=\230Bj\275\271\264\236</+\335\275\223<w=\t\023\023\276\377q\230\275&f\215=\007\030\262\275\365\360\032\275\270\014]\275\210\200\021\276\23470\274\356\'\3549\346\013\247\275\364\300\234=X\253\351:\345\025$=b\037\023\276-\276\227=\262\366\262\275R\273\005\275\261\177\225=U,\242={\224\t\275\217`\231\275.\247\341\275\356\325\250=)9\230\275G\375\005\276r\033\025\275TH\344<\200\266\037\273ymh>H\217\364\275\2278T<\220<N={8\203\275G\244\025\274\235\006\316==\0105\276\225\005\232\275\346\204:\275T\317z=\017\013\250=>\2712<\275^\347\275\'\243\006=s\004}=4\342T\276\246\\\250=\256\234\207\275\036\211\237\275\322\253\225\275\241\277\177\275\226\005\263=ei\222=6\272\007\276\261\025\\\274\301\372\256<\024zU\274[\010\252\275\354bQ<.%&\275\030/\306\274<m\027\275\225\201\213\275\036\315C\275t\350m=A\222\033<\013\335\005\276\253\271\346\275\201\250\243=\363\3541<`h*\276A\221\370\275\372\272)\275\327\002\353\274\200\230\032\276\306\266\271=\033\264\n=\305\211\232\275\003\345j\275\204\306\203\275\313\300O=\275\270\305=Fk\001>I\343\322\275\361\013\363\2753t(\276\222\301`=\367\207\276\273f[\035=\301\335L\275\035Q\226\275\254\300&\272\362\217\036;h)\354\274H\r\215\275G\021\002<\275\333\200\275\375g\253\273\252T\237=\234c>:K\276\264\275`\0072\276\204\230\020=\207\233%\275\234rU\274O\371y\275}h\\\275o=\224=\200\233\266=\377\223\261\276\320ZD>\350\233\343=\333\037\001>\242lD=\273f\221\2750r\256\275\013\340\t\2765\316\337\275HJ\034\274\341\327\236\275\330\373q=\017~\345\274C\261d=N\002\361=>\336\034\275\014O \2761\320\243=\024\235\357<\257\235;\275g\360\343\2752~\003\275\312[\307\275Y\233\310<\371\356\005=\264\317\335=\0046B\276\177\212\276\274RQy\275\031>\017\276T\242\202\274\007\254\232\275\006@\364<\300i\014\276\022fe=\253\332\341\275\207y\217\274,\027\223=a\242%\276\177F\361\274h\235U\275tc\251\275\327\362B\273B\327\253\275\0360\316=d\0021\276\002\201\314\275\321\022\371\275\271\006\211<\273f\225\274\255\307F\275\006\260x=\243\010\027\276\t\203\n>\371\224C=\303o\316\275T\231\272<\334\312\316\275X\277\217<\321s\217;\203\330\241=M\177\370<\277\336\016\274\272\016\212<\232[H\275\004U\300=\254#\025>n\204-\275j_\370\274\341A\263\273\256\253\355=c\210\322=2\274G\276Z\343}\275+\004\267=Jr\013\276\355\201\217<\013\025\016\275\240!\020>Z\032\265=\313\260\242\275\030Y\234<\221\346\373;u\236;=\031\036\355\275H\262\261<\335\306H=-\317\332\273\221\036\022\276\t\3541>\256\227V=\247\024\026\276\004\331\026>Y\226\">k\375\317\275\312wc\276\361\277\251\275\331\363\260\275\304\300\263\275\313\302\310<w\236I<k&\020\276>k\271=\266\224\000\276\305J\325\275\345\032\373=\220\374P=\267v\215\275\276\307\244=JR\210=PV\323\275=y\340\273&\277~<\320\264\333;\030\271\021>\260\336\330==j*>1\340\t\276\024\'\276=w\236\336<h\330\241=:E<>&\3426\274_\271\376\275\2607.\276\377<T\274\000\345\302\273 a\245=\220$\277<P\203e\274\214\250\370\275\314K\002\274\021J\273=\353\356\261\275\266r\203\276\020\227x=\216\260\327=\227\225\324=H6w\2754>\310\275\317p7\275\355D\032=\026m,\275183\274\303+\000>\372}\300=\372\r\212\274m%\363\274P\213J\275r\213\005<\213\024(\276z0g\275\262W\224\275\267\360\275\275E\252V=\215-\207\275R\320\032=[\250^\275<%\267=PEu=\224U\001\276$\361\001\2757SZ=3_\025=\345\204\342\273;\255\251\275^r\014\276 \355\014\275\303\207\277=\337\332P<\177\224_\275H\250\236=VM\013=\271\325\037\276\234\263\312\275-\373\366\274\355\372\254\273h\303\017=\305\355z=\344=\302<T\200\372\274\226\364(\275\212\346\272\274\205/\007\276\321\005\000\276\341\227\364<\036V\027=0\314\221=M\325 \275\014\247\021\275t\377\035\275)\261\347=\244\005$\276>\267\301=\272\214*=\203#\211=\375\334\013=\362Jl\275\310q\302\274\314(R\275(\302\315\275\322\205\225\275\230\2711=\310=\276=\333\373A\275E,\322<\267\317\000>\254\314\374=\332\214\210\266\016d\334\275\031\'\263=U\325?\275\362Z\211\275r\352\\>\224\t\236\275\256\243\014\276?1\212\275r\201\r>x \321>\325\257\247=o\241\306\273\2676\376<s\233\316\275\024\266\261=$6}\275\265v\200>\343\332\320<\366!\234\276\352\233\340\275Ch\\\274\243\247\005>\376\034\317\275,\255%>X\226\204\275\373l[\275A<\304=\335\372\200=\334\357\367\273\201#\314<\270J\237\275\247V\300=\'\373\370=\01634=Bx$>E\306\026\276o\221\326=\225\nE>,v2>\n\260Z>r\265\325\275\226+\000>\326\037\252\275O\356\250\275}1w\273\221\220&>\256\301\254\274\3335\033\275\314/:=>4:>\033\273\330<Y\243\370\275\253\322\010\276\211f\362\274\031\336\226<zG.\275\216s\244\276\367F=\275>\275G\274\343z\'=\201\265\t\276\343\"A\274}\033\373\274kQ\333\276\027\2406=\274\242q\275uE\n\275_\023\205\275{o\274\275X(}\276\027\277>\276\210\016\255=\rEL\276\217o\331\275\203,\220=<\203\334\275`\337\276<\214\252\223=P\302\253\275\201\302\004\276=\003\261\275\342\230\361\274\336\006\337<\256I\200<hPA;\017\357\362\275\005\216\225\2767[[\275\334/\275\275\241\263\215=\'\003C\275\273\303D\276\006g\256\275\362S\234\2753S\302;\304\304\205<[7g\275\3272\000\276\t\272[=\266\266\001\274\t\236\021\276\0014_=}\211\375<\312\322\005\276\303\221\254\275\326\300\215\274\001\003\216=\000c#\2762\376\300\273\034\214\005>e\354\023>\335k\214\276\334\361\032\275\212F\022\275R\030\'>\355p\022\275\332#\345\275\223\253\225=\214\340\320\275+\327\016=\017.\302\273%\275\271\275\224+\242;\246K\340\275\210\340*=\263\302_\275\252\255\207\275\223\366\354\275z\260\232\275r\nh\276~V\364\275s\207\314\2741\357U=wZ\203=\302\250\340\275\212~7\272\230\240+=\210#\200\274Zg\270\275\352\014\200\274\322\021\203=\024B\273=:\326\246\275\324R\224<m\000\351=\351\356u\274t\276\327\275\226QH\274\220p\245<\372\341\206\275\276\241\022=\0250!=\276<\334\274\362\245g=\352\314\353\274A\020e<p[\322<\347\236\331\275\260\326\341=w\025f>w\254C\276*\313\224:NB\321=\343\0250\276bZ\023>\303+\212=\220\010l;\342\260\323=\205g\231=>\203\222\275\213Z%=\236\367\367\275)\360\355\275\242\305\312<\360x\230=#\325\254=\364\252\000\276\027\253-:\260\016\333\2753p\357</\360#\2754\004\261<\320\233\371\275Dkw\275qX%<\024u\272=[\177k\275\2471\375\274\325\320\001>\032\236v<\005\363-=~u\272\275P\004l=\340\201~\275\240O#<\300\n\347;,\025\243=\300>9=\000\247;<\000\005\200<L\235\344\275\200\351\"\274\364/\343=\330\316\333=\370\300}\275\200\241\311\275\360\352I\275L\261\325=`M;\2740\243\252<4\300\346=\310\315\317=p\220\336<\220\220\306=P\177\371<@\256\207;\200\204\027\274`l\211=8\206;\275\230h\313=\2003\026<\000\372\265\2730a\n\275\230z\375\275LC\333\275\300\201\"\275\344\257\250=h\031\367=\200qB\275\200\335\257=@\036\367\273\234\361\276\275 \364\027\274t\014\274\275p\025\302\274\324\205\222\275\320\273\005=\260n\330\275PF9\275\344!\327\275\000i\364\275\024\307\254=\374O\316\275\020\000\267\274P\336f\275\334\264\262= \346u=\204\377\226\275\240l\235\275\374\033\317\275\000\33099\370\2700\275({Q=\344\313\240\275\224,\314=\020V:\275\000K\357\273\340\277\340<L\\\255\275\340\202n\274\360\211\014=\2205\024=\240K\314\274\260\033\033=\000\252\r;\300&\222<\254\"\374=\374\277\270\275`\025p=\2002U<\224\343\221=\310\377n=\224d\332=\264\247\326\275D\023\231\275\300%\250;\240a\321\275x\236\323=\030J\243\275\240B\257=\\\353\316=\300\006\000=\344\000\352=@\251}<\200\210a\274\020j\252\2740\235%\275\344\230\266=\004:\325\275Pf\276\275(\216B\275H^\033=\200\372\250=\360\311\207<\260\341\264<\320\276\305\275t\263\255=\240x\326<\340Q\265<\004\010\335\275\340\"\256\274\270\322.=\000\204A\275\250C\017\275\310X?\275\370\306o=\210q-=\240\231\245\274$\310\263=`\243\312\275H\214|=t\034\333=\340\001i=p\2260\275\324s\361\275\200U:\274h\375C\275\344\026\274\275 %\326=h\241k\275q\316\227=\266\217.\274Q\004\353\274\177\374%=\333\257]>\204z\256\275\270Wc\275\034S\201\275\360\312+;x\344\002>\031\"\363<\215\317\004=\232h\354=\261e\025>BgF>$\241M>c\370\205\276\366z\177<(\\\305\275\236\034\206\276\316/\211<\303.\020>\"<\377\275:\007\001>7\317\226\275$4\332=\232/\377\275\002Z\323\274\243;6>\221C\231<\034@\007\275\205\270=\276\266\352\\>\001\253J\275\310\036\237\276*i\232>\327\257\362\276\243w =\257\213\254>\026\242p>9\341\244\275\307\355z=d\244\026\276\215\212\327\275\264\r\206<\365\215\'\276.\377\227\274\007[\225\275\370?-\276tM\014\275p\270O>|\271\303\274v\002\270\276\323\0316>i\213r\273\262\313\036>j\362\002\276\211.\307=\316\027\216=\257\213N;\361\3544\276\250\035t\275\376:\375\275\031\306\t\275\205q\314\275\'8e=\021\233\n>\342\356]=\326,\010>\205~\375\274(V\233\275je\315\275X\375\315=R\234\301\273\031p\357\274\311\317\361=9\317\302<\316\022\371\275`Z\014=\224\220:>us\030>\373\374\220\274(\206\033\276\375;\020\276\244Gz\275\237<[\275\250\002\023>\210w\225\275\243tN\275DE\303\274\357\310l\275[\315\244=tH\323<ao\220=\371c\360=\0278\200\276\224\332Q\276\016\350\030\275\341\246\322\275\252\311\301=\n\335\330<h\361\341\275_\303\002\276Gp\336<$\177\356\276?wr=\033\336\201\274{\256\344<\003\357c\275\014i\276\275Kw\253\273.\026\"\276S\237\033\276\335\210\020\276w\363\216=\273\315<;\226\306\227\274Dy\370=\340\376\320\274EB\227=\265\1779=\263 g\275\262\236\360\2755[\275=p\275\341\274_v\004\276Io\035\276\320:\031\277\306H\250\275\274\277\213\275\006c\252=5W\322\274\263\007\211\276\016\326\304<}D\313=\265\322{=\215\316\t<\237\030\027\275%^\357\275\'o\320=\351\321\326\275\351\016\365=\34069\2764\035\341\275\006\311\262\275\022w\017\276\\_\244\275\201o\205=s\247\265=:r\227\2747\025\001\275t\302\277=\027\241\260=6\222\254\275>+\205<\314f\250\275a\t\263\275\307+\300\274I\274D\275c0\277\275ZZ\365\275\265&\224>\244d\266=\260\323\263\275, \335<<g\001\2757\243U\275\333\362\272=\352\206\350\274\223uc=\314>\003=\343\314\302\274\037\2760\273\352e\273<\243\027\205=\234Y\253=\245|\"=\203 1\276O\310\241=\232\215\320={\266\225=\007\027\357;\300c\316\274\243\t\227=\021\350\347\273\244\373*\275\255\'\327\2753\201$=\211\200\367=6\037j\2742E\014\274#\363\317\275\234\336M\273_\255\244=\200\241\201<\006\322l;\367\377\t\2745\256W\275\207\2479\275q\252\230\275\265\200\002\276\305\254\271=\rd\367\275D\014\021\275\325+\367=\315R\020<\300\023\270<m+.=\031\234\263\275\374\024\033=\007*\276<:\336q\275\336\267\317=\\\257\312\275\r\346l\275|u]\275l\240\223=Rk7\274\217\r\274=\376\350\373\275\004\211B<\3759\207<,\370p\275\220\256\214=\337\331\352\275e\267\342<\367\302}=\206\277\322\275n\331\236=V\311\344<\200P\351\272\"\2111=\315\n\014=\335\300@=C#\217\275\241\214n=\247\362\230=\241\342\217=\324\346\301=\n\306\255\276mE\273=\033~\341<~\'\261\274\014l\003\274c\005\233\275\233\367R=\250M)\275aY\234\274\366\326\202<\272Y\305\275\266&\242\275\272\035$=\217w\264\275t\313\207=\25608=\237\342n=\036=\350\274Q\003\215;\271[J=\353c\357\275n\222\217=\347u\231\275\314\302\347<w\305\264\275\344{P=?\r?=^\003\\=\376\025k=\342FL=\353\217\000\275\264\347\211\275\210?H\274\022\273]=\370\335\365\275\013\376\\\276\371*-=E\226\002\2767|R\276\033`\030\275\357\252\377=\005\234\215=\332\014\200\275\245s\362=\020` \276\\\241\301\274\335\224\202\274-X\003\276\013\307)\276\274!\257\2736}\2639\221\016\031=\027\371\306\275\236.\231\275\304\324+>Vz\010\276\317\206\021\275\355\036A= p\315=\024\034\016\276b[.>6;\240\275\276!;\276s?\257\275\014G\035\276\340Y\021\275)\357\352\2757\333\006\276.\033:\275\230\346\253=\211\265g=p\025\022\275\360\033s\2752\367*=0\022T\274?/r\275q+v=9\215\217\275\3242\003\275\032W\314\275\206\t\234:\231b\000=\266\273G\275\376\036\225;\037\263\324\275`\222\211=\277f\305=\217_\214\275\033\247\233;|\350h\276LG+\274\347\004\317\274\333\1774;1\2244>D\321?\274\2711\374\274?\204\000\276\310^\016\274R\010f\276(\000\225=\350\362e=m\370\227\275\025N\003\274\314\261\212<@\365\211=\204X\311\274\241\237\271\275\305\017\252\274\235\223\225\274\323\277\346\275h\262P\272\222\3127\274\031=^\274\355\"?\275\321g\007=\203\264I\274\034\340z=\n\266S=B\237)=\266H\024\276\004\271\350\275\\\316\271\2742#\257\275\254PL<\032\2270>cG\202\275\322\233\306\274jm\004>\367\2548=\372\275\000\273\362!\r\273\221\324\270<\307/(=\000\027+=6m\344\273\204\225\215\275\362\323\001\274+p7>\222\226E\275\344\367\335\275V\350\274\275\301h}\275\017\250\277=\275\217.\276+;^=\025)\306\273\356C\250\275Gx\033\275\'L\241\275\034\301\024\276)\306\245\274\222\031\243\274\016\032\017>r\262\310\274\025\217\004\276\255b\335\275/7V<\352\304\375\275H\305\316=\016\201\271<l\245\027\276}K\203\275\257\034\255<\314\315\247=\363\032\201=\232{\036>\234u\211\276\377\361 \276\n\341\343\275\213\014\034=\340I\267\275\371(\261\274\343\210>\275\360q*\276\305\260\265\275\270y\357\274\005\210\357\275\333\2176\276\211\2163\276GU\315\275L\237\236\275\341/\305=\343\264V=cd\030\276]:N\276a\223j7RQ\361<82\n>y\210\343\275vk\263=\204\263\245\274\266 \323\274m\223\321\276|4\226=\343p\035=\006\260\333:y\t\271=\002\034\033\274\346\372\356\275\256)?\2756\206<\275)\264\'\275tv\313\274\023\243\337\274\206&\257\275\013 \216\275)\371\013>Gg\027=\347\323\005:\375\357\013\275\277\254q\274\303\325\271=C\356h=a\206\007\276\177\245\003<e\252Y<\327\232\021>\360b \276\371\303\350\275*\3071\276*+\021>y\371\240<;\326*\276\004\007a>\363\035u\276\036U\360=\214\354X\275\227\"]\276\234\016k=\357y\260<\351L\375=\3373\305<\306\361c>\020\013Z=\014\250\225\275\017Z\227;?q\212\276f$w\275\234\345l;\275@e\276\363\250\017>\377\273\226<\370\216\324\274\006\342b>\312\255\225\276z\200\305=\004\335\272=o\355q\275\275\251\370\274H\324\237=q\342\026\276\275:4=\317\360\\=\020\272\"\275E\202\316\274Dl\002\276\271\226E=\355\366+\276\303\010e\274-\312\274<i\017\224\276\327\376k>\270\332/\276\030\023\036\275N\334\276\275\262en=\3401\312\274\243\242L=d&\350\275t\275\236\275[c\256\275\360R\244<H\266\301\276\204*\311=@\305b\275@Me\274\350s~\275@\000K<(l\301=0\306\017\275\360\332\333=\030\304\243=@\215\010\274P\346{\275\240\234\251\275\220\237\270=D\036\234=T\271\353\275\344<\303=@\3331\274\000\346\342\273P;\227\275\204j\231=`\025#=\200\242B\275\010\236\301\275\020\233\346=\014\276\221\275\330gu=\340\214S<@\202\273\2758\005\233=|\036\314\275@\226\350\273xn\030=\314=\274\275@31\274\250\327\245\275\220\t\240=\200\336\021=\024s\276\275\374B\373\275,Q\352\275TP\216\275\014\233\346\275\200\344c=\244*\231\275@]\r\275\340\177(<\360\274\325\274\304<\343\275\200WM;X>p\275\220\021>\275`\331\365<\000\006?:\010\005k=\000\270\213:\2007\266\275\000A\377;\264\242\317=\000C\321:PSd=`rR=\004E\362\275,7\364\275\\\257\222\275\347\000\304\275(\335\000\277\032.\265\275d0\322\275T\013R\276\255$\201=\227\325\023>J\232@\2750e\306=Fg!>X\321\335=r7\244\275\271<Z\275jeG\276W\007\326=\221\031\364<\241A\331\275\277\354\300=8f\235\275\022\256\010\275\230\221\024=]D\t<\212O\207\274\002Y\362\273\010\016\342;o\331\360\274\334\016\024\275-[^=g\370-\275-\002\303=d\330\260<.M\233\276\204:\311\275\r}\024=\320\262q\270[\003\350=T\302\243<\205\342B\276]\021.\276\233\263\r=}F\003\275\223*\200\275\210\347\370\275\374\326v=\357\270\342\275\235WU\275\353\230\364\274\321\370S<\316\025P=\337\3127\276Tm_=v\272q\275e\027\232\275hz\325\274\240\264r<\016]\030\275 U\324=\355\200\361\275\326\310\n\275\024L\004\274\201u\316\275\374\230\307\2756\230\311:\315\360\247\276\372}`=\322\326\330\272N\214\022\275%\020\210\275zUT\275\272Es<F\364\206\275\025\000\277\276\371\003\005\276#t\240=\'\317h>WT\260\275\264\264C\275\206\374\311=O{\224=\301\222\352\275,\030\302=\305f$>\357d\315\275Lx\251=a\010\000\277\276NV>\320d\322\275O\253\030\275\265\244\311\275K\231\327\275\326\231\311\275\250\014\030\276\312\000<>_\221\305=cY=\275\243%C>Pw$>\261;?\275\013\332&>\004\243\013\276\361\301|>\215t\032\275\006\2430=k\373\244\275\325>\032\276_\263\255=f+\212=\265l\226\275@\214b=\355\335\003>\343\304*=\177Ur\275\247\212Y\276\021>5>\261\340\020\276H\246\330\275#\037\210>(PF\276\364g\036\273\256\2777\276\025\033\304<u\247+<\325\267f\273\336D\343\275\013h\323\275<\2034\275\337\333\223\275\365\010\214\276\307=\206\275\005\320\277\275\341i\177\275\235\337\355<N\350\t\276\221dq>\206\211\370=vL\256\273\"\202\230=\200\276\363=z\302\001>\276\235\r\276\027\320s\275\024_\200\275\315\226\332=\316\323\315\275$Y\302=\216?\313\275\204;\371\273U36<\331u\204=\373\205\007=Jsf>\331\314%=\304\375\221\275\036\223P\275d_5\273\347\014\246<\311\333\n\274O\204\342\275Gqx\275\346\210\030\276(\342g\276*\017\277=\0367\213\274\300\356\322;\347\306\\\2750\235\203\275\262vC=\211\313\001>(\355\307=\372,\341\275\257$\301<\212\\\t\275\000k\036\273l\333\030=\310\017E\276?}\321\275\276\223\271<\377\223\"\276\207\351\025=2\352\n\276\271\326\223=\255\257e\276\340\024$\274\003\314L\272\262}\006>RZ\373\275\327E\006\276\260<R\274\201\266\235<\371+\220\275m\373$\275\351\321\344\276\362!\351=L5c\275\013\360Y<\204\212\247\2758B\336=s\363\030\274\274q\277\275i\242S<\340\000\260\275$\307r\275\204Q\342<\333\014\257=O,\251=\030\277\214=\251}\326=\336\017N=\230\030\212\275\013\007h\275\332\223\271\275H\177\202\275\362\236\332=\251\242u<\314\027\376\274\261`\006\276b\223\353\275\342\0252\274G\372f=W\177\227\275\272F\215\272?\303\306\275A\227\004>\332N2=vA_\275\250\213?=\340\256H=\017\272)\274q\n\262=\2345\206\275\276Ht<\177\223\373\275k\346\334\275\362\375\240=\022\325?=Vh\"=\212\345\365=/\364B\275\252\263\371\274\024\320t\275\373\036\271=^+!=\233u\233=D\347\263=/\020\236=\373\245\n>\352k\250=\307\007\210\275i\356\213\274]\024\352<\337\035\262=GU\307\273/\367.=\032\371\206\274D\376\355\273\266\256\373\275\262y\316\275DD\267\275\026]\032\275U\237\231=`\331\325=K\327\203\274i\272\224\276H5\230\276\263\206!>n]\351\274S\252\242=\004\3109=\264w\301=|\233\005\276\237\225\310\275\370:x6?og>T6\023\276g\224\315\275\211O\252\275\360_\205\275\225\356\342\275\253\322\034\276\340~\234=\342\364\366\275\247\203X=6g\010\275fA\261=\207\237E>\316\303\301\274N\326\200\275\336\217\003=-\231\226=c\315B>\263c\366\274\347pc>|\266\362\275\205y\211<6]\001>\302\t\324=\0314a\276-\337r=\221\360\272\275x\340/\275s\033\303= \322\265\275\276\036\203=fW\326=\353\022\321\275\265\351>\276\2344Y\276\307\356\017\276\214\261t=\326\201Q\276\003j6=4d\314=\373\023\222>\240\225\010\275\007\252s:\213\003\307\274\337\333I\275\356\377)\275\332\374\033\276\002@R\275\220\311\220\275(\203\236\276\323\377)>>E\317<\255}\356=\307uj\275\330\250\325=U\246O>\374\002\376=\254=\315;7\322\300\275\036m=>\303q~\276\316\300?>\021;;\276o\2327\275\212\214\224:\300\004r=\346\0220=q-\022\273\'\246\244\275\365\232P\276\361\367\337<\302\335<\275q\353\263\275\243\tg\275\275\014\020>\275\000\313=^\010L>\210+\231\275\273\264\321=I\013\357\274\227x\010>A\025\'>\3720v;\313\2436<\254\205\263=/\345\007\2763:v=Q\371C>\275\024i=4v\212<@}\3248W\361}\275\244\006\222\275\327\305\251=D\006l\275\236\326\330\275\267\220\327=:\036\315=\r-\010\2769\346\031>\336\366\210=\013\010\202>\300\361\322<\343\365\007\275\206\326\203\2750VV\275\210\211\263=7hH\275[T\316\275\236\306\325=\355#\021>\345\250\022\274<\366{=\324\227\375\274\304R\365=n\206#\275\010z\301\274/\002\n\274\010\n\226<H(\357\274\371\255\031\276L\252 \276\2077>\275by\375\273D\203\307\275G\353F\273\306\347t\275ws\022>\rJD=\210\317\032\275\345H\331<\007>\314\275]\375\213\274O=:\275\305\377\200<`\264\336\275\2023\223=Z\306\245=8\330\217\274\361\255y\274+\314\377\274\273\326\232=\213\025\230=\266\354[\274\311T\340=\371&)\276\353\352\210=1\307<\276N\377A=\333\2748\276\230\276y\276f\333a\276\023\3509\275v\'\255\275\276D7=\251_\031=\262cw\275\023\243\363=\363\317\237=\221k\363\275\025\355\002\275\\\244\202=\330\200\272\275\240\331l=\2668\311\274\240\025\356=<\307\001\276=\375\236<W\033\227\274\327\013a\275\277\300\255\275\235\321\331\275\201\310\016\275G\301p>\002\034\257\2750\017\366\275\2641P;\353=\240<;\252\213=\332\234I\275\254k\274\275\363\335!=5\037?\275\034\372:=4\350\014<9\021Q\2758\014\202=v\243\237=W\032\225\272\3266<=~~\237\274\360\233\214<\326\373\207\275;<\304\275\241\014+\275\036\031\206\275\346\366\334=,Jz\275$\250r<;\232\306=&\\\t\276\034f\352\274\322\353\263\275\023\320\210\274\211\0002\275!h\324=2\037\330=_\325\\=Z\211[=S\305\355\275\365\032\t>@\366\261=\032F\364<\260|\014\275\032\221\212\275\377\377U\276n\317\t\274\200\336\206\275g\203\217=\246kK\275\177\315\345\275\365\271\240=\312\323\327\275\366\316\213\275\216\302\231\275VA!\274\367\3433\275\375\276N=S\237\002<\010\211\000>\345\342\243\275\312{G=G\247@>\362<\242=\027>\306\275n9\275\275\316>\r>p\224\335:I\333\375<\217r\330=\237\360\303\275\233\332-\274\330*^>\346\206\324\275\302\360P\276\306\2034>\350\002s>\270\2351>$\333+>\177\212\331\275\313\332m\275\025\347\025>\270g\210=\361\241\372=%#\234\275\317\221\306=\026G5=Fr\227;\037c\337=\260\300\037=\025\254o<R6]\276\216\\\204=\267\322\300=\000\326\247;\021\222\251=\262j8\274_\355\341\274\221\237\376=\344\007\025=\273!\002\276\241<f\276\273M\265<\234\363>>\354\033\207=^\355\007\275\212l\017>\301\277\341\276\342\024\255\275\224\300u=\233\1774<\217\303:=\031K\340=\212\243\310<v$A<\251\323\300<\224C*\275k\247\r=\302\263\017=\322\257\301<n\272\025\2757\3767>\275\336\204=\240\263\";\230`\354=\223\017\010=\240d\310\275\337a\355\275\331\364\217\274\342/\340=\037\257\013>g\034G\275\366\224<=\221\206c\276D\247\235;\306E\217=\031U\263\275\323e\312<q\010~\276(\323\314=\372\300?\275]\351\324\275\247\256*>\211\315\302=\261TJ>6\241|\275\2214\033>N\211@<l\357k=\236\037\233\275\r\363\007>?\026+\275\345.\220\275*\032\366\275\247\307\230\275+j\372\275\211\366\301=\356\242\247=\304/>\274l\n\254<\375\"\014=\210\222\204\276^\222a=^\002\261=\341M\345\274\251\202\267=\353\376!>{&\233>\'\216\315=L57\276\305\205\240\275\032\353x>\346\204\t>*I6\275\000y\005>NC\214\275[m\003\275{2\366\275$\373\377\275K[\264\275FO\376\275\321p\205\275X\353\005\276\271\360\356\275\204\372)\273\363\214Z\276\337\006\260>d#\214\273\346\020\257=u\211\366\275&\344B=\010\361_=Q^\005\275\020\016?\275\237\023<\275T1\323\275<\234\334\274J\251\037>\333\312\321=\002\027\020=\214\335\017>\243`G=\027\344\270>\225v&>\036\353\000\277\374\214G\277\324\373\224>\"\275\260=\010\352j>\021-\237\276\006\251!=\030\330R\276\021c\266=zK\331>\374\033\276\276\342\302\225>\342\234\026>5\303\023\2759t\021\277p\231\314=w8\222\276#\251\370\274i\221*=\321\372\371\275u\366$=Q2,>x-r;\220S\374\274\016-\000\276\207~n\275u\035\325>\023g\357=\037\235\030\277Su{\2761\2521\276+\223\200\276\367\324\241>O\374\227>.\325\201\276\037g\340=\202\330%\277\270\021\215\276kFY\274*@\210=\251\373\334\274ma\353\274\035\377\"\276\327\325\016>\024\245g\275\202m\025>\260m\271=\'u!\275\354m\310\275\233\024X>\010Rh\276 \275\037\274\337 \\=\230a,\275\237\337\324\276\244E\366=rB\352=\240v\t\276\223\3367\2766\016\345=!\207\356\275\241\207\027=\213X\006\276fp\216=K\353\216\274\261\rX\276q\357\265<(3\347=\336U\204>\361\371\262=\231#T>t>J<\346E\373=\333CC\274\254Ej=\370\210\271\275\2055\350\275\357=\007\276s\341k\276\263y.\275N\367\014\276\245\274\362=\327=~=\355\001\362\275\221f+>\205\365\340\275\214M\377=\317\364\226=\210\263j\273H\367\322<\216\3265>E\362U>\271\243\373<Q\031\'\275\030\253x<\314\315I>\305\220\321=\263\220\001=gk\035>\253\334*=\327\261P\276\256\377\n\276\374\261\010\276H\2552=1\005w\275)\367\217<\212\222W\273\031\340\034\275o\215\t=\233\375\206\276|\372\200=\3565U\276cDn=\226\305\250=\2253\237\275\034T*\275\3258\200\274\361\023\305=\2307\263=L\0077\276\341\335\267\2733t&>\222\333\032>{u.\276{rG\275\317\252\200\275\310t\231\274o\021\334\274\264\177\033<3\222A=]\210k\275U\033\214<3\300?\276C\250\003=\325\020\023=\232\336\236<\0345\376\274M\377H\274\271\252\036\276hvD=z\307\365\2721j#\275sC\333=\315\316K\276\311[\275<k\022\260\275XW[=Q\362\354\275\232\036\210\275\021V\204={i\001<\207\352\353\274\024\202\210\275\246\236\241<\201\270m\275R\024*<\306U\325\272\315\312\024\276\025\205\221\275e\025\231=\343J{\2764\\\001\276+\342A\276\026\336\n<\034L\327\274E\266\r=\233C\275;\373\277\327<j\325\264\273\\\255\363\276\033X\242=\'\373\260\272hz7\276\017\211\365=\266\322\231<5\256\262\275@p\202\275\353\247%\276\2367V\276\276\316\370\275\330\242\330<\201P\312\275u\271\333\275\325\365~\273$*\312=*\315t\276Dx[=\251U\232\273=\276\302=\255C\364\274\276i\266=N*\216\275\247M\271=\223A\266=\240\354@=@\245\036\275\362\246\023\276Nn\204=\341M\224=\257\"h=\346[F=>D\207\274Jq\231\275\215\244?=W\242\314=+\331\004\276\233\264\372\273\322]\253=i\373;=\021\312%=.J%;#\343\000\276\322\223\263\275\206\377/=\350V\373\274v\342\213\275\355F\257=\344\267,\275&\315\222\275|.\207=6\311\227<\312\354-=\366n\202\275^\202+;\352\216(\276\'K\323\275.\267\034\274\027\273\370=rOK\274\324\336\230=\t\303\261=\377\022\005=\376\332\366=]U\237\274\346\320\350=,\226\206<\032c\306\274\354\253\377\273\256\237\250\275\351b\345=\232\227H\275\233\361\246\275\367\247\003\275_as\274\362\022\241<\204\022\n\275a\220v\275\355\014\235\274` \377=~\210(<\2303\374\274(^*\275\224\t\230\275,\247\373<\373\327\313\275\365\'\r=\006d2=\003\352\227=^ \014\276\031\373,\276\2400\036\276$\371\250\275\227\256\221<\331\021T\275\265%\206\275\331m\341\275\315{\247\274\342R\227=F\037\010>\333>5>\312\"\364=\252Kh\276K\271.\275\257\242j\275B\341\325=\375\326\363\275\264\215\000\276\324\223F\276o\365\260\273\377\3714=\324\223N\274\007\235\311<74\371\275:\276C\2769E\304=\355\321\255\275A\362a=\213:\265=\336\350;\276^_\t\276\013\250Z\275\025\025\316=\273\275\010>\302\213\337\275\242\321v\2755\001\016>\277j\273=\345\265+\277JB\356=\314\253\027>\240\345\366\275\320\256\367\274\375\375\037\276\255\2453\275\317q\005\275\340B\031\276:\354\323\274<\314\024\275\034\177\213\275,\'\204\275=\020\244=\027\016\202=\270{\335=\210\250j\275H\272\214=\364o\362\275^\013\221\275\226X\256\275\251\\\200\275\317\337r\275\322\273\205=$.\331=\312\211V=#.\231\275\347\336\230=\000\231\272=\252:\313\275\0329\260\275\336\254\317\275d\327\034<]\326)\275\0108\014\275\255\224\232\275kbu=<|\313\274\014p<\276\273\354\261=i\347$\276\336\3135=\321l\241=\352A\215\275\307\003\n=\324\t\343\275\200\360\345=w\243\372\275[\276P<[E\000\276&\t\207=~\020\264\275\302\361\237\275\0078\270\275$\376\352\275\261U\035\276\323d\317==F\002\276;\025\276\275\331\002;\275Y\365\367=\217\225\251\275\035.\303=\215\271\025\275\331M\220\276\'\035\013>&\243\253;e\005\261\275\314\024\236;\026o\360\275\240fg=6y\200\273\224Xx<\023\"\022\275\256\315\325\274$^\224\274\212T\221=|+L\275*\014\006>qe\005<X1\337\275\365\256a=\370\360\240\2749\255e=\355\002:\275\030\220\216\276\220\213\007=\253YZ=\023.\301\275Z\014<\276\263\233\306=yd\210\273\007\213\327\275\020X\237\275\343\326\315\272\031\216\255=(\251H\276b\275\231\275\221\273\265=\3230\022\275\023\223\310=\301\277\027>\245c\343\274*\325\317\274\217\330\357\276\177\3521=\362\323\177\273\237U:\274H6\223\276\325\001\257\275C\345\364<Q\213\203\275\214t>=\304\255\003<\225`\223\2752\221\016=;\0213\276\247o7\276\032\215\264=\2134\000\275\300\227\211<\030\021\361\275\330\313\022\276\330\314\016>\314\252\251\276\0165n\274a\314e=\345R$\276\nP\000\276-<c<r\n*=\211\352\314\275\346\000)\276\016\303\334=\273\031\331\275R!\247=.\036\255\275~\345\277\275S\301\247\275jX0<\374\274\327\275\034\307\023\275Q+\266=\247\014\264<\030&i=!\375\254\275@\357\265=\007\006\031>\314@\311=<\272\003>\032l\351\274\266\220\357\274\r\234(\275\265:\222<\213\"\252\275,\377!\276\371\346z\275L_\256\272RU\001\276,\027r\273\271\277\006>\261\317\020<\305\0172\273\325\024\251=$\300~\2758\034\222\275e\261y<\2470\036=\264\035\\\276\206\tt==\231\203=\034\020\262:)\343\263=%QX<\374;j\275\351`\222\275\357C\373\275\344\357r\275=\366\313<\357\356\361\275\367V\306\275\257b\021\275\033\231\363\275\335 \016\276g\371\027\276\340\253\232\275\014\363\313=\216\343D\2754\007j<\235\250?\275\321B\207<\242\212\031=\360\3720\276\257\320+<\262\026\232\2753V\006\276g\273\227=\016\236-\276\223>\013\275N\023\367\275$\341\235<\333\212R=\266\375\312\275NQ\016=;T{\275\226\372\322\275\021\006D<\347\\\030\275\326\244\262\275\311\205;=\272\343\321\275\241\207\230=\223\250@\275%\345\025=\267K\365\275w\340\000\276\317\020\351\275\031;y=B\203\255=\374\241\330\274F[\235\275H\376g\275;\352\310\275\256\306\340\2752\031\366;w\252\317\274A\336\300=\3268g\275\227|\254\274\002Ez=\001\216\325\275\377F\254\275\315\203\'\275m\014\014=\013m\207=%\3140<gd\002=c\0378\275k\303\246=<\346\377\275\327\203\275=\035\244\206=\231\260\310\275\342TF\275+\000\354;/\316\244\275\357\222\272\275\340D\023<Lw\355=_\230[\275F\277\304;!.b\275\370\233\242\275\350\t6\275\303(\257=}\177D\275\0242,\275s\232\331\274\035\251\267\275\265\336`=\002\200\020=;\315\301\275\\_\252\272\024\014\300\275\264\342t\275\223\n\307=\0229\364\275\037\001\352=D\332\317\275d\264\267\273\322\334\312<\360\323~\275Z!\312<\214\037.>\030t\013>\2403\036>\3069\344\275m\004\322<\226%\371\274\013@\311=\354\304\260\275\316\213\374=W\010\215\275\351\215b\276S\344\224\275\220?\"\276u`\357=\"\\Q\275\340\017\004\276\025\372\357<\242\215\362\274\002\377\311=\373\327\215=\250k\334\275\222\343\246<\303Q\216\275>\367\271\27583\213\275\364\002\251=\010\237\337<\225:\354\275/S\224;\244s\302\275H\\\221<O\334\205=1X\006\276\3265\235\275\362\001$>u\006\313=\313_?\274\274\"\033=#\227&\276\335X\350<\274\354\177>\226Q\214=SK\214=\317!\240\275zE2\275P\375\202\2754_\376=\266\330D\275\342\246\212\275\316\002\035=\220\367\225\274\325\2621>\305b\321\273\304\251\257=\177N\364\275jTh=e\\\244\275\363\270\334=w\005\350\274\203\000\016<)\202\272=U\266\010>\343\320\232=Z\003\017\276\004\234O\275>\266\261\275\207\301\204=\2676\243\275\201\201\233=\036\365\274\275\327\007e=%7\313=}\357\024\276\235\264\t\276\375)\230\274\\\211c\274\005p\254\275\361\312\352\275Not=\203N\330=9\255S=\201<m=\023\272#>m\200\217=\352\021\r=\275&\202\275\300\327(<45\311\274\312\3504\275&U\310\274\007\360\'\275)8\255<\235\212\001>D%S\2756\rs<1\330@<\351\302\207\274\306\203\225<|\362\013<\215Y\362\275\255;\257\275\330]\n\276\376\304\200\276\032\"u\276s0\326\274\364\352\250\275\206\366\270=\366\336\010>+P\326=9\036\303=\347*\310\275B\225\240;q\272\312\275\362\350w\275\005\356\336\275?!3=\350\243\204\275q)\212<\246\227\345\275\206\227\204\275\264\271;=\375\310\300=\033G*;<\035\371\274\304\321\231\274Y\342\222=\005\205,=Y~L=\252\177\204\276*dV\276}DQ\2765\334\370\274Byl\276a\374\016>;\001\316=9@\035\275?\3611\275Re>>\206\266\254;\234\360 \2760Y\351\2724\211\235<\275\336\004>r\342\260\275\033,\204<\004\023\376\275\225\355\263<\225\316\273\274\202\325\211=]`\017>\332Z\312=\374D)=9!\310\273f9\016\275S9\213>\236\332B\276JB\261\275\2541\373\275Z\306\014\273\373\211/>\203\261\371\275J\037\030>\020\375\212\274\030\245\304\275\271\373*\276\375\2309=\373\247\222\275\221\300\324\274\246\005\227\274\224\2047\275\203\245\226\275\357\037[<\326J\036\275\254\035\206\274\307\367\215\275\253\216I=\"\3208\275^\001\227\275r&\023=\204\"\207\276\226{\251=2>`\274h\004\205\275\036_\313\275\302\362\266=X]`\274>\035\272\273\032U\256=\212\357|\274\364\331\013\276\356ER=\243,\265=\362\220\344<-\237\274;\357\000a=\037\212\252<\020S\255=\204\264\006=\"\311D=\353u\263=\256<\202\275\340\020o=\353\250\2449\314\3535>\265a`\274\275\\\333\275\341\373\340=\034\326\351=\313\247\277\272\025f\242=\r\321G\2758\330\253<-\003\"\275\306F\301\275\310\221.=\024\277\213=w\017\213\275+h\367;\320\036\030=\340\315\351=\205\026\307\274\005\315\236\275\207\371n=\2249\245\275qM-\276\224v\301=\263^\007<\267IS=\305)b<g\316\262\275\376\303/\276u\246\203\275\004\256\313\276\374\343/\275J\370\352\274\024\265\354=*7.<\260\'\260\274LR\035==li=\367v\341\275U\3150=3:\273\275\t@\377\274\360(\256=\r\334\305\274\300\261\246\275\013 \333\275^U\t>o\274\343\274bH\306\274\024Q\r\275\3438\242\275}\326\254=\330\337\202\275\3646\310\276\030\376\254=\000\363\267\275\212\321\023>\230O\032=,- <F\000\374=?\211\216=\211\036\000\276\232\326p>\362\251\r>\274|\224==\034\020\276\025\222J>\232$E\275\005\300^\273\331\211@=}\215\246\276\200\257\364=!\022\033\275p\2254\275\r\267}\274u\346\305=\234\350\006\275\352\2248>\320\t\214=M\3105=\306\013Q\276\211\235\221=\340s\t>h7;\27381\030\276\363H\340=\337\313\271=\377d\257=\\\001T=\204H\034\277D\231S\275\002\017\235=\024\030\231>*\304\026>\177z\221\275#\036a\276w\3579<J\371\210\273\031\2333\275)B\030\276\266[\304\275\230\025\246=\216b*\275\331%\226=\347\300\340\275\305\006\246\275g|\236\275%(\031=\310\346k\2752?^>#Q\216\275\177\324\366\275\353$\216\275$\035\327\275\320\3114\275cf5=\275\265\377\274\022\326\330<\010\017\001\275\243?A\276\n\t\340\275\264\177\343\275\336a\334;\311\372\275=^\327V\275\365~7\276<wM;d\244\207\275\225\223\337<\254\222c<\236kb>\376k\347\275\241\224\200=\034\321l\275}H\272=\271\331\312\275\253\310\220\275\267\312\037=\274NA<[Zc\275eFp\273\304U\247\275`F\006\276\314\237\206\272\272\346\001>bb(\275\310R\005>JC\363=\362%;\274\270\303e\275\216\337\032\276B\026\200\274\306\204\235<\021\335 >,\341\275=\201\361\006>\311y\200\275T\272\316<YPj=|\2329\275Q\301\005=L\276\246\275=E\276\275\026f\303\275E\273U\275}* =\371\227\270\275\213m\346;n\371\362\275\010\246\033\2756\301\023>%q\214\275\000p2\275\355\025\210=\231\031k<f\016\223\275%)\215\275-J\203<\035\013\361<O9B\274\202P\253\275\230-\200=\337v\261<Jc\340\274j\366\250\275F\204\203=\230f\005\276\035k\032>\305\274!\274?\027#\276l\325\256=\335\007[<m\\\223>\241\2163\276eH6>\257u\326\275M\035n=\342\354\'\276\267\203/=\022\350\262;\242s\200<\311&\263\275j\221+\276\032\006\014\276S\373(\276iL\314\2756\036\266\275\346\357\025=X\201Q>\271\315t\276\214b\215>\372i\007\276\237#\326=\310L\035=\232\235c>\331\232?>hY\006\274A\355\232=\307\006\306<\221\2151>\372C\215=\324\274 >\324\032\326=\256B\245\275k\177\233=%8\027\276\230\304\216\275\324\227\305\275\265\000Q\276\n\300@\276\352\244\335\275pw\332\275\223\205\252\275v\322\265\276T4\251>~\010R\276\263U\301=\322\306\';:\265\237=b\210\034=?KJ\275\000\366o=`}\036>O\017&\276\224M\333\275\2464\010>.(\347\275\001\025\343\275\026\251&\276\007\361\010\276\030\253,\275\240\270\220>tc\240\275\220\211\216\276\257\374\240\274\215\2672<P\277\026=\231Z>\276Qy\234\274c\211\033\275\221u\353=>\302\004>\361{$=\230\230\225\273\317\234\033\276\034\265\362\275\2044\177=\245\210\250\275\267s\017\2745\020S=\020\212\260\2754/\031\275Ix\000>\343\000\017\276\314\270o=\242M\324\275\362\003::(]\312=Us\306\275\023\000\214=\321\362\245<Y\"\252=\335\266;=\224\n\264\2758\375\004\276K\363N;\364\270_\274T\364Q\275\213\250\223=\376B\025\276\330\030\304\274f\227\225\275\337\236\256\2751\003\235=r\261;\276X\277\350=\221~\332\275\200;\232\275\334R\203=sN\360=\340(\237=f\222/>\225ro\276H\346\374\275t\037\272=\270X\235=\301<\234<.I\217\275s\351\215\275\223x\304=\301\240X\276\335y\032=c\302.=\266&n\275\252\351\200\276\\D\236>\025\364C>6\241V>!\315/>\322\356\013\276\240\241\004\276u\257\034>\352\330\353\275\357=G=>\002\332\275f\210\026=\312%\255\273\255U\275=\373\211\262=\211\331\217=7\023\242=!\274\231=p\321\255<\256\310\354=\034\273\317=[&\327=\337\0220>\370l\236\274j\312J=\361\262\232\275c\327\374\275W\254\276\275\003\016#\276\274\'r>\215\377\007=\3641\n=\022y\275<\360;8\276\313<\036\274|\024\301=\204\256<=Pa\r>\277\275!>\t+\'\275\0207\335\274\025i\241\275\017\245\343=|\343\032=\256\214\023>\370I\347=\313.[\276\323\354\241\273(*\236=1jY=@\030\205; \366l\275\020f\355=\020M\357<\366\003\330=;\213\214=H\225\177=\211\224\252=2r\350\272\206\014\250;,=\217\275(o\276=\250^^=x\t\247\275`=\221\274\350\235_\275(tX\275\230\300\010\275\320\243\204< \001\202\275\000\235z;\364\330\350= \215f<\300U\265;\210\201\236\275\014I\371=\340C \275L?\346\275\2604\357\2748H\304=\220\273\023\275t\230\345=H\"\340\2758Y\237=\200\332k\274\030\267\231\275L\361\371=`\326Y<\200%\323;\250Q\260\275\004\277\217\275\300\367\205\273\310\301\271=\200Mu\274\000\006W\273\344\243\315\275P\000\275\275p\223c=@\226\013<\030\001\206\275\330\031\313\275\020>X= \343\247<X\321\255\275\024e\331=\350(\n\275 \230\244\275\310\030\"=\230\221\032=x\232\205=lC\272\275\270\024\212\275 j<=\000\341\331:h\032\246\275T\367\315\275$\301\233=\340zO\275$\270\235\275\200l|;\254>\223=\3008\371;\000\270\336\273\360:\306=\330\334G=\030S\362\275\240`\330<\220\250\004\275\300\372{\275`\316\314=p/Z\275x\241\210\275\300\232m=\2406\310=\300,\024\275\370\347w\275\200d)\275\030\2108\275\360\352\357<X\243\347\275x\031\376=\250;\205=\330\010\"\275\300\323\205\275\360\210\215<\330\214)=\350o+\275`\340\245=\300\332\201=P\320\261\274\370\002\031=\2205\223<\010\221V=(\307]\275\320\316\252=@\301=<p\363\313\274\260\233\375\274\020\272\345\274@&[\275 \364\355=4\n\321\275P\216\222<`O\030=\320\035\370\275\210\010\252=pNl\275\320I\223=\300\254c\275\300\321\304;\210\n\177=\024\036\314\275\000\257{\274\334\033\372\275\300\375&<<$\355=\000\'\004\274 \022-=\200\233\033<\000_\350\273d\227\321\275\2701\343=L:\324=\364\352\247\275\304\275\207=\200\rK<\300F\201\275(\363\255=\305\315\222<\305<\366=\250\372\376=\264\342|\275\362\361\300\275\266w\212=\312\315y\274&\347\345=\331\274+\275\"\261R\272M\371!;\262\370\014\274\210\326\260=/\001\256\275\022\233\010\275\302\356\014=\"\327\271\274C\265]\275\323#\331=\321w\335<\314\222\302\275\314f\025\276\203\311\311\275\202\2279\275K\004\334\274\327\341\310=\263\240\007=!\274O=\236!\321=\024.\314;\322\262\256\275\324\342\324\274+\010Z=\036\306\333=\374\317\222\275\026Y\243<\332G\307\275D\231\324\274\"%\270<\022\314%;\332q\305\274\032\216\036=\355\335\352\2758lY=br\r=\276@\366=!R\210=\311#/\275\3548\272\275r\022\241=\323\373\211\275<\226\251<]\277\247\275\"\234==\357\314+\275\215r\373\275\277\327\334<zLu=\"\227\'\275\030\217m\274\363dB=\\0z\274\356\364\254\275\224\242\310=\346<\241=\265\347\027\276J\335\275\275P\312\330:\330\325\214=J\266\316\2754\036\276\275\242\010\373=\235\223\376=\226=\037=\2136\316\275\205\217\010\275\251\244\202\275\013\315J=I\007\221\275\305\335\002:\234\334N\275\3547\340=\270\242T=\017E\034>w\240\002\276Y\210\361\274\357\201\001\276h;g\275\024E\202=w\355\234\273@\036\255\275@\212d\272\310\317C=\362\217\264\273\247\357\273\275j\230\375=Y\016\007=\201\202\202=H\033S=9\341\213=)|)=\365\317i\275`#s=&\027\206<\246,\005\276t\362\375<\330\030\010>.\336\007\276z\030\030\276\265 \n>\266\342*>\252\257\360\275\027:\023>p\271\023\275,y\014\276\020k!\273^\0355\276\240\177\227\275k\034\351\275\207\230\n\274\211X\010\276\3131\243\275\266\030\210\274y\227\014\276\025)\344\275\235\322\235\275\3625\234\274W\002\341\273\231\023\300=<6\302\275W\256\317=>>\250\275R\203\222\275\233\340<\275($\207\276p\252\231\275\313S\021\276\346,\006\276\253\303\272\274n\305\005\276my\260\274\343\352\261\275\003\236\277\275\314R\211\275\205\373x\275#\005\240=\330\305\t>\210[\330=]\333%=\314\351(\275u\211\272\274\301!\177\276\241\212\322<\217\016T\275\246\252\211\275\311-%\276W&\365\275W\217Q\275\263zE\275\277\317%=\367\027\014;]\254w=1\375\315<_\266\377<?\325\346\275\320\357q=/\201\256\274C\342\333\275\207\301l\275F\324C<\323\305\000>e\202\223<\033\354\326\275v\252m=\313* =/\n\302\276-\tp=\344\'\314=M\320\"\276q\235\275\274)!\346<\302\252\336\274\245\342.\275WgC=!C\353<\212G\335\275gA@\275\335\325\222=\016_\231\275\035\255\250={}Y=\326q\276\275\000\2357=\253\250\004\276\030\203J=[\252\2209,\t\016=\307k\027=\250\232\246<\320\010\226\275\227\265\274\275;{\300\274\006\241\202=\350\362\000>\254\004\352\275<\333 \275\327l\377\2755\250\247=dc\343\275Q\361\240=K\330\222\275aK\223\275\231\353Q=j\305\225\275\203\361\235\274!\332\\;V\376A=\347\360\257=J\020\326\272;\353\003\276\017\3068\274\025\027q<\306\014\026\276\320\324f=\360\363l;~T\006=\217\005\263=<\221\210<\006\002\353=;\025\200\2728[\017\274v\317\324\2758.\300\274Y\227<\275\0001\005<\377\230<\274\\\327\312\274\204\357\351=\010\001\244\275\310\376{=2\3200=\373\200\025\275A\232\254\27526\236=\\^\023\276\355f\264\275\260\177\200\275\031\027\305<k\224V\275\276\217^==\344\317\275\327Dg;\351\320\202\274\234\361\327;\271\323\002=\360\353P\275q!\206\275\276<\275\273\n\030;\275\347\361O\275\313K\177=\310Y\222=\234\277\354\272>g\214\275m+\314;\301\013\303\2751\217\325\273Q\262l\275i\357\222\274@\022\366\274\024p\202;\350\337\207=\347\252\224\274\346\207\356=\310(\014\276iw\025<\276\344\337\272~t\030\276\212xh=r\010W\275\374\327Z\275a\222v=\016/\274\2756^\214=\336{{=\361\266\303\2745\032\341\275\254M\265\275\245\221\035\275 \243\232=\026\202\006=@s]=\265\363\306<\260\235\234;\374@\312\274P\371[=\212\355\300=\314\013\221=a9\236\274\241\303\206\274T\317\313\275\261\004\335\275=\007\324=\323\017\261\275\303\3068=\341\023\332\275\270\372\370\274X\013 \274\304<.\274P\356\223\274\362\373\264\275\236\350\312=\267\264u\275<g\226\275 &%\274\025s\r\274\034\2119\275^\252\236=I\342\224\275\273\375\212=B\345\335<\312\201\273\276\351 \026=\275\350\005=\305\207\323\274\002\334\276=\340\310T;\363 m\276\275\243\357=\350X\224=\323.\365=A\363\354\273\272y\276=\236&\315\274\003@\004>6f\320\2757\2000=n\363\177<\245\"C<\365x&= o@=\200d\016\274k\311-<\032\255[=\362G\004=\333\273\250\275\236z\343=\226\250\276\275\216+\232>\226\3559\275\366i\261=E\303\025>\035\327W\276\177\225O>5\030/=\220\272\345=\201\\\031=\373\2367>\217\271\216<\027?\246=\224\234V>)fV\275\315y\023=/-\023\275\207Al\275\253\363\241=\017\224\211\275xE\024\275^[\207\275G\013a\275}K\254=\225\333\300\275\363\2027>\256\244(\276@\304\000=}\202\205=\354\352O;X\226\374\273\236(\314\275\024\010\325=(O\306=\035q\035\276\255;\337<\213X}=|{g=\357\316\362\274y\307G>($\227\274z\002\305<L\277j\274\020W\211\273# \212;g\004b\275\260\277\205=+\352\007=aU>>\273\271\331<\327\336\002\2754\006\026\276P\013!\276\\\274\200=\032\0251\276\331u4=\203\220\002\274\224\242Y=P|\255\275\232\237H\276\024\253\263=\355B\324\273d\234r\275;\203\">\227\026r\274\034\033#>\017\026\270\275\216\352$<\200\020U\275\200\245+>\361e\332=\252>\273\274\233\331\031<\352_#<\207\247\004\274\357\337\253\274\344\301\216\275\252\241\346=\206o\263=\237^r=\274\272x\275,.\302\274\326\203`\2746{\316\274\014\204_\2740\327\036=8;\335\275\362\252<\275g\350G\275l\367\233=\224\025\327<k\325\177\275\360\037&\275\321\242\004<\377\262\267\274\246{J\275n\002\241\275%\355\370;;=\"=G\272\017\276Y\326\370=\351N0=\205\304{\275\3423\020>\003\351\005\276=\200c\275a8T=\271\017\242\276Y\326\030\271\226H\300=|i\322=wv(\275\0246)=?\035t\275\252\"\330\275\252\0359\276\314\314\366\274\315\310\026=\006\217\004\273\225\260\014>.P&=\'\030\016=*\371\373\275p\353\276\276\n]|\276\037\260\t;\005+\315\275e$\000=\246m<\276\374\307\211\275_O\366\275\256\360\336\275\3561T=t\264\200\275\312 \264=\354|\276\275\003\373\252=\334}\013\276}\241\236=vU\330\275\363#\317=\363\013\227=\201\200\243=\263\347\377=>\272D\275\324\226\267=R\035\241\274\004\034\204\275\300\2510\274\355\307B\275\345A\307\275p\002\302\275x*\024\275j\365\216;c\207\031\276\241=\365\274\341\353\202\2758\233\253=\3236-\275fN\230\275a\353\005\276\271\272\207=1q3\276?b|\276Zby=\372\322c\276\351ZP>\021\331\367\275\370\274\247\275\332<\375=\330&\305;\213\n\022\276\354Qy\276\214\331\254=~\371\025>\010\341:>`\330->v/\241=\357\352r\276\325\270A=\253\327\204=\3050i>\333\010\035\275;\337\033\276=\264]\276\361M\276\276\316\013\242\2759\365\'\276\273\204\027>\314p\303<\032\'\246=I\332\037>\260j\026>6\3513>\212$5=RQ\233\274\316\353^\275\2048->\355\235\374=/\232\000\2762{\262:V\022\363=\300\355\004=f\027c\274Bt#;\357\2243\276\2172^=!\356\013\276?\312\360\275\347r\347<\357\"\267\275(\360\215\275\356\3114=\242\252%\276\313\335%\276\344l?\275\214\353k\276\270\306\224=9s\337\276\245\363\340\274\252\370\320=E\247\022=\341Kv\275\356$\022\276\013\321\013\276\241n\202\274\215\343\353\275\247\033\336\2756\261\276\275\020\253\357=\030\234s=\304\244\330=\320\371\223<\244+\307\275\360\237\016=\200\027\221\275\274F\330\275\200\025S\275\200.\353\273\350\374\300\275\300\023\243=\320S\207\274\310Ox=\330\374\267\275\020\264\020=\210\231D=@K\017\274\010\260[=\224\357\376=\334\276\241=\220\216\220\275\354\323\201=\240!\317=\020\201\214=p\211h\275\370\303\035=\304\024\363=\300\023\222\274\264y\257\275@`\230=44\227\275\314\333\211\275\020+\374=T\304\212\275\350x7\275\024}\362=\000\272B=\00095\274\364a\333=\330P\026\275\210\365\034=\340>\r<0\270\234\274\000\253\305:\210\345\341\275\250\034\367=\270\375]=(r\030\275@\303\313\273\360\021@\275\030>D\275\000\346^\273$\243\267=X/\245=\264\016\251=\030\301X=\014\001\326\275\010\272+=\000\3758\273\200H\355= %\231<p\255\250=\200\341\324\274\351\275\334;\351\353\357\273\214\\\252\275|31\275%\373\303<\376\023\331\274\013\007\312\275m\rI=0F\310\275+\245\000=\007\255\033\276\362=f=\225\252\254=\273<\255=\025A\027\275\221/\207\275\250\371\270=4\244\245\2750Q\220\272\277\232\032=\227\271/\272\317I\006=\327\256\307\275\265\323o=I\025\227=06H:\3134r;\366\275\302=o\3238=\357\316\247\275\302\005\274<Q\376L<\246\357\251=1\250\343\275v\177&=n\023S=\364&\242\275\376\026I=\326\032\222=\026X\231\275\030\374\350<\003\212\366\275a\r\302=\030\241\003=,\350\232\2755\226\027<\253K\270<\205_\030\275\271{\003=a\246\212\274\277\243\351\275\261Q\265=\374\3770<\010\224\205\275\210\256\214\275\034\034\377\274\276\374\237\275vr\201\275\002\237\276=\357x\010\276\235\253\234=C8\"\275aG\354<Z^\255=3\255\033\276\n\232-\276\327\233\223\275=\203\203=x\353\310\275\211\254>\2762\224\345\275\3440\226\276\305\242{\272\301#M>\231X\007>r\371u\2768\371\002=V\311{\274\177\224\235\275\325o`\276\236\021/\276U\251\361\274n\221\260\275GnI\276\234\002*\276q9\323\274\326\261\377\275}\034\344\275\2273\363<\000S\025=\227\360*\276\321IY\273\213\200\313\275\0008\337\273\342C\250\276bg\320\276\037u\357\274\331\255\263=E\341C\276\210\013\312\276\007\354\306\276L7\032>\263\035\303\274\031 \206<!\346\036\276\247/\261\275\272\035D\276\027!8\275\366\017+\275\312\031z<\264\302\026=4w\255=\306\221\245\275\352\213q\276\313\370f\275\034\275\033\276\025\346\n\276\333\237\202=e<s\275\227%q\276a\230]\276\210=\254<H\234\021\274\344\337\270\275:\003\240>^=U\276\215\033\007\276\264\017\254=\352H\201=\305\367\351\275\037\311\310=\323Hq\2753\320\254=4\250\251\275\242\2204\275\210W\t=*\346\037\276\240kz<\323\272a\274\031\206\007>\231i\340\275\310\265\031;\361nh\275m\306\321=j\237\375=\\\006\235==w6\274c\224\300<\255/\003\2751\316\033\275SY\"=J\206\177\275a\335\362\273*R\357\275\207\211\245\275\031,\205\275;\236\354\274o7\353<\317\2620=\277X\266\275\240?q\2753\377A\275$~\005<y\330\361=\346l$=y\205\006\274\362\265d\276\003\242^\276=\3054\276\371\302\226\275\320\316\'\276\t\017\250<:W\233\2758\206\201\2725\313\n<=\301o\275\r\r\\=\246\344\233\2759j\334\274\016B\035>\322\306\220\275\217>\346=\364qG<:\211\325\274\031i\'>\363\007\332\274\264\270\213\275\204T\223\275\247z\234\275\263%\361=k1\351\273\351\335\177=\313\361\317\275s\n\365=\351:+\276$\260\033=\014\002\306\275\356\367\375\273\0106\231=\207\230\216\273\"\326\335\275^QA\275\315\256F\2755O]\275\317\3547\2759Z\227=\363\303\007\276>\270\234\275h\201\243\275\367q\340<\006\267T=\331\312\354<:p\030>^R\037\275\247\331\222\272\034_\001\276\201\010\276\2756\250\261\275\3103\003\275\223\244\267=\\R\362\275\225Y\205<\246\r\013>\323a\222=\214\355(\2767\243\212\274\362\270\014>\352i:\276\305b\021>]\002\000=\276T\241\275\233<K\276^!\025\275\207\335\251=QE >\304\362\344:UU\326=\t\374.<\256\262\014\275\324\236\342\275\345G\r>Y\250`=\033{\304;&*\037\273=\344\253=\344@\337\275xv\010\276\017\351\261<6U\362\275\021\315q\275\030y\001\276\307\216\300=k\206O\276\232i <H\234\204\275\005\324n=0\030\235\275l-\314\275X\202\334\275\250\"\233=\240a\350\275$\231\320\275 B`=\010\264\312=X\346@=\024\335\235=\304\314\275=\300rK=`\324\343<\350\022\255\275\270\313-\275\204\236\217\275 \345R=\250\240\341=\2404\303= \205\212\274\000\000`8\000\227\235:\200FH\275\254\252\231\275\010\224\210\275\254\343\301\275\200\357+\274\030\324\227=\310\357\224\275\334\320\342\27583\243\275\320\\\221\274\360\375\261\274|\312\245\275\350\353j\275\000\315\034;\020\354\200=\200\213\202\274@!(\275`\370\035\274\230+\363\275\3401N\274\220\014\320\275\0008y\274\020\363z\275X\341\330=\300\331[\274x\305\245\275H\334\372=\320\203R=(\006(=\000\231 \274(\337\230=\014\004\275=\340M\250\274\360\343\347=\370\345%=\300\265\213;\320B\333<@\203B\274h\232;\275\260F\201\275p\233\242\274\360\331\034\275\327\237\201\275\242f\231=\017\024?>\243\034y=\247\304\304<_\374\367\273I4\216=AJ\373=\003/\316\274\013\334\240=\242\177\277\274\231\325\004=\246\r\310=\275\250a=.\274=\276\347\370\357\275\231\247\014>+\177\214\275\236\364m<\226\273\210==r\n\276\036}\335\275D>m=\203\246\371\275\205>R\274e\200\352\275\347-\345=[w.\275\342\202$=sk\257=Uj\016<k%s\275lp\323=\330c\270\275Q\343\001<\3406\016\276\017\000\007<\315\227f\274\353 |=MN\363\274\037\227v\275\034\005\333<\324\3427=\347\r\322\275\347[H\274\251\330\340\274\3438\331=#\340\320=\266\301\250\275\202\'\217=\034\211\034=\375W\177=\212)\217\274A\204\241\274\021_B\275\220\335\013\275\262>H=\007\036\342<\023\371\272=o~\235<\345\332\241;\031\307\330;\222\177,\275\277\200\210\275{\031\014>\206c\371\2751\355\233\274\021&.=Dg&\275|\0332\274L\200\323=\317GW\274\032d\302=(\306h\275s\016\232<\270\035\013=\236;\002>i_\347=\224\256#\276\327u\333\274\303\211\217=\014\3174\275\253\245)\274\023\311->\337$\307\275\373\205\200\274\205J\220=<4M\271\254\270\216\275\342\216\177\275\232m\200\275E\365\207<5F\017\273\017I\350=\246U\003\27642\033=\201\322\260<j)\222=z|\244\275\306\305\267\275\236\356\220\275\230\206\213\275\236\260\344\275\3579\017\275\360\022\252\275\330\016\303=\220\354\340\274}T\237\275\036f8\275\343 \200\274\345\000H\275\243/0\276\373^<\275+\345\305;\303\031\014<*\343\312\274O\003]=#Ay=4\331\262;6v\204=\310\205\270\2754&\270=f\004\337\275\236l\360\275P\221\217\275\246\325X\275K\320\000\276\366:\264<\0277\311=+PC\275\267\'8>\206\216J\274Z\350\002\276\364@\226\273\260x\030\2765\216\306=Zn\310\275!\013\n\276\313\016\250\275S\262t=/\347h\275\203-\275=#\304\023\276\006l3=\223\220\020=L\303\205\2746.l=d\320H>\217\214I\274\246\n\342\274\307P!\276\341\'\215\275\304>\246;\310.\243\274\243%\217\275\223Iy<\306\225\234=3WK=(\342\247<\373\003\r=\365|\026\275\275#S\275\224\210\321=\222\230\312\274\3001W\274\215\247k\273\321\206\363\274\227W\010\276\260k\017\275\276\242\004>4\252\310=\313\235\202=r2\226\275&\177(=R\032\252\275w\312\222\273+\222\177=x\026\017>\271\231\304\273\277\221H\275\245c\224\275\301b\326<\217\344\202=\325=\216\275\365&S\275\275\032R=\374\232\007\276b{\231=\362r\254\274\215|\000>\204\342B\275\005\253\247=`\332\375\275\2130\324<\322\346\253=2j\006\276\321W\251\275\246\266)\275b\231\334:\211\306\211\2744\226\202=p~5>\324\217\341=h2\017>\243\324\375=\261\307D\276\r\265\n\275\336\"\226\275v<\035>\r(:=\016]\031\2752:P</\341\221\275K4\270\275\006\"6\275\001\206<\275\242]\201\275\245#\324\275\200\216\205=\224\320u\273\331\361\334=\346\323\211\275\335(\266\275\311\257\254\275\341z\236=|D\014=\000\316G\275\3751\344<\274{\242=\3166&=\261\217}=I\302J=\224\214\211\276\234(\\;j\361Z\275\331\036\016>l\316l=uo\221=\242\223Z\275\020\371\314=\223,\005=\217\242\307\27502{=\256\353\226<\263\330\243=u\306\366;\316dv=\203\004\346\275\306\247]=h\354\267\275}\200\252\275\215\232\013\275l\270\021>\013\330\"\276\370\374\000\2763\274\r<\014V\330\275\271\253l=gy\001>[\241\360\275\224$\330\27556\014\276qc\031\276\033.>\275\350z \276\006c\253<FK\001<\327:7=\224\334r\273\251 .=\250\257\253\275X\004\023\276<\020]=\317\315\220=\364P\034=\003^\345=\307a3\275\001y\005\276\314U\264\275(8+\276\022b\235\272\244\r\240\275(\300\017=$\3431\276 \267\220<\255\304\310=NQ\354<N\364\037=s\357C=\3645\255\275\313\0251\275 \370\337\2752\314\000\275\213\244L\275\262,,=:\352E=\034\232\260\274(\224]=\234u\003\273DK<\276\374\252\372\275\317\007\272=\353\361\330\273\240\216*\276=I\177=\332\307\344=\367\373X\275\014z\214=\366I);\3622\305<\271G\255=2\320W=\226g\230\275\303O\340=\217\342\370\275\n\215\001\276\224\247\310;\036D\357=\226\270\205\273\305\261\271=\252US=7\033\352\275\237\341$=\230)\221<9\023c\275\360\223W\275\301\303\263\274\210\265#=U\2776>C\302\320=F\211c;\303\320\214\275?8\325=\214+?\276MZ\307=!\260O>r\321\222\276\205=\252>]\301\347=D\227C\274\210@\303\275\320\323\212=\272)\375\275\333\357I>\357cm<v\377\260\275\241!j\276J6\314=GN\334=X\265\200=t \027\276\t-9\276\212\2418\275\211\032?\275\026t \272r\332\020\277\350N\001\276sV\323=!Id>\377wU>\321\377(\274\370\252I\276\206\310@\275\235\202\"\276\330\021%=\327\305\366\275\363L)\276\364\275\315=\274\345\274\273\002\366\n>\322}p=*\362/=\036\032><{YE\276\177\227\317\275\255\375\235>\360\t\223\276\035%\220\275\007\270\311=\261\nJ\274\222k\034\275W%d>va\352=\325\006\276\275\026\374\033=\277x\023\276C\347\317=\377S\351;\\\001\265<5\271)\275C\370<\275\342\202\366\275\372\302\213=\341\250R\275-\257\356<eg\322<\230V\224=\200\207~\275I\022\261\275\234E\022\2767\243!\276\335\203\253=\034\342\275=\372\025\306=\312\240\270\275\325o\372\275\3232\356\275\005\014\037\275\343,\245\275\246R\222\275N2\032\276\213P`\275T>\260=\035\235\007\2744\301\340\273\316\3505\276\350\206\207<\215bV\275\221\255+=\r\254j\275\277\212z\275g\272q\275\241\304?\275\026\340M\275\244\261\027\276m\320\340<6\327\022>b;T\276\337\006\335<<X\314\273\301\r\255=\215\300\336\275\301\371\240\275HXn=R\204\264\274\236&\323\274/<\303\274\211\0075\276\"~\253\275\t\244\337\275\366M&=tg\232\275\203\215\324\275-x\275\275)#\t<\200\262\177=\236%\027\276\252\2545\275\233\026A\275$\264\207=y\270\'=\305c\332;\2430\027=pa\014=\346\341\212\275\310\325\306\274\246\221\005\276\210\361\337\275\031\254\377<>G\371\275\267/\346\275\247\315%=\204#\2779N\004->\014\3665<\303d\247=O\301\020>OKb<\312t\031\274\247\000\324=\240\362\263\275\230hz\275\324\345\273\275r\213\377<\275\025\035>\302jG\274\324a8\275\321\344\232=\325I\235=b\354\356<m\355\210=\360G\005\275C\311\264\274\315\216\316\275\275\211\370\274\003-\025=\266\274+\276\342\2733\275@\205\037=\007H\325\275Iz%>\304\233\370=\342\006\014<\302\365\317\275\252l!\276\271^\366<\276\364\354=\354\303\212\274M\246\230=\025h,=\327\316\250=\221\004\220\275~xW\275\374*\034=\357\314\020\275L\366w\274\200\240\227=\030\037\324\275V\254\274<\304\033\301=\256@+=K\355\314<\320\306\372\274\320\242\223<\0103r\275d\263\254=\354\260\204=Da\234=xC\317=\334\326\366\275\324\320\312=\320i\037=\340\335K\274\330\356b\2758\213\366\275@w\220;0\267\237<\360\003\004\275\230\305\265=\004\371\274=\000\2400\270\304!\247=\000\245B;\000\212\216=\220\257\224\275,\335\324=x>\323\275\270\333\310=\320G\213\275\260\330|=\300\004\242\275 \021\003=\030\354n\275p\262i=\300\202\035\275\010E\352=\320\271\257<x\361\014=\000/\233\2750\225\021\275\324\276\260\275\030\267P=\0008\354<4\324\334\2750\000\246\275\330#:=\000\355y\273 \231\370=P\300\231=\374\302\306\2750\273F=PB\367<\020\345\231=@\030\242\274\3209N=|\210\316\275@\327\311=\330\307z=\264E\237\275\240\227\035\275pH\330\274$\371\254=\224\222\254\275\200\372;\27345\235\275T\n\302=p\366\230=\240v\361=h\016\244=,\034\327=\260j]\275x3\227\275\024\303\372=h&\024\275\200g+\275\200\227\036\273`\343!=\260L\032=\300)\273\273,\372\204\275(\031\311=pn\254=Dw\203\275\364,\236\275p\326h=\210\344\354\275\010\306==\200\313\261;t\277\357\275\000\335Q\273`}\207\274\260X7=D\'\204=4<\356\275\274M\370\275\2301Y\275\000K\310\275\354\344\333=\340H(<\270j\025=`\271\177\274L\332\265\275\034\\\340\275\310\034\021=`\263_\274\364\352\241\275\370s\206=$\376\347=\364}\204=h-\231\275\000\204\260\274\350\020\352\275\200x\255\274\210>\350\275\\\203\251=h\034u\275\220r\034=\224\204\327=,b\370=p4\317\2750%\376\274xo\226=\300\t_\275\200?\257= \001\014<\240\026\242=\350J~=\334\244\215\275\270\204\017\275|\330\353=\226\267U\276\354\336\036\276\355\246\354\275\321\371\264=\340NU\275Z\007@>\220g\240=\016\364\213=6\030<\275\033+\333=\246\214\257=+jF\276\213\360h=x\013b\272q&\207=\204\356{\275\305\224\273\275\007\304\223\274\312AN\2760\214\237\274\334\353(>nJ\216=r\007.>\232B\224\274d\345d\274\324\361\310\275\357\371w\275D)m\275\322\340\355\274?Y4=d\307N=\211P\273=\0320\215\273Z\306}<\357\271\277=\204\201\257=\342\200\250\275\327\220\352=\255\"c=\r\332V=\214\227\235\275\251\355\031\276\262\244#=f\313\360\274U\035\323\275\257\340\351\2751\241h\276\314-&>\266\376\202\275\373\315\006\276 \253\224=\347\232;\276\302\024\266<\201+\014\275\217\0229=\344\375\343\275\001(Z<\271\301\224=],\211<\240\272\034\274y\375\203=\233\375X\275\263\330\232\275\010\306s>\035\355-\276\276:\347;.V\205\276i]u\2754\301-=\334\241\215\275\2248\225\275\323\2070<\265\366\200\275_\355L\275x\'[:\032\327\225<H\216]\275Hl\010>\213\330\204=\362\246\333<\340\233\356\275t3l\275\250Kz=\267\271\213\276\366\342\020>\200\354\002\276\372\353`:\022\334\027\276A>\277;]&\252=\373J\373\275\333\3537>\226\310\322\275\376\265\264\2753>\325=\250\017\001\275\370q\230\275\013\031\333\275\n\342\353\275\216\362\255\275\350\325\365=I\027\016=D\320\227\276\254[6\276\311\377$>Jx\017\276\201\336M\276\275\251q=D\221D=)\023\227\275\\\177\201\275\340\254\373\275r\267\345<\001s\251\273b+\033=<y\313\2756\202\321\275\354\264\001;C\373\263\275\222\210?\276H\335\215;\351\220l=\2058`\275\027\002-\275\214P\243<\221\275\270\275\350}U>\022L\\\275`\n\031>\362a~>3\001L>\275\244\204\274\374&\330=\272\350\027=P\266\020>\205\264\320=\365\314x\275\305\326\276=d`V=\352\350\362=\236\"J>\311P\002\276\250\'.>\367Q\227\276\340j\331\275#\333*\274m\256\344=o\234J\275\365\342S\276\327\352\305\273\006nm\274\033\235\214=\202P$\275\330)G\275\376\372\212\275\010\203\352=\372\371\307\275z:\224=\302\026-\276\212\305\240\276S\216\270<\223\212\211\275(\366x=\260\300\244\276\334|\230\276\3268\030=w\025\037\275U\276C\275\355li\274-\213\264\275\\\312\r\273\242gi>\3744\327=\347\306\245<2\231$>\356\374\315\275\215.\316>\230\335\312\275k?F>\333#\257<\026G\026>\343\0064=\217\235\334\275\2547\277=Y\034\020>s}\323=[\300\266\275\315\"\266;\270\277\316=\033\034\200\275N\236>\276\237\2261\275I\364\214=\325!a=\227\333\211=\335J@\275\262\305\214\275CC\026\274\242\256V\276\031\272\221\275\304\307\337=\027m\316\275\341\336\320=r6\302\275\213\242\262\275\374A~\275\243\304\005\276?\246\340\275\034]\022=\300\302\330\275\273\364\251=\231&\366=\214x,\275\3053\264\275`\362\277\275\321Oh\276\324\275\266<\2376\334=@\347v\275\345W\231\273pc/\27500j=\227\252\235\275\240\244\312\275[\246J\275o\"\313=7\220G=\251\235I=\2656\275\275re\314\273\367Rp=\264[t\274\325\021v\275o\\\201<{\217\364\275f\335\263\276B\342P\275W\306\200<\324\262\236<4\256A\276>\351\277\273\302\001\305\275\313\034\305\275\276fc=\352\235\203\275\\\330\235\275\312\365\302=\216 %\275?\273;\275\320\005\217\275\201\324\270<R\237\303\275\000L4=\317_J=\n\344+\273T\206Y=\2703\204\274\004\310\346\275,\204\253\274\016\215>=\366]\013=\256\n\302\275\0362\235\275\344{\002\276\013\001\007\276\025\243\372\273\032\250\300<\255\360\004\276\217\301F\275\243\215R=\330\014\254\275\330\237!>\252\254W:\335l\023<(\'\320\275\274\272T\276\214hB=;\256\235\275\234\335\202\276m\033\'>\231\265D=\242\306\207\274I\265\257<\310\244h\276%\274\220=\216`\263\273\273:\033\276\340oU\2763M\220=t\177^\275\234\215\277\275\325}\231\276\351\177O\275\251\355P=\251\222\312\275\263-Y\276\225\364\207>\336l\273\275+\351\366<\336.\371\275\013\246\035\275\205 \017\276\336\305\216<k\276\r\275\364\227\247<\017P)\275\243\r\371\275K\315\307\275\310\014\331\275{\377u\275\233\313\252<\265\332}\276\323UT\275\360\004\271\274\264\273\345\275:\034\360\275\230\371B=W\254\350\275H$\025\276\252\035\351\273u\312\211=\223\241\310=Uu?\273\"\332\013=\003\307\345\275I\200W\274\322u \273\240q!<\350rz=cu\237\274\030\263\r>\305\321\031\275\213?e\275\375\370v>\316\221\257\275\356L\n>\250\223\216;\025r0\275\235\034\327\275\032*\265=l\037\237=\360\357\257\275\270w\266<\262\000P=\034\337\220\275\207Q\352\275\231\375\016\275W\306\376\275\033J\343<\213\356\227\275\236H\323\275\247\3124>%59<\313\350\220=4\237\031:\035\311\313\274V*\">\305\371\002\274\244<\301\274\307y\363\274:b\337\273\362u#=4:\370=/\375\004\276+>\234\275W\231\310=\272\'\223\275Leq\276Z\230t=\003\351\316=\355\267!>\365N\216\275\305\027\346=\351}\235=I\372W\2753\360\354;\304\232>\274\305\246\202=\366S\314\275\237\346\375\274UBX>\312\033\351<l(\001<\247\"\236=\363\032,=|q\226=U\214\225=\201\241-\275\255\213\310\275\304(0\275z&\367\275\210?\377\274U\030\243\274+\211S\275\211}<=\353\237\257\275&\226i\275\226\257\334\275\273d\262\275\375\306~\2752\327\300\275\343\362\223<\241{\352=\302\261>\274\323\306\213\275\207\334\267\2750\022\224\276\004@\\\276VX\377\274\321\325\036=\274\275i=\211\207y\276\201\265\323\275\352@\211\275h\3327\276\013\245R\275\254\376\033<\223D\027=\2532\212\274\353\333\215<\010\005\224\275~\n\234=d\305\357\275\010:\377\275\213H\264\275^\177\311\275Y\344\356\2736\243\214\276\253\315\224\275)N\342=\241&\203=\224\374J\276\2323B<3\230h\273\345\365\232\275\373\376\237=J\263\256\275\364\013/<\245\364F=0\200S\275\304\227\300=\242?\272\2756x\202\275\302\0048=\030M\266\275\323\220\024<G\300\206\275\200|z=(\326\345<\265\304\214\275\021-\274>\234 \227=\017\332\255\274\356\262m\275Zmg>L\025t=\377\277^\275\220\260\305=\312.\342<\250\305\215<#\027\206\275\243l(\276\243\026\251\275\237\250+=\020\311\314=\272\231\026>+\0347=\346\322\026>\225\226&<w\206\237\275\021\367\002\276\034\354H\272\310\257[\275\324\242\320<\214\321U>W\010K\276m>\242\275\251\227\331\275\256}\316\275H\345\227\275\355\"\340=\266\366\315=\256\265#=\346\004L=8X\247\275w\224\022<<9\254=\222|A<\237\333\242=\037<\001\275l\204\213<\341\254\201\276*a\202\275\3151\211>\316|V\274\227\223\020\275\211\'\032\275\021\341\024=_\035$>\247\375\240>a:\344=\014\325e\276\267m\354\275\016)\200>u,\322\2735\r\331\275\"\254\034\274\ng\003\276\274\302\303=\0243O=\375T\310\275\227\322\273\274`\r\177<@\212\266\274\3449\205=|7\357=\200\355{\275\240\016\266=\260\211\351\275\020\017\264\274\240\217\230=\344!\224=`B\233\275\340\005\310\2740J\031\275X\254L=\260\222\306\274\000\3459\274x\350\254=\220\277\257<\234\206\371\275\370\307\217=\240\345\351=<\017\200=\260^v\275p\220\362<\010\267\246=X{\177=HV\024\275\274\360\312=\220\332\245\275\0302\314\2750\033\361<\360\020!\275\240\334k\275\370\326\r=`\237\240<L\352\314\275\340t\276\275\200\027\350\274\360$\262\275\200_\313\275P\357\356<4\255\323\275\254J\234\275\360\001\211=x\347\263\275\3549\214=\000\343Y\274\350\214\230\275\240\037\234\274\000c\'<\020?\315<0\204\324\275\030-a\275\200\361\205<\210\335\215\275\264\230\363\275pM\344\274\370<\206= \215\226\274\200sF\274 o\221\275\034\227\244=\320\2244\275Pi\244<\013*\212\275\360\343\'>5}\335\275s\3365\275i\025/>c\202\r>\265z\251<\263\233\347\274wKP\274*X\366\275\3144\341\2745\275\222\273R\346\236\276\335?2< \255f\275F`;=\357l\005\276\216\230\201\276\316\371,\274\203\202\343<0\230U\275\022\323\023\276\323>F\274\210A\217\274{\366\214=\031<\214\275\t\345\257\2758\0067>X\205Y\276\313\007\353\275\233Q]=\243\216\352<M\231\356\275\214\326\213\276M\221\341<\371\372\306\275na%>+\372>\275`\246\257\275\264,\037\275\016\376\330=\350\267\007\276\220\341\003\276gO\221=\024/\211=GQ\207>9\037?\276T\245/\275O\331\211\274\353\343\326={\321\204=\247\037\313\274\265\237 =\242G\r> m\030\275\000\032\236=a\324\004<~\335V<\267\027\264\275\241S\316\2749\242\023\274\212R\237\274\373\261>>\372\326\364\275\013\245\310<\0343\275=\323d\310<\241Z\246=\336E\214=m\013\327=\215\361\307=@B\022\273\0321j<\ts\225\275Q\360\036\275\270g\314\275\2159\262<`\345\207\275\223ma;\220\265\336=ow\250\276[\220\302<T*p\275bX\305\275L\221\246\275\335\327\200=\272\003\335\275\316ic\275)\241\023\275?7\241\275\373j\232\275\326E\021=\035[\016>\303C\032=\355\247\016>\273c\214\274?x\262=>\224\360\274\375\341\334\275rs\001>\303\r\253=\032\372\346\276\253\2007\275\274\312\230<\352\003E\275\\\263\261<\322\311-\276\336\017\027>\266[\3779\345\002\013\275\1778\366\275\271p<\276 \201\277\275h\300\361=\252\240\260<\035\242\217<\217\364g\275\335*\025\275\300U\347=\357\221\000\275\031yg<i\323\177\275\257\036C=\217\231\317=\357k+\275\202\357c=\035\035I<e>\217\275\014\372C\276\231\027\347=\223\303\220=\3248\342\275qs(>\225\343\021>^\307\002>B!\r\276Z\203\325<\026k\276\275a\002\202\272\350\265\306<C\321\252\276\245\307#>4!\356=\220d\014=Iq\205\2759)\376\275\006\3476\275\236\371\014\276%\375\032\276\365E\355<\002\245\\=\217\375\017\274\202\005\332=<\261\307=\341\355\365<\205X\013>\357\264 =T=\362\275s\326P=\244\251?\274\235\261A\276\371\322\365\276\200V\342=\204g\365=\207N\361=\253G\225=\337\033g=\315\3750\276.}\324=\320\376\030\276\327\301\314\275l\356\342=,g\357\275\307\264O>A}\337\275cw\004\276\327\264\332\272\022\322\313=\270\3049;\236`#\274\215O\212\275\327\264L>\212\002\264=M\345\237=\261\336\237\275\'%\377\274\000\215*\275\234\243\206\275\250\232\000\274\217\301.>\240\032\302<\270\'\226=\374\323\314\275V\r\205\275\256\242\256\274S)\242=\214\374\243\275h\235\205\275\035\270\200=\352p\262=\365BG=\330\240\373\274\346\251\225\275Y)\367<\032\002\311=#R\270=\244\312\234\275\377L>\275U\256\343\274\242)\001\276E0\374<\223\026\002\276\315%q\275\002\237\242\275\010\321\204=\326y\370\275\036z3\275\221\316\005\275\315\030W\274\237\010\221\274.\n\327=\335\267L\275\304\350g\2746\262P=\244\0252\275)\234\203<+\360\261\274Oz\236\273\3636\021>K~\226=\027s\213<\013I!:rY\205=\341P\213=)\010\342=}YO\275\340\3256=\023\027#\275ppN\275\236\221\000\276y6\375<Q\316\263<\305\016#>g}\230:\205\351c=\325V\261\275\350{\266<,\271\344<z\204\204\274G\370\335\275#\rJ=\327a\354=XP\355\274\323\201E=\363`\365;\345f\260\274}\022\354\274\327X\021\276T\2405\276I1\261=6 \235\275,\206Y\275\201\201\305=\232#\243\275\250wK=W\254\261\274\253JN=\n/\252\2733\373K\275;.X\276\310\010\327\275\345\005\032=\3762\353\275A\264\271\274\362\177\204\275\224\016\031\276\302\000\357\275=\335\337\275\212\264\006>\207hV=\343\267\350\274\370\254\347\275\006\035\356\274\3229\352=\261\322!>@>\027\275\013\225y\275\321\230\264\276\273\266\320=[\331\325\275\024\322\024\276C\255\256=2<\237=\0341Z\274\263\002k<x\313\202\275\323\264\246\276\330\270\332\275\316\356q=\335\377\206=\241|\222=\303\373\212\275\223\264^\276\027\370L;\007\335\334\275\1772\014\276\367s\325<\266\2477<\256\244\265\274\001}\002\276\376\213\372\275&\371\203=M2\324=\000\334\350\271\341\240?\275u\300\333\275\025\262\203\273Y_\320\274\':\251\275m\033\016=a\035\000;s\376\366\274\310\263\233;\216 \223=\t/\223=\177\350!\275a\375\225\276\235\271!<\244.\264\276m\2320\273\333\0075=<5\222\270\307\257:\276\213_p=\367\262*\276\354\243\352=\221\343X<\367\251l>\001\211\357:\357g\237<P*\257=\274U\373=F\3341\276\316\273\336\276J:\332\275\016=@\275RGJ>_\\\026>\\\263\217\276M\263\265\275\252\377\013\274\313\304>>\341\'1\276\037\307\220\276\244\242\302\274\371\332o=Z\'\021>\354\264\326<\213\205F\275X@\231\275\351r\264=o\370)=\003\017 >\362)\245\274\000\364x\274/\375#=\303\317\232=`\337\200\274Q\304\340<U\034\312<\311A\226\276(s\227\273H\000\217>\0261\247=\340\0172\275R\335\302<\014\032\222=T\036\312\275\240Hf=\212\213\302<\231\010S>\322\375\334<\341Lb=t\033Q>\275\354\317=e\360\362\274-\360\360\275\017t\2439{\306\344\274;l\322\275t1\021=\306\245!>4\365\222;\376\030\250\275\272\021\001>9\374\375\275\252x}=\267\017\334= \340\027\275-\242r\275\037\360\225=a\r\033=Y\301t\270\243\356\036>\"\355S=|\204B\276\275\223G=Q!\035\276\r\227R=\004\020W\275\003\251F=l\273\r\275tf);\2259\324\275*\367\330=\222\3702<n\232\016=\3345S\275>\026\205<<\336\331<V\226\242=\255\026\344=~v\323;\2362\263\275\177\330/;\261f!=j\021\240\274\277;\375\275!X\246=y\332\314=gU\250\275\232\215\r\275\230\251\310\274Z\234\202\275\236>B>a\002\266=$\342\347=<\302.\275a\003\034\276`\343\341\274\256\326\356<M\253\317=\211\311\322\275\013\256\351\275wnK=\327\321\005=\242\223F\275]\210\326\274\210\254\007<dJ\364=\340M\246\275\326\240\000=\350\007\374=\223\007@\275\034AT=\000\314$=s\033\302\275\\\025\277\275\034\003\317=u!2=\036n\371\274n\277 >\252I\225\275\372J\360=\345\313y=J\257\031\276\364@\017\276&b\212\275G\004\205=ST\351\275g \233\2743\032\271<\334\314\252\275o!\323=\300v\205\274\337:\214;8o\034=\313\250L\275\320\216\235=\374h\363=\207\257\214=\336o\255<\223\263\270\274\247\026\021=\200\254 >o\007\261<b[\025=\'\200g\275\032\361\340<c\222\262=v\361\363=\334\\u\273\"\210O\275\301\251/\275_u\335<t\340F\2765\307\371=\277\276x\2736\2474>\337\007\215<\260\277\n<\315]\274\275\365\245n\275z\227\247=\302\222\243\275\236\354j<\254f\337=\037#\337=\257\361\025<;@\007>\2517\t>\245\244;\275\021\223\226=0R\025>x\253_>e+\277=\215S\253>\302\\U<\346\r\252\276\345\346\021>\021^|\276\355\372\246=/\265\032=\016DN>\261|Q\274o\252b=lf\334;\340!\254\276\363\232\334\275*m1>\210g\002>l\210F>\\#$\276\257%\006=\246\017\027\274\221R\276\275<\035\224\275:\324\324=\246\365x\275\325\275\325>\211|t\276\305u\301\275\302b8\276\\\002\217\275\201Q\007\276\264\215!\277\274<\n\276#.\245\276i@\037\276\221\265:=\221\003\253\275<\'\311\275\260\201\362\275\361K >\304\355\353\272Q\235\254>\250\223\366\275<:\r>\267\266#>\375\250\247\275\001\236\372>\274\t#\275\215+\374\274k\"/>\313\260\231\276B\336\244>xYC<*&Y\274\022\275\260=xeb=\224\377\370\275\000\307\354\275\344c)>e\346\320\2750C\r=\355\332h\276~\300\\<\210z\033\275\034c\264=\313\033\211\275\371\372;>\250\017]\275y\\\224\275\357t1=1\214\331=\364\315.\275pL\211\275\002\002#=\251\374\343=\207\360\235\275\343\305\217\2744\324\275=r\310\001\276\246\002\306\275\234\346N\275\321\260\256\275\177\223|<\342\307-=\030O\321\275_\2616\276\271\370\371\275u\3659=\317\342\017\276\203\337$>\0239\307=\367\217C\275-)\221=,#\005\274\211\272\036>\262}\252\275\037JI\276\314\331!>\260\n\366\275k\177M\276\357\217\245=\243d\017=\016\254\220\276A-\256=[8\231\2758m\022=\022=\362< N\014=\013+\026\276\317i\001\2760\241\350\274X\212n\276H\006\341\275\251ZW>t\242\002\275\252\2477=)\271\014\275\276\247@=\211\326\265=\327d\270=\332\357\210==\000G\273\254\020\233=4}\034\275\021:\310\275\302:\300\275i-\274\276\024a\020\276i\3065\276z\365\377<\033\007\221=u\377\273\274\312L\251>\315`\244>\221\203g=\310\325\371\275\026\227\346<e\261w\274\262\362\223\275\027F.;.\002\326\274o\220\211>i\'\306=-\333A\276\240 E\276\365\025\252=\007$\002>\377\241N>jV`>s\355\216\275\353IE\275\320M\206\275\021\306c=\253\3567>\253\'\221\275@\250\020;P\345\007\276\357\225\026\275\337\\==\3730\331=\257\241\214>\256\027\207=\335D\247=\307$\360\2757aF=\177\030A>\227\252\020\277\302g\207>\213\251g>\205\034\275>\025\035j\275\240\251(>\225\235\272\276\245\332&>jD\245\276!\271\314\275\320\233c=\331R\320\276[+\027>R\r\'\276\326,_\274\267\315N\2751\347u\27644\373\275\267B\257\273Z+G\274\340$m=\223\t\240\2769\361\256<D?E\275\2553\325\275]\004\033\275\304\232\254=\321\200\207\275\214\252\362=\205\362>=\326\010W=\276\265\306<\223\215L=J\274\020\276\347)\021\276\370J\252=\221\031\031\2755^k\276=-\004\276\367\206d>\246\361(\276u\265\243\275\362ov=u1f\275\021\027\242=m\024\205\275T\374\324\275\004C\262\275\366\275~\275\253#\207\275[\360\216;\013j\005>\252\342 >\'T\034=4,\234\274\316C\265\276\352\253\230<#\227P=\347|\343\275\0072C>\n\353A\276\n0e\276\333\307p\275|\306\'>l\361\334\275\267\263\230\275\220\253\262\273\354\301\033\275\203|\223<w\325\035\275=\n4\276\255\313\360\2755.\315<h\t\002\276d\324\237\274S7=>\310\352\304\275T\265\206\276\321\005c\275\364m|\275&k$\272\334Y\034=^\201.\275t\221y<\326\237\265\275\027\246\232=5;\264\275z\314\022\275\366Md=C\321\217=\r\360-=\001\217\\=n\303m\275X\r\245\275\246\334\242\276\223\215\314=\307\3464=\026>O=\327\277M\275/\320\245\273\311\377E\275\021\344\241=\302\0229\276\300\242x=r\221\034<Y\002l\275#[C\275\371\036\346=P\313\025=\310\370O\275\315BA\276\024\342y\276=\177\237\275m4\257=!\n\220=\225}\221=|z\327<U\215\325=\177\262\260\2758\013R<3\006%\276{s4\276j\330\330=j/\346\275\223qK\275i\266V\275r\005\376\275\3021\261\275\372\261\350=\367\025s:j\362\037>\205\265\272\275|\037\322\275*\0037\275\264i\347\275\277\272R\276l\222\0059\342\246\005>X\274\233\276\326\3717\275\266\2042\276\003\327\265\272\373\260\223\275\"jB\276&?\025\276\360LV=G\223\300\275\247\245\332=\r\203\243\274\327\362v\275\246\257\354\273\3022\367\275_\233\001=2cH=\373\tT\274\313\321\236\274\347\240\007<\266z\242=\032t\351\275l\261\342=\327M\034\276\014\217\231\275\323E\270\275\021\366_\273\362}/\2748\240\037=0\310|\273\205\323\361=\314O\270=C\014\220=\244i\013>\311}\243=8v3\275\254\374B\276\24677\2753;\231\275\231\301\020=\033\010\303\2758W\253=\031\2366=\251\213\027=!9N\275\026\031\207\274\\\027\251=*\315\321=\237\022\304\275\342W\302={\212d<\026(\003\275\237G\271<\357-\245\275\005\320\323<\267\345\220=0\010\322\274-y\237=\374\310\\<\025\205\237=]\366\375\274\315\023J\275\n\"\002\276.\251\255=\335~\007=\241\317*=y\314\311=>\017\352<\027\305;\275\276\247\326\275v\276Y\275^\311\242\275\2246\277=]\216\t\276hd\002\276e9\377\2757\377\336=G\023\002=\022\275R=\253\027\234=\014cH\275\202\250*\275\243\275~\275\252\353>\276\024\325\355\275h\252\216:\346%\345\272z\024 \276=\0056=V\234J\275M\311\271\273,n\371<\030\n\210;\374\3734\276\223rG\275\0102x=l\250\204=\371\207\264=Kh\313<\033\210\255=\352\007\372\275\366\336\262\276\254\274\206\275\342j/:\001\312\255<\376!\240\2740B\024\276\266\002\335;\271\305\360\275\026\235\017\276R}+<\024<\341\275\350\232\034\275<\207\356\2751\372\272\275\035g\365;+\013b=!\263\005\276\360r\001=uS\253<(x\232=\275I4>5\023X\274\205\"t=\323T\315\273w\265 <N?\254\276\264\234\177\275\224\016\026=\024\'k\276\360\277\251=>\341\232=Y!\265\274\343\323\230=\377\310\037\276\341\211\231\275,\306\002\276\317\237\317\275\222\273\022=b\376\250=sQ6=\\\213\027=i\237\243\275u\026\212=S\250\324\274\232D\234\275\022\022\275=\007\347{:\'\336\213<\273\367\201<`;s=`\262\247\275\204\\\372\274 }@\274\327\262\363\275ix\023\275K\222\027=<\333\357\275\177kX\275\231i\311\274\312\032\264\274\202\346\302\275\021\216\033>\\\332\221;\3308\201=~\2046\276\204n\216\276UQW\275\237\217\254\275\241\270\271\275\244_\200\272zQ#\275KK\322\274\243h)=\347+^=$5\277\275\344Gj\275Bj*>\375\2174\276\370\345\213=\276}\036\275\251\007\207\275\3777\351\274\n\022\313\275\232\354\220=\255!4\275\262\320W=\310v\351\275\"\334\007\275\200\340\310<;!\230\275\2317\014={\316==\231\245B\276\200os\275B\254\003\273\355}\243\275\366\314H=L\274\237<\361\360\037\276k\022\314=\234C\341=\345\222\275=\t\324\033=\313M\363<K\312\025>X\241\202\274\n5\272=\303\234\005\276\021\263\234<\310\370\307\274d\220\202<\242\275\354\275\3470\025>tQ\014\276/\375\'9\034\311\316\274\316\026\177\275X[U\275\257~\266\275/2,\274>\325\364\275\210\376\021=\016\220\366\274\213\331\035\275Y!k=q\317\222\274\320\306\270\275\250\216\226\275\224\355\020=-B\r\276\367\363E=_\220H\274w\027F\275\265\361\302=\177\177\343<]\316\312\275\327\351\032\276)\2142\276\'b\217=*Y\351\274\240\245\320\275\206\351\325\275\2545\211\275\2008\346\2751Y\021\275\264\363l<\345\276\301\276\031I\022\276[\346\323=\251F\255\275#\236\242=\356\272*=\333\260\262=\027\177C\275\007HD\275\255K\034>\335r#=SL\234\273*\030\362\275}\010{\275\250\\\330\275L\354\304=\245\3552=Cy\032=[3\035=\347W\360\274\243\241\300\274j\246\232=RZ\325\274\374\274\267\275\\\250\017\275v7Z<\223\033\200\276\021\327\331\274#\020\257\275\362Hm\275%l\205\273\025\352j>uZ\033\276\214a\351<\355\316\330=\200H4=\224\325&\276\344\000\010>&\241\033\275m\r\216=\351D,=<^\000\276x\371t\276\272-\360=\244V4\274\315\246\n\276\266\366\303=\035\353\221\276\226[\336\274\252\303\370<\255\360\223\274\261.\234=2)W\275\331\203\310=\354\246\007>\022\r\023>\203\260\021\276#\311\240\2759\212\005>\341xo=\346\327F>S\023\361=v5\346\2751\267\372=_\202\304=\241\320\362\274\325%\023>\361\203\007\275\017\027F=\016r\364=\204\004\203\275\247w&\276\3764\365<$;\203=y\020!\275\271[\305\275\234\366{<\021\310\217=\007\301{<~\207\247\274J\010(\276\326Q\363;\220\257\237=9\004+=\201\312\036\272\353\332D\275\323F\025>\355%W<\201\271\026\274\214%9\276B\035\256=\317\031\365<\014Z\273=\3008\024=\273qW\275\025\314\214<\3576\330\275\330\237\233=\263\324,\275,\\\341=\267[\207=B\371\241=\335\276&\275 :7\275v\210\242=\364\345\202= \340)<^\375\366\274\255\357\334=\273WU=Gsf<\267y\377\275\253\306N=1\352\220\275ZN \275t\235\352\274\274\'\355\275\303\324\211\275\022\213D=\341\014\001=\373\307\324<\310\033\320=\3479+\275\323\262\331<\200\215\217=r\221\217=\241\030A\274A\233\n\275\303\250\216\275\275&\316=\220&i\275\355\225\004\274\306\230`=Lh$\275\255a\030<\305-\244=\257\302\313\275I\362\256\275\273\315\251=\341\010\204<Y\375\314\275u3\237\275\033B\252\273\'L\301\275\214\376\253\275\227)\244:kn\017=c-\221=tO ;\022\202_\274v\241N<W}\231\273]\327\264=A\020\245\275@\2227>Z\330\211\275\230\314+\275\035\263\005\276\365\252\020>\230\004\014\275zn\014\275\200\257]\275\350M\267=\177\3078<3\n\032>d\251\032=2\037\306;l;\033\274\rD\027=\237c@>\t\0169<\003r\016>\016-[;\003\256\205;\231a\263\275\233\025\255=\177\224\216\275q\322\030\275\350\345\021>\247I\214=,R\213\275+()\275F!\032=\360\274\202=\202\333\347=\0028\234=\247\311\320=[7N\274[\275+=\216\247\217\274~RD\275\006\260%\276\341\013o\271\024M-<\034\037L=<A\363=6o\022\276\316j\234\274\323\257\334=\027S\341\271An\246=}\030:\274_\250\023\276\272\336d><Y\311;\222\221\210\273\217\213\252=\370\000\331\275O\310z=%+\300=\305G\325=RG\346\273l\274\337=6\245\302\272\323\2613\276\346\274\341<\021\021\177=q\317\324=&\223\037\276o\356\304;!\274\004>\013K+;\254\270\325\274zI\035>Z.I\275Y\213\225\274\345\361\306=`\300_=V9\352\273\274\346\246=\232g\350<\255\033\014=l\000\267\274\203V\340=s\242\014\274h6\\=\2235\001\275\322\3138\276\334\272\215=N\237\231\275P\223\231\275g\"T\275\"\016\221\275\216\333\370\275\307\267\223\275/\234\013\273\271\032\"\274\346\2347>\335\312;;\254\333O\275\335^$;\205\304v\275\350q\'>\222}\313=z\360\t=\'M\005=_1\002=\346\217\321;\303+\377\274\376R\222\275\3523\246\275\215\266\353<]g\226<\205X\271\275\336\276\367=8Cr=\245\344\265=_\215\'=\251\357\322=q\021\021=\330\031\032\276Gs\027>\302\347i\275\222\221\314\275U \362<\313f\327=\265#\030\274#Y\004=\350\364\347\274\274\266\032=\0213\217=*h\233=\343\263\253\273\241\233\203\275\326S\210\274\r\344\013>t\262\337=\0026\300<\301\251\275\275\366TJ>\324D\367<`1\262\274\230\364\221=\357\235\256=\230\216\254=\270\252\206\274\220x\343\274\032\277\017;HT?\276\322U4\276\234\2475\276\227\211\327\275\306\200->\377\017\\<\350\300\272\275\014\333\261<*\3204\276\260hk<l\321\t=_\177\322\274}`\241\2757\320&\27600\265\274\223#D\276\307\336|=\026[a\276\010\363\331=\231F6\275&\223\271<\322\320E\276\256\261\226\275\n\264\210\275\364\205J\276\325/\312=\00091\273\254\332\355= 8\032\274\231\217K\276\241c\206>2\013K\273\340H5>\334\0215\275\350\202\370\275\2130\205=\201~F=)O\000>\321\305M>\267-\333\275d[R\274g\241\005=\332\265\232\275\333H\224=6\3147<\247>\225\276\211#;=\003\3542=\371S\030\276\220\372\235=Y\344b\274\262\2652==\t\347\274\363\0340>b\343a\276\225\323\033\276\363->\275lP\257=\277$<\274\273\000\223\273\244\315\246\2745\276\346=V\tM\275\330\271\305=\241\022\334\274\362-\\\276\010C\317<\356\232\277\275 X\014>\033h\310=\310\264\220=ED+=\2572\003\275\014\206\221\275c]D\274(V\367\274\200\014\004\274\007#\222=3\322%\274\310\022\261\274\246\355\013=\231\257\004\276 \233\372=\262+\263\275u\377c\276>\027c\276\257\225I=%h_=-\202\227\272h\217\356=\tN\024\274\306\006\334\275\026s\3309\224\202\220<\226\036\t>\211\224\360\275\275\267\">\256$Q\274\366+\203\275\253)\372:g\223\356<\276[o=\352S\236=\375{\373\274\0000_\272\321\252\342\275\370\023Z\276\374d\352=d\234)>j>\323=b\371l;[N>>\261\351\022\275$\353\224\275\177\246\037\275\363\034\026>\316`\257;{\357\032\275\264 \003\276\240\347\225=\276h\221>\010\316\031\276\347\ta\275R\266_\275\270+\025>LDd\276\223,\245\275\367\253\335\275\301\277\362\271\207c\005\275}\032\215\274\r`\343=N\364\031>\350\341\r=\360B\r\274a\301\201\275e6N\275\350\300\252=\362uS\276X\221\256= K\257\276\340Q\236\276\225:\220\275\177\243\333\275\367\371G=\246\201\222\276\253\217\213\276\354u@=~\236\347<\330\re\275\204a\352\27586\373\275\213\021\005>\305\264o>I\267\361\275\206!\005\273\026(\367\275\335F-<\'~i=[/5\276\237\317\021=r\233\005\2751\366(=\013\235^\274\272\214\236<\233\240\200=JC\006>\2042\005=\203B\264\275\276\362\327<l\334\221=\222\017t\275\360\351a\275\210\2266\276<$*=l\003\334=\204\006\267=o\216\261=c\241\277==d+=\323_\033\276\270G%;\320c\343\275\004WZ<`\024\312<[\323\330=e\314\262=.\214\337\274h\322P=;\215\373=y\252b\275\324\210\213\275k\225K\275\3725\027\276g\233\261=\221\035\210<\034\017\201\275\t\370\242\276\324P\211=W\030[=\333\033\024=\264\226T>\t\263t\275Ds\326=&m\256\274\177,\007\276V\256N\275\202o\007\2761t\315\275\tJ\031\272\t<a=\372\332\254\2751_\000\276\212@\267\275\tu\002>\024r&\275*\352!\276\000\020[=`\234\322\274\266\330N=\276\262\007\275\\\034,\274VY =\373\002\255=\355\223\312\274\353\005,>\2719d\273)\225\352=4&\323\275\365b\346\275/\204\343<\375*\224\275\234\017\302\275\321\001\263\275w\220\'\276\370\310\004\275\332j\005\276\031vG=|\004.\276\364\351\037\276&\251\250<\243m\026\276\016\346\'>T\253\324\275\014\257\346<\214\305\262=~(t=\007\2138=\334\307\"\275\217\037\256=T`\275<\237\221\207\276?\346j\276#;\001>\351\\\306\275\337\232\322<\247\227\321;>>\213\275g*\347\275*\322L\274\366\317\'=\027\227O\275\204\312\342\275\224&\236:+\313\007=\003\303\364=\004d\177<G\304\003\276\264\231\003\274fo{\276\336\016\300=\251\264e\275\265\367C\276\225\3469>\367&\004\276\002\342\245<\333\235\210=F\360n\275\2365A\276j\222\315\275\267\366K\276\355Rn=\340\344K=\262\307\010\276\016|\345\2741\377\210\275\236\274\024\276\211\347e\276\264>\024\275a\\\020>|\260\256\275pz\253\275\336\372R\275\313\305~=\027\320\273=\022\307\t\275R\247\035=$\010\312<\233\254f\275E\326\324\275\260p\307\275\354\010\244=\353\014\010=@\362C\276\2337s=G\";\275\235\363n\275j\331\017\276\3439\200<\t\341\212\276\341T\212=HK\325\275\2242\024>\253>\314\276ps\001\275\340<\231\274\372\323\213\276\221]\263\275+=<>l\"\027\276\036\360\021\2764\035\013=\247\257r\276c\360\317\275\024\222\275\275\\\n&\276(\214\236=\336\217\025<&\237$\276\0078Z\276\320\322\267\275\360\276\260\275\006\2771\277{\367X\276\241(\270\275\272\256\200>P\325\262\276\316\365o=\313Ds\276i\260\373\273$]\002\276\315YD>!\224|\276\264\342\205\275DM\223=%\367\021>\246\026\355=\214\010R=\341W!=\034!\244\275\017\225F=\306(\272\276P\333\033=\372\236\250\2761\364*\276\260t\265\275tb\234\275\355\254\342\275\331\222\336<+\304\245=\000nY\273%\200\366\275\310\261\367=\205x\343\2745\326\345<DdF\276\225\025\010=\202\344.>6\230N>~\250\036\275\305\255x>\210\300\212=\231\233\242=FC\002>y\200\204\275`\0136>\251\177\274=\210s\326=\221 \020\273m\271\220\275\001\230F\275\335Pb\276\245\354\232\2732c\273= a\217>\345\345\264\274\246\324E\276#\322\233\275\264\327j=m\203\025>\360\030\350\275\212\243\277=\340Z\243\275MSG>\024\031\317\275\3172\256<\201\256F\276\007\355B\2766b\376\275\237\3516\276\234Rg\275\034\225\203\276\034\322\224\276\307&\261=\234\256\312\275\315\3621\275[\031\022\276\217\274\225=\365\304)\275@i\r>0\354\003=\2042\r>\366\274\243=\032\377\256\275\013\000\212>m\367\016\276\242\030\305\274\203\213i=\277\322\230\275\370\261\357=4\261\\<\014\325\n>I\0348>fr\313\275\334\024\312=\225\224\211=\327\321\036>\376R\023\276\363\247R\275\326x-\275\004)\216=\020\013\337\275p\"2\2754\372\376=\260t\276<@\242\344<\024u\227=l\304\254=\200\3536<(\353\026=\250\023\034\275\000\366\334\275x\254\312=\330d\356=\004]\300\275 \331\r= \235\265\274 \243\275<\000S\247<\340*/\274<\356\303=$Y\347\275\200\205\375=P\224\334\275\350\236\206\275Pb\367\274\340\361\331\274\200\335\201\273\320\370\256=|\334\347= \037\004<P\022\005=\000;v;\004>\335\275`\277\304\275\000\177=\274\360\317\031\275\200\345\016\2738\354(\275\200\367\006\274\340\353\r=\234@\220\275\220L)=x\343\206\275<\303\232\275\014x\320=\034\333\234\275hF\325\275\360\323\333=\000c*;\344\250\357=\220\364\245<\310i\210\275\000\306\342:\244\266\371=\010\000\210=|\250\270=\024\362\270=PS\227=\004\035\323=0w\204\275\370T\225=\220_\035=\010\022\371\275\300\255\366\275\020\016\014\275H\010\323\275\210cy=@3\301\275\304\342\212\275\0303\333\275\330\353!=\270\352\245=\300\244\207;\200*\327=\240d\216\275\000\240M\271\254\224\316=\340\215\345<\350\254\334=\330c\032\275\360t\016\275\224M\226=\234\244\243\275\240\001 \275\254\364\246\275\000\261\345:\000\000\222<\000\007\250\272\304\213\243\275\200{3\273 \2673\274\010~v\275(O\306\275\320\010\251\274\014\364\266\275\200\035\324;0\231\324\274@^\374\273\200),\275\240\223+<\310q/=<\334\260=\360C\217<\230x\343=\200i\370\275\230R\005\275\300e\207\275\300\375\246<\264\260\341\275`>\342\275\220\017\201\274\250\334\304\2750\247K=\2340\234\275\250\321\267=\240\376\212\274 \223\022<\000\316~\275\000\232\022\273\310g\325\275\360\306\256<\344\354\312=\200\006_\273\370\3148\275\210\201n=T\273\226\275\254\333\357=Z\211X\275\226\233\305\273\341\303\221=\247e\367\2759v\343=\256^\277\274\000xp\275\244\014:=\361\270\031\273\r\266\005;n\031\322:J\256\250=A-C\275\246\256\326=h\356\000<\353\353\270\275\224\315p\275\315a\265=\313\\\321=6-\002\275|,\223\275\231/\311\275<h\320\274\374\2327<\253*\264\275\243M\001\276\'\006\257\275\332\274\375\275.\322\305\275\340\211\220=PMS\275\247\341\326=\317Cq\275n?\377;Ier\275\tb\262=\216;\177\274\205\366%\276\373\"\367<=\014:=\332\031J\275\326\027\267=\2637y=\362\366\341\274\253\002L\275F\230\002>\225\200\206=\302\275\350\275\354\314\243=\272\274\240\275`\034\203\275Wl$\275\302k\214\275(\375\005\276\204\367i\275]3\221:\270\372\007=\2372\\\275[{\357\275b\005\n\276\351\007\261\275\371\342\342\275~O\031\275\224\023\351\273\244\004\377=}e\003\276T\3713=\223OH\275\341\024\320\275p\372`\275uL<\275\206\245Q=#`\206\275\321\307Y\275\223s(\276<\030\007>\'7\253\273\037S8\275\274%\001\276n\236\247<q\247\016=m\026\305;M\304+\274\2460\227=\2400\256<\354_\366<\331\361\201<\312 \342;\3200\250=\252\260\225\275_G\006\276\r\323\r=\336+7<L\276\030\275\020}Z=\341A\247;\017A\t\275\347\231\274= \321\240=\2266\022\276\256Y\206\275\277\\\t\276\345OV\275\311\207\216;r\334;\273\324\030\214\275\204\262\022<|_\363\272\002\255\256=\361\355\256\275]\'\002>\014;\251=\313\002\211\275Ou\375<\264\202A=\366P\366=\2777\270\275\037m\313\273\356\323\027\276b3\245\275\360\013f\275<\223\362\273\233\242G\275\253\271\251;\277\033\237\274\327\"\201\275\371\330 \276\263R\317=G\350\305\274-\005}\274\003Z\200\274\0023\263\275\237M\010\275t\177\333\275\316[\334\275w\342\356<\220.\244=u\337\353=T\'\346\274\267\250j=n\323\263\275\255g~\275\334J\217\275\005\002\226=\205s\245\2754(\202\273b\312\220=e\335\247\274\006h\326=$\225K\275q\035\210<\265\377\237\274(\\\321\275\214\252\315=\"^%=Y\355\036\275\027\321\275<\233%\002\276\036\202\206\275kY\271\275\000\247\227={\214\t>G\032\366\275L\254\"\273\215\306\374<\305\345t=\274\031\270\275\344\312\237\275\231j\301\2735x\367\275\n\034\273=Z<\217\275b\202\346\275\271\000U<\217\017\251=\301\350\253=\313(~\275o\255\324=R}\003\276\264JC\275p\217\276\275\263g\203=K\276\033=\262\250\014=\016]V=\023}\310=2\345\272\275!\\(\2750u\372<\253g\326=\270\351[\275\307Z\"=\2322\226\2755\273\222=\255w\327<uF\202\2757\217\352\2758\205\205\275=\267Q<y\271\221=\000\037\037=\016P\250\275\014*l\275\264s\270\275\022L\272\275\344P\272<\177\321\350=\234k\034=\362\333-=~x\312=\022\017\242=\226\235o=\214\323\232=z\370\251\275F\023\032=\337\225:;by\227\274\002\372\021=a?\273\275\027\376\325=\320M\354\275\314L\255\275V\276\230=\265\334\014\275 W\302=\351\313\016\275\314\207\252=\360\006\355<\273\001\245\275\251\320w\275C\207\210=i=\272=\277\250m\275\317\345-\275\344\002\217\275\'\304\261=}\3779\275t\350\214=\265I\'=\212\311l\275\273\347\322<\020<\240=$\245\246\272+\004\235\275\030\346\211=fj\032\274\325\206\321\275\270\363\313=\211\333\330\275Z\255\203=\0220\317=* \223=\340\225G\275\303\313\t<\212XG=\025\212\337\275 R\201\274-*\246\275\335\376\246;\376o\262\275\342\\\365<\324d\r<\nsF\274\014\217\230\275zC\217\275M\027\202\275\203~\201=\365D\002=\205G\356\274\001\302\302<Y\226\037<\240]\272\275\272??\275\0258\264\274\320yZ\275Q\300\254=M\223\356<I\277\310=\313\310\002=~\350\244=Y\260\224\275\244\337\031\275\372V\003\276JY\007=X&e\275\"\207\263\275\342>\332\275\200)\257\275\022\222\243\274!\342x\275\013\201\004>\314\221e<\212\205\361\274e:\\\275\371\004\362;M\253\343<\366\361:\276\357n\334\275F\302\016=\245\014\374=\211\354\236\275)\024\274<\344\t\205<\225\027\366<\304\237S=\273\001\225\275\r\351r=?\343\341\274\355xP=\200\210\274;\352o\335\275\302\307\303\273\334\323\025\275x~\240\27559\324\275UN\343\275o\327T=\004\r\006:\303\320\022\276\311\020\217<K\340\325\275\261!w=6\306\020=\313S\036\2756w\341=\"\264\362=~C\336\275\203\245\373=~\345Y\276\321\343$=\014\323\201\275\260Lq<\217\371X\275\205\326\225=-\261\214\275\n\307\200=\244n3=\306\224\376\275\375*\000\275\205\271E\276\365\327:=\0037\311\274\341%\207=\313\263+\2763\030\003\2769\245\323=\343O+\275\354\312k=C/\013\275\267\241H\272\tE;<\233a\310<\360\027\234;\200\333h\275\304\207h=\036\306+\276\247]\243=\277\222\267\275\356\336&\275\017\3270\276\034M\334<\244u\003=\206\304\000\275\332\310\230=\300\364\005\274\034\211}=-\302\206\274\035\300i\274\3020s\275\210\337\311\275\330M\212\275u%<=F^\203\276\362\214\203=;;\256\274\340[\271=5\252\013>\310\017\220<\260\371\366=\235\2106=\r\035\252\273=\252\237\274\010\343\224\275h\213)=\354\002a=\243J\251\275\203\317\255\275\376\017\216=\217\200\323\274s\3371\274\302{\252\275k\235\246\275\007\352\002\274\257\027\333<k\360\367\275\224\361\224=<\032\014>\311\242\345\274:>\357\275(\261\372\274\254#\252<\303\225\310\275r\037\310\275\"\261\024=\214\n\006\276S\337\364<#\357:=\341\006\267\275F\353\247\275`X\230=\225\252\326\275\2668\245<\264\245W=3\276\\<+\371@=\372\247\243\274\330\177\267<p_\">\213\333_=\216o0=\211\016m\275\027\351F=\025\373\312=\301c\250=.\002\030\276q\377\217=N\223\013=\234[\230=*\007s\275\271;\256\275(\334\310<\2551k\2754\310\272\273\335\307\200\275\003|\032\275/\033\204= 