node {
  name: "input_1"
  op: "Placeholder"
  attr {
    key: "dtype"
    value {
      type: DT_FLOAT
    }
  }
  attr {
    key: "shape"
    value {
      shape {
        dim {
          size: -1
        }
        dim {
          size: 13
        }
        dim {
          size: 21
        }
        dim {
          size: 1
        }
      }
    }
  }
}
node {
  name: "model/conv2d/Conv2D/ReadVariableOp/resource"
  op: "Const"
  attr {
    key: "dtype"
    value {
      type: DT_FLOAT
    }
  }
  attr {
    key: "value"
    value {
      tensor {
        dtype: DT_FLOAT
        tensor_shape {
          dim {
            size: 3
          }
          dim {
            size: 3
          }
          dim {
            size: 1
          }
          dim {
            size: 32
          }
        }
        tensor_content: "\261I]\277o?\355>hw\233\273}\346\304\276\205\364\275\275\306[\210>A\356\025>\177P\241>\300\177\t?g\017=\300\205\241=>x[\240>jX\355\273zG\306\276\210\367\251\276;\376>\300\324\310\022\277\"\020e>@\312\256\276@\252}=\256o\316\276\213\326\252>\262\352\177\276\205It>:\223\216\277\221l:\277\2529\267>E\030*\300\207\200\013=\036\222\270\277\314\300\304=\270v\033\277\001\361\013>\366\275o\276m\003\323>ji\361=\311\206\022?\323D\n>\264\364^=gr\327=k\241$>kM\222\277\0038\200>\227\237\246>\370=\016?`q\274>p\376\217\276\226\"o\300,\022\214>\204\3334\275\227q\261\2757u}\277\376P\303=\242\005=\277\240\3575=*}\276>5`\321>\267Y\334<q\362\315;\346\313\263>\0134\274<\351C9\300\246|\303=\020\320\317=\273xf>I3\274\276I0\037\276\024{\250\276\276\020!\276\266\210\365\275e\330c\277]X\003\277\213A\270\300@\244 \274\250q\316\276\212U\003\300\2461\200\276R\203\016>\033 f>\216\310\343>\234\315\304>\037MX\277\335\261\247>\267J\221=_\256\252\275\353}*>\"b?>Z\242\212>\213\273\251\277D\001\204\277\250+\207\276sU6>G\202S\277\345 i\300\317\323x=\356\037\203>\304,]\277\241\221\023?\032\2328\300\261k\265\276\035\322R<\276\200\311\300D1a>\304\313\037\277B\037Y\300\270%8\276\202\233\335>\340\343\350\277nQ\026\275\r\363\024\277\235\\6>\357\231x=\365&\302\276\205\312\251\300\246\301\370\276\213\375+>\200\004\255>\260y\030\276\330\260\333>\230:\232>M\316\303>\327\240\030\277\230\206\267\300}\023\n?\302\026m>\014\' ?\326\271,\300\002\0271>\344\317\331=\321\327\255\276W\317 \300\376\036\267>\323j\001\277\355\346\203>?\211(>\031\n\'\277\220\034\222\300Z\234I?[\271\202>\017K \300a\033\017?\213\373\237>\324Ip\277\031c\310>\252\205R>\232j\235>\031\225\227=G\235#\277\025\2655?h(\014\277g\211\234>qe\243\276\264\333l\300`g\336>\216\2618\277X\323\224\275\333\272\024>\356|\031\275\274\031,\3001\354\353=j\366\373\275\224\213\220\276\031\347Y\300\354\252\233\276\237\340\003\277\235\277\021?\363\210:\277\210\302\225>[\266\252\300\333\3059\276W*\021\277\244F/\300\344\262_\276\253\327\352>\366\nY>\365\375\'\276\341\252_\276\372\273\271>\302<\306>\363s~>\277C\274<j\217\222=M\241\304\300\300\260\245>\277\325\006\300/\224+\277\2146\364>\333b\223\300lp&\277\350\306\302\276]\035\354\277\\\360m\277\0045+\277|\205\320=\277\212\377>\014\211\206>~\372\270\276\352\343\207\300\315\373B\275\236p\277\276\377\250\347=-\213,>{-\274\277\022\370\316\276\024\3169>G\267\210;\362>\254\275\325T\253>*7\350>m:\235\300a\265B>f\2247>\247H\255\2768,\036>\267\212\316\276\216\333\366<E\371;>\n\000\342\276i\243\221\300\246A\237>c[!=K\227\230\276M\243\221\276\344\265\230>\204\342>>)i\263>cZ\231<\231\272\030\277\240\204 \274z\032k\275\017\327\257=\213F\306\276\377\376\022>\306\345\251\300\021\242\337\275\225\241e=,\343.\300\326p\361=fR\317\276\013:a\300\214/\002>\275d9\300\363\014g\300\031\025\001\277D%\315>\314C&>\377C(\300\374\336\346\276H\340\\\277\255\223\262\277\353\230\204\300\315\240\342\275>\227\270\277\314\214\216<\321\215\215\276\200o\373=\025QT>\216=\227\276\356E\366\276\201\252T>oZ\354>r\033\223>-`\350\276\014\313\217\276\241\320;>\260\t\327=\277\250\226>\200i\250>4Q\\\300[N\346\276lh\";J8e\300\250\356\005\277?\276\302\276\317\032Y\300Q\004[>(r*\274\177\274O\276\331\325\240\300\317\033\033\275\020t\214>\377^\211>W3\334\276\210\221\005=\331%{\277\253\363\267><\035\355>\367\204\003\277"
      }
    }
  }
}
node {
  name: "model/conv2d/Conv2D/ReadVariableOp"
  op: "Identity"
  input: "model/conv2d/Conv2D/ReadVariableOp/resource"
  attr {
    key: "T"
    value {
      type: DT_FLOAT
    }
  }
}
node {
  name: "model/conv2d/Conv2D"
  op: "Conv2D"
  input: "input_1"
  input: "model/conv2d/Conv2D/ReadVariableOp"
  attr {
    key: "T"
    value {
      type: DT_FLOAT
    }
  }
  attr {
    key: "data_format"
    value {
      s: "NHWC"
    }
  }
  attr {
    key: "dilations"
    value {
      list {
        i: 1
        i: 1
        i: 1
        i: 1
      }
    }
  }
  attr {
    key: "explicit_paddings"
    value {
      list {
      }
    }
  }
  attr {
    key: "padding"
    value {
      s: "SAME"
    }
  }
  attr {
    key: "strides"
    value {
      list {
        i: 1
        i: 1
        i: 1
        i: 1
      }
    }
  }
  attr {
    key: "use_cudnn_on_gpu"
    value {
      b: true
    }
  }
}
node {
  name: "model/conv2d/BiasAdd/ReadVariableOp/resource"
  op: "Const"
  attr {
    key: "dtype"
    value {
      type: DT_FLOAT
    }
  }
  attr {
    key: "value"
    value {
      tensor {
        dtype: DT_FLOAT
        tensor_shape {
          dim {
            size: 32
          }
        }
        tensor_content: "\251\216\377=\230\225\221\275\254\260\300;,\216(>\243\212\270<\022\267\265\2750\304]>\273\246\264=\310\313\303\275\205\232\005\275y\016\317\273\006\207\205\273\3473=\273\301\227\">\260l\263>\365\261\257\275c\030\227\2764Y\034\275\2015\226=j\0032>\272\271=>\022\323\210>?\206\230=_\207\376\276\360*V\275a\312H\275Q\256\213<\265\262\004\276WI`>\034\203\225<\334\270=>\364rA>"
      }
    }
  }
}
node {
  name: "model/conv2d/BiasAdd/ReadVariableOp"
  op: "Identity"
  input: "model/conv2d/BiasAdd/ReadVariableOp/resource"
  attr {
    key: "T"
    value {
      type: DT_FLOAT
    }
  }
}
node {
  name: "model/conv2d/BiasAdd"
  op: "BiasAdd"
  input: "model/conv2d/Conv2D"
  input: "model/conv2d/BiasAdd/ReadVariableOp"
  attr {
    key: "T"
    value {
      type: DT_FLOAT
    }
  }
  attr {
    key: "data_format"
    value {
      s: "NHWC"
    }
  }
}
node {
  name: "model/activation/Relu"
  op: "Relu"
  input: "model/conv2d/BiasAdd"
  attr {
    key: "T"
    value {
      type: DT_FLOAT
    }
  }
}
node {
  name: "model/batch_normalization/ReadVariableOp/resource"
  op: "Const"
  attr {
    key: "dtype"
    value {
      type: DT_FLOAT
    }
  }
  attr {
    key: "value"
    value {
      tensor {
        dtype: DT_FLOAT
        tensor_shape {
          dim {
            size: 32
          }
        }
        tensor_content: "Eu\246?\274\241V?\345\344\226?\026<\205?Z\212V?(\343\202?.\356\227?t\240u?\234\316\212?\224(\207?*\210|?x\252\274?\2479\207?\002*\211?\205\373\275?3\2329?g\036\266?\021H\345?\312!\216?\340&}?\217\275L?\247o\200?\216\367\270?\007\262z?<f\310?)\002\302?\244\326\233?j_g?\257G\232?J\014j?\217\356Y?\r\265\221?"
      }
    }
  }
}
node {
  name: "model/batch_normalization/ReadVariableOp"
  op: "Identity"
  input: "model/batch_normalization/ReadVariableOp/resource"
  attr {
    key: "T"
    value {
      type: DT_FLOAT
    }
  }
}
node {
  name: "model/batch_normalization/ReadVariableOp_1/resource"
  op: "Const"
  attr {
    key: "dtype"
    value {
      type: DT_FLOAT
    }
  }
  attr {
    key: "value"
    value {
      tensor {
        dtype: DT_FLOAT
        tensor_shape {
          dim {
            size: 32
          }
        }
        tensor_content: "{r[\275\241\325\271=\262:\341=s\355\355\275}W\273=\232\016\033\276\214\036\367\275]\307\224\275x\024\364\275\204\330\270=\271<\354=z\322\n>\212A\020>P\247\317<Xrz\276\254\203\337\275>\277\333<7eC=\373\277\315\273\246\275F\276\353\033\217=\363W\373\275\340\014\203\275t\203\264\275\324\236\237=\326\314\255\274\2105k=\035\370\215\275\302-U\276x&]=\330G\264\276\2515\224\275"
      }
    }
  }
}
node {
  name: "model/batch_normalization/ReadVariableOp_1"
  op: "Identity"
  input: "model/batch_normalization/ReadVariableOp_1/resource"
  attr {
    key: "T"
    value {
      type: DT_FLOAT
    }
  }
}
node {
  name: "model/batch_normalization/FusedBatchNormV3/ReadVariableOp/resource"
  op: "Const"
  attr {
    key: "dtype"
    value {
      type: DT_FLOAT
    }
  }
  attr {
    key: "value"
    value {
      tensor {
        dtype: DT_FLOAT
        tensor_shape {
          dim {
            size: 32
          }
        }
        tensor_content: "\363\177\365=\344\304\331;\356F\221<\251`\032>I\221\354<\306\356\276;g\366X>\224\360\260=K\241\220;\375L\262;\000#3<~<\221;\252d\021<K\202;>\305{\252>:\016_;G`\257:I\3415;J}\227=\336\242.>\036\206J>\276\202\205>F~\212=\250\352\310:P\250\356:\033\356R:\253\264\201<O\304r;\266\004P>+J\354<lv@>\000k8>"
      }
    }
  }
}
node {
  name: "model/batch_normalization/FusedBatchNormV3/ReadVariableOp"
  op: "Identity"
  input: "model/batch_normalization/FusedBatchNormV3/ReadVariableOp/resource"
  attr {
    key: "T"
    value {
      type: DT_FLOAT
    }
  }
}
node {
  name: "model/batch_normalization/FusedBatchNormV3/ReadVariableOp_1/resource"
  op: "Const"
  attr {
    key: "dtype"
    value {
      type: DT_FLOAT
    }
  }
  attr {
    key: "value"
    value {
      tensor {
        dtype: DT_FLOAT
        tensor_shape {
          dim {
            size: 32
          }
        }
        tensor_content: "\205\205\321:\223&\013;\251\303\362:I\345\332:\016:#;\246Z\004;VL5;\344a\245:\321b\230:G@\025;\352@\';E\377\237:\033\365?;\246\232\205;\231\365\226;\177Q\\:\001\246\2019Z%[:T)\324:\324]\343:N\210!<\33074;o\357\322:\245y\2769\342\273\3309\025\336?9BH\221:\354Y\206:S\334?;\303;\';w\014+;\263#2;"
      }
    }
  }
}
node {
  name: "model/batch_normalization/FusedBatchNormV3/ReadVariableOp_1"
  op: "Identity"
  input: "model/batch_normalization/FusedBatchNormV3/ReadVariableOp_1/resource"
  attr {
    key: "T"
    value {
      type: DT_FLOAT
    }
  }
}
node {
  name: "model/batch_normalization/FusedBatchNormV3"
  op: "FusedBatchNormV3"
  input: "model/activation/Relu"
  input: "model/batch_normalization/ReadVariableOp"
  input: "model/batch_normalization/ReadVariableOp_1"
  input: "model/batch_normalization/FusedBatchNormV3/ReadVariableOp"
  input: "model/batch_normalization/FusedBatchNormV3/ReadVariableOp_1"
  attr {
    key: "T"
    value {
      type: DT_FLOAT
    }
  }
  attr {
    key: "U"
    value {
      type: DT_FLOAT
    }
  }
  attr {
    key: "data_format"
    value {
      s: "NHWC"
    }
  }
  attr {
    key: "epsilon"
    value {
      f: 0.0010000000475
    }
  }
  attr {
    key: "is_training"
    value {
      b: false
    }
  }
}
node {
  name: "model/max_pooling2d/MaxPool"
  op: "MaxPool"
  input: "model/batch_normalization/FusedBatchNormV3"
  attr {
    key: "T"
    value {
      type: DT_FLOAT
    }
  }
  attr {
    key: "data_format"
    value {
      s: "NHWC"
    }
  }
  attr {
    key: "ksize"
    value {
      list {
        i: 1
        i: 2
        i: 2
        i: 1
      }
    }
  }
  attr {
    key: "padding"
    value {
      s: "SAME"
    }
  }
  attr {
    key: "strides"
    value {
      list {
        i: 1
        i: 2
        i: 2
        i: 1
      }
    }
  }
}
node {
  name: "model/dropout/Identity"
  op: "Identity"
  input: "model/max_pooling2d/MaxPool"
  attr {
    key: "T"
    value {
      type: DT_FLOAT
    }
  }
}
node {
  name: "model/conv2d_1/Conv2D/ReadVariableOp/resource"
  op: "Const"
  attr {
    key: "dtype"
    value {
      type: DT_FLOAT
    }
  }
  attr {
    key: "value"
    value {
      tensor {
        dtype: DT_FLOAT
        tensor_shape {
          dim {
            size: 3
          }
          dim {
            size: 3
          }
          dim {
            size: 32
          }
          dim {
            size: 64
          }
        }
        tensor_content: "\326\354\003=\305\\\276\276zn\314=\217\035\277\275\361\331\346\275M\010B\276#\207\205\275g\215\332\276V\321\"\277|\237\304\275:\316\333>\240AL>.Z\246\277\032\377!\277\246SB\275\021\377E?\014\036\034\276<\251\032>\007Z >\253c\317\276\264GU\276\031!\337>\024\237\315\274\356\253;\275c?\363\274+\235x\277\332\275|?\221 g\277\257\362P=\224\363\n>\032W\375\276C\345!\2761Dq\275\201O9\277`B\256>\030\232^\274\255\327\320\276{e\241\276\365\375\210\275k\267\321\275\233q5=\237\342\212\2741-&?\220\305\355>q\031\241>:\326\032\276&&\266\276GF\253\276\376\364\002?\353?}=\267\216\276>\027D\005<\024s\231\276Wm\360<\214\377\231\276.\2738\275\370\030\027>\270\246\017\276\023\241\370<\311\276\251\275\364:\307=\316\317\032\277MM\274=\203D@\276\221\335j\277lC\t\275\272O\233\276\266\354\010\276=\277I\275\311(\233\275\312\226\r\276\202\004\222\276\324\340}\276\360\313(>\264\253\031>\020\031B\277\005\020v\276\324\226\257=\323\'\246<O\201l\276\335zI\275\276\214\262\274\315\361\337=\003h\302=M\266\016>7\003\300\276\341\036\267\276\345\233$=\343K\004>\261KD\275\007\021u\277\310c\212\276\231\322U\275\265K\230=\262\360~\276\271\034\020\300jy\255>M\346\025\277\0247\341\275\022\3408\276\254&\024\276ilL\276\370.\037>\276\350\306\275\351\314\274\275\\\353\220\276\200U\"?T\035\326=\276\307\005\300\367\230\213\275U\366\204>[d\211<\241\334p\275Th5\276\317\300\336;\255}\234\275\335\237\016\276\3204[\277\271\277\212\276H\247W\275\274\263,>\214\327\347=\004h\270\271\362\272\323=`\304\233;l\305\020?\000\327U\276\334}w<\n.\345\277_F\370=\315\2326\274\305\235t>\314\355\221=N\374X<\301$c=\336p\250\275\257\316\350\276s\253\210\276\007\331\217>\006\252\241\275\213\373p=-\'\357=\2675\010>\247\270\311=\262R.\275x\343\314\275m\230G?d\330\235\274Tb\001=\024\354W\277\027?->\336\277\355\276t\241\221<\001\013\317\274\360\231\222\275R\305\347>\305\330\250\273\342\\m\276B{z\276\257\320\000\300\262v\273>(\262\203>.\275a\275\242\231\200\276?Y;>\254\203\265>e\271J\277\361\311k\276\364\216\253>8u\273\276\373\245\361=O-\361\276s8\264<\030\216\373\274\004U\367=\033\267\022>\263g\233\275/\305J\276\254\342\332\275\337/\263=%/\014>\240\270\274\277\001\214\034\276l\014\223\276\275:\266\275\211\333\256;\201\220\276=\376\377E>T\323\\=-\272\312\275\236\312>\276\326\233t\275\2237\361;\214\t\320\274\300\335\337>\002H*\277\300\306\250\276\322\027\010?\253\212d>\241\214U\277\210\203J\277\261\n\242\276\315\370\325\276\034\277!>\207\002\n=\030\243\206>\256W\221<O\304\250\276\272T\311=/\240\362<\236NM>\220\201\t\277\246\222]\276Hv\023\274\031M\014\276\312X\351>\013\023\305\276}\301+\275a\341\316\276\346na\273\2256\236;<\331\311=%\212/\276\252\211^>v\2563\276\360\3431?\033D\037=\037Sy\274\006W\354\276\313\313\262=\357\016\">eu\344\275\354\177\303\274\237\240\344>aW\252>:|\033\276\222\361C>\344\000\322=\320\276\177>\235\207;\276\337|\223\276\257x\023\276\341Y\213>Y\213\226>\036#F\276\2459\320\275fO\265\276\3353\217>,\214\222>\211\212\271=.V\232\276\224\337d>\374\337.\276\312A\231\276 \221%\276\021\302\350>\246\265\246=\027\305\234>\200\224\033>?\241\334>\223Q\255=$\305\360=a\"j\276Y\354\261=\272\307S\277U\361\221\276\027(\363<X\374E>\276]\241>\'\030\005\277\355\300#=\027\261t\275\200\220->\000\250\013>$\031K>\226,+=cq\204\276\030@?\276|\260\251=\324\362\262\276\361\326q\2766\323\362=\241\220\313\274h\177\000=6r\240\275\235N\324\276\020d\320\276\307,\373\275X\243h>\2409\264=\265i\271\274I\217\247<\tb\'>\346\020\312=\3139:\277\200b^>U*\206\275\232\251\014\276B=\005\276G\247\016=\372\024y\277\\4\300>Uj\311=f\345\006\276\035\244\352<,=\'>\375\026\221\277s,\302=\350\300\022<\312\331\245\276Y\312.\276/s\227=Q\272\315\277C\216\231\277^\346\207>\235\216\266>O\014\345\275\224\366]\276F\211\203\277?\033\004\275\247k\343\276\355\2061;\322)4=\245>\272>$\344\246\2740\302\360>\300 \331=\304\257\214=\362\252E\277xL\324>\030\303p=\207\350P=\033\177\340\276W\217\r\277\335MW>\017\220\235=\335Z\222\276\037-\274>\237\302\351=U*\233\276a\243\352>\023\376g>\311\010\350>\354\247\n\277\247`\266=b\362\361\274&\\e\277\216~+\274x)3\276$Y\377\277\263.\221\276\2407\252\276w\304\302>\323<r>V\202$\276\025\221\022?\202\372\264>\275J\n\277q\352Y=-%\013?\003\257V>\365\277\022=<\367\266\276\342\0179>}\310\346\2767\230\340\276\237\217\331>R9\237\276\314\035\036\276\311\266b=\017\355]\277\241\261\201>2\237^\275Y&\306\277r\367s>\361\200\300=\022\361\263\274\271q\352\273\270q\373\276\004\236\014\275\367\227\356\276Q\217\016\277\035dn\276id8\2779\214\254>\364\025\277=\314**\276\202\342\251>\345w\270>\345 )>\242\266K?ZV$\276\014`\267>K\037M>\316\263\233<M\377\020\277\217\rW\276\032!\234>:\253\370\275\243\307\364=9`\022=\265\2558\277\004i\256\2751[\022\276g!\361=>\"\351>\272\033\336\275q#\341>\270]\230>!\243t\275\311\030.\276\342\304\311>Xw\210\276\337i,=m\332\314\276\026\223,>\377{\265\276\244\233\236\276\224\244)?\361_\370\276\311P\001?\324\207\220>f\300\021?\330\213\333\275g\373\036\276$\025\017>\204B\225>\256\032\027=&\036\023\276_\203\362>\315\344\307<\005\264\314>\220\251\237=M\200\323\275a\201\254\276Mi\340=d\260v\2779\007\346>gA\211\276\tEN=\274\264\010\276\017ZT\277^l\014\277kg[>\304n[\277\245c\311\275\260\251V?5\025\276>\256A/>b\324,>T\265Z>F\312\340=\374\350\326=Cg{>\2432\314=\262f\034\277l\024$?\232\030\205\274y\305\273=\014\227\030>\342+\252\275^\"\006\277z\215\030>\0163$;8\376\372\274\2436\001\277\333,\230\274t@\036\275\333\316\234>\321%\021\277^\353F=\277k3\276XkI\276C\200\320>\344P\351>H\341\347\275\216*\217\276Q\200\315<\206\233\036\276LY\333>\321\232\007\276Z\010\250\276_4\224\276>\376L>\362\312\005>\271(\345>\315\345N=\221\313\277\274\341\216\377=\256h\217\277\220<[\277\026A\n\275!\271\017\276\274C|\277\004\024D\275\032\303\021>y\272\370\275\333\036\232=R\241\233\275O\315\200=6\360X\277\216 \230>\326r\203<\315\336\004\277u\003\277\275\334\346H<5\010\341\276FL*\277{:\003\277\177E!>M\033\353>B\003\006\276;\'\213\276\316+\277=\230n\221>W\002_\276])T\276\216\365\221>;F\341<\277Q\314=\271\250\210\276\317\203L\275\240\023\302=\273\211J\276\371\203\241\277\023d3\277G=\366=\220\033S=\r\210\211>\r5\313\275\303\375\311>\357\274\"\275r\211\361\275I\310\020\277d\362\345\276\240\334E\277\004\025\336>\230\243\331\276\2618-\277\205\017Z\274m\214\037\277\363\207\020\2779aR<w\363\366\276L\230\307\2758\371\227\276\370\220\204\276N\251\t>\034\210\243\277hq\246=\230\320\274>f\211)\277\014p\310\275\244\234\202> \327\315\276\323\213\216\276Qg\347\276\261\265\247\276\301\n\360>\364\221\265>\010\000\242\276\330\\\t\277\305\234\310\276hO0\276M\003\217>;\'\207\275T\255\377<\257\024\275=.\227\005\276ZO\214>e\344\n>\257\345\237>&\357A>\347?,\277\3552\265\277\216\026\242>\007\374c\276\362\027m>0\007\031<p0[=\341\255\254\275[\275\320=\312\037\201=\254\204;>.~\221\277z\264\261\275\302}D\277\336(\r;\233\2761>\270N&\276 \237\032>>\3505\275\313K\205>L9\215>&jC\276\304G\321\277\350\241n\277=/I\276\230s==m\235\234\277\364\301\211?@\254\\>\235p\014\300\302\267\236>bQj\276\352\271\323\276\234W\360\276>\267q\277?\320\272\275\316\003\t\277Q\335\372>\255\032l>\0343\317\274\tT\025>F\264\357\277^n2=E\226\n\276\244\353\037>\036DG\276\r<r<7\314>>\210\025\201>S\301\244\275\227qI>\216j~>\340\306\007\275/\340\350>!\032\024>\265?\334=4\215\304\276\207\222N>\321\352\036>\353\365\266\276a\273\360>\325`x\275\321\361k=\025\025\241>\376B\270\276\225\301\t\277>\305\033\274\270\304S\277w\274\365=\254\366$\276V\017\036>\366\215\000>\025@\026=\223s2>\322\367\273>\330\244v\273\264\241\213>{\355\366=7\314\024\276\010\332\371=\271WA>\270m\376\275\341U\303=\305\231 >(\242M>T\323\256\275\262\365;<\203\226\272\276\r\372K\276\323?Q=E\034\017\277\007\247\246=Z\313\250>\031\333\030\277\214\t\250=\347\375\017\274^,:\277\250\363\326\276\362\255\327\2768\210\227\273\317\2155>\200E,\275S\224\325>?\302%>\307\257*\275\306\3333>\244-\364\274\263\2368>\250\376Z=Z\340\330\276\213\214\255\276\225\033\023\300\311\356\205=\205 \225=]\302\276={s\255\275\013\'\207\276\325s\312\277\362\340\333<\263\204b\276\211\323.\277\315\nR\276\202$\212\275c\205\006\300\310\353\372\277\336\312\025>\335\016\333\2766K\265=[\344\'=0\007\236>\250\265\024\276PW\270=\377\016j\275\205\3156\276\273\257/>\3112\254=\347\267\r=L\263\014\275\210\300d>\345\270b\276\326\201\264\275\372\335I>%\022#\275b\211\217\276oV\031\276\033\203\260\275\262}\255=W\217n\275\331I\370=j]\215\275h\361q=\025\322\262<\212\311\257\276\321\3571\276W\002\300\275\254)\251\276\356\'\237>\351\231w\276\n\216\033>\257i\222?\177\031\217\275\246B\225\276\343G\217\275\336\3232\277\337\347\033\300\307\001\361=\251\217\361\275~J$\277\347\366\362=s6}>\005\217\251\276sM\211\276\002&\'=3\251\331\2759\307`\275`\na\277In\375\274\342{\365\277\372$\030>\002\375\300>\\g\002>\205X\243\277g\265\374\276\301\3433\276E\265V>\307\315\203>}\303\013>\276.\360\277\006\277\257\277\367QZ=\266\224\020;/V\334\276C\351\206\276\303dQ\276\301?=\276@\177\324\276\377\334\263>\000\021L>s\227\216>\372S\005=\231\262\353\274\272;\\\275\016\264\252>*!\377\276\272\020\345\274,%\350=;\300\371\275\233\365\006\274\334\264\225\276D\304\234\274\021Y\024\276\3305\333=\304!)>\262lR\276RL\'=\305\200\231\275\305CF\276\373\200\013=\345\237\005\276f\211\331=\"_E=s\200a\2760\300\242\276\263\310\216\274R5\243\276\225\214\020\276\342c\314\277\231\264\231\275\301.j>|9T\276VZ\005?\213\360\257>,c\233<y\001\006\276k\224\244\276]\352t>\301\376\274=\207L\201\277\344~\005\2767\3057\273\321j\257>t1\006\276K\274\212=\213\304\034=\300X\365\275\014\316\273\274/\351O<\346\323\242>\336W\300\277joc=\342\004R>\373\234\360\275\311\001O\276Jxn># ?>\364\370\036=\347r\212\275P\312\230\276\206dP\276\304\036\231\275\257 \365>\001\310\371\275\313}o\276G\325\000\275*\023\005\275\202Y\240\276\224-\\<\317\2544\275\320\204\230\276\004l\303\274\331\356\023>B\210^\277\274[\202\276/\233\273<n\270%:\331s\006?E\031&\274\033\327\177\274:)\025>\210P\264\276\037\332\273\275<\304i\272\014\370\262\276\206\007\220\276\326\023\255=Z\221\242\276\361u=\277f\252M\276\355\250\242\2759\364)>\254\270\236\277L[\335\274\235\037\031=m\037{>\2343\231>\271\321\257\2767fz\276\237\366\264\276\202\250`>\013\256\374\276\370\271\245\275\275\307\221\276\243iB>A/\'\277\034\3434>s\251\016\274\277\002\207\276\243^\225>\210\342\355=\232\253\257\277\016Ie<%z\001>\334\270w\2763\250u\276\214\374\017?z\375+\277\003\236\373\276\343\362O=Z-\220=\373\346\227= De\277\005J\307;\013\351\305\273p4\037?\246}\204>\264\376I\276\232e.>|\373\235\275\233ht\275\364\2531>t!\027\277 \206\212>\257\235/\276CJ6=\236P\351>\341\202\031\277Nw\362>\262\222y\276#\027\235?\3129\237\276\251\351\004\276\354ld\276<U\334\274\374\213\010>?\247\254\275\027\341\013\276\372|g\276X\331\240\276\223\010\230\275,\263\030?\313\022\224?\340~d=?%\321>\233\222\205<\016\301O?\332&F\275#eT>\336S\363\275\324r\200>h\207\324\274\255\017+>u\204b\276QL\347=\260L\246=\271\n5>\001\255!>.&\254=\023\030+?\263\333\260\276gY\354\276\212Nr\276\234\276\020?=\205\241=\311+3\276\261\254\310\275\222X\317\275T\336B>\211#\n\277\370\366?\276[\345\014\276u#\251=;/E<CY\021\277\234\025a\276a\350\255\274I\376@?\025\212%?\316\tT\276\265\334\306>z\342\340<\274\225e>o\301,>[\205\225\276\t\r\342=n\303>>\253\222\203\277n\242\312\276\3612#\277\300\337q;\362\005m\276\177A\027\276M\350%>\014e\301\276\247\257\273>E\243\362>)K7\275\361&\326\277y\347\223\276\213\027;\276E\243\214>\217\313\010\277c{\320=\353z6\275\200\271+\277\334\230\303\275\376\205\027\276\2777\305\276t[\266=|2\313\276\211J\225=0\001-\277\341\026\232\276\233\001\254>\313\341\264>S\361\261\275\262\270\023\277@\275\213\275\344- \276D\254\336=UI\022\276|\273\217\276\202\342\241\276\306\361\021=Ps\323\275\303\242F>\210~\270;\227Y\200<{\275\360>\364C\303<#\333\337=\2473\026\277\26450>.\326d>\200\371\302>\230\355*<\232\301\305\276@=\033>\262\210K=\301J\"\277\371\013\362\2755+\211\276\203rE\277Az*\276\253}F\276\r\313\226\276\'\315\023\275\360X\234\277\252\362\001\276X\0135\277\315H6=\3300.=\253^2\276\301\324\t9\211\237I<\361\325\273\276\210f\227=\014\342\372<+\241\215\274j\270\036\276\255L\312>Si`\276\377\2400\276\337\216\313>\242\306\253\275\3048\334>L\030\321=\261\025.\277\243\030C=\304\005\331\275\260\356\213\276\321\253\230>\307\005b>\241\323,\277\240\026\200>\262xj\277N\220\226>B\277\303\275<\242\277\276ZG\324\274-\220\236>w\024I\277\327b\370\276\255a\001\277\023C\243>\357\000\244\276{H?>\200\022\213>H\024)\277\0366\267=\374\325\"\276]C\257>\373\214\221=\326\276o>\000\317A\276\326\273\t=_XA\277\022\006\300\276f\200w\276k\201\027\276\260q\266\273\265p\026>\226\027i<f!j=y\033\215\2762\252\223\276\270\370\'\277\221\234\246\275\337\233,>s5\206>r\241>>\201r\035\276\226\307\023>d\376\010?\222nd\277xSD>\334\017:<\371\002\024>{s\000\3001\226\255\276\276\323\374\274\315\356\333\273\034\350\221<\355\324\004=0;\216<\372\367\203\275n\303\204>\250\224/\277\235\360\234\275\342Xa>\rOd\276}\212\346=\034\276\350\277\022\255\202<\272\232\025\274}c\234\277\352\220\003\277\000g|\277\272\361j\276b\376\200\277\250\'x=>1\022>\331\363g?C\357\365<\010d\207=\007>\'\276\020\257\t=Z\303\266\276\006\231\242\277\225\275\231\275\177\215\240\277\353\302\324\276\317\367\220\276\240\316;>\324\241\032\276\240x\377=p\n\272\276n\203\236\274 \3025?81\277\276+\214\252>\217\204\261>\365\"\315\275\204y\360\276\0211/\277\2136\331\275>\263\021\277\323zo\2770\312\337\276n\r\014\277\260\311:>\236\211\302=D\312\342\276:\007\003\277\351\253%\277(\033\252\276\027i\023>\'\031p>U(\334=\374\267\363\276M\013\271\276>\035\240\275(\325\003\300* \230\275\022\266Q\276\3462-\276G\000\232>Q\217\277=G\264I>\376|\213=\260\373\345\274\252t.\277\375\224Z=\240@J\277\277o\336\276\265\301\214>-\2524<\236\002\376\276bJ\236\275k\320\320\274X\216\211>\004\023\335\276\325T\204\276\367\332c\277\332\263\265==\276\016?\325\013\334\276>X\340\276\366 \274\276`m\362\275VB\223>\360\247\'\275q9\250\276\224:\276<*\333\352=S*I\276\ts\002\277\321\353$\277uq\251=5\026\304>\226\345\027?\311\2058\276k\245\255>\034\347;\276rd\365\276\341\030\215>]\367\241=\343\005\021\275\231\231a\275\206I\272\275h\343\301>\264\346\202\277\213!\222>;\010\227=\376\340\024?/\365u=\232\333\222\276\357\220\372=\213\225\025=\317\326\327\276\334;\250>^j\030\2765\356\033\277I-\216>\021\343\215\276\'\362\230=2\000\200\277\313\300{?\242Y\276\276\224q\265<\372x[\276[\2530\275\000\311\223>k\277\037\277:R[>\233|\205;eC\204\276\360\270s>Io\236>pV}\276\262\205\324\276\314\215\">\354\237y=\024g\262>\177\307\257=\203_\240\275T\332\215\276\024\266?\277\237\330\036\277\332\212X>\t\367\276\275\311\271g\276z\262O?`?\376\275tB\300>I\377\027?\030%\016\277\331\212h>\253\307\334\276\3012\267\276b\256\000\277\226\026 \277\360\035\360>\037\025\004=\002\303\347=\206\206Q\276\235\230\023\276N\253&\277M\201W\276\337\2078=\343\035\303<_\201\213\276\223ec\277\352]\264\274\025\234\013\277w\364\n\275\212a\227> \201\330>\337\0362\277g\276\t=_\177=\276\365u\"=b\313\204=\221?\357\275b5\234\276d\220\342>[\271\351\276\035\370k>\256\004\353:\343\362\007\276u\r\243\273\340\355\254<m\362\257=wuV\276c9\200>\316\354\003=\313\223\362=\014\226\313<\235?\276=\251\222\273\276\304\315\003>=\343\327\2761\372\335=\267\021\035\2762\3401\300\022\206\000>\023\272.\2765\354\346\276\311u<\276i\026\206\277h\366>>\370\027\\\277*\256\216\275\306|\024?\027A\320=\001\245\343\275\202jm=?\"\233\275\340\336\001>\352f\257\274\263\243\010><\026\'\275\246\022\010\300\361\206\321=\237R\370<2\227\235=\361SC=\347{\013>N+\335\276Q\335\000=\252\256\246>\311\233\000\277\030\335m\275\364\366L>\256s\323\277\320x+\277Z3b\276\340\014K>MfT\276\344\273\251\276>\362\275\276\321z\214\276S\200\223\276<\341\241\275f\211\263\276\321\2254>\306\321\222=5I\367\276\213\342\354\276>p\n\277\336\010T=\372\252Y<0\227C\276\307@\237\275\021\260N\277v\306\326>\n\240\200=\204\001\314\275\001\017\331<eY\245\276\224K\231<\204?\307\276\210j\311>\004\204)\276\331\311\225\2761\316^=X\252\372=\356\240.\277E=\223>\250q\250=b\023\245\275PJ\270=U\027\244>\351\"\331\275\216\355\273\273f`\200\277\003\377\336=8\327\226\276{\346\275\275\301\004\204\276\001\332\004?\303sT\276\345\371\316=\000\244\372>\351i(\276G\363\361\275\237\325K\276\031\234\207\275\0026\334\276@Od\276|\335\247=\313\276=\277{\211\014\277\341cN\276-8\203=\344S\335\276*\320\321\276\352\300\214\2760\325\274\276h\325_\276\177\305\305>\217\226+\271\355\n\014?\007s\367=\262\036\226>_\321\243>\017R\272\276\303\003\334\275\371\266F\276\224\365\302\276\2378\377\274i\203\250\277\245!\036\277\237\257A\276U\202D?\360w\256\276\211yn\276\nh\224=ED\r\277d;\371\275\t\262Y>L\373f>\314\030\256>wz\242\272,u\240>\216J\'?\342\006\250=\033M\334\276A\244\275\276\367`\216\277\r\023w\276\322\271\257<\316\334\240>\ts\251=&\263a\276p\221S>\231==\276\374\367\213=\177\006\001\277}\022\337\276\214\000\204\276\213\231e>K\357u\277\226\3446\276\250\265p>\372\333\260?\272\260\213\276\r2\006\276\004\001\206\277\203;\252?\"\341J=,\210\256\275\347~\232\275zym=K\263\306<l{I?a\003 \277hVq\276\\!\263>\007\342E?\200\344\227\276\201\034=>\325\016j\276C+\036\277\236\000\300>1\\\n\276_vx\276\261\005i>\020\315\n\275\315\336\252>\2114\312\276\231q\245>\2253\025<}\223.>\211\215m>T\" >\021\375I\276\373\350\016>\222aF\277\275yZ>)v\220>%I>==w.\274K^\230\276\253{\377>\315\275\327\276a\343;\2743\346\177\275)g\357=\240\266V>\037\225\021>X\313\274\274\266\205\014>\316\322\264\2757\374\177\277\330\315F>\3412T\277\377\277\335\276\010\212\363\274M\3326\276Z\304\252\276}\036L\277\351y\316=M\264}>^\376K\277F\265O>\371\325@\276\350_\273;\277W\327\276\203\017->\266\241\344\274\224\342/\277\334\235\274\277\347\334}>\020\257i\277\264\357a\276\361b\256=E\001c\276\300\212\010\277\324\303\355>&\215\244\276<\254M\276)\034c>q\263n\2770B\341>\207e\243>\253\320\322\276\351A2\276\247P\254\276\357\2749>\377\233U\276\343\327C?\300\233b\277\343\000\036\276\267\302\016\275\336\205W\275\rK\024\277\317\360(=k\200\2109\230A\211=p!S<\243\210\307\275\276(\217\277g\t\262=\343\341T\273\255Rr>\212\251y\276\347\215\001?\371\352c>\215\203$=BfX>\001\224\333=%\262V=\nQ\327\276\027\234\323=xp\367>1\232\316\276|\345\246\276I\t\002\276/`\327\275\006\014\333\276\316\005\014\275\233|\306=\314\027\307=#\351\352=+Cr\276\017\366\037\277\273+\301\277!e\362<\330\014\236\276\252\224\203\276\332\3071\276\032\203\037\276\301B\326\274\276Wi\275=\r\265=\017[\'\274B\352\270\274\252`\316\276(ED<J\000q\276`l\336\274Y_\356=\023\341p\275\264\270\327=\300x\336\276\343\0226\276\207\226\025\277\177\352\242=-\377\356=\214\246y>\342\332\000\276J\204\240\276B.\236\276\020\'\236\276\020\032\335\276q\201\t>\371\030B\276\312\254\002>{\232\352\276\320\035\366\274\0351[\277\025\221\312<\215\316;>\2723\216\276\375\332C=\016\270\326\277\313\375\260\274\3223\327>\315\253)<rN6=S-\014?\010\323\256\277\207\260\222>X\266\353\276\010Ai>\213\217\330\275\200\317\202\275\205\215\013\277\261&)?\364\230I=\024\017\240\276\010\202\353\276_\356\242=\207\265k\277\003\347\213\276\362<\234\276z\005\344\276\343_t\276\202\231\215\275\233\227u;\032\360[\277\252\3230?a9\r\276B\276\007\277\371\306\010\277\246\2079?\214e\275\275\327\306\264\276\030\212\241>\214\343Y\275(\210g=\353\342\211\277\373\307\345\274W\332&>O|\212>\216W\177\275\236\374\353\276\357\215\026\277\362x\345=\215<i\276\200\317\036\277\035\357\'\277\250\354\340<\342\274q\277\265H\365\276`\271k>T9\006\277p\315Z\276\350\321\367\273<\033n\275\300o\\>\277]\271\276\222\350\035=\311\211\n>\232\250\341=!\311\r>M\215\324<\342\344H\276\372\010\302\276PQM\276@d\031\276\341\217\307>y\255\245=b\\G\276\250\340\262\276|u\307=G\037\335\275Bq\334\274>\306h\275\247_\243=p\215\203=\336G\211\275\255\035\236\277\025\206\260=\245\214\255\276\"2\210\276\306\220\226>\002\345\325\276d\312\027\276\021\017P\276c\036\n\300JB\024\275f\247\245\277\225RT<\333\021j=\250e}=,\224O>,\207\005=T\344t=\365s\235\275\320B\226\275\206\232d>\376\032\235\276\007\001\353\277\223[\346\274mE\\\277\241B\022\277\374\204\323;\007\317\305:\014\226S:\035\341\220=\276\252\263\277\333\240f\275lg7\276U\232\330\277\347\346\202=6\000\207\275\236\235\374\276I\244\211\277\361#\300\276\206\014\037\276\311\021q\276\310\366\203=\0340w\276\310\013\273\2765\315\233\277\322\266\377=\334\013\307>V\354\216\276-\365\265=\031\311\020\276\351\257\201\275\320\274\375\276\261\216\006\277\247\022\347>7d\260>!.\272\276y\307\200\277\242\226\333=\343\262w>z\327(\276\276q^>yd\001\277\327,\"\275y\206A>\334i\002?\222\253o>\343\275\231>\224\352\372=\310\312\206=\306\354\353\277?:\303=Y\314\222\276\344w\\=\233\315L\276\330\310\302=\177\317\304\277\306\250\244\276\263)\n\277V!\200\276\251:\253;\353\350\355\276r\'\207>\223c\005\276\266\243\336\276bf \276l\316~\2731Q\037\275\221\346\226\276F\254\360\276\241\230\022\275I\357\370=\342\325!>G\352\223\277\262\320\233>\217\362H\275\224\261\244>p\\\376=\035\033M\277\251.\361>\325\242\202>6\305=\276|\370\'>\252\247\013\277\371x\223>\021\234\246<\203[\000\276.\336\341\276\256R\262\276K\t\312>\3754\210>D>\016>\275mo\275-\330\233>~\272b>\235l\020?8M\203\276\254\356N?\236\255g\275\ta$=\213\035\022>\022\234\310>\332? ?.\202\362\276k@\227\273\220|\330=\360\030\337\276\"\327\207\2753\2022\275=\313\235>\205OL?\010\320\202\276\331?\267>G*S=\333\343Z\275\261\342Y\276\225kC\274f>P>g\003\276\275\375[\361>F^\347>0\367\000\277\265\250\342>\020\002\275\275\343L\034\277\330X\000?\247\300\361>PC\212?\244\014\231\276c\350\275=\331\340\240>\330\201\265>\376\273\330\276\2476\225:\026\"\227>\365\221h=&\341\343=\313\210\002\277E\r\352\274^\333g>\013\020\300\276\313\2708\277\204\243\t?-\224j\276\240\200\274<\005\336q?A\371\022?j\313\265\276\354\213\006\276\177\306X\277\330\"\037>\370\220\217?\327\322\303>#W&\276\320\013\266=I\022\206\275[\375Z=\206G\204;\262f\007<\374[[;\353]\237>\017\224Z\276\370\037<>\333Xr<\221p \275\270)\030>\177\373\036?\273\001\316\276Q\343x\276\354\211\014\275$k\236\275\331\005\265>\224\365\261\276\001\0144>h\216\'\277\331\344\344=\303\014+\277\t\254\276\275~\373\364<k\020n\277\014\314\270>\237\026\t\275\340\351\202\277-(\260\276\340\363\261\276\275}2=\213\316;\277\302\014\237\275\004\020z>a\233\017>`)\376\274H\203\275\276_\275\274\275\237\252\r>\301\216~=\322&\027\276\026\314\364\2746\355\322\277Fj\225\276\261\325\024>\207q\014\276Q\314\001\276\317y\035>)QW\273\025\3756\276*\252e=\222\266\262\275d\260\000>h\260\241=\254.2\277\177^\030\277\365\201t\276K\r\256=O\2516\275Z\024\233<\332 \313>\304\377{\276\206M\304>\002\271\254=\022\247-?\203\ti>\230\352\023?GF\033=\316T\270\270\031\276\003?\305\243)\277kq\024\276\233\265;\276\301\365\'>\235h\353\274+\210\021\277B\315\216>\036\365\224\276\020hC\277\3354\220>\270\016\266?{\224;\276)j\327\273\031\302\351\276\202\235*?1\365\335\276\016\343B\276f\177\016?1\207\027\277\214\203@\276ce\270<^\242\241\276\323\207r\276\251|k\276\240U\277>\00166\275\232\306Y=W\225]>\r\353\237=K\361\037>\264\254\226\275\010;t><\306\336>\345\234*\276K\024\365\276V\001\221\275\250(\n\277=m\300\276\010\370\304\274\233$\t\2778\270\344\275\002C[?\272=6>\016\337\220\276?\274\275>\316\253K\276\230G*\274\265\217\272=f\034\366\276\233\357$=O\217\217\276.J\206>\304\305\r>\243\210!\276\032\243W\276\275\205&\276\340!\030\277)8\336\275\312\320\345\275\277\375\000\276\246e\342>\341\333\244>VE7\275B\376m\277\321\232\333\276\357\006\347=P 5\276\347l$\276\007\006^\277\376\307?>p\217{=\320\304\224\275`\n\017>\234{\301\275jy\331>\265\350\236\276\233\201\215>\366\370)>\233\377\346\276\227\302\266=\014\301(\276\351\236r\277\375\363\241>\242$z>EC|\276/\336\220\274\374\340\364\2768*1\277m~C\276\311\332\207\277\205&R>\030M\n\275y\245\232=\034\217\335\275\211\360q\276c\\)\277hki\274j1\266\276\002\244\346>\3059\270\276R\310O>e\2220>{\3120\276n\r\266>\247\006x\276\351\363\333>\250\356\340=\310d\332>\016#\260<\306\364*\276\243\n\300\276\264\217u\275\321\303\000\276u\307z>\256Rz\275q3G=m\243\357<\352\211\365\275bN\216>\265!\362>\321\221\213=n\334\247?\"\016\006?\332\2237\277\261U\005?m\335\222>\324\302\252>;\271\025\277\354]\263\275\026\310\332\276\216\215\037\277\332\205\313;\356\337\030\276\330\255\211>}x\316\276\373~\026>\275\232\365\275itU\274\263\350\247\275n%\321\276\010\306\214<\221N\020?\240n{\276#\225\005=\032\304\221>\036\345\003=\027;\t\275`k<>\241\367@\276\0142\017\274\312\370w>\323\344\345\274\324r\314\275\303\347u\276;\304\217>c\325\361\276z\250\027\277\006\372\027>\362\031y\275\027\2631>\027sC>\204\237Y>\325\231q\275\311\326\204;\255F\247=]\321\205?\215rV=\237\000\361>\032\2278\277\017by\276Wk\343\276a\2767\276\215_B\277\336\013o>\261\366\257>\245<\223\275Z\201\202=\017XS\275\022\014\231\276\021\341\t\277]\021\360\275\254m\333\276m\031\253>\024\020=\276\246,i>\nI\270\275\312\037\'\275\356\310\363\277}\336\225\274\264]Y>\213\022\200>8\005$?\351g7\276\350\213n>\032\000\302\275JC\231>\263Z\253\276\247#k\277\370\312L\276\020ip=\262C\217>\"\351\022>\363\t\247\2778\210\325=oo\017\275\320\376\032\276\2210\007>\376\213>>\231\257\353\276\262\021\220>g\243)\277E\"\n?K\233\027\273I\357\267\275\251\273T>\\\265\220\276\240\345:\276\n;o<\r\355\225\275\372\210\357=\235Q\231\277\256}A\275\264m\201\276\340B\037>K0\322\274\301.\334\275\267t\315\276k\271\010\272) \331\276\220\324M=!\307\227\276\236\t \275\016\232\202\275\215#\235\276L\310\315\275E\023\030>Uo\016>@\376\221\276b\037\031\276\271?\204>\231\215*\277\265\241\035\276\342\324\347\275/\214\013>t\367g<\322\331\016\277\\7\254\276z\036\033>\006\217\215\2739\307\214\300\177h\354\274\344\325x=\325Dw\300\006\207%\276B\177\014\277$s\301\275osK>b3\031>e\351G\276h=}>\255\237\224\277f.\207\276\343\364P>=/\341\275\244\000?=\t\230L\275\263\303\246=\370\001]\276m\341)\276&\361\366\276\347\321\215>\341\306s\300\266\343\320\277\370H\t>\'R\260=cR4=\353\2105\275\232gI\274#D\355=F\345\265\277.\036\'=g\206Q=\334\303E<\226\336\"=\0042\322<\217\324\255\277\253\004,\277\035G\244;\323\254\327\277\373\257+\274\232\003\302:t\326*\276\306t\226>\337\240\312\275\277\243\230\275\204\340\204\275\200\370F=Z^\013>\030\003\264\276b\203\360=\352\0215>$\030\200>\254D\017=\267\260N>i\226\262\275\037e*\300_\366\202<\224\001\250>\325\336%\276\201T\256\276\001\325\264>\023\2041=\200\372\r\275\000\325x=\363\352\262\277\027\201\224?\234+\020\277\362\232\201\275oIH\277[\021\030\276)(D\276~\241g>e\233u\277\356\333\272>\275\025\320\274\372\222\325>8B$=\255X\267=\221\313j\274znE\277\255\021\232=Qk\214\276\2567\203\276\006o\350\275\300\263)>v\370\317\275X\262[>\020Tw=y\000\024\276`\005J?\243\3057\2763\323\r\275\342a\302\276\364\243\311>RO\311\276\217\304_>\253\035\001?\275\320\305\276\252\351<?\317*\222\277=\r\227=U\2618\276\316\264\246>\253\255T\275Fz\017?\037\242\241\276\366!\234\274\311h\021>\264R\215\277\214.\361=\341\306U<\277\265\203\277P\361\003?\374\313\305\275s:(\276\214\302o\276/e:\277\316\275\234\276\304\0246>\325w\354>\353#\210\276\024o\302=tDv\275\267\3664<\356\320?>S\t\255>,\345\275\272:\363\236\300\361\030\273>\336\367(\276m\313c\277\013.\256\274+EC\275\225\327\310=?/\273=~u\233=JN\275\277\"\007;>\377\033\251\276\314\265\204>\3712l\275\000U\"\275\306\363\r>\337\027\025>7\032\025>\222l\215\277X\017\303\276x\211\035\275\024\213\255=Y\010\306\275]\352\330\276\2772w<\303\304\213\274\335\2225\300m\263q>b*\010>J\030E\276\352\340\214=\340\310\224<\21593>\223Ll\276A\200\265\275Lv\217\273\336\013\265\276\337\326\203\276\306\t\r>6\264\241\277\240\021\204=2\n\355\277v\2449\277XC\005>\221S\251\276\251\341W;\370\227\020>-N\322<\240\201\255\274\002\273\324\277G;\363\274\333t\007\274\275\260\305>V\327\004=R\301\212\275\037J\n>\230\247\312\277),\216\275\273\374e\276%\272\316=\377\313l\277\254:_>\252>\024>\303d\032\277+\312\365\276\032u\254>\254\307L\277\364\032\247\276\353m\272=\365\364\037\277\264\251\253\276@\243\001\277\315\022\265\275\004\251\035=z\376!>yr\036\277\361\354u>\'\374\346=\334\263\004>\233\035D\277\341s\t>\030Q\346>\344B(\277<\001\255;\307\236?\276\270\3109=\005;\272;\2357C\275\215\324\272=\323\345\007\277\252\021\232\276h1G\276\025N\037\276\314\025&?*\372\037\277H\346p\276c>\323\275kwG\277f\230\343\275\231C\321\277h\215\021>\345\374\215>\344u9>Z\261\007\275\347,1\277\302\375<\276\354\214\231>\033/;\276\254\237\\<\032\204\016?\256\335\">\315%\035\277\242\3155\275\274\371\274\276\263\253\025?\022\267\r?sH\373\276\307\217\234>\273\364x\277o\020\315\276qh\377=\000\2658\277\357\300\314>\267 V\276\265\321\217>\322\016\232\276I\214\326>r\030\236=\202\223\267=\321\0078=\034\251\027>\370\001X=d\354\225\276>\rJ\277\206\262\023?\0213J\276w*\204>\314\260\200>\014$\036?\245\370\203?\230R\366\276\346\236\234=\223\332\034>\310\2503>\356>\224\276vHn\277_\234\243>\031\370\332>@\320W?\230\037\233=\200\027y>W\214q>\014\347\367<\375\265\206>\3579W>\330\372K>\266\321\273=\371\310\327>\210\276\r?\3761!>2\367\241\276-\'\303>\271\262B\277\250S\213=\205A\006\274\305N\027?\213C\010<\333-\362=\244\326\210\276i\315\302\276\027\232#\276\257.\255>O\360\321>4[\247>?\"\034>\371P\265>\\\224\243\276\371A\304>\002\351\205>\247h4>(X\264;\200\027\364;\247\312\n>\302\t\233>}\245\232?\025\351D\276\303\311\240>f\257\330>\333\0175?n\034\237\276M%!=\237\257\344\274\222\274F>%\254\264=/\301\257\276\022^\260\275\016z\273>\303k\254\275\217\262\\>m\266\361>\201\220#\277v\323J?\366\014W\276\001\314_\276\311\271$\276\323D\276<\337\335O>4h\251\275\017\214\226=\201\357\220>\013;\n\276\006*\263=g8\330\274\257\327J=\346r\224\274>\275\321>\241\346\270>\0256\036><\352\032\277\263\301\370\276\037\217\'=\t\"\226>\334\256\243\274\264\033\035\276\033,=?F\232\234=\376\333\033\277\373\320\227\276R\205e>>\013\\=l\tC\276\027y\n\276\247u#\276\357\364\002>\277-\222\276t\273!\277Zq\233>\226\342M>\tr\370=-\327\014>\177\234z\275\002)\222\276\200\210\212>\007\r\216\276\240\367\346>a\3265>\273]\361\276j\003\322\275\332\232\324=\014\214\372=\010JM=\3626\372\274^\313M\274\221B\246\275\3730O\276\3416\034\276[\345Z\275\340o\020>\2667j\277\302:\022\274\242J\201\276hO\347>\356E\224\276\n\314\234\274\212\2510\276\021b\010\275\265\211\020=2\324\372\276h;\201>9\263c\275-w\235\276S\237&>\243%\212\276\220(\014>\315\343\274=y\214d\275\355\307\030\275#\275W\277a\023\027=\177\033\360\2748\233\227\277\273\257\373=\264+\255>!\030\224\274\025\233a>\262\177\003>z\332\252=z=|>@U_\277])U\277\231\352\263>1\002\331\276\003\340\330><\213\271\275\362\253\304>~/E>\306\366\300;^U\272\275^\004\027>Z\262W=\217\244\202=\277\005\366=\r\002\267>\033i\247>1d\363>\200\376]\275\024\377\273\274\034\377s\275!\363\325\276\026B\335=-J\324\274\027g\377\276\263\351\217>\312\310\245<Ai\370\274\361C\350=5\232\023\277*6\265>\006j\345\276$\205\014\275\3531Q\3004\366\201>\2001\033>\326\252#\3001X\241\277\214\346\210<R\tr>q\215S>\306\014\263\275\\\365r\277\003_T>E\250\'\277\266q >\271h\024\277\025\002\200\272\222c?=0\275\207>\352\366u>\213\000\265\277&\372\004\276\315\030C\277\326\321\030=n\311\273\275\226\340\245\276\206\330$\276\220?\274\276\376\273\t\277\016\010\207>\004\000\306=\001\207\204\276.\261\230\277\373\266\216=I\336C\277\n\207S>\207o\354=\237\240\025>b\246\275\277P\3424>\266\"\366=\330XO\277\273U\372\275\376\235\367>\311\322\001\300\351\006\276\276\035\3544\277\341\347\354=\361A*\277\273U\260\274\366\227$>\254\"\026\277\000\277\224\275\277(+>\217\331\276>\237\235\327<6H\350>\310\233t\276\352\"\000\300e5\212>\3424;>\2175\026>xw\013\277\233\032\013?hb\375=\010l0\276\300G\332\275b\021$>+\230\324\275\350/0\276\265\326\305\274\214\212J\276\312\0253\275\3366n\276\022\364\027\276QOf\277\220\036J>\r\250\371;\354\031/>\322\270/=\2418\031?\264P$>\272\210\215\273\247\237\340\276(\'\341=\374\232\000\277h,\212>\356.\262>\241.\217\276P\353\335\277\001\025=>1\202I\274\234\243i\300K\024\311=3\331:>\000\223Z=\0109\020\277\272\n\241\275\002\232\225>\300\214\037>\026\364\022\277v\222\256\275\370\330\t\276H\323}\276;\210F>\206\024\377\277\340p\025>lb\002\300[\243\004\276\325G1\277nT\021\275\216\325\020\276{\204\364\275O\325J>x0\222\276\241\327\215\277\222%H\274\254\355\263=\242 j\275\314\210}=\224\201\033=\351\302\027\277\000;1\277Y<W>\220\353\357>G\366v>\257\364\210\276\242<\226>\313(\205>\212\007\276\276\325\245\202>;/R>\256x\350>\326\020N\274\\$:>\302\324\253>\020I\002>V\215\305\276\354\316]\276\2644W\277\026\233Y=\352\241~\275\302\274\025=\221\227\316\274Md\210=\307\240\313\275\322@\003\274c\036\300\276\026\277s\277\342\207\237\277\350\251\005\277\2136y\276\3215%\274\333\227\276\2761\314\372\275\025%U=\271\330\353\277\375\363\203>\'\256\034\276\014~\'>E\202\322\275}.\243>U\303\007\300\260\362\322\275YF\260\276\377]6=`-*>\224EG=a\302\t>\264E\005\300\256\272\350<\305w\247\2773\363\324\276b\274\306\277%\364\224\276\022$B\2752\252Q>)\311\005\275;+\273\275\357\232\001\300|\343\263><\r<\277Q\362\316\275\367\371\274\276\355\253\206\276\235\373\356\277\311H\305\276\234YP\275V}\372\276\021\202P>\r\361\025\276\231\323\003\274\306/Z\277y\373\207=\031&2\300L\314D=\223\265\221\276\370t\016\3009Xs\274\003\216\t=F<\204=Q\302\264=V\203\370\276\353\305\215\276\2515\216=^\262\'\277\367G}>\0047\315=\235\007\002>hX\t=\001\004:>X2S\276\242\3619<G\371\220\276\267\363\202>*\002 \274\016\300$=b:\r\300\360Mb=\335\344\227\275\270\242#\277\211\222x>\247\300\243>\016\030\223=\317\341y\277\037\202h\275\363\315u>\271J\267;\254\262\202\276\356\000->`^\216\277qU\355\275\003t\336\276\361\236\364\277\226\237\017>\351O\313\276cM\231\276\240\3367\275\322\010!\276\002V\241>\032S\337=H\240\301>\321[>>!;\225\277\251\"\201=\273\356\240>\010\035\247=\3304\363=\247\367\306>\235\006p=\324\327/\300\362\262\232>\254\300\265>\021W\221>A\004,\277\276\005\367>nm0\276N\243A<\345\255C\300\001 \240\276~Nu\275g\244H<\217\313\020\300\230\243\312=\t,\264>1\213Q=\255\340\274\276\221A\307\277\232O\224\275zy\271\276\3300\262=jEL\277\221\316o>\306\034\302\276J\3219\276\276\214\003\276\200g\032\277y.\203>+\312\207\275\364\212]>.G\220>\320\t\020\300\'5\003\2769a}\276b\306M\300\353c\255\275\323K\036\276\311\314\n>8\227\021\275PBd\276\235\224U\277\215\371\227\276\277\273\003\276\343m_=\225J\341\277\016\326C>(\372`\276c^\254\277\361\005\233=\215\020\312\277\225\235\021>\243\210\206\275.\347\010\277\331Pd\275\274\037|\2769\262\353>\2449\276\276\234\252\377\277)\374\313\276\252\2567>\375qx=.+\320=\306\224\'\276\376)M\276\227\347\347\2750\240==B\367\345=\315%\254\276\260\341m\273\364\252~>.\235\360=\220\023\225\276\004\t\204\273[\264\263=8\013_\276\233\244\315=\303>\360>\"\234(\275\310\365\371\276\307,\262\275cH\257=\204\234\366>\270\337]>\344\211a>\325s\334\275\314\000\343\276I\014\276\277u\235\032>N\221\223\274\216K\352\274\244C%\276\033=D=m@\322\276]p\227\276\022/S\275w\217]>di%\276v.\027\275\253\236|\276\014P\217\276\257\243\225\276j\244\371>(\236\000\277\216A\277\276<yM>0\277\253>.\033\330\276\216\377\377>\334\226>>1\342L=\016\330%\276\017\341\333>\206\317\254>\222\300\340\276W\350:=>\002\026>\247$\326>\010:\277>\177CV?6B\020\277[D\375>A\354\375>\232\211\031\277;\214f\276\303\177\014>}x\200=\331\300\242\276b\373\360\275\373F\003<V\003g>\374|\250\276\221O\221;\002e7>\t\211x\275\310M\361\274-\234\236\276\006\036\364\276\026a\007?c\316o\277H1V>\246`\n\277\326\216\010<\213\312b>\374\n\234\275\252PK\277s>\030\276O\250S\276\204\366s\2766a\036\276\355B\235\277_F\000\277\300\356\254>hr<>\"\375\245=\002n\001\276\346\334\220>\"N\221\274X\235\212\273\036\270\000?\216\343M\276\353g\224=\3315s\277Jx\307<Y%\225\273VJ\302=\271^\342\275N\307\204\277\305\233\244=\340\361\037\277\201Z\327\276\224\325\305>0\036K\276\363\0076\276un\232=\222\230\317>\026O\322\274\373\303\277\276w\307E>\254\322\372\276\345\2631=\367nS\275\271(u=\225?\277>\022\202\223<\343_j>b\206,\276\316\271\374=7\315\t>\023c9>\270\n\210>\340d%?>\340\004\276\376I\302>\260\034\236<u\245\030>s\313\224>\2602\203>=\377\220=C\300\247\275\315(\261=79\360<\262\321(\277O\023^>?\343%\2774\220\022\277\366Y\004\276\r\356\323\275\031G\206=4\323\033\277\214\264H\276\207S\235\276w\031\275\277\351<8\276\333N\316> \210\211\276K\346S?\024\256G\277\310\336\200\276\210\206\021>\242\226\207>q\327\246>mn)\277+\276\013\274\332\366\366\276\322\226?\277\007\254\035\277\030&\221\276\200\307\215\276\316\274}=\237.\271>\3750\246>V\371\014\277v\333]\277\375\242k>\32766\277\374\022\007\2762Ig\277\230K*?\237\2760\276\366\232\247\276\313L\311>\254\006\237>6\356c=\341\366\265>\031\224\036\277\224\225\024\275\366X\367\275\264\\\231\276\206\333\203\276\265 \270\276\375^:\276\251,\335\276P\035Q>3**\276\321>=>\3548\315>\000z:\277\253\324\227>\024\177\210\276\004\346\327>\024\024\262\275\265\366\224\276\351\255Q\276\r\310?\277\271\325^=\240\022\310=\372\206\341\277\214\353\215>\267\315,\275}d\215\276\260\177b<\270\226\226\276\345\272\331=\345\273\006=\327Y\355<\022#v\277vi\223\275\025^A<\313J\312\275Z\334\365\275\247\010\326\275a?\323>\035\356,>\020\262a?\245Z\346>\303^\023\276r\357\224\276\242\265\333=p\037\026?V\3618\276i\357U\277\344;\225>\247!\001\300?\303\273>\212^v\277\223\210f?!\334\026\277\010\021A>\377q\310>>K\312\277`\205\262\273\365\275\362\276\232\374\251\276\250\325\331=\tS\250\277-\200\212\274\217m\267\275\001\005\342\276\035\260 \275\324j\262;\030\020\201>\230\r\315=\327\004\"\277\321\215\336;\301.\001>\362E*\2767\334\205\276\315\230\203=l\374\252\277\247J\003?\262\325\304\274\304\273>\275v\001\242\275\245\261\342>I\037\267\276\236\002\t\275\244\265\003;\260\027\200\275$W\363\276\2166e\277\225\223\213=\267\310\377=\340\037\274?\206\320n?S8\017\276\257\360\265;l\372\226</\222m\276\0307\230\276\025\013\275;\331\354\270\275x\225c\277 \035\330\275+\300B\275\r\243R>\214\216\233\275\360FA\277\240C\301>\203\027:=,\013\217=\000\355\266<S\213\275\277I\254w\276r\355\325\275\246\nU\277\026\205f\275\353\253H>B\251\242\275\006\370u\2770?!\276\035{\266\2777\237\221\276\322\2464\275\325M\362\275T\274\225\275|\256{=\305U\227\276\230\351\017\277\\!\246=_\217\252;\0259\374\276\253\3414=\215\230)\276M\0015>\251W\211>\276\"\350=\265#\021\276\271Lq\276\362\250\263\276T\tq\2762r\247\274\241{\305<r\363D=\347f\272\275Z\264\033>&xo>\241\220-\277\340?>=\307\312\333=\374Z\252>\372\357r\275\320\025\244\276\313\261c\275\277\036D>\334\352-\276\324/y>g\366\227=|\270&=\027#\316\273\226\202\335\276\000\251\374\276\001\216D\275[\213\002\275s\033\350<]-\020\277\010Q>\276(\r6\277\267$\255>\t\252g\277!\023\"\277\005\227\236>\331\005\014\275u/\244\275\022Q\345\276\271\304p>\02042\277\266u\250\275u\032l\276\251\242\336\276Lg\322=\270\321\225>\\\330)=2c\272\2750\342<\276\341\273\230\277i\340\243\276!T,\276\316\tC>\036\313\267\276\266R\034\276\304\271\217=\033h\r\277[\252P>\353\201`\276o\204\021\274*:\311\276\271qI>z\217\335>\222\217\353>\262\225\251\275\361<\206\276\016\007\313\276\306\371\362\275\241\222e=\355\022\364\276\335g\355=>\364\302\276H\036\304=\267^\242\275JA\204>:@\236=\272A\242\276w\240{\275!\204\221\276\225\230\364\276\325Z\334<\014G\005\277\307\362?>\031\270m\276;\035I\277\2414#\276\324\314\210>\356(\007>\"\2432=8+\207\276\306#\213\277\352\322P>\222:\010\277\2518\210>\331\022c<>^\377<{\245\216\276\242\334`\275d\332L;\032\030\034>\3162\272\276\221\032\020\277\305\271\002\276\243\376\031\276l{\341\277yv\211<\364\024\206\277\215\270\023\300o\370\206\276hG\265=\260c\210>\367\271\240>*\332\250\2754\263\223\277\\\027w\276\027\355\243\275T\3729\276\312\352\343\276{\213\031\277L\372\020>\327L-\300.\274\327=\230a\234\277\244\216\220\275VZ\\\277G\346\r\277_\242\322\275\303\220\211\277\204\227\203=\264\2701\276X$\010\277\257\345\020=\272\003\330=\206\373B\276\237*\344=\310\261\230=T[.\276\225\244*\300Q\352c\276a\363\177=\230\203\244>\203OA\277\207\257\\>C^->\242\356!\274\364\224:>Z\251\300\2750\234\321\276\327:\262=,6\\<dx9\276\250\316\004\274\346a|=r\266\354>$\224\375<\013\256\325>\324\201\346>\266\372\203\277P\030\236>\237M\213\276\3113t>\000\334\031=pn\336<\025\207\013>\014\030\360>\335h\221>-\2134\276\344w;\275r\206F\277r\000#?\300b\277>\004\271\363;\250!\364<\266-K\276\324\002\n>\004#\315\276\270\317\336\276.\031+\276\033 \210\274\343,\374\276J\221\274>\366jF>\274\n\001?\346Z\205>\302\252\213\277\314\250u\275\246\332\035\277\221\367\322\2763\206e\277\223\256f\276]\302\020?Zg\255>\326a\013\276\370\201\001\277\034\273\343\276\346R\007\277[\374\356\275$\224+\276\"\366(\274\365\321\037\275\217\030\233\274\312\225s=\220\026\350>\')\t;\333\267\243\276\256\352D>\344W\365>\212=\262\276sJ\307\276\205 \310<\010\242\277=\332|n>\305\243\033>>XX\276\330\270w?\223T>\275+\002\272>\016\261\035\276@\'R=s\364,\276i\243\327=3)\356>\346\210\230\275\350+P>+BQ\276\331\334\253\276q\004\005>\251\'\307>\320j\274>wbO\275z:\213\277\023\206o\276\276\261f>\324\224\262\277\221\030\007\277H\025\306\277\037\336\303>\210\017\221\276\373\350\206?\337:\004\276i1\235\275d\020\230\277\232\204`\276n\316\345\275\212\304\256>\305o\035?uZM>\300\230\276\276C\3511\277.\021\323\273\033%3\277\330\203\326=\230Z\\>\026\215\027>\371\255\242=\315\331\254>A4\020>\233\362\327>g9\t?\266\220\022>\265ZX\276\213\314\315>\201L\267=\3467\331\276ss\010=5\332p>\342B\014>\266\027K\277\004\241\314>\007\316\370=\032\354\014\276=\304:\277e\213\213\276&\3514\276\245\rD?\351\274J\277H[b<l\375\037?FC\257\275\031\275\036>e^\\>\033\241\n\2772>\231\276\177\022\017\276^\037\216\277!~\177>\332`\220=\235!2=\005\361\022>\364\326\275\275n\207j<R\003\034\277\023\002\304>\332\337\005?\032\"N>\222\367\001\277\021\222\321\276\271\357\004\276K\250\006\277\021\307g\276ixL\275\204\206\205\275\356\tE\276K\351X\277\365\032\347=@u\301\275\261|\313\277a\305\002?\025\023\005\277\244r\214>\364Q\030?Z:\351=}u\301=\372\271\324\274l$\230\273\305\024\342\276\033\2176=|\270\274>\177\372\341\276\"S\000>\023\032\267\276\311\030\000>\203\332\337\276\224\333A=OI\177\275\"\234:>y\345\036\276\306N\222\276\367\254\007>@g\033=\224\371Q\276K0\312>\314\031p\276%\260k\275e\324~\2766W=\274r a=/\346\201>\357m\200>~\314\340\277.\325\226=\343 j\275\235ZE\276\376\216\351=\231\263\213\27687\373\276.\332m\276\264g\314=-\206]\276\r\013\304\276\313\261\335\276?\"\343=\300\321\260>6\276\277\277!\312\372\275\252.\033>I\371\372=\016S\n\276\027Uc\276\372\355\264>K~\250\276v\253c\276!5\205\276\301]<>\004,\310<\014\322\005>^\261\r>O6\226\275\216\260\340=\206E>\277\335N\204\273\207\213\347\276\253`\275\275Xl\210\276k\215\223>\274\'\211:2\265\203\276[#\327<U\245\341\274d \205=\023J/\277!\235\241\2745\006\252=\201\247`\275f<\004\275\270H\303=8\316\031<\364\375\275\275\352\311\034\276\373\027\202\276i\376\357>!\240\242\276\334>:\277y\323\371\276\2332\271=\336\356><\265T\201\274\220\314\033\277\260\220B>\023\362:\277\036x\220>\372\336f\275\274\030\302\276D\006\001\277\251\360X\276\207\010y\277\022+S\276q\r\324\275\247|\227=\032\325\035?-@\232\277\026Q\263>\265\010\013\276 y >\253\3775?\034\002\343>\200(\272>\010\267\326\276\245\306P\277\364\235;\277\347G\016\276\253c\312\275a\366\321=1\277\r>\3504\230\276}\366\t>\257$-\277\007\335s\276\237\027<=\334*\357\275\2342<\276*\350t;\221)\005\277\320\357I\277\243U\010\276\t\362\264\276\354I\266\274r?\027?A\273\204<\240;X<\274\214\252>\267\004\361>nM6\277\3508\252=)r\346\275\337V\270\276y\375K\277\374\353\305\276\326\273\221>\207\245\022\277\324\224k\276\230\224&;C(\021=\201\213#\276\223\276\002\277=\316a\277\364O\375>\233\003\004=}@\214\277?4\226> w\262\276,Q\271\276]\362\006=\233\037\340=9(;\277\273\202\312=s&]=\305\256\303\276S\224\001=\353\204\325>\320\356\305=\234\003\342=\346\205(\275\"oH\277d\336\032?\346\223\301\275x\240a\276|e\313\275$c\010>{\306\206>\"\300\351\274I/\336<\362\0369>\361UV\275j\324\372\275r/\236>\016\314E>\312\n\003>\235\031\334\277(Q\366=s\343\">\306\316s\300\201\276q\276\242\374\026\276J\222\214>\025\322\253\277\211\010\310\274t\212\355>\327{f\275g\263j\276\313\017>\277\356&U>\017\253\344=l\337]\276t\212\263\277{,-\277HV\272\277\022A\031\276\274\240+\277\302\247\236\276\277^\';\301\275\241<\303\347r=\313Fq\276\2135\262\277\264\275\020>\377\201\255\275\224tF=\025\266\002>\252=\355\276,\003g\276\327\246\304\272*\375j>W\2165>\0306\207\275\277\016\312>\305U,>\235\233\217=\356\371\224=\244 \234>\000\036\317=$\335\215\277\216\014\036\276!_\210\275M\327\312\275~,\236\275\017\243I\276\303\236\204\276_\224\331\275iF\026>\263Y\215\2777\203\035?\313EV=\220\3175\276@3\033?\366rc\276\037\262(?\366\370\013\275\240y\261<\002\027\254>\271\315B\275\232\361\010\276H/)\276\300M\252\276\343\354\233\277\207K\000>\277u6\276X\240/\277\301\216\013\275&\267W\275\026s\210\275\251\037\000\277G\230\321\274i\332b\276\376n\236\2772\311x>\023\004\252>\213\330<>^F\257\276\261R\223\276!\226\016\275\310\322\256<\355\203X>9\337\016\273!\3353>1\\{>\357i\264=\372\n\340>\255\237\240=\001j\375\273\\\017\200\276\317O\355>U\323\014?%\360\013\276\362YA>\010\256\034\277>H\262\276\r\334\310=\301\270\241>\250\214\005\277\007x\377=\235\277\232\276<y\206\276\277\356\032\276;x\315<\215\301\216\276`}\314>m\017\214=\000\376\230\276\241]\342>\371\nQ\276\316Dc\276\206L\240> TV\276J\217\245?p[9\277\355t#=\344:\266=X\340\346\274G\236\234>\n\352\335\276\357\001\202\275\020\377\037=\250\024X?06\211\275\2307\016>\262\303\221?H`\347\275\347K\371\276H\336~?\013\301W>af\031\276z\247\333\2758\223\350=\033\0139\275\256:\n?\251R\250\275Kbt\276\0326\224>\007z$?6\322\317>\303\361\233\275\2704\014\272\200A\226\276\010\372\223=\025\212\243>\304}\r?\001\374%?\243E ;\326C\301>\017\351Y?\211^\005\275\202\2564?\031\254\032?\017\374*?l\340\266\275\312>\374=\'\320\004?\245y\322>\331_\250?\202k\205>l\303\373>b=M?\332\330N?g\204\017\277!\303@\277zq\235\274p\020*\275F\336\023:1h\026\277\237\331\202=\224\200\315<\360\271\314\275G\232\037>\321H\216\276\003\244\237\275\373\251\347\277\30662=\024\344\306>\216\033\016\276\205)\374\277\033\363=>\362\305\205=\222\275\020>4fw=\261\234\265\277c\247>\277\360\302\326\275c\033\216=\365y\023\275\305\331@\277R\363\213=yO\330=B\305\005\300\022\304:\276]\202\354=\016\036\007\274\245T\241\275\232\204\252\274\377\365\322\277\271\242\301\275\264\3606<U,c\277o\010\377=\311\0065\276o\321\257<A\264\336\2778\340a\276\302\035\201\277\306\303\230<\252\367\207>\2563\206=\323\204\324\274\2050\000\277\222\265\260=4x\263=\351\256\354\276\262\246E\276jC\205\275]\301/\275wB)=Q\020S\275m\311x\276eV\270=\3052\247\273$O\254>\035d\025>\204\307\005\275k\330\270<k\261\000==c\014\277\320\353\335>\351\344B? $\251\276\347L\252=k\330\323>5\300\020\276\247\310\031\273\034\242\374>\203]{\276\304s\214\276\317\273\234\276}\302\271\274\005KU>;\231\347\275\235\"q>\r\207\200>z_\245=wag?yQ\346\276\007\370\211\2767\t\364\275\245\237\251\275O\264\301\275+~\366\275{d\250>\0020\276\274FEY\275\2521\260>\276Y\027>2hd>\353\034\215=\334\234&?\246-2=\307?\006\277\205X\246>4\222\003\277\262\304\262=\006@\002\276.e\302:D\330r\276\361\260\036\276s\306L;\212\261\254\276W$\030>\306-)>\301\312\225?\257?\370>\255\001H\276\205\020\277>\357\3250=\356\2033?\365\327\213\274o4\037>\225Fz?\334et\277\355\343\221\276^\267\306\276\304Z=\277\000\r\200>\341\317(\277\344n\310\275\370\306\215\275\336\304C\276\306\001\000\276,Z@\276\243\034\005>\375j\005?\020\222\237> \247\373\276\370KS=\036;\265=e\267y>/j\275>/\030O\276\300U;=\326\013c<\273\226\325\273\373\027\226\276\277\023\376\275B\334\r\275}\3274\277\366\307\005=B\212\177\276F\222W>#;\007\276\237\240,\277\301\316\253\276E\252r\277\005\352\206\275\202c\305\275|#\031\277-D\017\275-}\001\277N\254\221>\0312\202\277Z\'\n>(`Q\277\354|\016>\023aY\276\243r@\275Q\223V\277]\361\t>\0331\031>\t\324r\277<\323\301>\244vG\276\0056\317=\232\265D>q\0200\276TU\315>\205\263J>\tM\214=;C\230=\214\363a>\020\t\225<\316\256\005<\340[\241>\n\253\210>:\315\006\277sp\207\276(\023|\275\274\206%=+\320\277\276\035PT>Z\035$=\317P+\2759\274\375\2766\210\233\276o\222\346\275dN\247>\310B)\276\265\005\027>\203\2728\277\200jf\2779\217&\276\t\2550\276\310\220v\277\333\006T\277\263\2745\27542$>s\352\320\276\275\243<>\017\263 \277\367\354\022?\275\351\227\276 +\202\276I\322G\274\341\236\n>\352\245\013>\306b\254\276s+\351=\324\374E\276\341\250c\275\026\203\000\277\365\200\210\275\222\236\034\277\344\036/\277\266\004\253=;W\230=\027t,?\3133V>|!\302=\312^.\276\013\037\210>\236\036s>\347\010\016>\377\346\315=>\321\177>\251j\303\2766\254\276=p\010(=Rp\031\277@\004k=MF\304<M\201\345<\220\241Z>\343\260r>\223\203\323\276*\326\004?s\302J\275\023|\006\277\342@\034<\242\026E=z+\236\276\177\017\227=\367J\221>\346\237:?3\356\230?\324\247\355\274O\007\376\276eH\200\277\320\222\203=\227\033\021\277\262_\206>H\220X\277\0347\214\277\324\005\036=]=\234<T\204\204=\373\243\240\276\034@\345\275\024\271\225\274\002>\303>\212H\177\275x\347\253>\242\033-=\327r\001?\327q\222\275\341\235\310\276\002a\270\275\210\207\032\276.\032G\277\357\0378\275\273_\337\274\260\317\232>\310\\\347\276\366\243:\276\036\246i\276w}\257\276\034\001\007\277 \254>=Z)\026=\371\301\217>m\374h\276\305om>x\210\027\277\030Q9=\005\224?>e\232\320\276L\025\352\276\253\221\212>>\300\021\276\005\243\017>\227\234)>\350^\034>_~\244\276\226\332\222\277\206y\n\300\n\225\271\275\377\320E\2768\242\n\275\334\021N\276\002\347>\2769\204\205=X=\377\276\007\n\300\277T0\215\277D\273\244\276\036+\003\277\263\251\213\277\010\311\226>n}\004>\347Y\036\277B`\031=3\310\235>\027\206\374=n\306\267\2777\200\211\277\016\337\310\276\215\310\\<Vj\371\273B\205\303=\205`\314\276]&\n>(\005\321>u\374\365\275\231g\235>\215\036T=X#\221=+\272\206\276\331\017x\276^\273\016\277+\245\243=\316#y\276\217\306\206\276`\263}=;\343\277>\277\301\257\276q\027l\276\230\260\246\277(\354\231\275\241\203\323\275)@\201\275\035\262\270>&\337s=\255\237\370\275\220,\326\276o\243\207\276\217\300=\275\327\264\037\277\370v\t?:\330\237\275\325L\366\276\007\035\205\274\r\271\244\275Kc>\277+\337\350=\324\025\007\300\245\204\313\276\350\276\302=\262\236\243\275\004\2327>Xx\273=J\305J\277\264\201*\276\034\336\200\277A\342r\277\335m\033\277\246j\201>\0308\315\275\0202\200\275S\331~=\240\212h>\004\002A\277u\333\373\274\306\367\002\300ly\226\276\365yq\276\t-\000?ju^=\220\004\014>\336\243\253\276\367\350\305>\204A@\277\027/\212\276j\376\031\276\005\320\006?\264\321\313<\036$\354>\360\243\320\276\256\177\265\276\216T\255\276X\\\200<\251\224\207?\202\016\031>D\3522?\354\031\245\276\tz\376>d\240U\276v\344\324\274\005\213\210\275]\233W<#\257\003\276V\023\350\276\222\003\000?\373\245\177>\303N\367=\363e\030=`\231\276\2764L\246=\234\371?>\003U9;ft\217>*7\337\276\363\035\017\275\223\350~<\027\362\231\276\344\330\003\277^\246\362=\302\300\002?\326Y\201\276(\326)?:_\306\276\n\350\031?\206<b\277\373S\217>\200\256\002\276\242k\025=\257/\276\275\206\263\233>\342\014\221\277\021\201\340\275\003\355[<5\013\360>\342\372\263=+\212M>KN\236\276+\256\223\276@\024\331\276p5\343>HF\260=A\212\022\276\201\035\245\275\t\177\222;\211,6\276\274\327U\277\353\237\331=E\240\262>\316\352n\277B\023\247=\322\001\356\276\323\311\217>\022r\212\277\360\274\344\277_\240\255>nC\225>\254\215\223\275\211\236o\276\302ox\276\260\321\245\277\254\005\227\277\237i,>\032i\006\300\254g\014\275\270\373:>\251?g\275\365\322\010=\331l\235\277_i\370=\\\231\335\275\310c\002\276\317Q\000\276s\254>>\030d\202\2741\300\270=\000\020\377\274^\204\357\273o%\226>Q\200\271\274\274\375n\276\304\227\261\275\024+\013\275\274\254^\277\005N(>\311\321g\275\302\252\t\300\002k\265\276/~\202\275\013\034C>1\317.>g\245]\274\251\031\226\277\021\273\377>\2328Y\276u\240c\276\2774\333\276:E\\\275\266\375\256=9[\325=\261tQ\275r\005u>\211\334\317\276\r\376\266\275#\256m\277\336\017\010\276\026C\343<\252(\207\276I\363\311\275\034\331f=\242\256Z\276\247h\327<\r\033\033=\"\261\020\277pwr\277\370\206\313\276\000+\335=\350<\271\274\024\260\231>b\360\316\277\033\025\222>\252\237M=\267>\232><i\211\276@\311\325\276\235\377/\275B\355>\276\254R2\275>\360%>\335\330\265>(\020\263\276OO$>\351\003\264<by>\277\330K\037\277\311T\005>Zc\351\275\223J\301\276\253\245%\276o\255\234\274\350\032\244>y\321\347<\350\200\240\277\306g\225\276wy!=\270\364\240\275\\\224\226=n\370n>\2409\030>\370\256\245>\270J\177\276n\322\026\277\253;\200\274<\016K\276\262\0345\276\211g\252>[\022\272\275\267\307\021>\301\257\244\276\277\202\347=O\227I\276H\313\n?-\357,\276;]\013><F\233?\304\004\347\275\237!\272\276\262\0252>\335+\212=1\243\345\276\352^\347\276\317G#>\351\210(\276\330\273]\277@X?\275z\246\200\275\275\t\330\276\307V\312\276\342|k\277.\341\023?\313j,>\206\366\023=B\t\274\275\231\331\263\276\233OU\274\202\021\311>h\330\000?\304\223n>d\257\206\276\0228;\276\337)\367>\030\247\023?\345\205\315;\314\367\322=a\275W=\004\345\324\276\252\020\244<!\251g\273\2360\255>(r\004\276a\374\301\276\245\r\210\276\222\220\250>\311\264\336<\324\177\204<\315(\005\275-\302\004\277$d\202>T\335\256>[7D\276w\324N\276Y\203\353=\241\362V<\316i!\277\206\037f?Z\365\035?\266\221\250\275\031\275\000\277\026\334\252<\004\217\316\275{\272\245>JA\242\276nL$?\353\200\302\275\250\301\000?\022n9\276\347z\"=\344\037\274\276\315\367\222\275\262\337\362\275\3352\004\277\331F\202>\014\316N\276EY\202\276\222\221\215=\257j\250>\314\331<\275\212\005#\277c\243\240\2768\300\005\277\325\342\351\275\227\r\240>\271\230\327\276\362\272\332\275\005\242\362\273s\303\376\276v\006b?\221\007\205\277Q\235\337\275G\030\362\275!A\267\2755J3\274\250\332\035>\343\334,\276u`\354=\022^\351\275g\315\337\276\200,\t>\305\266\245>=K0>\033_\255\275\360D,>u\373\267>\376\207\320>\357\376O\276<\275\236\275L\373\034\277\202\320?>\035m\262\275A\243\210>5\307\037?\"\211\254>\035\345!\275\362~\377\275\261\362;\276>4\254\276\207\272\226\276\360z\305=@E\034>\020l\225\276\312+\365\276\276\343\353=\262\265G\277\254\342\340<\226v\005?(6$>\202\364G\276\311\204\233>\257^m>\257\224-\276E\345_\276\300e\344>4\260\307\275j$L\276\335\332\013\277\345I\313<\354\312|\276\013\243\257\276\003\256\230\2737X\357\275\025\230z>\002L#?\266\021\024=~.\331\276f\325\270\275w<\337=\266\230\037?#\213\032\277\177\360!\276\2119\241<Z4\361\273m`\276\2764\263\235\274\004e\362<\003\034g>3>\343\274P\270P=v\227\214\276\033\323(\277\032\344\307\276F\264\237\276\271.\350\275\377\245\355\275\332\361l>\334a\351\276\372\207\302\274\032\335\230=\300&\227>\372\241\200\276H\237\225>\322+5\276\370M\267\274;4\305>\376&H\275(\223\002>\003?\376\275\327P\005>\306\241\177<\364K\303=o\240\371=\017\246\324>\267\364\216\276\013b<=\251P\212\276\361\375\214\276\n \204\276*wQ\277`\212\212>\363\272\366\276\016V\261<\347\3728\2761*\216>}D\020\277=\032\307\275\373^\210\276\323\254\254\276\276\t\353\276\311L3>\340\276\242\276(S0\277xH\236\276}\025#\277\324e\216>\306\003\254>\322\274Q>a`\010?\026P\003\300\347\266.\276.\244\245>kRr\277\020\004\325>\356w\017\2778\312q>\241b$>s\324\014\277\307Ae=]\335\205\275\244\371O;\023K\236\277\2501->\342\372`\277\206\020\013\277D!\234\274\311\323\027\276\264m\334\276t{g\276h\210\'\277\326\2661\276\257\227\350\275\0364\333:\\\022\021?\200\031\374<q\263Q=\252\006\244>\320B\010\276\333\250\363\276\212\230W\275\266\313E=\177\217\307=\036\303\335\274\360-C\276\033;\275>6\010\221=U5\261\276ZT\256=\006\243\000>\031\352\374=\377\006\214=\\9\271\276\010\273\201\276\\\212\236\275\317\224\364\274IO\202\277\347T\354\274N1c>\337I\272\276\256\006A\277\322\271\361=0Q\201=p$\303\276\3716\305:+\305\271<\026*\223\275\355/%\275R\004\205\277\330\020->\337A\222<\223\355P=\273\326j>\304\217%\276\255\237\033\276\202\036\206\275\001\036v\277J\256@\300ov\214\276]\210\266:[>!>\313\363\205\276Q\261\330\277\n\226q\277\3249a>\335\020\361=\014\335\264\276FD\273>\213\260\305\277@w%\275h\247\367\275yOp\277\362@\301\274-\215\261\274 \341\006>tq\237<\371\025\221\277\325nk\276\204p\302\276\022T\030\27757\026>\322C\253\274\211\006\320=U\341A=~>\236\275<9\020>*\330\235\276\334\233\n=\221]\r>\014\271\030\277\262O6>1\340\025\277e7\253>\236\276_=*D\037\277\233\\w=\224\025\322\275;\334I\2777\350\310\276\031R\274\275\301\351\324\275-\376\355\275}y\331\2750\317\351=>\206\204=\025i\026>S\t\010>.w\3549\255\232\316=\205c\216\275\331\356\351\277\220\271\321>-\227@\275\242\017\014\276(t\016>\033%\355<\024t\203\276\301\335\231\275\014?\361\274W62\276\266\272L\276<\352:\277w.\217=wh\367\275R\227V\276\373\364\267\277\020\246\274\277\250\226\335\274\006\341%>\3511\310>\251oT>\256\3669\276H1\351\275\'\276\210\277\221bp\276\362\320\"\300n\204\241\276\211d\'\275/\000\221\2765\257\261=u\375S\277-\303\303\275m\t\321>2sP=\210\363\262\277\353\355D=\261\013\023\275\0330.\275r\365\260<f~,<N\177u>\t\250\236\275\257A6<\007\205\014>A{\177\275\001\3555\277\216C\361\274\365\210\311\276,\377\024\277\314M\000\277{h\241\277\211\306\305\276\221\251k\277\375;\315=)\275\006\277K,\271=\024\323\027=\237\2467>\010c\351\276\306\214\017\2773\362\020>\274`H;e\251\305\277zj\306=`!\353\275\007\370\241\274F0\270\274\363\357\267=\300\022\360\275M\314\230>&\265\224>\366\216h\277\221\022\234\277c\021\345\274j_\233\276F\211\330\277\327\321\324<\207\337\310\275\021~\302\275B\025\326\276\014\305H\277\212\001|\274\374\312 >\322\350\t\276\2020.\275\036\266\221\275\214\023\347\277p\224i\276\210\363\'<\234:\021\277ZS\207\276\363K\003>\203\225,\276\241\371\233>xD\304\275\000\213\205\275\260Om\276\224\210[<jy\254=\226\362W=9YQ>\020U\226<,\307\312\275,\036h=\316V\313=u\013f=\253\310\345\275F\215h\276\177\317\016>#\314\220\276\236a\342\277E\245\002\276\002\336\027\300\215\241\262\275\006xH=E\024\n\276q\326\365\275e\r\365=\220\257\213\277MD?\276\357\244\001\300\306\356\375\276F\260\304\276\274\305\214>\204\340~\275I`K\277\262yp<S\221\215=\005!\371\276?\273$\276\226R\r\300\260X^=vW\r\276y5s\276\214\366u>\2755\276\275\021o\224>\355?\300=\210\310\205\274&n\211\277\237*\217>\252>\215\276d$\023>\341y@\277\270(\271\277\321_\367\275g\365\212\274x\343\005\274\247s\251\277\006\234W\276P\341\005\300\213h\274\275S\006\030>\336NM\276/\243<\276tC\300=3\367G\276t\'\202=\317\303\202>\373Df=B.\300\2762xQ=l}\263\275\277\026\213==\260\351<\200#V\276B\214\246\275\326\262\321\275\344M\251>\023\340\365=\231\331\203\276\342\341K>\250d\335\275\316d}\276\261\361^\277\007\335\227\274L\027?>\366\3429\275\250\206k\276\026\220\220=4\363\321\274\035U\370\274\036f\250\277y\0352=p\242+\300\007\365\005\300\211\317\201\276\207w\177=;^\230\274\247\261)\277oE\252=\357\2120=\314\326z>\210/1\276\311\355X\276\246L\353=\024\2764\276\361\202D\277\213\271\275\276\226^\036?\373Q\260\276~-\377=\371M,=t{j>1\367\311\273j\342/>O\200H>^d5?g\350t<\244w\245>\255\313Z\272DC\031\275\231\213\227\276y\252\232=\017\243\237\276K\223\214>qd]>\204\210\306>@\240\375>\201\273o>i\274\301>:\200\230\276\331\366n\276r\014\216\273\226\324\373=\202\'-\276}I\220\276\337\364)\277\034\021\225=\372-\240\275\275T\200\276B\217G>\352,->\304\004\333>%\231\236=\234i\004>[:\240\276\343/\307\274\3124\001\277\351\221\036\277s\234\246>\236}\204\276\373B\025;\343\275F>\345\305\245\274\361\320\226>;\247\026?\251\367\037>\210\242!\277G\210_\2751U\232>\374 \227>\303\317\345\272K\330L?\243O\255\275\243\300\372\275\207\360\377>J\325\316:\347<\031>\013\2144>P\306\244<\355=e\275\337\234U\276\373\352P=\347\300\247\276\320ZW\276\217\332\252\276z+\234\275\n\344\304=^\016\234\276\207\200d>\257\264\223==\273\001\276\213y\205\276\226$\010\275\263\266\027\273\326\204H\2760\252\265=2\203\223>\207\277\236\277}MV=\207\252\276<\014\rm\275<J\003\276\265\355b\277aE\221>\244\345\332\276\254hF\276\257M\201\277\345oJ>Y\221\343:\305[\222=0\242s\276\251\277\224\276\357K\016\275[\375\363\274\357@\362>\tF\264<\034\366\275\276\342t\257\275|\346-\275y\307\277>\326\r2=\260\2175=\rs<>\005P\366;\210\010>\276J\212P\276\326\336\030>-\367\314\275\336\350\365\276:\213\223\276\026@g\274\350\335\203\276\323\245\004\277\2573\016?\371\262h=\220w\265\277.\034\316\275\332\355\021=\270K#\277\217\366q\276\001\255-\277i\\\353\274R\333 =\231^:>PC\303\275s\037\267=$\244k>}H<\277\362\252\001<\365\313\357>:A\023\277F\307\340:\370=!>\n\000\020=\273\211\265\2767\375\202\276\211\034!>\030\330\032\276d\355\n\277GaK>\261\'\033\276u\\0\276\335 c=*k\036\277\224:\237\276\225\0320\276pZ\240\276\231\306\317\275\216\033\222\276\001kb\276wb\016\276a7\025>\321\227\341\276~\377\256\2761\ns\276\030o\276\275\004Z\031\276\357\251\360\275\332\265{>4\324n\276\027\324\375=K6\314=6\365G\276\221Y|\274\000\211[>cQ\026\2748\217\200\277\032b\004?ro\026\277\252\335\221\275)\256R\275Y\235y\275\255\313M\277.4h:9\n\335=\300\235\235\277}o+\277\270\315G\275x\236\212\276U\010\217\277\347\013\213\271p14\2766\332\321\275\003,\222\275m \310=b[\271=\037\317\237<\2018c\277Ux\024\275^\036\237\276\367;w\276\223\350\226>R\334\363=\014?\034=\307\210G\277Y\024\254=y\301\022\277Ge\200>\'|\375\274\303:l\277B\006G=\005\364\030\275\0371\315=DQ\215?\272$\232>\236M\004\277o\214]\277\313\332!>\340\311\206=\035K\271\275&\251<\277z4\026>|=\306<\366\304\377\2764\250\355<\375\256\226\275d\207\305>\223)\002\277\301\225\307\275\326F\025\277\347\326\213\276\004,/\274D\233\207\277}\001\242\276\370\253F\273\343\213O>\312\202i>\335\305\256\276xh\020\276J\314\314\277\237Y\373=\330\316\213?:\233\277\276\221J\244\273\245\277\003\275;\0348\275o\254B>\202\206\r=-\272\267\276|w\025>\325N3>\324U\376>\0161\353=\033\224\252\276|\327A\276b>\305\277#\302Z\275\224`-?\257\364\307\275\272\344\n\277Y\367s\276nK\216\2749\231@?\354\244t\2768}\211\277\321B\035>O!\267\275oz\325\276I<\340>\2229\337:\267\366y\276\006\261\242=\037\325A\277<\237\177\275\327\232\345\275Ra|=\230\337K\277Z\025e=\032\364\025\277\037y\025\277\014#\227>\020\322n\275\361\006\253<\236\334\261=\215\231\264=h\200\214<RZ\223>r|\\>\270\202\312\275\003\244\002=\014E$=\376T}=\336\0326\276&2\367\275\364\322\251\274\346\323\007<\254\004)>\273\254^\276[>X?\000\322\002\276\241L\021>\222z\241=w\245i\277\303\272}>\362\013Q=\003$C\276\244b\233\277\t\253\341\272Y\364\240;\031\026`>\345o\260\277=\352\335\275]\337\362\277\246\313\346\276\265%\314=\357Y)>qD\256=Q\024\315\277\264\343@\275\276e\311<r\373\274>\212M;\276\357\016/\275j\303\243<D\213\365=\315\266\310\276)\372\270=Au\257>\345E7?\313\213\233>;\376\355\275\227\251-\277\325\230\327\275\370[\275>y\336\035\276z\324f>\230K\013\2770\316\034<\274\274\226=V\323\330=\3103\265>\256d\362\275\357j\030\277\023\344[=k\214\200>\025\217S\276\234\263F\276\247Yq\276P\364<=\331V\001>]\320\000\276\323CG\276\375V\230=\203\200\237>5\253\034\277\034j\316\275O\373\302>1\222\224<D\361R\276x\361\256>\035\374H\275\200$\256:\235\2602\276\205(\226\276\323|\353\276q]\261>\345\330\260>\277\333F=\t\220\365>\343\367L>\316\013]\276\363\234\030=t#\276\275\324\320U\276~\257F\276\265\245\224=\355\243i\276T\233\202\276\201.\202>\211b\217\276\267:\021>\037\237\004?\241\237\317<\250\342m\275q\273\222\276f\207\021>NQY>\365\233\340=E\260y>\005\205o=K\030\345>U\"e=\311N\333\275\274~\001\276\345?+\276\355\0347\277\361\3729>\037\026\264\276\200\371\336=\255\313\302\276\331T\356\277z%\254\275-\274\311>\375\2212>\357\346\030\300\362\335\023\275\234\2159\300\264 q\276\010y\'\276\272\270\265\277\267D\236\276\375\372\016\276\377\337\224\276\036\335\023?\000\231\316\273\253\237S\276\231v\024\277\225\304<>\035\341\204\275\322$\177>B\366\004=r\356\245>\002BS=\217\005V>%\345\341<#\210\002\275L\267\366\273\314~\332\276C\262=>\352\2075\277U\265i>d\322z>\277\236\327\277\262\024u\275\013 c\277\035\r=\277.\302\307\273\317\355T>\367\321\314\277\202\276\003\277C\"\352\277\026\005T\275\311\327\260\276\255\313\261\275M\273 \276^p\211\277\352\275\243\275\357,\270=\216E\277\275\313x\226<d\0316\277\213-\244>/\n7=\271\311\214\275\326v^=\276\243;\2758\004\232\276\231(\007\275P\273\"\276l\354\310\275\0268\260\276\340`=>\203\005\247\2769\350\237=q\036\221\276\325\375Y\277\022\016\270\276>\375\267\273\302\241\327\275\252\213\'\274\3416\005\276\0053Y>[\037T<\005v >\266\303\022\277\247\332\031\276P\226\246=\320\350\246=\017\226\002>\240\207x=`w\023?\221lm>@\3739\277\3355\005>5\211\375\275\302\325\272>T\245\275=\004\355\240=\225\204\240>\326.\256>\313,\236>\211E\205\276\017\365\257\276\205\272\263>2\006c\277\372$\262\275XQ\226\273\303&d\273\275\235\261\277\324m\262=4\253\014\277a\023\207<\303WV\276\347eO\276~|\322\277yy\'>e8\303=\255uJ\275\267b\347\276]\331\324\276\355`,\276a\325\244>Xz)\277\354 \220=}\324\216\276\265\201\017\276\260\t\n?z)\321\275\0378\233;\323\332?>\225\227\232\276@P+>&q\035\276\037\370T\276R#\345>\000\031\251\276\216\331\'<\301\334]\276J\3628\277d\360\255>\326X\345=\3341P>4RI\277H\243\210;\025R\301\277\314\352z\276\367Y\\\276\214\014\250=\253\r\200>\242\201\255=\201\360\205\274M\370\256\275\312\334G>\260\211\234\275\312\214\326\277\262\277\246>\010\014`>\212\257\246>\365=\343=t+}>4\366\001;^\377\014=\235\232\334>`\026\016\276MF\341=FLS>\026e\002\276\220*\005\276\372\252c\276\2739\337=\353\345>>\201\004\201\276d\"\342\276\001\372\366=\025\355\237;\336=\235\275\231\350\n\277\035s\006\276x\306\344\276\331\375\306\274\027%\277\276\362A\001\276-\360\277\275\250\213\n\276uS\273\275\036\200\027>9\244\337=\253&?\275\003\355\347\2757L\r>\366ps=\312;\207>h\204\215\276\"!\001?\273g\236>\033\226z\275\242K\206\275xo\234>\026<e<6\275\354\276Vr\324>z\006d\277Gr\307=\354|\217>S\331\027?\263\252y=1\314W=\204\t\343<S\346\207\276\315\354\026\277\202\260\364\275\257\245\354\276\202\335H>N\233\215>\367\247\014\276\212\356\242=~\205\376>\024\035\303\276\222\316\'\277B@\303\275\202\201\271>M+&;\315zj\276\315\313\241\276\370\212\'\276\347Q\275\2766\224\206\275\215\211N\276\345\024\377\276\300##\276J\273\256\275\255\250\254>%\025\201>\021\020\365=\237)\350\276\372%\264\275\311\231\243\275\234\273\304>D\2327>\010\312p\276r$o=Ej8>\304FK\276\016\324\000\277\013\352\010\277*sN:\022\003 \276}I\201\277\261\370\002>x3\263=t\031K\277\226\333Y\275/$\036\277O\251F\276\331h<\276\251b\"\276l\212\250\276\252\230\221=\3055I\276\366^]\276S@\037\277[{\211=\2200j\277\363\273\027\275k\251~\275\257![\276\311, \277L\004\216>\263\366->\225\273\275\276\301\220\263\277\235\361F>\244@\362\276j\363\341\277\353|\034\275\362\3178\277\237\374\033><\276w>n\313\032\277\037u\203\274\021Z\363\276\351\001\237\275fp\321\277\317\022\024=\023\263a\274\236_\014\276\017f\204=g\373:>J\245\363>\024\372\020>\300\207e>\327V0>\r\261D>\312\220I>o`\220\276\243\271\205>\017\351\232>`\326\000\275A2\213\276\217\220E=\220\316\222\276(\260\234\276Xh\020\275y\3523\275\346\217\212\276\353\254\213>\327\035P\276\027\305\250\276\024|\256\2754p\035<\216B;\276\014\341V\276,\177\251\276\030\336:\276\277\262\267>\310\355!>H\002\321>*0\340\276v`\255\2767\032\272=\034\3628>\263\330?>\311\205>>\323X\205=\346\357\022\275\360\002\201\275\031\317\241\277\266Q\301>\036\272\317=G`~\276d\312\303>\340\346\274\276q\213\372\274\232H\261\274#\243\344>\'H{\276;\373%\276\302\206\351\276\243\026k>\327\017\221\277<\244$\276\021\246\274\276V\3730\277G\000\013\275\020\271c\277\374Z\214\275\243\234.\277\030\356\237\2755\243\203\275\236\342\264={u\346=\221b\255=\023\030\001\277\312\017\344\275\353\031\336\275\3754\326<\211Mj\274\317\330\233=\365\"Z\276\354\254d?G\347\354>A\010/>\215\t\022\2763\242\306\276\343%\301\276\225\031\006>P\211,\277\336\214\254\275\341\324-\276\337\323\304<T4}>\324MO\275\023\002\362\276H\261?\276u\325\205>\374\nj>\270\013\240=\236\013\'\277\025\210}>W\217u\276!\372@?\316\366p\275\225\276\210=2.\244\276\315.\271\275~\241\206\273*\376+\276\0049\374\275\257\361\204\2750\237\220\2770\000\246\276\304`\255\276\3758\'\275<;{\277HEN\276o%.\300\230\345^>\272\260c\274U\335#\274\252\376\032\276\364\305\032\275\033/+>\357\037\027>\233b\022?5O\034\276\007i\254>W\253\273\275\203{S=[c >&!\024\276\332\r\253=\313\352H\274\270D\323<\n\343\003=\344\371\016\276(\311\261\276\335\206\306\275\367?M\274l\'\010\300\331&\207>\006\261S>\247,\246>\336\260e\275\276\342\346\276\312\r\237\276\nj\343=\263\357\357\275\304\204\234\276\265A\363\275~\373\267=W,7\277\002\224\356=\374\325\313=@\247\013\276\234\263\247\277D\265\215>\306\205^=\234%5=\017\321\364\274\251\340\242\275\255\253\007\276\357c&\274\341\222\300\277\367-Q>\362\020\003=\210\304\177>\274\017\261=Q\001u\274\026\336\276\275\266Y\346\2742\177\204\274\377\261\251>#\315\271>\365\226\212>g\300\343<\226hw\276\332\035\004\2761\256\353\275k2\276\276\227\343\205=\255\030\222<\363\232==\224\3724\277g\262\032\277\030[}\276G\032l\276?\\g\277\017A\277\277\345\202\246\275\330\340H>O\276\374\2765\022\207\275\334\025\230\276\261<\206=By\326\276\230\t0?=\001S>\337`p>n\370\004=\244\334\326>\0241U>\006\330@\276 \311\332\276\373\033\255\276\034w\204>a\305\371\275\242\300\007>\3664-\276\002\240c>3\373\374\275\003Bd\277\334\034\354\275\354\265@\276\002\223\344\275\"r\026>\340\2408>\323\2544\277\363%r<\023\250\203=2I\255<$6\266\276<\301\214\274\262\366\006\2765B3\277\243\216m\276\263\363\035?\252\266G\277x\341\263<\224\315\r=\337Z\254>\363\316\357\276\021\255\224\276\027;\227>\220k\020\276fr\343\276\035Z>=\247\205\317\276^J\204>b<R\277\3356\252>\214r\250<\247)\034?4\303\376>\266\253\233;\241\261[\275\177\361\351\276\305&M>\202\243\314>-m\304\274\343|z\276:\316\030?+\"V\276\211\253\355=\271\033\255<(\217\330>7H*\277\350/\272=\253J\241>\247\366\330\276\276\2124\276\224B\213\276\000\331F=\326\350.?~\300/?\031\244\367\275\232\221\350\276:\327\321\276rC\246>\276\237n>\374TT\276\243jl\275\262\027\340>5A\'?\262<T\277\375Ia?$=\322>\356\341$?\036\204\225\276\336#\373\275\214o\255\276a\325\317>\204\272\251<\031\234\221?tb\022>\020c\031>\324\004k\276(\345\261\274}w\020\275\036\2645>%\244_\276\327g\020\277\376\277\032>;;\023\274.\225\210>\264;A=\244\233\236<\347\026\253=O\347n\276z\300\236\276$\035\247>aN\177\276\351?\264\277G\023\346\275\3046U\275Q\002\203>ms\371\276gy\252\277\344\3300\276\262\3108=\025\233\226\275SK\252\277\363$B>\327\024\377\277b\316Q\277k\210\202\2763\204 \300>^T\277\307\327(\277\202\276\245=\301\\\203>\031\305 \277\341B\351\275O\322U\276\202\2077\276\263\026\321>\036\210\360>Z\314\343=^\320\264=^*(\276h\3710=\003\032><\021\215\231>\331\261n<\257\340<\276\021\024\313=\'8\016\277\257\315<\275\034\262 >bv)>L\266\027\276\344L\023\277\352\2176\277r\313\233=V\322\217\27668\210\277\222d\262<\275\320\225\276:\017g\274\270\265\316\2763\207\216\276<\325(>_\232!\275\263\330!\275\357\375|>\233aC\277%L\220>#\327\253={\'\215\275\014j\003>\017\260\036>6ju\276<\220d>\376\344r\277\354\332&?\274\026&?O\037\025\276\033~\206>:\270\031\277\372[\314=\245U\215\277\301\203E>\300e\024?$g\005?\021\335\314\276\311\027F=\362\213\321\275W\200\226=[\027o\277\341zt\274\252\343\376\276\260^D?\237\276\250>P\024A>T\376[\276\010U8=\202~x\276\304\243\222\276\355\207\003?\267-\020?\355\204\267;?\n!\276\373\271\343<\257\020\207\276i\260\271\275\001m\226=\230\003\272\275\032\214\312\275\003\202\206>Dl\257=<\317\247>\003\'\301=\177z\255>\312\202\251>\0044c=\262\301\320;\205\267q\275\267\3250>\303-\234<\253\007\334\272V\007\351>\252 _\276=@\334>}i\247\276-%\213\276\250\206\344>\230\333\362>\312\364\003=Ql\361>\264\303T>\301\300\334\275\365Y\261>~E<<\365\n\236=Y\327\306\273T\367\233\275^O\340\2763\010\000\277\027u\237\275\346\336\032>\276,\343=\267\t|\2765o`>6[\350\276\243\352\002>\212\251\247\276Sc\206\275\277U\335=\244H\t>[\020\236\277\224\275\333=*\2444\277 -d\2749\275\336\276\363\214\272\275\220\304;\276q\261!>E\331S\276}U\246\276\020\023]=\034}r\276\375\236\233\276\336\347\007>&s\256=\014*\237\276\353J\333=\213\306\'\276\014\225@\276\3144j\2758\315\227\276\345\003\t\275\234\242\316\276\234\311\214=\210\243\261=z\021\000>\003W\352\276Q\376\032\276\037\266\016>\317\337\345>Z\206\200\277y\304%>\0347\201\275>7#\276\374\216\034\277$\326\030\2770\r\264\277\214\335+\276f(,\276\306\326\023\276tK\016>`\270:\276\003\324\007\276\342\372\233>\34364\276\007\375\025>\232\001\205>\222`\233=\366\323U\276\021\343M=\016%_<\244\341\026?\243\020\035=\207+\002\276x\017\325=\032q\357>\261\244E\276\0077\250;BX\370>2\227\010?\210\240\220>\242\206\236=\316\205\246\276\n\307\371\276\245\307\205\274\353Ti>\333\274.<7t`>\317O\360>\343\363\214\276~HG\276\257\226\016\277\372\262\336>\272\231\014\275\211\226\210\272,tH?XP\263\276\343\207\022>\001\307\030=\376$\236\275\023\350^\276\003D)\275\000##\276\343=\214>\337\347\223>\031\223\003?k\004:=%\024W\276I\327M\276D\004e:\261@W>f\203P\276\226\216\202\276\214t\314>\207\346\221?\007)o<\351\270\000>.G\210\275\222r\020>\253\026\334>\265W\017=/\267\241<\273\035\253\2760\006H\276\022\326\223\277\231\032$\275\002\016/?C!\271\276\353\332\314>\303w9\276\330+\364\274\3307r\276\0109\r\276\276\267\217>&\205a>\316AH\275\273\210\275\276\2720\341\271I\034\336\276%\273E\277\222\274\033>\236(\264\277\342\353T\277fj\223\276\303\370;\276\006\215\325>wu\263=\376\245\006>\326\205b\276\007\\\345\275\206|\032\275\305T\352\275\336\301\356>m\214\350\2759{\207\275c\263\340\271\233\307\326\276\241\355\223>\314\233\320\273B\213\236\276\347pQ\276\"^\002>ZsE\274\331\375W<\377\357D\276\270\303\204\276\020\245{>z\246\026\277\rZ\211\275.\002\253\276C\225\336=\307\002\021\275l\257\227\273\244\004\227\275\357\311\337=\007}\021?\201u\223>\323\002S\277\213\227\016\275\356\274\244\2747\027\205=&\234\227\275\301%\215\276*\326\365=u\342!>\333P7\276B\003\227>H\233\311\276\3131\265\276\177,}<\275\334#=\254\313\243<\372\341`\276\356f:>K\004\211<\226*5>\252\327\031\275\322\357\345=\346\343\035\276\277\025\024;_N\314\277\374\213\005\275\244e\247\277\243\253\315\276\3364G\276L\371\211>\254\271X\2766\237\024\276\310\227\010=u\232F\276Z>\211;\262h\005\277\200\211\360=\355\226\262\275\303u\021\275\024U\336\274\202\255\001\277=\346i=\014x\177\276\211\324#>eQ8\277\345\213-=\315!\322\274A\331\036\276h^S<%\014\217\275\351?_\276\024\001\343\275\310\232}\276:\266n<\337\214\010\276\315O\306\277\375\031y=\206\272T\276\275H\214\276\214\246\325\276C2\374=\317\372\367\275V\357\231\277\355\271A\272\206\t\n\276!~0\276\303k\262;\340\355~<\330q\022>\370\305%>\250\017\'\276\020gb\277f\244\216=\267K\271\275\321q8>\244\030\210\275\033O\350;Xh\200>\267\000\321=\273\303\311<o\263\r>/:A>g\013\342=\277\031\333\2759g\001\275;k\210\277\010\326s\276\364\326\013=\221pN>\212J\301<\360\363c\276CD;\273\266\001\343<\250\035\316>\354V\227\274cO\227\277)\n\243>\3476\n=\3201\027>7\301\236>\376\345\214<#\336b>W\231\321>PFE\276l\340\016\275V?\037\277:\250\225\275#\210\034\276\303\3319>\375\2012>Q\004\022?\357PO>\363\177\361\276\336F#>\340C\035>\226\205\372=i[\336>\324\310\361\276\317\257\027\277\345\367\326>\214E\026?\303\364\n\277\026\264_\276*z\002>wPe>n\350\252\276\r\321\004\277\001\313\371\276\270\341f>\177\211O>\013\235\225>\365\275\300\276\370\234\352>\264t\n\277\r\010\343=.\320\226<{6\030>+\205G\276\300\274<\276\004Z`\275\310\340\255\274\275\331\024=@\333E\275\r\231\223\275\325\"!\277\036\327@<\031\277\366\275\2035\242>ob\333=\317^\341>\033\253\177\276\225\016\373>\033\227\235=\206p\355\273N\026\357\276\026\203\000\277\305\0050\277F\271c>\303y\253>\222\326\274\274\210\201\037\275\267\231\247<T\210\223\276\001\206\020\277\374#|\276)\223\346\2756\255->M\264\235\275\353\340\337\276\021\t\355<tN\024\276\344\353\234=\260\377\242\274\375\266$\2760\273\251\275n\311\303=\267X\002\277+\361\220>\365\0300<\002\344V\276\333\234\272\275u\355p\276\006;6\275\235\033\216\277/N\257>\023D\032\276\336V\025=# g\275\333I\000\277\006g{\277\356}\370\277\272\310\376=\013\266\235=H\262\036\276\372\000\314\2773\324v=\232\204\374=\n?\263>r\3335\275\343F\021\274\300%\325\275z\305r>\340\251\'>r0\007\276\307\251\257\276\377\366`;\301\002\273\276J\207\235\276\200S{>\271\253H>\212]\212>\340\037\276\276\353\307`\277\031\005c\277-\301\224\276\252\013\r\276\262o#\277\036\216I\277W\216T\276\020Q\037>\010\032\222=kC\301>\267\311e\276j\n\343>\332\341\276\273{b\241\274m\3436\277\315\311.\277%\300\246\276E\346\\\276\t\030A\276\274cR=\007\214z\276\274\264A>n\313\014?\374\320\214\277\030S\223>*\245\354\276\246q\251=\300Y\332\276\315y5\276\300\022\211=Z\251y=\277\202\350\274i\311g=\201\254\272=\2223y=t\202\372<\020\3516>_\200\222\276Z\202^\277\231F\222\276\261\220O>;Rv>\001{\241=/A\244>\347l1>\360\344l\276\201\264B\276\\\303\030\276,\322i>\022\222\237>\005y\036=\302\311z=\010\002\273\276\205\271\304>A\324\002?!\343\335\276\007\341\027<\252]\317>\201\356J\276\354\325\307\275\226\225\021=\001D\311>\304\341\'\276|X<=\310\n\001\276/9+\2773\030\345\274\324L\271\275\251\215\307>P\\\315>\177\362\202\276Y\304E\277\325\0052?\237\2377\277G\270\316\276\2652\251\276Wh\351\276\303\370\020\277\20026?{\034\010?\001s\354=9\300\003=\350`\275=s\027\367=\210Q$>P\"\274\275d29\277*\365\014\275b03?>\000\274\276\224Cb\276\212\213\005\276\231\r\327>\247\232\363=t\336O\276\034\032s>\031\276P\2777&\035\277K\024\376\275\215\361\247>\360\217*<\027V\345\276\016-5\276\\\300/\277h\336>\276;\010\202\276\007H\366\275\336\370\203\275\223\215.=J5\206>\016\221->\375\361\254\275\326a\237\275(\003Q>`\"C\275]\235:\276=[\220\274\200\302,=\260\340\252=\324\257K\276?k?\276\227_|>\203\334W\275\265\000\240>\200\'\034\276A\323T>@\215\221>;\334\014?\366\345\334>\375P3?P\236\207\277oE\246=\025\2514>s\2712=\242\377D\277b\\\t?5l\242\273o\226z\277\025S@\277\313?\217>\3058\346>\271\225\244\276\r\224D?\r\237\242>\177\327\240\276SPy=\355\327]=\026`\342\275\002\352\022\276\263\211\276\276\247\234\266\276\'H\213\276\274\365\305\277\323i\227\275\334\275^\275\272\\\377\277\256\304\001>!\321\200\276\036J\224\275&\356h\276\216\307\n\276\230m\340\274W\006x>VTM\276\325\207\242>\233=\227>\260\374\033<\031\253\221\276\223JP>\353\004\000=f\317\273\274\266\371\377>\376\005\204\275X\217U\277\2433N>\237\325$>\352\214\034\276bN3<\177\003\206\276\027w^\277$\n\026\276\364bO>\252\306\267=\235\306<\277\257\227\321>\304^\366\273\023st=\301\334I>\336\366n>\000+\005\277(\207\362=\224\227\224\276\022\223\300\276^\211!=\347f\023\276j\343\017\2750F\245\274\264}\023>\0247\277\276\324\317\267=\021eu\276g\266\">p\204\034\276g\246\253\276f\\\362>3`\221\277D\003\213\276\022_L\275\2331\'\277\352P<=\355\027\201\275-\207%\274n\022\336\2763v\257=S\t\010?\300\006\201>\247\373\010?/\241E>|\371/\275\302F\024>\356y\370\276o\rj>\376I\267\276\002r\375=\n\223\201?\343\007[>r\036D>\026\002\256\275\316\262^\276\203\n\031>DD\036?P\340\002>\220\034\002?\270\316\271\275\273\013\007\275\272\005\001?\215\206\373<r\261\002>\243\221\030\276}\001\212=_\271@\276]\341\274=*\234\373\275\014y\236\276\364\344(=\372\221=>\031W\023>\324YU<\237f?\276\221\017\010>\0220\032\277\340\314U>\033\306S\275\017\301\201>\334\236_\276N\333w\276\2017\247>\027\360\242\276\223F\237\275tW\375\2756ex\276T~\331\275\005d\003\277\267M\266\273\346\206\022\277\263%\220>\216\"\251;\036\235\274\276\341\312\211=\363\033\030>\311\333X\277\250\350\350\277\346\024F>\316\2463<B\225\234\275\277q\037\275s\000v\276\313Q\363=\010\037X;\272\023\">\037\202\026\300\314\240$\275\316\034\236>0\346\333\277\371\374\343\276n\303\213\275\013Y;>\r\340>>\375\217\254\275o&\335\275\255\030\\>\"\3629\276^\346\225>\346\324\341\275A3\217?g\037M\275\375E\253>\277\352\314>\276Z\300\2774\326\315\274\353+\375\276\252pe\276\377}\017\277\225\020?>\233\307\226=\211\351\306=^\326\013\275\231\302\250>@\343\001\277\273\365\024<4\315%=8\000\200\275\2005\300\277\331\265\200\274}\0339\276\334X\214\276\270\341\233=\352V\203\275\243\t<\276I\031\227\276{\000N\276\312\007\305=r\246\234\276wN\313=\356T\232\277\355\231Z\277\227\277\277\277\212ZR\276\270dQ>\370\201\310\276\351!\022>S\026Q\277|\262\251=jm\261\276\t\233\261\276j\250\242\274\031\3458=\375\206\343;\367lt\274\362/\205\275\n\352+\276>\244\210>A\257\203>\020\226\202\275`\375\205\277\365.\345\276\365\364\031\276\r\267I\277G\260(=SC\207>\213K/\276\201\266(\275\361\310\375=\270\341\256\277*\223\352\275sy~\277\035\203L>\241wV\277\r\230r>\010\022\350\275\345\243D=L\352\222\277\376g\215>\244\272\'>#fo\277\177\372\264\276\313\233\r>\356\262\266\274\302\302.>{C\">2h\027\275}\275+\277X*y=6}\266=\343~\335=\261AK\276_Zq\300\026/\237=\267\353\017\275\227\343\212\275\'\305\211\274\355#\235\276V\273\371\274\032\237_>\"XX\276\205\357~\276\331\'7?\371\374b>h\204\351\275@DX<\2358\200\276\223\261\305=\327cZ<\023b\366\2770\206\226\274\321\372#\277\030\246y\275&nC>8\014\250\276Y\3551>*\256\327\275\2703\236\275\242\025}\274\323\342f\276\\\351&\276\251\266\323\273~gA\276\002\235\023<\265\310F\300\010L\250\274gS\326\275\243\007\311>\305\240`\276K+K9p@\276?\252w\322>NE/>\350s7\277\022&\204\275\344Fj\277\316[}\275\201\302\"\276\036\334!\276\274Z`?v\007E\277g\313,\277\241|\242=E\264\360=\024\t\345=($?\276e\034\256\275\264\200\274\275\323\"\242\276\205\244\363\275by\247=M\240\227\2758\325\325\275\341\325\266<\\\035\265\275\261\342}>\264r\350\276y\032w>\242r\322\276\246\276*=J8\203=\247\266\326\275\246\010\244=9\334<>7B\242\275\201\"\021\277\'\001\222\276<\031F>`\211\241\277\033\014Z\276gb\237\277\330\261\345\275\250;\004\277\3117\n\276\225kh>\001<\226\275\241\322!>\373\366B\276k\326V\277H\206`=\250\203\266\276\266\010\000>\252uv=\231J\372<\371Vt\276M\357B>5~\314>(\2710?pB\244\276\261\235\357\275U\355r=sR\004\277\027\340\237\276\375\013\244=\315\326?\276X\017,\275\233@\334=\332\373\351\276\336\242/\274`\245\267\277?}\223=\374%v>\t\214\275\276B\016\t>\020\215\211<q\261\233\277X>\351\276\271\274\327=\327\367\030\277\224\351r=<\253G\276\207\013\335<beN\276w<\037>\260\0270>\303?#\276\304\342\022\277(\326S\274\2376\344=\007\276]\275B\232N\300\365D@>\224\005t=\223\322\276\275,\215z\274\336\034\236=(\233\360=\355GH\2762\255\'\276?$\n\277\274\265\233<N6\206\276\304\376*\277\305\363\267\276m3\t\277\345u\033?\317\251\301\276}\225k=\312\343D>[\372\177\274H\375\207>\356\022\026=e}\266\277\355\200\n\277\003\246\346\276i{\200>\207W\264=\331\245\206=\255\314\305>\252E\222=\204c\307\275\233\261S>\330rm\276\353\255\363\275a\367;>\216\002\344=m\010A\277\211)\346\276\322\022\212\274\035\270\265\275\2633\272=\254\303\251\275\203\355\266\2758\251\322\277\303)\245>)\023M\276\276\2644\276\315\372,>_\304\356\276\226\313<\276b\226\364\276\310r\023=\240\036\031>\306\345\254\274\262N\334\276lK\301\276\214P\224>\322\301\313\276Xz&?\264\rx>Q\353\306\276\271\344T\276\275\330G\276\241\205`>9\177h\300\267\333\247=\320\326\325\277\216H\232\277j\326\216\275\206\274{\275+\317W>\t\217<\277\244L\326\276M,\336\275\235\361\341>9\004m\276z\345\244\275\241/\257\276\3329\256\276\322~\322>\364\344q\275\215JC>\300\013\226\276\244\314\316>\236,\202>\255\374R>2\260\246>^\375\233\276i\242+?]!\203=?\200\336>XM\262>$\310q=\345\371S\2762\360\017\277-_\370\276\353\330+\276\264\227\255\275G\017\236?.\371&?\207\221\301\275\340\273\327\2764\347\216\276\257\247@=\375\347n\2765\331C>\323\306\267\276\220lW>\246&\244>SFE=\363\216!\277ls\332\276R\342\246;#\004\017?\256\003\025\276\177`>\276\2359\214>\247\335N?^\214#>\271^\264\276%\341\016\277\361!\240>\027\022\206>\340L\201\276\351\216Z\276\254\032\246<\024to\277\337\262\321\275\210q2>6\341\350\276\2306\231={&\243>\211\260\022=\202\275\215\276\332 \354>b\207\010\277\007,H>\304\352\324>^\211s\276\310\321\245\274\361\344\341\276\300\025\313>\252\017\316\276SO\321>R\"\205\277dl\002?\005\010\322>\210\371\237\276\236\"\261;\363\2202>1p\202\276\354\321\307\277\331t_>\306h.\2754\341\226\276l3\262>\3233\366>\366k\023?\313\207\334>\362\331\324\276H\273\211>\216\034N\276\177\022P=\364\226\255\275(|\341\276m[\374\276[\341\031>\271\"\036>p\030>\276\230\206\001\277\267\244\226>\004f\333<.\\\316>?\366J\276\204\t\372=\325yF\275\367\237\300>C\250\227>5(\274\276\207\247\217\276QR\006\277*#\324\276\343j\244=\316m\205>\262\006\317>;\311\204>=\366Q\276r#~=\257O(\2776\321\263\275\367\247Q\274\372c\205\276\340\244\267\274\203\310b>\215\300\363>#\226\221\275*{\227\275\212<\\>\375\220\242>\302\023\223>;I^>+)\310>!\262)<\340\367o\2769\235\\\277\300\2036>l}2\276\343\372\333\276\257t\033\276\266G\347\276\2152\257\276JC#>O\362\005?\272\237\330>}:j\276R\010H\277V\013\240>W\363==B\354\376\275\"Eo>\302\301\014\276\257w\036\277(\221\237\276\030\026r\2766\303\204=\370\360I\277\333\000)\276t\034D>\237\363\300\276\212\2424\277\370\343\202>\272f\246\275<\226^\277\250 @\276\003\235\017\2774\026\253>G\265\220>\251\026\324>\344\356\330\276n\261\r>\374\335P\276\307?.\275u\313\311\276!\255\267>!4Q\274`\231\346\276,\332\212\276\352$\264\275\333\220<>\320\331\212=\352\240B=\233\2368\276\251z\337\274K\025%\277HHm\277\005+O\276gE\004\275d\235\356\275\346\224`\271h3\351<\031\244\375=\034Oh\276W\025\256\276\310-\007\276\222\365{\273\t\274\245>\223i\222\276\312\235)\275\351\251[=\267\247\364\276CeD:\020-\215>\375r\237\275\220\213\374>(\327>\276]P >3_\251=^?.\276\021\002%\277j\341\013>\355\265\356\276\312$3\275\321\361%\276\336,x=\247\321\366\276g\331\373>\214Q\215\276k\271\305\276\227\031\234\277\274g\203\275\233\242\336=\347\001\027\300\020\375\'\276\206\261m\275\230F\226=\2216\237\275W\321\217\275\n\200z=\262\225\315>\026\305\030;<\261\253<1G\222\275\364\004\022\276ec\360\276;s)\276\237\024\254\276x\215\232<\252Fj>\256\347L\277\345C(\277LR\365\275\343\253->\252u\245>\003\303\'>\276\211J\276\001g\n\276\272?\252\277\241\370\262\276\t\261\212\276\270^l\275\360}\236\276\305<\241=\2725\226\277\205\203\021\276\306\006\226\273Z\340X=\326f\207>\257\370\321\273[-U\276\032\237\212\276\311\341X\2763\007\357\275K\302F\277t{\005>4\245\330\276\360\252\363>N\346r\274\242;\027\276\016L\000>/m\237\276\354\244\372=4\200<=\033\254\365\2755\025W\277\246 >\276\033\230l?\201\010\005>\322\327\003>\315\332)\277C\277\340=s_\310\275\254\237\247>\263\371\031\275\257\226\203\274_\265\356>\204K\244\275m\030\271\276\313P\216>+\024\254\275\304\343\261=\222\013\221\276\263\'\n>^\000Q\277\002\260\006\277zS\215=\230\375\026>Z\231\266=&\213\300>\323\373n>Pim>\233\n\215>6\304)\276;\236\237\275j1\n?L?\344>\202\333\332\276]\3013?\3208\177\276U\247-?\r\341q>Kj\232\276\322\263a\275^1\014\277\240*\311>\037\307\253\277PN\006>\213\032#\276\013\304J>+\352\006\277\327\253-\275v^*\277}\026\024?\014\004\360\274\345\204\347=\334\342\353\276\342\207\252>f\261&\276\224\212\210>,\331:\2767-\032\276A3\200>\274|\261\276ob\227\277m\301\002<\021g\026\275\371\304@>\377/\355\274l\227\275\276\360Jx>\255\200\252=\243\373~>\325\277\016?A\302f?\023\344Z\275A\350h=\316s\276>\214\263*>\234\206\343:\022\024\330>\274kK>\356\324\305\276\331+e\276\231+\266\276%\231\264\276\354\215\"\277\303\301\002\277\316U\217\276>\364\370\274\361\333\317\276E*_\276\020\t.\277\3757\033>\311e\017?\367\311\214>\204\336\003?\311\002\225\275\250-\314>]\300+?\306_\036\276\032\344\300\274C\374\024\277\000\013f\276\333Q\342\274\207\037\225>\210\000\005\276H\273E=0<\315\276\214\020A\277\027\001L\276\037\237o\276\323Uw>\3562\202>\315|5\277 LU>e_a\276\276/D\275[\205\326>O\034d\276\323\265\245\275U~\350\275\265\320i\276\230)2\276\345\346\r\2778\245K\277h\346\034\2768?\220>%\200/\276s\367\355\276\004\004J>\017\033\r\276B\326?\277l\225\243\276\376D|>U4\253<E\000\250\276Z\nC\274*y\311>\262\024\211>Dq\277>#~#>};\337\277\360\276\037\276P\374\227=-\363\037\277\322\006\204=PMT>r\207\n=HT\213\275U\215S\276\353O\253\276\253\256\332=\\P\306\277\014\342\024=\225\260\213\276\024\237\375<\233\355x\276\217p\241>\020\255\207\276\326\266\376=e\310)>0/\007=\310\241+\276\266\203\232<\207\242\036>\300\357\206>\211B\312\274Z\023\271\275\033\360U>L\317\n\276\220\343\034=\022{\000>\376\032\220\275\304\374$\277\021\'+\275:\212A\2777\004\264>\317\212\261\274?6\234>C\267*\276dC\232>\224\235k\274a\341\023\277\217\310\241=\"\206\035> ~\365\276\020\004P=\256\022\220\277\370\242\024?\313J\266>4ZM\277|\245\344\276\375\r\220>[W\031\277=|\025\274\303\332\303>\253\270\376>\267T\234=\220a\315<f\205\200\275\312\004\252>\r\244\257\275PA)\276\220I\362\276\026\np>6K\356=\220\273\240\276\264\362\005>\216\204\320>\342S\035\276\020\274\215>\362\303\212=\355n\317>b\221\210\277\271*\320\275\255\237\333\276I-\035\277i\211Q=%\347\352<\273r\"?\2045\270>\303g\237>\237j\356\274\036\257\'>\036\371\256>\356\027\222\276qf\355<V\007u\276a|\274\275\334\333\201=L\304\247\275\357MU\277\300\304\231\276&\214\275:E.\017=(\022?<&\212#>\026\207\315=\025\331`\276}\006{>7\205\271\275\240\022,>\0024\227=\021\335n9\006\315I\276\326\343\277>\321\356\036>\021\276\276\275\202u\266=\005\321\014>N\001\035\277\241`\357\276*\201\342>+\002j\276\224WO=\270!%\277O\314-\276{e\035>\032\003B=\3728\373\276h\344\315>\245K\273\276\207F3\276\270\r/>\362\255\024=\212\\\005\276\365T\022>J@\304\276\017\317\321\275IR\257=Y\202\265>j\375T\275N-E\276\037\256\024\277\027\3553\274\351\345\245\276\221\033$=[\313\016\276\257\231\342=5!\026;B\325Q>\t\323\276\275E\331\232>\006\301\013\277\257lV\276\320\320p\276\264\342\016?#\256\376=\315\320)>\236\371\301\276\032\343\203\276\2621\234=\267-\024\275+lS\277\352\204\232\275\274|i>\300\002\256\276\270\004\337\273\000\034+=]\311\314>[\215\343\275\251+q?:T^>\264\036,\275\365\033\206\276U\340\003>\214\033\007>\311\221\027\277\273\314\023\276P:\244\2760#\241?)\351M\276\3454+?\263\222\010\277\032\025\203\276\357d\002\277\373!\032>8c\260\2764\225\263=\005\002\324\276\360\264\315>\3259\023>\000@,>\264e\007\277L\224\211\277\220:p\276\201\347c\276\250\325\373>\014,\227?\002\267\203\276\267\376\366=5r\335\276\0205\250>\275\034\243>|\310N\276\350\355v?\25492\275\033\004\206\276\024j\224\2759v\304>\032\276\n\277\247\364\231\2758\247\371\276\314\371\025?\352\010\375\276\366 