node {
  name: "input_1"
  op: "Placeholder"
  attr {
    key: "dtype"
    value {
      type: DT_FLOAT
    }
  }
  attr {
    key: "shape"
    value {
      shape {
        dim {
          size: -1
        }
        dim {
          size: 21
        }
        dim {
          size: 1
        }
      }
    }
  }
}
node {
  name: "model/conv1d/conv1d/ExpandDims/dim"
  op: "Const"
  attr {
    key: "dtype"
    value {
      type: DT_INT32
    }
  }
  attr {
    key: "value"
    value {
      tensor {
        dtype: DT_INT32
        tensor_shape {
        }
        int_val: 1
      }
    }
  }
}
node {
  name: "model/conv1d/conv1d/ExpandDims"
  op: "ExpandDims"
  input: "input_1"
  input: "model/conv1d/conv1d/ExpandDims/dim"
  attr {
    key: "T"
    value {
      type: DT_FLOAT
    }
  }
  attr {
    key: "Tdim"
    value {
      type: DT_INT32
    }
  }
}
node {
  name: "model/conv1d/conv1d/ExpandDims_1/ReadVariableOp/resource"
  op: "Const"
  attr {
    key: "dtype"
    value {
      type: DT_FLOAT
    }
  }
  attr {
    key: "value"
    value {
      tensor {
        dtype: DT_FLOAT
        tensor_shape {
          dim {
            size: 3
          }
          dim {
            size: 1
          }
          dim {
            size: 64
          }
        }
        tensor_content: "\244\220\264=)gb\275o?\373\274\276\336\025\275\215\273\214\275R\322\330>D\375h\274\211\212S\275w|\024\275k\202\366\300Qi\002?? t\277\345\020\022\2760KK\274\276\232\312\275\215h\216?\207\313\221\275\310\005\313<\225\330H\300\263\321\273\275\350Z\361\274po:\3001\336\317\276\320N\306\274\310&\003\275#A\202\274y0s\300\371\027\204>\344\230\233\277\266\261\325\277\275\225&>\254\013\311\275\364\004p>\210u\323\274\234#\020\275N\216\210\275u\316\225;hK\253\276\031\205O\274>\3177\277\371\321\347\277D\021\353>\300\233\262\277\023\374\206\274\270\227\"?\0130\036?\323~\006\27309\217>\247\0359\2769a6\276\033G\350;j}\373\273\355\367\311;#`\274\276\325$\007\276\031\365*?/\235m\275y#%\275\225\302\205\275~R\232\277\306\306\261\276\0201\t\276Fh \277B\205X=\201X\336\277\206W\006\274\246B\211<\324\333\231<\376;\203\277#\372\030?!.\004\273l\220)\274\373\003G\274\t\357\005>\326\022=\277\231\2534\300;<\037\2760\035k\274\215@=\276\207\331}\277\271\037\217\2755\333E\277\223\370P\300\205\370\265\275I\363\252\275\365\354\367>j\251r=J\312\312\277h\205\350\274\336w\214\274A\013\035?\361\210\205?lI\343>\033\312\315\300\332\223\256<>7\267\275;\251\275\300\325\367\261:&\"\000\276\336\307\220\276\322R\350\277v\357\n\276\240\257\031?*\3429?\ru\017=\003\034\241?\363y\200?:\346x\276\206\265{\277;\3315\300\\e\025@&\265\201\300\367R\236=\376\273\307\275\211i\r\275\253>\277=\016\277\001\275\350.\233\275\231\260\246?\312\226R?\345\316\270;\002\373\030\275\272\313[<\360\371H?[\364\203\274\277\314y;L\037\325=mI\264\300iC\253\275{\002\247\275\312\256R\276\255\222N\275\037\006W?\305\234\010?\324\250\027@.m\303\275\246v\237\275|\r >\314t\033?\202\316\375>\265\014\027\276\220\261\207\274\227\315u<\215x\264\273q\325\331\274\206\177~\276d\t\277;>\007\000\276\000\314\324\271\202@W?:\027\371\274Z\362\354=6.\276\275M\2011\276\221\370\306>3\324\235\277G\034\305\277\270\256s?v\310\346\277&\'\262\275y\353\347=\010\365\225\274<\3538\275\351\240O;N8\004=\2614\n\274s\254q?f\304\033\2778c\250=\345\234\257\274\376\020\245=\334\321\226?\323\2454>\331\351\364>w\332*\273\367\334\035\300\033?n\276-\245\033\274(\373\007<\227-d=\251\306\302\275w\246\022<C)\231>;\310_=\010\203\251\275\204\031j:\304\340=\2757\377\224\277\203\242\205\274\263\222\n\276\2623\301<\037g\250;"
      }
    }
  }
}
node {
  name: "model/conv1d/conv1d/ExpandDims_1/ReadVariableOp"
  op: "Identity"
  input: "model/conv1d/conv1d/ExpandDims_1/ReadVariableOp/resource"
  attr {
    key: "T"
    value {
      type: DT_FLOAT
    }
  }
}
node {
  name: "model/conv1d/conv1d/ExpandDims_1/dim"
  op: "Const"
  attr {
    key: "dtype"
    value {
      type: DT_INT32
    }
  }
  attr {
    key: "value"
    value {
      tensor {
        dtype: DT_INT32
        tensor_shape {
        }
        int_val: 0
      }
    }
  }
}
node {
  name: "model/conv1d/conv1d/ExpandDims_1"
  op: "ExpandDims"
  input: "model/conv1d/conv1d/ExpandDims_1/ReadVariableOp"
  input: "model/conv1d/conv1d/ExpandDims_1/dim"
  attr {
    key: "T"
    value {
      type: DT_FLOAT
    }
  }
  attr {
    key: "Tdim"
    value {
      type: DT_INT32
    }
  }
}
node {
  name: "model/conv1d/conv1d"
  op: "Conv2D"
  input: "model/conv1d/conv1d/ExpandDims"
  input: "model/conv1d/conv1d/ExpandDims_1"
  attr {
    key: "T"
    value {
      type: DT_FLOAT
    }
  }
  attr {
    key: "data_format"
    value {
      s: "NHWC"
    }
  }
  attr {
    key: "dilations"
    value {
      list {
        i: 1
        i: 1
        i: 1
        i: 1
      }
    }
  }
  attr {
    key: "explicit_paddings"
    value {
      list {
      }
    }
  }
  attr {
    key: "padding"
    value {
      s: "SAME"
    }
  }
  attr {
    key: "strides"
    value {
      list {
        i: 1
        i: 1
        i: 1
        i: 1
      }
    }
  }
  attr {
    key: "use_cudnn_on_gpu"
    value {
      b: true
    }
  }
}
node {
  name: "model/conv1d/conv1d/Squeeze"
  op: "Squeeze"
  input: "model/conv1d/conv1d"
  attr {
    key: "T"
    value {
      type: DT_FLOAT
    }
  }
  attr {
    key: "squeeze_dims"
    value {
      list {
        i: 1
      }
    }
  }
}
node {
  name: "model/conv1d/BiasAdd/ReadVariableOp/resource"
  op: "Const"
  attr {
    key: "dtype"
    value {
      type: DT_FLOAT
    }
  }
  attr {
    key: "value"
    value {
      tensor {
        dtype: DT_FLOAT
        tensor_shape {
          dim {
            size: 64
          }
        }
        tensor_content: "\320\344\373><}\"\275g$\177\275\243\'\206\275\030\357\'>\254C0\277\030\324\275\276.\353K\275\340\305\005\275\203b8?`\2367\277\316\366\222\276\000\000\000\000\000\000\000\000\000a\207\275t\231\n\276\200B\243\274Y\236$\276By\261>\000\000\000\000\000\000\000\000\265].\276t\305\202\276-A\366\276\000\000\000\000\004g\244\275/\031\343\276\330\337\222\275\r\306\014\275\367-\n\276\222=\344>\000\000\000\000\237\351\356>d\016\300\274\314\334\330\274\026\304@\275\235\032\343>\3201\027\275\276\366\366\276\204\244p?\350\375\326>Q9\323\276\360ZZ=\360\351\242\276\037\377)?tv+\276u}\272\276I\362\202>\030-\210\276\307\200\330\275+\212\013\275\034\271\333\276\265\271\265\274u.\332\275!P\277\276\262\177\016\277pT\246\275\361\277*\275e\330X\275\301\262\226=\023\317\251\275\274+y\274\024r\350\276\031K$?"
      }
    }
  }
}
node {
  name: "model/conv1d/BiasAdd/ReadVariableOp"
  op: "Identity"
  input: "model/conv1d/BiasAdd/ReadVariableOp/resource"
  attr {
    key: "T"
    value {
      type: DT_FLOAT
    }
  }
}
node {
  name: "model/conv1d/BiasAdd"
  op: "BiasAdd"
  input: "model/conv1d/conv1d/Squeeze"
  input: "model/conv1d/BiasAdd/ReadVariableOp"
  attr {
    key: "T"
    value {
      type: DT_FLOAT
    }
  }
  attr {
    key: "data_format"
    value {
      s: "NHWC"
    }
  }
}
node {
  name: "model/activation/Relu"
  op: "Relu"
  input: "model/conv1d/BiasAdd"
  attr {
    key: "T"
    value {
      type: DT_FLOAT
    }
  }
}
node {
  name: "model/batch_normalization/batchnorm/ReadVariableOp/resource"
  op: "Const"
  attr {
    key: "dtype"
    value {
      type: DT_FLOAT
    }
  }
  attr {
    key: "value"
    value {
      tensor {
        dtype: DT_FLOAT
        tensor_shape {
          dim {
            size: 64
          }
        }
        tensor_content: "\255^\t=c\232\307\003!\024\306\003\310\036\306\003(w\005<\331&U:\374\342M=L\002\307\003\360\323\306\003\246\333\317=\242\03038\2404\20581g\307\0031g\307\003\351\372\307\003\027\233\274;\376\330\306\003)C\307\003\3611\317<1g\307\0031g\307\003\235\026\205;\242K\306\003V\177\307\0031g\307\003\033\202\306\003r\037H9\345~\t<_\266\3468\235\311\337:\331|\367<1g\307\003\224\255)=\251\304\307\003u\316\306\003\247Z\307\003_v\365<\t\355\307\003\346\236\215; UJ<\333b\351<\302\372-<*f\010<\351\276\243;\3118\035<\257f\021:\317bM=M\035j<\350!\307\003\013E\306\003\265\273\306\003\036\030\307\0035\034\307\003/\343\306\003\217t\022<AY7;Q\363\306\003\350!\307\003?\362\306\003\236\226\n;\223\t\307\003p\347\306\003\240s\307\003\005\001\232="
      }
    }
  }
}
node {
  name: "model/batch_normalization/batchnorm/ReadVariableOp"
  op: "Identity"
  input: "model/batch_normalization/batchnorm/ReadVariableOp/resource"
  attr {
    key: "T"
    value {
      type: DT_FLOAT
    }
  }
}
node {
  name: "model/batch_normalization/batchnorm/add/y"
  op: "Const"
  attr {
    key: "dtype"
    value {
      type: DT_FLOAT
    }
  }
  attr {
    key: "value"
    value {
      tensor {
        dtype: DT_FLOAT
        tensor_shape {
        }
        float_val: 0.0010000000475
      }
    }
  }
}
node {
  name: "model/batch_normalization/batchnorm/add"
  op: "AddV2"
  input: "model/batch_normalization/batchnorm/ReadVariableOp"
  input: "model/batch_normalization/batchnorm/add/y"
  attr {
    key: "T"
    value {
      type: DT_FLOAT
    }
  }
}
node {
  name: "model/batch_normalization/batchnorm/Rsqrt"
  op: "Rsqrt"
  input: "model/batch_normalization/batchnorm/add"
  attr {
    key: "T"
    value {
      type: DT_FLOAT
    }
  }
}
node {
  name: "model/batch_normalization/batchnorm/mul/ReadVariableOp/resource"
  op: "Const"
  attr {
    key: "dtype"
    value {
      type: DT_FLOAT
    }
  }
  attr {
    key: "value"
    value {
      tensor {
        dtype: DT_FLOAT
        tensor_shape {
          dim {
            size: 64
          }
        }
        tensor_content: "=\373\256?W\033Z?;\370[?\345!N?v\363b?\316Tu?\223\311X@\224Vn?O\021\326\274\363\226\304?Nd\t?h\233\017?\000\000\200?\000\000\200?B\275l?\0334\352>\247\226\362\274\367\316\346>\312X\204?\000\000\200?\000\000\200?Q\\N?\033\346c?\352\274\263\272\000\000\200?\036\027o?u\2712?\260\244g?w\334\021?\1774\036?\306\"\317?\000\000\200?<BE?\274!\004?\207y%;:N_?\262\022\267?s\026<?\250B}?C\330\206?\273e\273?\372\251x?c\215/?\233\020&?\013\355\r?Z\0337?w\314V@\247\242\257?\032\337*?V\361\014?\245\234\235\273#,\302\2749P\023\274Ib&?~\261i?,\033:?\3643J?\310,x\272\256\232_?\361Y\020?A\'\010?#\330|?~\271\207\274\023\324_?"
      }
    }
  }
}
node {
  name: "model/batch_normalization/batchnorm/mul/ReadVariableOp"
  op: "Identity"
  input: "model/batch_normalization/batchnorm/mul/ReadVariableOp/resource"
  attr {
    key: "T"
    value {
      type: DT_FLOAT
    }
  }
}
node {
  name: "model/batch_normalization/batchnorm/mul"
  op: "Mul"
  input: "model/batch_normalization/batchnorm/Rsqrt"
  input: "model/batch_normalization/batchnorm/mul/ReadVariableOp"
  attr {
    key: "T"
    value {
      type: DT_FLOAT
    }
  }
}
node {
  name: "model/batch_normalization/batchnorm/mul_1"
  op: "Mul"
  input: "model/activation/Relu"
  input: "model/batch_normalization/batchnorm/mul"
  attr {
    key: "T"
    value {
      type: DT_FLOAT
    }
  }
}
node {
  name: "model/batch_normalization/batchnorm/ReadVariableOp_2/resource"
  op: "Const"
  attr {
    key: "dtype"
    value {
      type: DT_FLOAT
    }
  }
  attr {
    key: "value"
    value {
      tensor {
        dtype: DT_FLOAT
        tensor_shape {
          dim {
            size: 64
          }
        }
        tensor_content: "ES\273\276\363\020\032=%\323\372\274E+\300<\240\364\t\275\305]\013>;=\006?\252\236\300\274\nt\256<g\254\261\276\320<\377\272\304\035\312<\366\323\307\273?\023c\276\353\261\207<\206\\\317=\357\032\222<7\014%=pw\233\274\305\315\243\274\274\206d;\240\305\252=\344Ym<v\226e\274\372_:\276C\277\247\272\3121I=\0240@>!\246\007<\177Z\363<\336\031\000\275\203L\300\274%:n\2768<-\274\255\203\361;D\225\001\274ZLL>?\371\272\2733\356\205>\325w+=\307r:\276t\251N><\310P>\005\245\374=!\005x\276\t\260d=\357K\251>\252\337\230>\021\234\002<\370\t\215\274\314F\344\274`\305\026<[sK\274\321O\030\274\304C\013<xB\030>\023$\001\274G\323\315\274\013xD<\351j8>\371\270\344<\2133\023<\2036l;\370\211e\276"
      }
    }
  }
}
node {
  name: "model/batch_normalization/batchnorm/ReadVariableOp_2"
  op: "Identity"
  input: "model/batch_normalization/batchnorm/ReadVariableOp_2/resource"
  attr {
    key: "T"
    value {
      type: DT_FLOAT
    }
  }
}
node {
  name: "model/batch_normalization/batchnorm/ReadVariableOp_1/resource"
  op: "Const"
  attr {
    key: "dtype"
    value {
      type: DT_FLOAT
    }
  }
  attr {
    key: "value"
    value {
      tensor {
        dtype: DT_FLOAT
        tensor_shape {
          dim {
            size: 64
          }
        }
        tensor_content: ":\243\304>\215\201\307\0032\351\306\003\t\356\306\003\004\037!>\253i\';\003\337\241=\037Q\306\0032\235\306\003\031\350\013?\217j(9\3331\2039\000\000\000\000\000\000\000\000P\334\307\003\'\256s<\372\252\306\003\261\200\306\003\016xx>\000\000\000\000\000\000\000\000\361xW<V\177\307\003E\237\307\003\000\000\000\000S\037\307\003j\362$:F,\277<#j\004:1\r\266;$\245\270>\000\000\000\000\243z\262>S\333\306\003\257P\307\003pO\306\003k\322\253>\207:\307\003\277\0273<=Rf?d\231\253>?\362\317<\221\334\201=\251\2065<\232\030\'?Y0\022;p2\244=\300C8>\370\370\306\003\345\001\307\003i\226\307\003\225k\306\003{\341\307\003\224\241\306\003-a\247<\373H\352;b\006\306\003\270n\306\003\322W\307\003\t\256D=~d\306\003\254Q\307\003\217\230\307\003\333R\361>"
      }
    }
  }
}
node {
  name: "model/batch_normalization/batchnorm/ReadVariableOp_1"
  op: "Identity"
  input: "model/batch_normalization/batchnorm/ReadVariableOp_1/resource"
  attr {
    key: "T"
    value {
      type: DT_FLOAT
    }
  }
}
node {
  name: "model/batch_normalization/batchnorm/mul_2"
  op: "Mul"
  input: "model/batch_normalization/batchnorm/ReadVariableOp_1"
  input: "model/batch_normalization/batchnorm/mul"
  attr {
    key: "T"
    value {
      type: DT_FLOAT
    }
  }
}
node {
  name: "model/batch_normalization/batchnorm/sub"
  op: "Sub"
  input: "model/batch_normalization/batchnorm/ReadVariableOp_2"
  input: "model/batch_normalization/batchnorm/mul_2"
  attr {
    key: "T"
    value {
      type: DT_FLOAT
    }
  }
}
node {
  name: "model/batch_normalization/batchnorm/add_1"
  op: "AddV2"
  input: "model/batch_normalization/batchnorm/mul_1"
  input: "model/batch_normalization/batchnorm/sub"
  attr {
    key: "T"
    value {
      type: DT_FLOAT
    }
  }
}
node {
  name: "model/max_pooling1d/ExpandDims/dim"
  op: "Const"
  attr {
    key: "dtype"
    value {
      type: DT_INT32
    }
  }
  attr {
    key: "value"
    value {
      tensor {
        dtype: DT_INT32
        tensor_shape {
        }
        int_val: 2
      }
    }
  }
}
node {
  name: "model/max_pooling1d/ExpandDims"
  op: "ExpandDims"
  input: "model/batch_normalization/batchnorm/add_1"
  input: "model/max_pooling1d/ExpandDims/dim"
  attr {
    key: "T"
    value {
      type: DT_FLOAT
    }
  }
  attr {
    key: "Tdim"
    value {
      type: DT_INT32
    }
  }
}
node {
  name: "model/max_pooling1d/MaxPool"
  op: "MaxPool"
  input: "model/max_pooling1d/ExpandDims"
  attr {
    key: "T"
    value {
      type: DT_FLOAT
    }
  }
  attr {
    key: "data_format"
    value {
      s: "NHWC"
    }
  }
  attr {
    key: "ksize"
    value {
      list {
        i: 1
        i: 2
        i: 1
        i: 1
      }
    }
  }
  attr {
    key: "padding"
    value {
      s: "SAME"
    }
  }
  attr {
    key: "strides"
    value {
      list {
        i: 1
        i: 2
        i: 1
        i: 1
      }
    }
  }
}
node {
  name: "model/max_pooling1d/Squeeze"
  op: "Squeeze"
  input: "model/max_pooling1d/MaxPool"
  attr {
    key: "T"
    value {
      type: DT_FLOAT
    }
  }
  attr {
    key: "squeeze_dims"
    value {
      list {
        i: 2
      }
    }
  }
}
node {
  name: "model/conv1d_1/conv1d/ExpandDims/dim"
  op: "Const"
  attr {
    key: "dtype"
    value {
      type: DT_INT32
    }
  }
  attr {
    key: "value"
    value {
      tensor {
        dtype: DT_INT32
        tensor_shape {
        }
        int_val: 1
      }
    }
  }
}
node {
  name: "model/conv1d_1/conv1d/ExpandDims"
  op: "ExpandDims"
  input: "model/max_pooling1d/Squeeze"
  input: "model/conv1d_1/conv1d/ExpandDims/dim"
  attr {
    key: "T"
    value {
      type: DT_FLOAT
    }
  }
  attr {
    key: "Tdim"
    value {
      type: DT_INT32
    }
  }
}
node {
  name: "model/conv1d_1/conv1d/ExpandDims_1/ReadVariableOp/resource"
  op: "Const"
  attr {
    key: "dtype"
    value {
      type: DT_FLOAT
    }
  }
  attr {
    key: "value"
    value {
      tensor {
        dtype: DT_FLOAT
        tensor_shape {
          dim {
            size: 3
          }
          dim {
            size: 64
          }
          dim {
            size: 128
          }
        }
        tensor_content: "^nv\276\306y\332\277\006\257\345>Y\026C=\376\260\007\275I\301\013\276\266Z\t\276\356\211\226>gG\252\277L\n\245\276\222\371m\277\217\352V\277\001+\314>{U\200>#G1\276w\222\302\276[\007\274\277\376\017k\277l\177\023\277\353\177\024@\335\264\005\277;t\211\276\020\017\\\277\026\n\225\277W\\\350\277\376\273\324\277\231\215#\277\333\331\310>:\2008\277G\216a?\032\260.\277\036\237\206?5\347Y\276\030\226\263?\254\261\r\277\275=\270>Z\244c\277\375\251\022>i\346\205?\342#\032\277*\'\277\274\314l\245?\325f\013?\221\213\317?y\364u\276\003rv?\310\2161?\230\216\r\277^\302|\277\310s6?PC\246\276Q\364o\275\260I\005?\3527\252\276\000\241+\277\005Z\024\277\270^b=\213\224\332?z\271\'?\034\240\313\275\"3Q?\275\214\211>\210;%\277m\331\027?a\321\212\277z\037\232>\341_\305\274C\250\000?\035\311\033?\264+2\277Z\360\324>\205\317\252>N\377T?O.\014\277\347\246\231?\376f\200>X\353,?Q2W?\250\357\242\277T\255\027?\263\014h?w\300\252\2774s\203>\t\352\000>OJ\272\277\311\244\231?0\242\356>\231\027s\277\353%\260\277.\227;\275\035\026\000??5\002\277\242<\272\276\207\245\r\277\215J`\277J\373\352\275\261\360\005;N\237z=\014\3756?\n\315\'>\276\373|\277Oy\013\277\311\034\231=\205o\336>\253\220\021\277\265QK\277|\352\216?-\313\262\276#^@?q[\346<|\367\236\276 =\264>\264\n0>\2054\016@\244\374\376>\361u\236\276$\026\231=\237A\371<\350\336D\277\226\376\256>\005e\242\276q\303\005?R`J\276\211\030\017\277vp\016?\333\335~\277P\270A\277\027 \362>)\013\025\277\231\362\246\275\317\244F\276\353\367\266=\346s\032>\244V\022?}\241\013\277\332$\316\276\330\234\242>p\312h\275}\371\247;\375\362\244=O\235\260\276R\375g\276\037\370\375;(7\327>U \375\2762\213{\276%\225\016=\247|\236\276\247\324c>\216\343o\276\304\361\003>\213\272:=\222\312\244\275\267\250a\276\364\302\r=\361\226\007>\367\365`\276uh\257=7\356@?\003\025\332\275\351v\342=\216\n\334\276&i\314\274\201\375\373>h\037V=\351\322C=P\207\202>T\333\266\275\016\026C\276P\335\322\276\350\216\310=\300J\341>\263\255)=-\226%=j\316\352\274h6\223;\370\266\203>\262\253\315\276\000\272\005>\004\315\331\275/;\327=\373\0028\277A\260\265>B\365\221>\031\006X\276\030\267W\276\330\223\267>\000\207<\276\200\345\355\273\3746E=\2355\036\276\201}I>\311\n\003?Ai\201\276\357*C\276\017\211\r?\257\210\331\275\256\257s\275\247\302\240\276,t\273\275\3531>>\020\245\306\275\237A\227\276\206\315\001\275\327\231\266>]\217\336\275\032\257\243\2750$\224=\353a\200>AG\014\276\337\350@>\225q\021\275\322\216\335>\"\251o?\306 \246>\007:\232=;\333\273>i9\243=\006\320m=\226\245Z\275\003\343#?\024p<>\211<\303<\316\2779>^\354\252=\216w\020?\374e\310\276\336h\213>O&\212\275\365G6>v\327\324\275\333\005\255=\005Z\270>\000\277\244>\332\034\246\276M\253$>m\207\356\275\270\216<\276\330\371\356=\261\364G\277\341D\202\276\036\263\022>\327\267\250\276\334<\223\276C\235\036\277\2237\266\275\230q\240\276\026\177\371=\235(*?\214r>=zN\370\276\034\'\334>fu\007\276\345\320\027\277%>\251;-\371X<\316\235\023?\017\223\326;\017\241]\276C\332(\276\227\365\203>GDC>\216\304\216=zmk>t\332\203\276%\371\263\274U\267\016\276\251\313\233\276\356\346\020\274\376\345\000?\025\355\204\276\252I\313\276\203\355\034<\227\213]\276\201;\200\276j\322\322\276l\301O>\261\n\262\276\016\361\003\277+\245A=\355c\014\277\317\304\340=\265\352\202\276\363\023\316=\367\024\332;\240\262i\276\025\323V\276\035l\033\276\372\322\206>u\246<\275\2049\376\275\262s\205\276.\345\002>\355\237\262\276S\321\221=\363\376\373>\024>j=\367\304\242>Q,\025\275\023\237\215>&G\224\276\340\272r\275\300[\342><\362\000>\365;\350\276\355\2118?tj\300\276\337\322\327>\226\212*\277TK-?\314\342\310\275\003\206\235\276\201\335P=<\313\006?\354\224#\276B\272\365<eTq>B\376\023=\256\250\244\273\355\212\220=\277\267G\276\367\\i\275@\316\020\275\001m\036\276wp\205>J_\233>e\254\022>U\3042\275\314j\026\277C\244:<7OI\276k\215m=\315\247\350\275n\2446\276\232\0266\276\334\371\236\2752\022\025\277\234\361\360\276\273\215@\276\265E\200>AhN=\220j\340\276\211\257\352\276[]\334>\225=\034\276\363Ci\277a\320\000>[p\225==\327\350\276\211ZE\276\2208\212>\026\000\006\275\003\304\240\276\002\356\212\276\201\300\272=o\022\n>\353\207\277>\242\215\310\275\343Ki\275/\350\024<\266S\207>\233$\021>\034\215\220>\003\317\302\276\333\330\201>\275\265\327>\215<v\275\273\254r?\242\343v\275\270\377\227>^\200\022\277\277V6\276R\3029?*\177\343=\235%\230>g\323\305\275?\3653?$(d\276\236\304\270<`!b>\341n\333>\"\333\345\276\321\342Q>\000\254\004>\3421\316\276R\033\311\276\255\031\311>e\254\360\275\032\000\250\2756\253\326>Z\252\201<\027O\347\276[\224\357>\334\003`=\325?l\276}\345\262\275\307\240\372\276U\323\316>\341\250\023\275\022\341\236\275w\205\213>\007[\301\276?gC=\006\\\247\276;\253\310=\220|Z>d\201A\276\034R\004?\306n~>6(\314\275t\200\357<\316\212\210=TB\257\276~r\352=\345f\205\277\357N;\276O\246*\276\223\260\355\276\327+\360\275\224f\355>\024\373\227=9\231\373\275`o\234>\261#\201=\"\\\221\276\227k\252>K!\377\275\330{\244\276cY?\276!\264M\274\347*\321>\226N-\276\273i\275=\022\037S\275n]\202\275\275\211E>\362Y\227\276\201\t\001\277\034\316\267\273mK\373<\326C\236=\211h\032>\177\034\366\276\302\202\001:\264.\323>\234\017y>G\242[\276\311\307S>\324\036\'\277\3648\237\276\017\213\013\276\242\022P\2765*\240>w\013\210\276\026P\273\276*\270\370\276\315\0229=\341\rw>\224\243&>\366\n\216=\223>@>#\253\224\276\367~\367\274\345H!>a\'\214\276\227e\032>b\324\352=F\2263>?\010g\276\202\004\305>\363\273\246\276\207\254\312=b,\216>\235aH\276L\000s\276\305\361p>\002\245\220=[B$>\215ok\275\315o\273>\n\031\311\275\334z=>\262\006u=g\364\266\276\024\307\027\276\331R<\276\324\274\265>\311n2\275<\177\203=a\025\230\276\306?\213>:\320\225=\262\2624>og\032>Pl\261\275\235I\222>\020\220\037<\326\371.>5i\245\276\310\364E\276\242\313\203>*m\300\275\205\311\016\277\320\331[=\306j\303>\312\237\242\276\264\327$\275T\364\304\276\224\202\264>\316\260%\276S\370j\276\376\301\341=\272\3202\277\1771\321\276\002\264\007?\005N\007?\371\326\206=T\351\212>\311\336\363\274R\273\256>\247RZ\277 \346\272\277\3365\023\275\031\036W\276`\346C\276\316\210\342\276\220\330!\277,+\031\277\001\231>\277:z`>\356\263\261\277\026\304`>\3309W=\301\301\257\277\254Y\212\277\033(#\2777\372q>\273;&>3\220\006\277\351\376a\277\340\265\t\277\221u\013\277j\211\177>\360\241\336>\373\303\263>\010\033\344>fK\354\276!=\247\275\321\232k\277\232=\"\276\\~\022\277\324\360\000\277\337*\202\275\014\321\000\277\226?\227?\257\233\016?EF^\277d\376w>F\267\205?\032\233\201;\036\034E?\004X\376\276\266\211\366\276g\221B\277<cp\276~\026\023\277\t\267\231\277\330(\203=H\003\004?\016\201\240>\347&\034?\215i\025\277Is\'?\221\3546\277W\343\235\277\271\314U\276\251u&\2778s\354\276n\204f?P\203W\277\265\3357\276\364\241\271\277P\253\372\277k\006\346\276\202\010\243?*\213$\274\357\312\254>\351N\245\276\"C\223\277U\3726?\257b\263\276\245\027\026\277\327e\022\277/\201\270\276\313<S\277=\361\\\277H!\317=\003=\n?\036]\271\2773\243\t\277/\021\211\277\322\240\367>\255\345P?Y!\362>\324sV\277K\277\036\277\027\260\202\277\345\347\014\300\360)\026?\211/\277>=\310\304>\200`q\277\252\027\206\277\220\260\253\277O(\311\277\007\030\301>\223\000\r\277\274\252\365\276\270}s>\"\"\233\277i\204\245<\217\033\312>M\310\325\276\255g\220\277e(>\277t\226\254>\023\260\304>>\362\265\276\205\031}\275\014$\311<Z\203\254\277\377m\020?\0214\306\2761!\200?T\2407\276H\211&\276\213\346\265\277\370\000\202\277\271\014\243\275:\r\311>\356!b\276\353\251u\276\334-\312\276\207\316\020>\007\230t\2771\341\351>#\201\t\277\031\222\241\276U\177\347\275L\244\372\274<\230\244>)G\254\276\303\034\215\277\334f\216\274\326/\004\276?\342\347\276\2527,\277R\315\031\275<\032\013\276\017\351M\275\273\036\034\277\200Mt\2779\034\365\276Q5\222\276J*\211\276\260dP>u\361\004>\3021\346\277Fa\265<\375U\256>\307nJ>\346\207\t\300\223\221\237\276\016\211\231\276xm\361\276\342o8>%D\010\277\205>w\276\035\013\365\276\254\026c\276\270\353\013>i\260\004\275\253(\006\276m\205\265\277W\"\227\276=\024|\277\275\036\255<\366;*\276\207@\346\275\t\247X\277\314\262\261\276R\240\235\276\236vz<\023L\324\275\'\0325>S\261\310\275\232\316\007>I\001\203\274\277\376\240>\237\370\364\277\017\233t>\232t\303\276\211\311\005\300\tP\370\274\212\"%>@\210\027\276\325\'x\275\224\013e\277\374\357T>\216:\212=a4&\277B\007\313>?\004\213\2764\302\355\276\t\332\035>\312n\304\276{\200>?\224\321\205\277\224v\235\276\214Nd\277\222\303\200\277\266\020:\276@\253$\276w4\010?q\305\326\276M<\371\276$5D>;U4\2761}b\275\373\237|\277\006\375\022\277\311\227\316;\305Ul\274P73>\305C\277\275\242C\353>\324\277\257\277\r\251\013\276g!\307\274\213Mk\276\004\244\t\277\204\200\250\276=\017\273\277\266\n}\276RH\236\274>Jx\276\356\330o<\203\023\362\276\370\216\371\276R\274\204>\020\n\022\277\307\370;?8\310J\276\375\327\001\277\013\226\317\276\204\317\225\275\346\353\033?MuW\276J<\004\277\"\317\r\276:\230\344\276\325\350\242\277\225sT\277\210,D\277\336\310\337>\243\207\005\276mu!\2775\033\244\277\226S\275>_R\352>hy\212><\340P\277\310i\035<o\231\351\276owB?\0355\254\274\330\357\331>\25164?\023UA\276t\264\263>2L\277>\262\363{>0o\257=j9(?DJ4?a\002\274>r~r?\214\0344>\211\203\260\277\nD\363>\232\2609?N=I?\330\250\231>\224f(?\323\241\345>M\303\311\276\202\247&?\017\235\031\300\257H\363>\357a\346\276\377\223\004?\201\337\250\2758\232+?(4\315\277\351\307\006?\213\224\206?V\261\212\277\2265\000?w\220\340\277;\035\245>Fy\310\274VR\212>(/\t>g\026\007>gC\277=GQ\311>\021\303;\275\300\240 \300vd\020?L7/>\000/\276>_\001)?\327\265\271>K\341\031?\322\210\347\277\331\021t=)K\205\277O\013\020?\266\240\005\276\355\000\027\276\352\374\202?\266\374\254\276\242\205L\275\203\204\322\277\2267\037\300]s\235=J\330i?\253\337&?KFU\277\224d\336\277DX\035\277R\205\026?\031\305!\276|d\025\300<\232}\276VSw\276\276\304\205>\272\026C=U7)\276\345\332\265>\226Z%\300A\273\246\277\257\235b>\007\300\032\276\330\016H\300:\224\377>\353\347\013=\3548\363>\330c\030>\3618\275\277\007x\240\277\355\001\017?\357-\336>b\327q\277\031\314:>\024U\312>\240eo\275\262=\232>}\206\013?O@\350>\247\337=?\201\327\314\277,/\026?J\037\000?\344\365A\277\3742\231?2wG\277p\017\333\275\212\271f>/lV\277\364D\307>b\216`>L\214\212\276\264\342\311=\304f)?\032\344\223\2777l:\2775=\213\276\016\366\353>\005\341\020\277\211f\225>b\'\013?+\220$\300\354,\246>\035#\025?\327\336e>\326\\\214\276x\014\206\276/\223^\276M\327\212>\202|+\276t\275\247=6\034\343>/\352H\276\256\377\255=\202\267\344\275%\347\200>{\324\324>\017\306\203\276\232xt>\251\031>\276\234^\267>\236??>\350\333k\276\257\301\207>\203\375\206\276\331\254\343=\010\215\351>4\231]=\370m\353\276\314\274N>\322\254W>\224\177\345=\270\345\020=*w\222\276u>n\275\233$\204\276\203`\023\276\312_\341\276\211\251\222\276\344x\030=\214\016\206>\343%\351=\203\256P\276\202\276\320=2i:>\326GK\275\205\004\001\277\014\300}\276KbQ\276\261i\315\275\\v#?\022\0177>\353\350f\277Hn$=v\366&\276\270k\331=]~\205>\331\206A>d\206f\277\026\256\257\276\214\231w=\304x\231\276c\322\021\277\254q\374\275\347\036\234\273\026\276\206>V\325D\275A\334\226=\276=#\276\375d|\276]R\322=\342\310\257=)\352}>\234\222\033\276\361\365\373=\352\037\023\276.OD=\016u\252>\201l\340\276y\356\330>\351\2207>T\225\225>=?\201>\253\367\206\276\376\243\331<[$\366>*\231\r>\215\275\227=\2073u=\324+9\276\374\005d?\020|\273=N\302V\276\344\207c>y\001\035\276>s\017?\237M\270<\026<=>\337\274Q>\233\200\366=\026y\362>\307\267\t>\224\224\014\276\323\034\335\276\307\177\212=\360\277\036>>\307\211>\275#0\276\356(l\275\362\367`>\t\031\340\2753\017U\276\305\370\352>\235\r\'=py6\275\371S\362\275L\006\211\276\211W\264\276\231\342\211\276\203(W=\224\t\001?b\256\233>\277\207\245<ns\255\276\234\227\"\276\344G\"?\314D\217=\023p\357\275\301,\354>?9\003?\230\014\344\274p\036\037\277w\310\213>\240M6>\003\250\023\274?\317,\2756$\250\276a\r(>\361\326\245>+\333i\276s\234\266\276\216\007\203>\'\035\357=\300H\315\270\323\312\357=8\242\241\276Y\003\313<[\315O\276\001\n\177\276\260\326e>k\216\306>Z\217\340=\003\315s\273\356\267\001\275\333\004\351=\n\215\236>\003\270^\2756\024\346=\275;\007>qK\203>\374\334\237>\233\270\343\275\274\2349;\373{0\277\t\240\\>F\316\200=\270\'\263=E\322\212\275bFO\276\316\3146\276\312\323\332>^\310\212=\026\366\321\2757\374\361\276Wi\200\276|K\307\275\300T%\277\257\213\'\276\215\306P<=e\010\277H\304\275\276S\367\353\274\347W\036>\356\273\224\275\317\252%\276<\313\026>\023d\022\277\254\375\335>\344\245\253\276\001\313\361;\002-\346\275m\236\204>\213P\376\275\315\322[\2760\320\350<\267&\277=\3423\313\276\177\036N\275FX\316=.\027\215\275\215L\242=]\315\365\275\277\310\273<}Q\361>\"\211\177\2756\021\242<N\222\265=\335\307x>\202\027\357=\013\302\211>Yj\032\276\303\215\206\276\215n\215>\375C\007\276FRM>\032\3326\276\300(2\273>\247\036\277L\222\317\276/\211A?M\356\026>\241K\010=\350\017\206>\247\345]\275<[\213\276\177q\317>u%3\276\205\'\\\276\300\024v<\2145X\276\360\252c>\263\356\007>\240\350\223\272\241^C\276\243\t\325\275N\314\000=<\227b<!\216\326\275\311\r\270>\314\311\212\275j\354c?\177\342\343\275\237\355\037\277Yy\261\2764+\253\275k\226\307>L`]\276w\324\202\276\270\224>>s\301\200\276\243\364V\275\316M\024\276\225\327_>\203\264\031;\220\270\335==\267\231>\225&\316>QJ\255\275=\376E>\304\322\212\274.>\310;\375b\223?\364\312\301?\343\306\365\277\236h\341\276Df\306=\212\324\203?\341\305\277>\351\203\331\2763\252\270?sd)\277lc\307>vs\350>?\303\313\276\000ly?\222\023\302\276\3703\305??\374\016?\2270V?\024\277T\275\306\0319?EE\235=AGL>\2733\234?\3668\230?\034\035\335>\3359\255?QW\021?;o\000\275P\0012?\034\032\256>\231\t\t@\3613\007>D\363\307>\254n\324\276k\333\204?4\274\'\277\321s8?\004\317\026\277|]Y>\212MN?\003\316\001\277\216\034\375\276\261r\000\277\204\210\022?\230\037:\277n\251\232>V\370\241\276Q6D?|p\014\276\005U\t?.\310\307=\332=\241>gx\235\277Z\0024?\313\201e?\320\217\212?\240\r\002\277\333D\000?n\254\351\276\262\010L>\212\017\036\300h\307-\277\343U\247=g\001\017>\321\272 ?\226)@>\241\351\005>\220\252\356\277\302\364X?-N$\277\334\256!?\263\213S\277\2362\201\277kM\034?GK\314\275\332\335\'>\207\322-\277\232\210\247\276\022d\243\276\212\243\027?O\363s\277\245\010F?dd\016?\361{\267\276\303u[?uRb\276zt\010?[\270\245?\2108\206?\026 e\277\003m\010\277\256\213\214>\311\372\252><\3270?\023\330\347>\\EC\277\3528\301\276\361\026\207>\240C\372\277\322\301\325\277\347\346\211?\2576\035\275\247\274?\276\304Cx\277-E`?*\220\004?\013N\231\276\361\371\022?\006@\205\277~s\220\277W\224\374>f9/\2779\216I\277\227\366\030?k\260\235\277\005<G?\256\022,@\375r\275\276\377\233\222\275_\314\301\276\305\352V?d\206\027\276}\212\313\276 .\000@\314\267\363\276\222\376\351?\201\342\023?3\342\340>\375cL\275R\252_\276)\203i>\352\233m>\264\3122?/\270\363\276\201\035\n?\352\347\013\276\2359!\277\327\023i>\202D(?Y\273\267>\206l\353>@|\001\277\254\366_\277;\375Q>\274\360^\277\342\016=?\377\302\007\275-\363\210?\347 \256\274c\244\'\277\361\016\027\271\001\005d\277\r\314)?\273\302\263\276\332\214$>vR\031\2776F\000\275-V\262\276\243\256b?B\026 \277l\214\232\277e/\200\276,\036\314\276\221\241\233\277}\372\351\275\246\033$?=\246\251\276\006\247\034\277NT\247>\327\201\025\277\355\222j\276v#\272\276\317\'e>\360\321\003\277\207\204\375\275\363io\276\374pI\273\3750\322\277\252y\203?\r\360\250=\241\036\006\277\037x\005>\232*t\277v\014G?Wn\324\276\356\014\213\276A\207\313>\256\246\270\275l\314\255=Kw\331>[\035\301\275\321\252x>V\327\254=\242\376\362>^,\036\276\375\323x?\210\330\363\2755-B>\315\277\202\275\021\300\301\275\274\323\242?K^\263>\010\247\212>\020\236\265>\331\224\321\276\214\251b?{\365\003?\031\260\263\276p\022\006\277/\372*?y{h\277\320\262\334=00C\2766:\357=o\251\024\276\027N\t\277\006\250s?&nr>\332\331\203>\2245M\277\301\\\026\277\027S\277>\221\271\037\277\312\3039?\337\225\310\276\264C\212?\352\023@\277\013\244\261>(\216\221\277\007`\370\276\014|\243\275\331\351\245>\254\340\237\277\250>\243\276\203_\210\276\326GI\276\275\354\275\276\357\2063<T\200l=r\274\020>gR\034=\211\357[\276\250s\275\277n21>\270\211U>\230w\r\277\361i\216\274\271\304\375={\237\276>nHf\274\304\347\242\276\367w\235<\267D\237?$\377\207\277\031\026\005?\031\'\006?G.\262\275\325|\335>\'\350\213>\360\301\237>KF\207=In\034?\374\334d=)w\201\276=#\007\276o\222\224>(\253\373\275\003\224\373\275f\361\321=`\3303\277\227\205S=4d\273\276f\332+\276\200\215\372>\262\026\303=\004\210\224>\203\252\037>\200/\266=\375\205\340\275\320\261\233>\037\255+\276o\306\023>\201\035\303\273 \272\347\274\313{Z>#\302\211>\225(\037?(\267\344>\023\347|?F\3609?w\323\266\276\032\347\313=P\035\241>\025\307\303>\226\265\240\276[\016\336\275\006\367L<3D\335=\2548b>\02319?\250\334\372\274^\021\204\2762\2579\277\276]\261>\272\334\271\275!i\273\276P_#@\177\331\n\276\325a\213\277u\221\345?\3724\313\276\371/&>\204g\022\275g\033f\277\025Y\037@\021x \276\236*\316>\307\276\201\274/i\275>\243\313\302>{HM\276\325\321\204\275\\\265\235\276\371*\265>V\nk?\240\3333\275U\231=\275\255\r\314>?\2713\276\276\275\232?`0b?\361J\300=N\267M\2760\323\203\2761\213\343=\212\365\264>O5V\276\316D\240>F\271V?.S\021?z3#?\013\025\257\274h\016\361>C\201\246?\271\245\007>\356\301J>\251)6\276\272oj?\360\357\331\276\240\275\206=[\252!=\362\2161?\250f\013\274G\277S?8*\255>wg\247>\221)\352\275\340h_>\221@\022?<\014*?#b\030?\200\264\215\273wPO?c\223\264>\343\220\231\277$\031;?\'{\214>\270\376\341\275\255!\014;\315}\261\277_\016\345>\240\320\003\277\351\325\020\276\031L\223\276\2739`=\2615\217\275N\215\353\276H\252\"?\020o6?\331\272\376=\021,\022>\252\242\332>(\022\022\277\216\254\335\276\220UG\276l\3375>\260\306\020\276\020\377n>\224x\235\276\325\205\373\276\254\347\217?\263\205 >1\257G\273\276\3571>H\306\237\276A\257\222>\241\005\204\276_\005\321\273\302n\002\276\222\2268=\201&\242>t\354\346\276x\360X>ER\217\276\341&\314\275\261\303d>\020{1\275\373\266\017\276)^\247>]\345\204\2759\327\321>\245\r\274\276\036\366l\276\021KA\276\252\226\332>\307Q\337>\343\324\250\276\325\361\234=\332\020\224>\256T|\276\225\030\363>\001\253\216=\342C\250\275V\207\243>/78\276\235\247\024\277\036\311\006<\327}\223\276:O7\2759\356\000>)\252\217\276\305\017\205\277\313\370\203>=6\227>\236h{> \031\026>\262l\331>\303\251\301>0m\027=<\332\224\274\335\307e\276\221\215\t>}]\332>\\?O\275^.\245\276l\034\274\275I\021\004>\316\004\037>\240Y\315=\302\317\240>^\341\367=Ql\216>T\365\014\276\310mH\276\347Q.\2762\341\373\275\340\037\242>\262f\014\2765\221\206\276tD\261>OI@\275V\336\325\275os\313\2769\023+=\024Z\355\274m\333>??\313->\213\316\033>J\335\r\276\331\321\244\276k\300\365=3\035D>m\330Z>x\234?\277B\026\262>\354\033\037>\261h\227>I\023\001?\262\211;\276A\227\212>s4\324\276\\\033\267\274A\375\211\276\271\244\225\276\270\262\034\277\345^\251=\017+\213\276\005F\267\276Bp\256\276\024\252:>\321\310\341\275+\354\351>\210}\251\275\223\007S;\227\020\270\274\250\251\204=\t\020\035=d\016\202>6\313\255>\177)&?\272\025U=\224\036\322\274\240\344\264>%&\272<\006{s>\2776\272\275^\233J>W\347f=\251,\277>/\365L\275\003\364\343\274\006\276\274:\235\323\350?\210Z\206\276\002\220\311?\204\3328?\027\277\257>w\240B\276 S\332\277\014\204\263\275J\2312?\272fp>q\307\241<\010\334e\2774\\\211?ab\257?)\266\264\274)\3546\2777\317\010@\336\250)?\230\264:?\277\235\362>\2054J?;\220\305\275>\333\003?/)\316\2771#\243\277m\013\341>\350\207\260?R\333\253\276\263\017\375\275\245&>>\027\0032\300EMh\275\301\304\225?E!\025>\350\244{?M/\270=\367n\310\274v\005\353>\334\260L\276h\335\215?Y\2175?\022h \276Cq\215?\206\272\276\276M[\007?\t\201\273>\376\262\345>W\323\273\275[\000\037?\242\3069?\351G\275\274\n\274\016\276\007A\266\277\370[\005\277<\243\303\276un\332\277\030\230\252\275\334\353R>\333\200M\277[\332\205?\250Q\223?*@\345\2750\030\261?\214\277Q?\203\270\335\276\300hS>\351c\331=E\016\n\277\244\243\"\2758\243(>-\364,>\0017|?$T\030\277+]`\277\034\206|\277\367\364\330>\323\253z\275P\2036?jq<?;\366p?\363s\243?\317.j\276si\026>w>\013\277\242\346\353\276#\2066>\367\230\233?\036\001\321\274\020\363\270?{\344\250>Us\013\276v\375\353\276\2655\014\277_\250\306\275\307\215\314?\310\201\332=e!i>\214`\205>\003|\257<\001A(\276K2\212\277\235\274\254?\3071\022?Ep\276=39C?\322\230g\275\210\224q\274\020\240\035\2760DX?\351\023\213?RT_?\330C\024\276\\\207\327\2757\017\232\275\323\277\346\275\232X~?\264\233}\276\340\030\376\275I\242\200?0h\265>j\330\305?{\244\371>\267\324\273?\344\r\255?LX\214\277<\232\342\277s\326\010\277\272\363\007?I\277X\277\277\375.=\266\301\243=\273\217\332\275\372\312*>\250\312=>\216t\212?\305\014\n\276^\342\204<\352\234~=\2754\357>\314\251\233\276\246\343\272\276`\373\303\275T6q>p\236\264>\t\222\334>9\355\277\276\260i\004>\014\002V>\022p\034\275)\231\211>G\327\256\276\321\217\333>\237\3079\276F\361\321\276\210\251b=\356;\336>ur\254\275\3201\247=P\374\225\276\366\373\007?\221K^=\261hF\273P\264\324\276\222\227\206>\304\372\224>\342o\'\276\r\266\220>\'\007y\276\217A\302\275\271\341\362\2763)\002\276*\014-\277\372\217\377\275,\253\362\276u\204\223>\352[\202\277\317\314\311>3 \004\276\332\240I>\342\263\002=\004jQ\276\353\266\316\276!\027\203>=P8? \220\240>l\347\006?\342j\310\276N4\304\274\032p\234\275\215\336I=t\253v\275\220\277\242\2767O\263>td=>\351\034\356\275\373\241\246\276g\240\033<Yy\276\273\262\303\255\275\244\255b\276\224}\265>\233`\016\276L\3449\276\214\374P>\346\221b\276\312\260\372\275\232{\237\274(1\274\274\337\311\034=\310\300\236\276\035\035\374\275d\215*>vJ\364\275\252\315w>\354b\005>\020l\032\277\007@\226>\215\032\325\276;\0056<)\265\001?\242\024\244\276K\020\225>\310\376{\276\362}\363>\\\320\241<\302n/\275\021\034\337\276\036.\356\276?;\026\276\213\320\032=\360\315C>\206\274\355>\303\263\016=\204\2028\2767\376\353\275!\345\320\276\210\332\004\276\244\205\343>\24293\275y\r\034\274g\374\257\276\210\202\237>j>8\276#\331\247>\016\365\r>\003\232\320\274v]\324>i3\330<\'\275r=\364{y\276b\316\256>\376\305\255\276\333\206\200?p;\305>\233\215\345\276=\376.>r8\033?\340\257#>&K\231\277\342\000\347\275\013W\263?\227p\303\277\346\0038?oO\024\276\235}\177>,\332\001\277\235\313\027={\014P?gp:?M\261\326<\035\324!?L\037d\276\233\274C?x*[>\203*\355\276zY\024?0r>=\r\nY\277\342~\325>)\317#?O\247\030? .K=3\316\215>\r\336\316\276A(\355>\014\256\341\275\346\002\220\276Fj\226=S\020\230=\036b]>~T\023?$8.>\027\361\267>\346\376M>e\353\214>zn\344>\304\216\241>\232e\205\27500\024=d\216\036?\2467\247\276w?\275?\263\364.>h\025\000>m=\353>;\006\240=\325i\315>\303b\377>\344\272`\276\204g\353=\220\211\202?\003\2009>>\006\335=@\265T>\t\344q\277\264V\220>\006\257d\277\340J\313>\r\313\260\277\227WY>L\256\367>\374\330w=\262\303\000?\266H\221\275\221m.?\372\0364\276\333\025\000\277N\377[\277\231\357\034\277\024O\331>\376-\345\2762L\237>c$\005\277C\272N?\306E\030?[\001?\276\274j\366?D5\030?\243\234\216\275u-\003>?\t\311>\'\023q>\252\034\016\276/&l>\347t\205>\255!\r\300e\027?>\221-\223>\300r\360>\376\204}>\366iN\275\016uT\275\030}\302\275\207\333\270=\301\211F>\264\344\177\276\314\367\252>|\250\025\277R\033\333\277\321n\240>\005\336\374>\\\007\365>\0167\302\276\326\221\205?\341;m>\256\317O\276\276\310\332>)|\216=G\n\375>\266l\316>b\027\207\275\177\343\302>\277[\307\277%PN>\330\005\246\273\347*\n\275\214W\225>\314\307\003<\222=/\277xc\030?\2618\204>@\361>?\254\314\252>_\324/?\300\266E\277\201~/\276\003{\316\276*\313A\275b\314e\276\032;\330\276\026\315\241>\203\034\352=\256h\216\274\277t\234\275.\211z>\370\267\n>\334\311\234=\000\250\3424.\272D?Or\004<\024\006C>\235s\003?\3538\031\274\000p\226:.n>>?KA\276\230\235\217\275\023#\262>\273\037\277<\250d\366\275j\027\005\276P^\032?\316\305]>\034\235\230>\331~\016\277N\"\032>O\310\326<\231\321+>\276\232\214\272\016\314\354\276k\034x=\"\246:>$\211\014\276\373E\226>Jdv>!\332n\276ac\357\275u\266\327\276\352p1\274\245)2>`\017\n>\253d\030\277\314\201\304>\254\224\201\276\246D\352\275\313>\013>\227\241I\276f|>\275n\277\036\276O\032\254>\275!\321=ph\203>\307*\275>\036.\211>\220f\r\272\243\r\013>\202aA\275\237+\364<^\250\247=Y\213\345<\037\272w\275\364X\323\276\336\323!\276x:[\276\014>\247\275c)\205=*\351\302\274E\377(>\360\273\002\277q\252\237>X\320A>\370\237\247<\210\310\266=$m\214\274;jA>\324\373\016\274z\364\253\276\320U\331\276\261\017\235\276)\023\033=V\272\247>\233c$\276S\327\032>\334\027z=\256\343\210=\262~_=\025\341\251=\t\357\243>rh&\276\330Xf\274g\367;\276#\224\241\275U\276\326\276>\007\014\277\023\355e\271\307D\301=:\206k\275c\366\233>\226\311q>\266i\315>W\350\317=\354&\313>\021k\003\276\017\tu\274\002?\353=\373\257\272\275&!\207=Z\225r\275\241\232\350\275\344\t\214\276\220\025\241\276\310/N\276v\311P>\322u\300=\2327X=\321i\024>\3547\021?\3407\270\276d\020\255>\256\344\340>\\\241\'?\261WZ\276\342\245\237\275\254\347\034\275m\337\022>F\241\020>\020[\320>\343[<?\340\024\210>\315\ny\276F\345{\276\264H\026<\367{\224<1\305\332\276\033\257\021\277\035:\273>}\2537=\340x\300>\233B#>\337\005v\276\013\366\016\276\222\322\215\276\372\\\205\2750\241\255=\373\301\334\275\304\230!\276\"80\276e/\326\276\305\371\324=\034Q\310>\321V\267\276\344\222z>\377\216\211\276\307e\005=\307\313&\277^\334S>\215P\251\275\005{E?\335w\272=\335\342\023\277\r\275 ?N\350\254>~\n\227\276\002#\003>\0366\242\276\314\346\217\274\266\225\372=\0222]\276K\014\023?\253\225\013?7\253\377\276+)\236>\332\355B\276Ne:\276\237\356x\276\231\201$\277\372\200\227\276\235r\223>\230\220\212=\333D\264>\023\3753\277\207g\235>^\337O>\\\357N=\025e$\276\013\027\017\276\300%\005\274\223\361\275\276\345f\203\276-\354\303>\t\016\027?/\276`>\276\303\263\276\271\311?\276\255\243\034\276\001w1=l\352\266\276/G\316\276\305\202\270\276rC1=\005\233\214>\325\370\274>\307\216\244\276E\212 \276\221h\355\276oD\024=7\340\210=\253b\316>\306\356\225=\305y\341\275\372\023\215\276\225\354\356\276\032_\014\276\305\254O?\024\363\341\276\244yd<\224kC\275J\376\027?3\323\241\275\374\013\337<x\324\265\276\215\217\303\276\331\241.\276\"-\021>1\265Y\276Q\323\365>\212\215r=\262\330\231\276,\237\352\276\241!\037\277\3404-\276<[\031>\201~\013>\2774\034=B\344\033\276\365\263\277:<5w=\250H\211\276\242_\342=\206}\333\275\354\255h\272u\210\230\275\372I)=\213\n\002\276T\263\276\273X\223\212>\331\n2?n\016\325\276\r\013\356\276\235\303\333\2752\231~?\211\035>? \331#>\376\310\325\276\202_\221>]S\t\2761\256\306>\221\374\271\277\324f\313>^\336\036\277\325*r>\023x\211?qs/\276\236#\233\276\212r\204\277\026\262s?\230\306\002>;\230\370>\242\000\232=\266^\\?\352j\027>\022\302`>)\322\214?w\225l?\371\030\315>\336\\\351>F\037\000?\344\n\010?\0149}?\327\037Z\276\217t\215?\340\274\235=E5H> \034\017\277\207\203i?\245i\215\277wL5?\251\327+?>\026\215>B\2217?!\246\306\276S{\022\277\342\312\265\276?\203\026?qzC\277\272 \302?4s+?\370\014h\275\310\236\205?\006\274\342\276B\304&>\346tu?\325\025c\277\231\316\030?L``?FM\341\276\374F\037\276\007\275H>\007\201\332\277\212ji\276\203\244\234\276\247\261s\276\006f\320>\257\356\212>\326\205\225>\321\230\266>\003\004\026\276Q5\276\277o\222h?\202\234\351\2762d\225<\226\336F\277\343\010<\277\006\342\330>\000\020m\2778\245\020\276\000&K\277\253\314z\277\306V\250>^\014\224\276\343\203\300\276\30110?w93\277\022\246\264\276;6/>c\345\273\276:\202\230\276,\360z>S\233b\277\272\rJ\276rU1\275{w\300>z\223\026?\242*0?}\262\260=\230\035&\277\364E\353>\004\327\264>R\246M\277\367\214\275\277\030\264i>\311\005\205\275\\|\322>\223\203\307\276\227\303J?_\213\"?\245\343G\277\241\250\022?\204\325=\277j\277|>\25216?qv\345\276\035\371E\277\351\270\007?W\355\200\277\220\243,?\351\"J?@\335\256> \037\033>u\224)\276k_\010?)\304\356\276H\324\255>\004p\234>\377\223\224\276a\310t>\014.t?cm\206<]bS\276d\342u>w\333\214\276>F\257\274Q\026\320\274\247\322\220>\315\010Z>\206\326O=@Fl\276\227;\021\276\300\317,\275\204\216\217>\221\265\241\274LW\263>\252M\330\276?=\300>\217\254\364>\250\n\256>\037\261\206>\005\215\255>\250\207\313\276\023\373\242\2751C\203\276\027\334}\2769\202\027=\343\267\031?\232{\222\274\353\005\315> \2201\276\251\205a\276\303J\315>\324\322\245\276\327\324]\276Og\025>-\327\000=T\244@\276\333\n\003?J\323\353<\351\263G\276%(\200\276M\'A<\306\276\236\276\264I\r>}\366\330\276\367\265\026>\202\207\024?$\353\213\277-`\333\276j)V=\022c\225>cqp>\321\352\257\275\311}\273\276E\310\013\276\022\324\222\276K3\004>\034\373\346=\277\337=\275(\305\202>a\300\275\275\205\232\021?M\317*\276\367\035\322=\205\325>=\277\341\343>\253\025~>\205_d\275\222\300l\277W\017\263\276\320\345\031>\351;\214>\221\316\254\274\314\022K\275\244\355\301\275\037:\301> \356\222\276fM\241>\016\354\251\276\242\255\200=\374\377\341\275@\023\332\275O\333T>\371\037\274\276h\006\364\275\260c\360\274\001]9\276c\233E\276\0014\337\276\225\205\232>\354\276V>\376v\375\275B\312z>T6\301=b\004\330>$\271\027\277\247\265\020?0W\263>\326!\202=\367\013b\276d|\032?[\240j>fd\363=\351\310g\276\333M\013>9_\r\276\251v\215=e>C>\266\202#\275 \365\033>\220\300o\276\001j\316\276{}\036>\037\327\233>5\256*\277\226\357\361\276\301\247\373>{C\261\276\225\220\034\274\261\236\001\275\221\200l\2740\216\364>\t\034\207\274\201\010\360\275\301t\201;j\316\357>\366S\347=B\261\352\274R\264{\275]\215\216=x\250\246\276b\226-\275#L\007>\001/\022\2761k\001\275R\023\306\276H\257\310>\304\321)\276\351\260\256\275C\260\203\273C\311\025\275\225\322\270>\021\372\003\276*\025\364>\256m\031=\321V\371=\374\372\207>\023Im\275\325\022J?&\260\025?6\tt\276A\350\210\276%\326\230>\220\377\031\276M\277\242>V\253\007\276\317\272\177==\260\n\274M\021\001\276\312\031;\277\310\014\023\277\342|r\274\211\0214\276[\027\347\276\274\025X\276\336\251t>\306/7\276V\351\330\275T\007-\275pP\242\275n\267\323\275\332\021\334=0\256,=\232\346E>\023\221\252>d \234>lN\370=\231\021o=\255\034\005>\222\177\005\277\006\020\243>\271\313\021\277\022\000j:\237\225\350\273K%\310>4\006\267=\223\262\375\274e\325\355\275&9\213\275\031\010\246>_\350\t\275^\373\250<#\232\265\275\244\320w\275\323\030\207\275\241E\\\275\265\261\246\276\2338T>\323\347|=\375\024G\276I#\245>\036.\307=m\r\204\276am\251>\034\234n>\260\346\336\276\\z\000?\351U\020><\007r\275\245p\031?v\036\266\276Q\002\257\2768:\246\276\206\033H>8$\211\274\251&H>(\376\221=*\303\343>\r\270\366>A\227Z=`\230\262\276\272\304\240\276EU&=\265S\365>c\035\210\276#\254\347\2761\312\375\275\033p\363\276\024\317\312=\020\307\327>Z\266#\277;\205+\276\311\356\245>\307\237:>t\n\020?\240\030\211>\\\232c>Ov\211>>\375\321\275\202\246\234\276\'\224\367\275\005\322\002\276\207\203\007\2767\342\317\276\021C\250=\321z~>\302\214\344\274\013\004\207>:pT\275\315\343\254\274gok<m\263\232>\323\032\272\276\326\337\277\276\332\211W\276dT\266>1\307\226\274g\035<\277\313\320\236\2759\334\320\277\346m\207\277\340N\210?\211)m>\216P\014\300\255c\245>\006p\360<\277#I\277\307\376\t?\266&\323\276\355\325\025\300\267\273/\276\263\\\013\300\300\262[?@2\006=\224Q\202?KHQ=\341-U\276\204Mx?\"\243\355\277\304\030\004>\237\336\335=\236=+\276\370\273\002\277\247\323C\2766y\347\277\031`y\277[Z.\277\237T\005>?TQ\276{\215\364=\254\235\361>\256\230.?\021\3121\300F\016\351\2774&\271\277\342A\363\276\321\034V\276Ow\215?>q\022?)\235\013\300\017\277\204>C\022\300\277C\361)?\357|l>\205P\021\276K\277c\277m\035i\277\336\273I\277f\333\205\300)\0317>sq_\2770,\207\277t\335G>\212\356\277>7:\014?M\235Y>2,\226?\314F\321\276\2468v\277}\314\267= r\271?&\255\231?4\006-\277\240\220$>\014\003\212\277\275\373\240\276#\221M\277U\025\035\277\234\252\t>I\274\325>\372\007\273\276R3\371\276\177,&\275,A\201\277\240D\020\277\366\017n\277>\221p\276\366\334C\277\362Kc\277.\273\274\276kU\004\277n\303 =\r\001>?@\350\240\277\270ou\277Z\332\223?\006\245\236\276\375)\\\277\006\016\263?\032\260\004?3\322t\277K\030\"\300\332\273X?\326|!\277\253\324\230\277\265e#\3004\236a\273 2\253>\240\037\010\277X_\257\277\302 =\277[=\326\276R\273-\277\rb\322\276~\\\210=\017\317I\276\2620\335\276 (\211\276zJ\030>L\346\342?R2\r?\223\230\305=\240\365\237\277C\322D\276\0059~\277\363\275\307?R\245\215\276\373Ax\277\370r\014\277U-r>0\020\207>E\035\322\277\320\206\227?\360\363\233?\334\223\270?\344\254\036\277l\353Q=\035\"\014\277\334\231\207=v-k\275\347\177\217\276,\263\030?\214\002\224>\347\217I>\324\000j\275\025\306\202?\353\216\305\276A\320\205>\203\331k=$B\317>\345\341\264\276\003iA\276\243C\247\276\376V ;\211\323\000>\375\236Y>\256\334\036\275dX\013\277\300c\356:\330\267\305\274S=\237\2754\215\277\275\261\220\236\276}\373z\276\247\243\232>2]\206;\206#\214>m\\\016?\225|\035>\366{\030<T\341\241\276\256\326\235=\253=y>\250\337\257\276V\006\257=\036\026\006?\313\307<=\347\3168\2758X\307\276C\357\367<-\261\306\276\237\300\r?d\342\363\276Ql\014\276\203\005!\276\342\343E?F\362\353>\377\014\n\277<\2055?w&\303>.\252E=N9\277>J(\023?4\267\373\275/\243\321=\201\\&=>\247\304\273\336\354\210=\332l\221=^hX>%\312\241<\340\260\331=\276\262\261\274\315\201\270>\376\003z\275\226Q\254\276B\030\264\275C\342\251>\307&\221\276\2576\034\277\313\313a=\230\021\263\275\250aY\276\252\\\356\276\343}\250=\364\030\376=\345\274\331\276^\347%\2761\337J>\325\314\306>\t\222~\276\322\n\025\276\256\252\360>p\356\014=\377\003\372\2762L\023>SP\232>S\005P\276 \312*>o\345[=\202\000\221=O\316\007\277\203\233\355=4:\230\276I\237\236\275\240\020\355=\270\304k\276\025l\206>\\\257\226<\010\n\215>6\202\372<\363\002\013\276\275z1\277\367\261o=\342|\314>\014\316\273=+-:>\035\336L>\360\2100?\247\025\362\275\375\224\270\276\205a/=#n\327=W\233\251>\254\355\024\275(\254Y\276\222\244\370<_\262r>\260\367\222\276\'@\313\275\352C\200\276\027\261A>\333\246\\>\204r\203=\370\233\244=\202\315\213>\257\031[\276;U\312\273\260\245G\275\\y\005\276A.\363;\261\365\035\277yZ\256\275\006\003\311<\222\006e\277\200B\357\275\332\362\033>6\014R\276\330\353\231\276e\353\021\276k\277?>Z\333.\2763C]>v\355\006\277\212\032\231>\212\211\366\276fq\022=\352\206\017\276\330<*\277\326\327\337\275\253`\026\277u\030\337\276\321\227\224>J-\365>5\206\214>\026qA>\014\020\332>\036V\260\276>x\325\276\344\007c\276\221m\272>\013\320\t>\332\313\026\276U\373\306\275U\332\035?\361\005\224\276\205\337V?J\024\206>;\263\\?\"x\355\276\252\3718?\224\003\201=\314e\037>5\314\237\276\t\346\327=\002\241\306<\246Rk>\241|\227\275]/\243>pA\267\275\265\200:>\241\361D?\t\326\r=\236\016\367\276\201|\217\276o\250\345>X\022\'?\272\353\017\277\270\321\003?\022b\252>\234\021\267>\tZ\003?\374\016\247\276\276,\365>\017o\313\275H\343\342=\363w#\276\326\010\225=\350@\271\272#\314d\277\227\r>\277\001\347\244\276\372\344\366<\225\344\203\276U\224<\277\345=<\276\375\252o>\345\263`\276\257\361\244><\246\207\276\016VE>\364\244\363\276z-\212\276\376x-?\221p\255>\301E\212\276\006Z\366>\300]\234\275G\233\217>\373\200\351\277\0051\027>\302`\203>M\272\331=\256n\224=\306A\303=G\346Y>\251\221\205\275kr\267>\261\031\301\276\343b\224>:\\\033\276}+Z\276n\250]?\263F/\277\220A\251>\254\227|\276_\247\021\276u\2666>\344N \277\300m\277<\353}\313\275$N\237=\030\014\304\276\331\201\'\276:l\202>_$k\276\350x\221>0\021*\274\225m\210=\252\306\323>\261*\235>\220\242\342?Jm\235\276`\010\314?yB\034?\270f\322>c\367\031\276\214\214\341\277\363\265\356\275\0221\032?1-~>\357>\225<\207\272\210\2777,\211?\004\006\233?,\337V\275\032\254S\277\221\225\014@\206\035\017?\tR/?#\014\006?\353\357@?\334e1\275\025\333\017?\205z\325\277\265\264\230\277B\036\303>\357\002\253?\370\272\210\276\331\232\004\276\303&\007>\026\2409\300\274\266\333;rm\203?sA\312<\275\252\205?\332\370\026=\374\366a=\255>\014?\250\020J\276\245\265\224?\177f5?E\016\016\276\366ns?\016my\276\342\364\377>_&\336>\215c\342>n\365R\276\265\334!?\035y(?\216G0\275\260_P\276\203v\252\277\2349-\277\376!\255\276\260\342\353\277\345~\035\275\313\300/>hK-\277mk\212?P\305t?\336a\242\274r(\272?\250*;?\264\356\336\276\020Gd>\234\303\002>5{\333\276\265\004\025\276I\037l>\371_\207>\336t\211?\375\271\002\277F\277{\277\342aV\277\212\246\302>\301\3518\276\257C7?\221\3166?\361\332`?\373i\237?\331\005\204\276\372{T>\376\214\023\277\np\351\276\366\373|>\344\327\246?i\357\020\273\211\t\243?\2010\232>\177\037\326\275\212e\255\276\225I \277<\0055<\365Y\335?\312\023*>\016}\204>$\351\250>WX\007\275\\\246\206\276x\337\227\277l\213\251?\266v\343>}\004{<\216\3445?\347\"<\275>z\206\275Y\372\\\276\024\254H?R\327\204?\311\333i?\253\374\032\276\242\013\221\275\r\346\022\275\342m\005\276\243\027\205?\211\263\230\276\313r\312\275\020]\\?\374rA>Xq\305?Jj\315>*>\303?u\347\243?s)~\277@\"\350\2773r-\277,\305\367>\3239\026\275\341O\004?\234G\325\276l\0223>\350x2\276k\004\340>dz\t?\nM$>?\361\301\276\244<8\276\241D\n?d\363\000\2775,\214> \364\374==\n\322>\372\2478=#E\251\275sK\362=\377*\202;(W\375\275N\316f\276rV\201\275\203\t%>\351\233\364\276\271\227\246>.C\006>\371j\272\275\245 \341>\335\\\004?\223\272\210\274\231\035\217\276v\313\353\275\220nO\276Rph>@$\314\273\317\245#>r\\m\276u\0335\276\344;\273=\254B\233\276\326\014\231=s\270\364\275\315q]>P%\244>\033)\271>\366\017\004>\364\363\353\276\177\253X\276YC\033>-I\340=s;l\277\334\277\346\275f\337\033\277x5\313=}4\031\276\273^\353>\242*\221\276\023=\362\276#\034\262>\313 5>\257\026\260=\316E\211\275\t\352\025\273a\247\263<\361H\251>Yu(>\252\360\255\276\253\231n>i\230\316=\340\r\">X\343\004>\203\310\262=\235\365\026\277\351\t\020\276\306C\244>\304\373P\276\276\377\313>\322\243\005?e\352\331\272x\005I\275\rXV>\027\362\354\276\343\261h>\0251W=\262\244T\276\377\240\365\276\301\363\277>\340[>\277E}\273=3L.?R\327T\275:\253\205\276\262\006\215>H\006\032>\237G\017\277\212M6>G\010\266=\356\260\342\275v\372=\276\203FO?`\2268?\010\230c>nn\306<\310|\263>\274\342X\275\340\025\200=\007=\233>\223n/>16F=\\\237\330\276\313\006\364\275\321\3263\276\214\371]>`\236E\276\177R(\277\")\317=\003\014\226\276\210\024\243\275,\223\337>e\252\316;;\245\212\276\021$\373\275#\010O=\367\232U\276\020\t\252\275\027\224k\275\226r7\275>OG\276\323\022\342\277D\036y>\207\363K\277\346\316\356\274\253u\313?\316]\016=\032\334\005@\326*r\277\261\213k\277t\276->\205\003^\277\005Or\274\\k7\277;\3379\275\334lI>\341\005\233=\344\325\355\276g\342\375\276\225[g=|\'\366>\345\025\376>!\223t\276\235\262K\277\222^\261\276 \005\265\276\231\351\242\275\217\030\232\275]\303\215>\325\032.\275qSV?\022\273\004?L\013O??\252\204?^/[>\231\001\314\275O\251\243?\231{->\023\031|?E\216\036\276\270_\333<\030!%>\301\004\306\275Dm\201?H\n\313\272\312\326\341\276\266\366\245\276O\013\240\277Jdm?W\006\334=\252\213\200>\342\322\207?\202\205\222?\223\215\257>\023m\312?\337\363\375\276J|\253>Kk=\277\036E\016\277\263d\342?%\305\'?L\\\313?}\376\007>\342F5\276c\n\233=\376%9\277\263\340\236?\314\376\325\276\234\331\271\274\363j\224\273f\357\013?\373\213\n=\206\250y=u\335\215?q\032\202?\035\235H?I\177\177>\371\343,?\207\026l\276k\274\210\277\306\325\025>\264]5\277\005\350\034?\275\000\306>\221L\204>\252\375\331\276u\342\211\277_\276\025?e00?\274\037\262\277\372\201\013?\322a\205>\244\312\036\277\262\343\271><x+\276\017\225\372\276\025\010\005\276\277\302;=\336\375:?\234\307\232?\273\342\376\276\327\017\211\277\346\355\266\277|\250\345\275\265al?\023\204\007?\334\343\247\277d\026\344=\257G\262\277D\255X>U\312\000\277\2702%\276/\262\200?\271\334\307\276;\326\225\277F,\224?F:\371\277\306\252\272>\214\035\301\276\302 \027?\206\332\031>2P\325\277xO\006?\352\335\312>j\332\032?\370\210\340=\276X\022?Q\247\004>\252\3461>N\326S=\371\305\351\276\310>\212\277\351\n\233>G\322\217\276aZ\360>E\376\200>ww\226?\366\363#\277mO6?\007\237\232\276\320\006\377\276\226\023\242\277\357\3016?D\032\224\277U3\230\277\270h\206\277Rt\211=\361\216\327>8\240\217>kjN\275\343\262x\276J%\246\276\3101q\275\026\361;\277\321\377\241\276Huv\276\224g\031\276\360h\026\277\341\340\335>,\326\027\276\242~k>:\210\030\277\205\2203?E\272\310\276\032\303\253>oA\032\277\363\353I\277c\327\215>\203\371X\2766\213\265\276f6\237>c|i\275\267\350\345>\023\3361?(^\'?\334]\344<\234\3279\277\023+\032\276Fd\257?\025\033\270>`\373\303\276=\332+?\034*.\277n\234\353\2764BW=n1\250\277\365\367\036?LN\310\276\372\274\230=zm4\277\321\206\335\276\374G\024\277vXE?\246\373\353\276tZ1\276P\216\326\277Tv\232>F\3460\277^2\007?P\227j\276\027r\226\277\007%!\276G\305\212\277\r\032g?\241jP\276e0\020\277\324\265,?\233\350\037\277%6O?\332\'\367\277\033\215\267\275/\227\337>+`\224=\260\366\270\276\266}x>\245\246\236>\020\315\343=\216\356\027\277\313$\001\300\340\273\013?\201\267\272\275\0106\265\276\216\307\231<\225\245B\276\323\231W\275+48\277\234\202\t\277\251\322k\277\322J\t?\331\366\n\275U\360b\276\363[\016\277<\022y;,!\351\276I\267\310\276@\014\024?\240-\341\2771\216N?\220d?\277\323\254\276\276)z\367\275Vy\014\276\020$\371\274[\357=\275l\251\303\275\350W\276\277\226\2629\277A\367\035\277\027\371\325=\364k\016>\322\315\307>Qbm\276\264;X\277\332\3134<Z\360\030\277\254\237\211\276\256\233\352<\323|]<\2724U>\0133\265>B9\272=\355\221\036?h\200\n?\032\020\377>I\232\211\277s\020Q>\354\277\265\276TzT>P\241\220\276\003\330\262;y\227\310\277oR\025\277\324^\234\276$\177C?D\304c\277p&)>o\361,\277\211q\232\271(\273@\275\024\004\004?\246IS\2777|v\276\007\214\'?\223\335\221?/\212\032\277\221U\t\277\274\221\247\275{\311\227\277\205\210\313\276\025J\370\275\323\004\010\276\362yc\276Q\314\004?M_\340=V&,\277.*\227\277G\317&\276\356c\261\276<5\001?t\314\301\276j\201\200\277\227&\240>\212\007\263\277\275\341s\2755\t\346\275\002>\300\276\316\211\214\276\363~\n>\216@\335\276\344\327,?/\352\000\276\006\203\020\277\256^\005\276\326\311z\277E0|\277Z\307K>\312\357\000\277Vi\362?@\0056\277\374\301\027\275(\256\326\2761\353i?j!9>\347/\341\275\217\327]?\2043\236\277\374\235+\276\362\374\026?r,\222?x\2457?)\214\230?\370\315\372=\374\356\230\276\242\202\324=V\226\351\275\321~s\276>\230\210?\242\257\323>\220\314\002\276\022W\300\275\341Db>\000d\021>>\201\014?\277$5?|\257 \276\276w\371\276a\275\034>\014J;?OXI\277\017\r\244\276\254\320\224=\265=\337>a\364\027\2761\217Y>\243\365\005>\245\326;?\330p\320\276\266\2625\277\334U\010\277\n9\017\277\020X\210>\336\366\201\276n\376\231\277E\223\313>\277\300\216\2753\342\033?D\025,\277\256d =7q\276\276\000b\177>E\347\256\276\313\316\007?C\307\231\2760\333\260\277LL\210\276?\234/\274\233H1\276+[\022\277u\016\021?A\r=?w\306\036\277&\346\t?H\333\215\277\226\177\315>\316\235A\277G\361\017\277\265eZ\276fN%\277\327pT?+s\237>\264\320e>\357\304\330\277\031\251h\276\021_\304\2762\357\361=\345C\310\275E\r\347\277\025\264b\277f\306 >\373\0372\300\224B\224\276\023+\270=\036\217\241?\231v;?\026<\354<\320:\021\300B\255r>R;&>^\226\222<^\370\357\2779\325\003\275\203\345Y\276+\356\217\300\321\316\201\277\033\020=>\366\3524\277\363p_?\022\372\346\276\245\262\333?\207\254l?\325\247\203\277z\030\367>f\347\203\276;%\031?\255_\226?\371\177\026?\032\331\330>\030lg\277\327\306o?!L\212=\033\3256?\235\335\005\276\271\275\324=l8\252?\026\223\305\277\007\235\002>\200h\016\300\361\270 \277\0338\022>L^\265\275PM\316\275\236\373&>A\031R\277u\014\006>\241\211\246>\005\024\004\276\005&\333=1\331\265>7Y\032?O\332I?ae\277>\r\327\237>d\273\312\275J\333\026?v\374\347>\236\325\245\277%>\314?\346Ze?M87?a\363\225\276\225I\317\276\313F\205\277\013bs\277\260\317 ?q\370\361>w\'\252\277\325\234\232\277\226\003\313\277\241\213\030\276\243H\366\276\322<\266>\177z3\300\230\250\031\276u$\034\300\365k\024\277\356\020}>\277u\361?\344\274o\300\002u\200?h\030(?\262\372\336>\371\227\273\300\357\241\246\277\256\362\034\300!\020\367>\343F)>\'\235\345>\233\211\253\276ih\266>:\335\242?\274\264)?|\203\216>\003(\360<(Y\007?tv\376=\265\007U\277\031\361]\277Ip\024>t\330\354=\261.\253>\323\001\336\275\220\305(>B\301\235?j\204y?\347$\217\276\030\215\266<Gt\r\275RH\232<\327\014\023\277\227\252?\277A\345,\277\250\201\306>(\360.?/\254q?\267\330E\277\270\350\200>\367\017U>D\305\345\275\307\347\252>\346\357t\277\317\246\312\276\347\206\216\275\233ya>GLC?d\341`\276\r\364K\275\007\223\002@\343\301@>\267\3413?%n\205\277\002\\}\276\253f\261\275\223\244A\277\004\334@\277\262Z`\276c\330\320\276\314\323e\277~\363\017\277\217\341k\277hG1\277\367\2710>\017s\270\276\263\362\333=\330\004\360\277\240\'\302>1u\211\277\006:\034?Cw\000?\331\223\243>(8\341>t\236\200\276n\251{?~\250q?\351\314\350\276\005\027\233?\3209\241=3\215\234>\223=9>|\377\n\277\236\364\251=$T\234\277\346\233N\276R5\216?\255G\205\277@\360\342\276I\322??\257\370\357\277\326H\303?<o6\277\230\236~\276\222\216\'?wR\246>W\037\031?\307\220J\274IG\324\275\321W\037\276\341\020\252?\302\371h?\343m\021\277C\346j\277Z!\202>6\226\022>\337\034\240\2767\235i?\305\212\247\276\334\241*?\3042h\277\177\340\210?\2632\202\276\376\230q?\014XR?\331\342\002\276\003\232\327=\276\236\200?z\261\023\277\375\303\227\276\2156V>\324\323:\277xy\021?k\306\030?3\204\265\277\013\242\322\276F\330\033\277\336\204f>\035=#\277\342s\270\276MD\345?\024\331\037\277\201\230\227\276\334\223\271\276\362\277\311\276\037\356\006\275\261;\352>)\004\252>R\347\255>\022\016\223\274\263\245\347>>\2024?\261F\330\276A\204Q?\233\027\370\276\220M==\373\250g>\347vW\276\254\177\276=\010\004\332>3W8?\333\300)?Q\231\010?\266\020H\277\355\211\351\275\337\0219\277\333\033\216>\241KT?P\365\330>\301M\006\277\243\226\230\277\335\222\230?\036;S\277\242\"P\276\301Uu>\243o.?\252\2200=\014\354\033\276e\037\236=\367\366S=-&\276\276h\346@>\313\354s\276I\025\324\276X\\\205\275.\247\037>i\3223>\003\223;\275\202\202N>@\204r>\206\032G>\004\260\304\275>\017\222>\036\3773>\330\035\223<\236\277\240\276\t\264\207\276\r\016 ?^G?\276\206i\004\2767\337\251>\261\324n\276\013$\222=\017Q\274=\242<\220=2C\001?\353\232=\277\201\240\232\274\030\024\250\275W:\365=\3352\250\275E\327\343\275\371(=>\030\001\230=\023\t|\275\341\230\364>\024\344\327\275\246\351\331\275\360\232\033\274!\240\351;mdU\276\357\255\325>N\366\304=U\313\377>\313\350(\276^\212\327\275\353\217\026\276\260@R\276\362\346\223=\332\030_\277\277\371`\275\225\341\300=Sw\370=`\013G>]\017c=\271\255\252=\376[\266\275\206\233*\275{\377\254>\261\310\242\276\352~\033\275S\364\034\272\257\203\232=N\374)>\334X\303\275\204\360\311>a\377\225\275r4\260\276\332-\010\273\314\245\022\276s\363\016\276\021\330\030?6\257\276=\214\305\322\275v:Q\276\350\370t>\005%\274=p\300;\276\266\225\207\276\260PJ=\367\336\271\276m\025*>\024\031\253>\301(\006\275\224%\331\275\345\252,?J\266\371\276<\234\237>\235\346<>*\242\334>\215#\036\277\037\021\327\276\241\203\266\276\220\363!\276\032z\327>3p\205>[!\222>\263\233\027=Q5!\275S\333\272=\266\203\022\276\251O\214>\305*\276\276d\342S\276\357\235R>d\304`\276\273%G\274w\315\214>(\307+\276\322A4>1\301\365>\340:\346\275_\212\222=I\220\020\275\320\276Z\2763\3359?Z\321\234>\2366\250=8\234\024>\375\361A\277\003\372\004\276H.\316>~P\001<,\277>?\025\311\332>\321\207\366=\356&*\277\316\306\020?\225@D>F\326\357>\352\3735\277\031\r\217>p%\265\275\350\213N\277\233(\335>J^C\276\355\004\010\277\231J\275\2779\022&?8\336\346>\225\253\013?Q \252>r\226<@\210\003^\277\031r5?\356T1?\225\222\032?\211\312\265=n\005\233=\342\354\250>p7/\276%n\375>b\226\216\277\206\307\217?\216.F?\376\313\207>J\264\374>\216}/?\002\341\300\277\307\353H?\005\317\254\275\324Vs>;\255\323>x\370\206\276\334a@?,\314\272\276\006\t\263?\2644\033\276w{\366?\343\004\356;J!~\276\217\3300?\265Op\276vZ\375\276\016(\331\276\334\213\365\276\274\034&>\022\2533?S\3534?\203\306N\276\013v\344?(\341\200\277\361\257\245>C|2\276\311\311\231\276\332\244\"?\256\255\303>8t\331\276\333\3205\277:Ul\276/;b\277\344\310I?+\273_>\333fu\2767b\212\276[\265\213\277N\2653=#\231\253\277M\233\236\277\211~\334=\244\340\177>\336\277\201\275X}\'\277\220\334\241\276\212\215\323>\034{\340\277\242\273\252\275B\005U>\343Q\214?\rF\304\277\350\027\361\274g\234R\277)\177T\276\221\017\023\277[\210\026\277\214\366K\27708R?^\261a>\024\004\354\276\\Y\007>\345\005\013\276\017\035\n\277\271\352`\277L\242,?!f3?\336sQ?\263\356\013\2777\036\367>\322\267>?\225\330\261\277\000\032(?\260\371}\277^cd\276%D\316>\273\002k?\234\371\303\274\250\230\033@\2653\331\276\027\234i>a\327U?\234sE\277\204\000\323\276\304\001k\277w\'\024?y\377\237\277][\215>\205\354#?\247\270\227\2763x\201\276\034\377)?1\201\005?FP\232>\272{\351>>\322\017<\354\320e<\302\376B=cCM\277\354\214\366=\207\352\336>\037\355}\276`Z\303;S\203u>\266$\212\276\036\005\023?\367~\035\274\013\362\262>\007\'\234>\327\363e\276\0208\216>=\2352\276+5%\275^V\237\276\325\272i\276\233\010\245>\246\033\235\276\225N\245\275\334.\025>\025bp\276N\373V>@\376k=\377\222b>\360\2064?Q\024U\276p\035\203>\2755\234\276l\215\361\275\226\021-\276\217\212\202\276\336es\276f\306\001?vN\001>y\2057>\022p\207=\340\306\017>\334\0221>\317\\\357>k\271M=BO ?\020\350\203?O\277M\276B\305\021>\337\014T\275\256\274\027>\211\2653\276PC@?\204\326\227\276_\253\321\276?\n\233=p~\332\276\206l\272>\260\265\243>\225yZ\2755 \304;\r\232\236\274\2748}=q\277*\275\261\262\025\276\223\364T>\260\257\022=8u\t?\332\375.>\274\237\345=IB?>\r[\210\275\312Y\227\276%\262\326=0\346\340=\323\265\302\276\240\340\267>/\264s;\021T\242<s\240\360>{\223\227=,\235?\276\017\360\252\274\357\270\264>\213p\242>\254<\230\276\225\250\300>\006(\332\276a_F>pJ\024\276\242^+\275\357\271\351=\216\373j=\035\021\036\275\021&1\277\352\235\312\276\0057}\276\303\003\225=Q<K=\237WZ>7\277><\274\332b>\375T\017\276\264\2538\276\343r\336<\203&\351>y\327\245\275\367\334\"=\3062N\275\361t >\243\203\032>Z\264\221\274\321XK?\007\035\220>d\014:>\215\030\006>\201\006$>\303L`=\212\200\337\275b\331M\276\321eq>\253\233\300<\230/\341\275\013\365/\277\224\242\003\277\310\337\253=/k\220<9\271\371\275z\217^>\202\270\204\276\376^\251\275\346\367\366=-u\330;aa\233\276O\247D\276S5\224>\312A\n>\006\242\312=\254\375\302\276\021\305\000?E\301\\>\254\252\031>m,\347>w\246\251\276%$\034\276\024\314\306=\240g\321<D\252\000\276b=\004\275\037K\021>t\350\030\277jI\250=\317\351\244\276\224\321\007\276.\307\275>\224!\365\275R\211o<\314\325\201;-\222k\275\331\336\225>\307\005\263>\234!\231\276\332\033 \277\255\236\317=\027\217h\276\251\200N?o\010J\276\204\2072=\n]0<\335\367\344>xS\267>\267;4>\353\n\020?\016\212!>\230\351z?u4\240\276\305\255\324>\235\004K\276\325\370&?\020,\013>`\300\250=\364\270\232\275\253\213\210\274\2551\231>\245;\002>\247S\366=;|.\276\250C\217\276\216>\247=\376\377k=\000\346\010\277\325\214\224=&\347\'\273\002h\234=\025\271\027\277r\216\261>\244\021\010\2761\332F\274\n\3737\275GQ\271=\253\t\255\276\346\027\237=\276MI\276\365\364\231<\232\035\211<\224\367\367>>8\200\276\267\312I>\033\200\233\276\312\342\234=\260\274r\273\261\005\323\274\035\254n\276\234z\340\2753MH\276+=}>\334\252\211>\366\260j\276j\314\226>\342Fz\273\242y\334=(\235K>\243\0228>\205\224\346\276o\2062\275\366\226\005\276\266\025N\276\352&\000=\244\210\320\276\266\236\242\275Y\361\326\2754\257\030?\007]\335=:\014\273>\361g\325<\224:O<9\344\352\2759\215\311\276\204\203C>\225\322\t\275\312&\026?X\237\223=\307\233\250\276\304=\233>\000\257\315=%\277p>\002\234\202\275\271\202c\276\270Mn=M>c\274-\303\237=&\336\307\276\317\312 \277cXg\275\274\030\267=\243\035\203\276y\304\254\276\244\222\352\275\230\344\362<\337\340g>\300Q\221\275]\244\375>\262\013r=\331\327s>?Z\331=\363yT?P\353\227\276\212^\210\276\274x\247\275*\213\316\276\200\r\307=\034\366\366=K\345!<\333l\205=\360\250[>?4\220\276\017\236\237>\2117\014\277\221\335\273;B\244\313>\021\333\206\276\033T\245>\333\363\277\276\222\200\375\2753\361\336=\222\307\345>\234t\327>\356ZD\277\304M\256>\2170;\276V\230\300>@\356z>\251\226\306\276.\250\375=\314\351\247\276\343\032o\276\314\317|\276\r\3379\276\225\370\243\274SX]\276\211\'W\276_S\277>\323\241\273=>\001L>\036z\204=\3026\002?\205=\014\276\332\355\261=\237Xg\277\315j\355=\313\227\367>Y\360\000>\000\024\024?\356D\002\276y6K\276\225\341\300\274o&B>!+\366=\037\366\034\276\002\241\232=*\2505>\016\024-> \304\224\276M\324\002\276`\222\n<\20443\276\274R#\276c\001\013?\274\314\000\277X\tB\2769\3509\273i[\236\276C\367\201\2761\006\014>\t\247T>\265T\215\276M\273v\276Bh\r\276H\215\332=+\275\021\276\262L\212=\306\242\302\276\354\267\221\277\n\013K\275\240\246+\277\317%\261\276\340\307,?\317\231\321\276&\017y\276%t\365\275\335o<?}\024\200>\231\336\356\274\2108)\275\365\376~\276\345\\\376\273\023\202\212=-~\227=$B\n?4\357\277\276\230^\020\277\235\310\252\276e\031q\277R\020q\276\331C\224>4JC>s\201\243\276or\302\276\315\236\016>\252a\t>\n\256\245=\"\300\337>J80>\247\\7>U\215\001\276+\373=>\306\000\277\275!\026\230\273>\325L\276\314\370g?\220H\327>G/\033\277\030\253\256=\035M/\277/\315\345\277\252\203\261\275\256\346\013>\355y >\250\332\235>\347\272\005\276)\002\013?\242!\310\277`T\272>\336\375\226\277o\217\023\277\227\246\251>h\323y\274\2014\236>\210\324\002\276x\312\363\277~\023R\277\022\374\002\276\204;\243?@\027G\277-\341\025\276\005=O\277\227bh\277\323\213\312\277\205\002\334\277j\353e\277\322c\344>\214\372/\277\363,e?\305\330\324\276s\317]?\223\336o\277S%\331?\324\351$\277U\332\275>\351\231\001\277\273L\316<q\006\232?\210\303\375\276\251\375\306\274\243OJ?p\242\030=\346\377\377?kD\221=\270\360\177?\263\326)?I\220S\277\372\224\377\277\203z\000?\351\374\006\277\341F\212>\251\253k?2\337)\276\200\243M\277\234.\004\275#U\204>\036L\255?\313<`?F\335\355\275j\341\354>\226\261\024>\366\225\027\277\204\2513?)<\242\277\334\301\202>\027\311\264\275\344\250;?\357\362P?(\203\201>\013\030\307>\006%L>[{\224?\3018\326\276\203\217\251?U8\235=\241\377\202>\226\361\031?/\251\365\277|\343\'?\326\030\t?\000\201\257\277\314\310\274>\024z\345>\202x\271\277\230\230S?\323\017\201>\314l\233\277\237P\351\277?]}\276\361hF?\213HX=\266\330\251=e\022<\277\'\323\276\277N\266\305\275\215\220e\276\231t\315\276O\366-?\203\237\023?E\231\305\276[\302\037\277\254B\035\276(0\005?\366\253/\277\346\235F\277\260t\210?/.J\276AL&?\240\224R\276\275m@\277}\241\317>\321\221!?\035\275\246?2\236\\?Q\215\003\277U\204\207>\230:\'\2761%D\277\3331o>\021\177-\277S\nZ?c1\001\277\016>X\277#\003Y?\212\326l\277\346\345\272\276a\210\">hZ\221\276&\0245\276\241ER\276\236Yw=\306ZC>\342\305\217=\364\340\221\275\232\352\346>\030\020J>\020\316\271\275\250\340\341:^\033-\277\023\376\004?#\t\355\276\354\366x\276\005\331\202=?\245-\276\253+\264\276\333u\214\276\245\277\336\275\305\006~>L\314\264>\351*p\277\\\025\371=\325q\224>\224\310\030\277\316\205\255>\\%E\276\2247\300\275\307\361\032\276\177\376\221=\"\204\023?$\241G=\347\303\014>\321m\316==G\261\276\017\010->\022U\341\276\310lQ=\307\347\230\273B\3449\276X\220a\276\311x\t\275\257\360(?Jl\212\276uE\224>\321kN<\352\366\201>\341\341\367\276\332\\\371>\356\356\010>\2018p>\347}S\274;\343%?\324\2760\276=\251\366>\3479|=o?\235>Os1\276~\255\202\2761)b\276\234\343.\276a\354\250<\346\327\323\276\331z\357\275\365\033\332<\366\344\363=\261\002U\276!\376\277>f\262\036\276b\005\204\276\353p?>\364\307\235>\324\237\333\275\362D%;:\nj>\343A\357\275:\2625>:\263\334=\306\004==\230U0>\225\307\034>\304!\000\275\0306\025\276\0000\275=\357;+>\325\272\014\277H?\360\275\236\330\212\275\222g\216\275\354\204\272\276\034\272\324>\315\264\313<\277\357)?\373\345\036>d/\025?\036\361\236\276\014C7>.h>\276p\357.\277\006\342\316;\027\204\221\276\000\210\202\275=Mt>\266\212\340\276\364D\244<\217\034j=&\006\305=\344\317[>\231\364\200>.\002\033\274\302\223\037>\240J\326\2751\025\261=B\020D>\376\275s\276\342ZK>O~\301<\026j\304>\312\350v\274\360\003O\276\353\314M\275 \335\245\275J\313\333\275j\206\335>[\323d>\220\316\247>Y\334\236<\033\313\252\276s\026\247\275\362\036\242\276w\205\010\275\021\272\342?\305^\255\276X,x\277h2\335\276\367\227\357\276\211\355\276>\317.\010\277/\235\363\274\204\324S\277\274\277\341\275\016=c><\3106\277U\263]\277\377\256\210\277\272c\347==\234[\277\342\321h\277\250!,\277\366\273\364\275\016\222\t\277\321Y\317\276,\246\372;\377\332b<c\245\250\276|$\235\276l\266\265\277\353\351\026\277\024f\201\276\246<\364=<3\273\277\037\246\203\277\260\367[>8~]\276|\305\223\277\217\364\274\277Ro\257\276\204\031\340\276\2753\037>\034\265\033:\356\377;\277(\233\325\276K^\013\300\232.}\277\031y\037\276\343L\316\275-L\177\277\357\220\\\277\371\236\233\276\201\301+\277\327rP\277\376\205\222\276\2617l>\243L\364>l\026\223\277\303F@?\315@1\276\260\333\026\275\201\200=\277\0042\234\277\310\336T\277\372V\236\276\236\316\r\277r\321\016?\266%\333=_\031\325\274H\340\200?\336\373\346\277\345\232M\277*%\255>\343\231\251\276\203\235=\277\270\376\010\277\030W\335>b\374\331>\260\324e\277Ua\212\276>\325\355>\007\0008\277.\220;\277LMV\277\374\312\305\276\266V\245>\r\372\247\277\036\024J>\251\350\253\277/9\272\2769a\030\277\347i\234\277\213\374h\277s\001p=\364\026\244=C\033\231\276\232\246\300\276Ge9\277\347\351c>\367`\204\277\256z\272\2769\357\203\275b\3401\277[N<\276i\301\210\276\237\010\240\276M8\005\277\014\245o\277\223\307=?\363\000\241=\350\220\343=W\240\r>\335\360+=i\263\325\2766\2651?t\036c\277\370\024\264\276bP\356\276\006\320\207>\224c\272\277\006\253\325\276\362\371\037?\275\n\022>6/6\274+\234a\277\334\255\357\276\257\005o\276\324\254X\277x \213\277\376\264\213\276+\340\013?\337\336\215?\257S\301\277\327l6?\261\332\343>\307]\277?\312R\007\2760G\216\275\004S\300<|cu\276|\225\313<\236+\021>\370w\233>\240!\331\276a\375\332>\227\252\350=k\n\274\276\361\3446\277\177{\023\277\211e\350\276\203\224\360\276ZS\277\275\032\204\272\275\2775\330<\2078\022\277\312\202\024\277\265\263\334=\rF\260>E\222*?\372\376B?\351\355\230>\246Y\001>\202\266\264\276\242\026\243\2766\223P\277`#:\276g\213\326\277\307\207U\276\300\216\'@\252\002\003\300\267\022\035?hDN\2775\206O\277:l\023\273\352:\227\2774\034\255>\304\221->hG\254>\220\007\n?<\340\036\276>\370\375=\363\305\033?\202\017\007\277\244\375]=;\243W\277\335\221~\276\357ET<\245\357`\276\205\200\300\275\374\332Z?\213\322F>\263\276\312=}\010^?{\024\354\276\\\225\213\277\001R\254?\344\001\007\276\267p\337\276#\375\321\277\227p@@\'S\314>\2412l>\365!h\276\334\203\245\276\377\032H?\001\177\346=\317\264\251=\230-\234<\220\250d\276\300\375\373>-\013\034\277\200\303\033?\346\250\033\276`\313\361>\377\217\246\275\220`&>\372\332\372=\000\373\223?S\001\t?\355\263\327\276\354\332G\276;\371\270\276f\212$\276\335e\262\277\232 \035?\230p(>W\227\341>\235\2777><!\251\276\223\356\255\275\\\241z\276\357Z\317?\331\227\276\276\263\254\347\273;mC\276\237\270I?\244\001\346\275\346%\355=\225\255\014=2S[\277g\222\207?\305\266U\276^-\325=\273e%\276H\357\375>\375\337J\277\206\233J\277\262$\353\276z\223\236\277\324F\324>\224\256\337=\324WY?\3427\223=u\237Q\276H~\037\277\2469V\276\001\004\224\277Z.\201\277\260\267\233=\"\343\316=\222H)?V\350\360?\224\3047>\006}D\276\362[\013\277\371-\307=D\343l\276\030\311\213\277p\357\267=\363sV\277w\375\245>A=\251?`\264\364>\323\304\017?\320\033\036>\260\177>=(\367\035\277-v\204\276\316\312\201\277(}4=\372\351\023\300\357\354\177\277\242\371\275\277s\021\213=\225\212\022\300\377\247\023\276;\230\257?\230\277\263\277x\225M?\261!\211\277H\315C\277\376\336\312=\036\214+\277P\322N?\327)\r\277\215\375\035\277\234\331\236\2767\317\007?F\306z?f\017\346\276c\247\366\276|\026v?\232\210\001?\336\306\313?\301)E\277.$\215\275\247\335%?\345\263\232\276k\241\364\276o,\250?\264F6\277\360L\257\275wR\007\276\302\005\373\276E\036\300>\030\322\233\275v\227\020?\243|r\276\316\256A>\022\302,\276k\211v\275\351\t\020\275>\226\245=\006\317\376>\204\010\007?\032\2536=)[/;\346$\340>\2722\236=\372\357}?\317\327[?\371\360w\275\352\370\231\276\032\341\204\277\004\227\220\276\356\270\321=\036{\">\356:\266=,\345@\275\312x\245\276@\342\326\277Nu\300>e\"\373\276\352Q\226>WY\340<\363\351\351>\341m\250\276b\252\217>\234?\202=\313\004\215\277?)\271\276z\010\271\276\030\211P?\245\324\n?\316\317\245?f\013L\274\227\232\257\276\326B\263\277\310\206\315<\251\303\236>y\034\273\277\223{\350\277\206\242\352>\347\301 ?\303Q\317=\322V\007\2762y\033\300s\023\006?\320\262c?\001\310M\277\275\256\215?G\367W\277<\326\276?\372K\253\276\252=\261\276\334U\232=\010\310i\277\203\215\032?\004#\347\276K\335\257?\214\203\014\277\313\363\351?\224\377\305\277\0139\206\277\003Hb>n\032)\276=,\217\277zV$>\037h\002\277\227\351f>\351\222\330>~\366\213\276\325\233\020\277\006*c?\274h\372\276 `\252\276\003\312F\2772=\210>\316\3153\277\264\027\000\2774\363\217\277\202\247\352\276+\323\030?\372C\232=\3311\305<3\025\251\277\214~>\276=\365>\277\265}w\276\247\340s=\016\267\357;\250\2313\276\274\371\212\276\324_j>H[\t=\351\256\324=\024\341\245\276\240\364g\276\264~\237=\377\276_>\230 \027\276\n\310\002>\203\'\223>\212\230\336\276\021l\205\277\246\343\334\276\352\r\356>\345\364\002>\320sh\276\244\306\017\2779>\203\276\351`H\275\330_+\276\'\255\017?\207?\206>v\244\201>\311v1\277\212\224\"\276/\236S\277\301\277X\276\317\212\326\276\257\000\254>>\t\004>U\272f\277b\001\017\277\324d\256\276a\266\342\277G\236l>\177\003\033\277D\367\262<\366\224(\277\004fd?g\336\272\276\367\241\006?|\216\304>\221\021\305\276\360\205\332>~\362G\276kEF?\275\017\267\276\266\300\274\276:R\243\274\032bR\277\202\027F?\362\215\017\3001\2725\276$dU>\274!\034>\232\177\225\274\316\352v\277\275\220?>2H\033\276\027\374\026\277\356\2623\277)\301\'?\275\005a>\325a\220\275{\322\204\276Q\300\n\2779c\016\277\2213d\274\306{\306>x\230l\276\324\027\006\2772\347A\276\026|\344\274\032\302\336\277\240\036S>\330\243\014\276\233T\321\276\326d\364>.\353\000\277i\246g?\325\262\350\275\"\322\320\275\354\3634\277\221\375\225>\2040\320\275N@\r>*\3466>n\247\262\276\313\364a\276\37135\277O^o<\004\312l>\273\331K?Gv\030\276\240m1\277\354\242\003\276\310t\322\275ZR\241\276v\332\256=BV\232\276\3665\366\276\226+F?\014\343%>\223<\377>x\024\222>]g*>R\200J?o<\316\276$a\233\276\207\234\340>\211\305\362\276\201\2370>p\221/\277*\273\000?*\037u>k\265\315\2770G\216>\017\250\002\276\005Z\264<\344\372\320\276\026|\002\300\036[\200\275g\377\246\276\037\220R\276$K\244\276\347\016\373>\334\310\342>\227#3\277\316h\207\275qxo>\215i\232\276m?\363>r\263\016?\342H\315\277\277\224\003\277\375\034\351\277\177\201\257\276\220\"g>1\3305\277+\255\267\277\036i\210\276\344#\265>\024\245\027>F\240\221\277\\\363\236?\2724A\277!\003\301\275,\372\000\277\334,\247\276\352\206\254\275\003xa\277=8u\274\356\352\315>[B\355>\254\027%>\335.\n\274e\377o>\351\225Y?YP\246\277(\205D?e\000z?[\220\036\277+\375\000\276\"\367\220?\023q\032\277\207[7\275\031\356\253?\035\350\373\275\265\274\363\275\322P{?}\265\201\2778\017K?\201\306\r?\030\274\265\276\201\303K\276\320\337\361?\302D\036\2777^\211\277\317\365\300\275\347\032\r>\324\351_\277\330\225\016>Z\243\323=\336\013B\276/\266\300\276\317\'\302\276W\237\232\275\265\206\036\277\257\000\261\275%P\000>\270\310\026\276c\302m\276d1\240=\250V\205\277Ht!\277Fo\230>P&\273\276\327{\356?BH\227\276\375\301\333\276\213W\334\277\302\207\027\277\356\377?\275r\343\262\277\342c\350\276\376w\257\276\030p\t?\254\371\247>\231\206\245>V\303\202\276\342\331b\277z\323\350?\226\323\275>\177\335[?\373\024->\325\237z>\264\321\241\276\355\262\204\277\356\036M\277o\340\251\276w\326\001?\007\214\031\275g\360\235?\016\314\177\276p\256\300>B\340\337\276G\273\000\277\246\236\202\276\003\267\215\276\314O?\275Wq\010\277\013[\024\277Z.\263\276G\177I\277{\353A?\"?\243\276\365Q^\277\036\304\201\275\373\242w\276\273\260\247\277\222\244c>\264|\264?\004D\254\277\202o\007\276\351\370\n\300\275\225b\277\227\277\323\276g\006\206?^\n\225\276\017\225\t\277\342\264 \277L\'\177\276y\330\336\276\312!S\2762 \242?\246%\263\276\313\253\250\2774\240\036\277\337\376\016?\2428\216>k\256\257?\231\020\227\276\000\024O@\312\245G\277\242\200\335\276\273s\000?\374\224\203\276\223d\255\276\202t\006\277\315\264\211>!ro\277\204y\311>\324R\013?\236\241\272\276\225\232\357\275\342\256\266=\271M\307\277\232\361\313\276\014\217\210?\353*\362=\002\002\250\276k\226\230\275J\246\030\277\017\262Q\277\325\216V>\027\267\313>\345z\210\277\373#\343>Q\004\226?\311\216p\277\242E\261>\013y\007=Z\033#?`\276\017\276\353\007\214>p\214\231\2772\r\036\276!\222L\276\360\357s\276\020\310\244=\363V\274\277\025\243\232?\217[\212\277\n\304\212\276\031\306F?\326\005-\277u\311\371>\276\255\021?p\243)\277\277\343\n\277c\235O\277\226c\006<d\221\016?\253\272\331>\236\220,\277\206\240|\276\251kX?\230\004\205>*F\340?\240\247v?l\271<\276\350\215\303\273\375\203N?\245\300X?]\324\332\277\265\232\343>Uh\346=\004x\264\277}\305\370>)\315\367\276\035\327\022@_\317\240\276y\017\324\276\017w\001@\336\010\226\277\226\325>?-i\273>\334\252\025\276C\263j\276\334ga\277?\n\244=\322>b\277vBY\277E1n\275\235\235\034?d\317\205\276\367\237\247>n\272\333\276\352^,\277h\363*?\332R\014>\247Nf\276ej;\277\026\327\022\277\361\027X\275\273\221~>6\301\253>\215\332\347\276\320\363,\276i\251\224?\354\t\266\276\232\347\226\277\3540+??\262+=\377F)\277$N.=4\001\016?\002\017\033?Ut\"?\335\370R\277(\274%?\\:Q?b\374\376<*&\025\277\224I\013?\202!\003?m\224\271\276\037\3174?oM\263\276\035\241\244?L\252\372>\305\022r?\322\357\335\276\203S\212?\223\177\253>\027\251\311\276\'\027\227\276\255\357\037=\311L\253?:r,?\371\207\340=\234\301\314=\203N~>\036\035\020<xy\002?\023yI?\222J$>\362z\312\276\360\344Y?\010h\216\276?\205\333?\216\231v?\354\032$\277\016\027Q?3\017\223?\207(y=\217\003\'?\275\303\t\276\006\316\212\277\303:\n?*=\364\276\3038\205>\213,7\276\'p\013>\334\336\222>\271\364\233\275\2535\230>d\006\226\276\242Y\'?]\315\203\276n\331\251>\250\224\213\2769\t\035\277P\266@?\252A\307\276\207M\002\2776j\274=\233\275\335=4\007{\277\315S\014\277\372\3555?\n\253\t\276s\032\343?\247\355\230?Pq\262<\316\3350@\3405s>\337\212\372<\356m\356\274\321\376\210?j=\271>\366\306\266>H\311\261\276\261u\376>\031A\256\277\236\006\016\277\211\202A>\271M#=w\"\323>\361\361X=}\034\227=\251\n\207\276\253Q.?\3220\377\276\224\246_\277\267\330\013>/`\r?`a\220\276p\036\221>B\215\216?\274PG?\276\021>>\374\214r\276\374\3312\277\3634\241>\200D\251?\314\241\377;\366q^\277*\002\277\275\223o\244\277\350\204!?\232\357<\276\246H\034?\225\350\215\276\274x\364>\315\203m>+\014E\2773\275\300>S\311\207?\305X\251>,\020\217\277\236\213O=\327&\355>\230\304\304=\023\264\332;+n\237\277\346&\307>3D6>#\223\261\277S\t\246?\004%\322>\2324\215\276M,\030\277t\212N=\216\335\252\275\031l\275\277g\032\014\277H\316X?\250f\344\2767\341\031?\266\222\353=l\200c\277\010#\010?\202\237<?\010`v\276\250O\332\276\231\001+\277\317\0341\276\222J\377<\327\377\007\277\267\260\n@\270hX\277\325\303\231\276\361m5?_c\251\277\377W\n\276\205\202\350\273\2555\300\277\036\372\334\275\257[\235\277J\353\221=\177\025\251\277\261\226:=\314\217\001\277\250\372 ??E\254>v\373\271>\\\246\230?\231\300\037?\370\275\214:\006\213\356>\267\251\324\275N\214@?z\016a\276\024\332\250\2762\035Y>\362\251\225>\302\325&\300\320\302\321\276\246+Z\277\027z\260><\300\346\276\362f\202>\210\003\222>\346\340\022\277\021\334\204\277\234<\t\276\350\333O\276\261$[\276I\342\277\276\231\327$?|z\010\276qj\256\276\302\334\215?\003\333\323>\233\370d\277X\375_>\033\270\315\276\037U->v7\274\276\344\207\355\277\354\036\306<\337|^\274D)\213>\333\025\003\275)\005\350>\203\251\220<\\t4\275qO\374>\2333D=<\003\363\274\206aN?\336\367\006?\021\333\000\277\020\207\021\277\271-H\277\224\335]\276\252DE\274B\261]\276\335\3569\277~.\340\2766;\303>\020z~\276\225\227\277\277?$$?p^7?Im\303>\220\243,>U\251\224\275\332\305N\275\210\364]\277Y\245\270\274\340\307\027?LGS\277\t\376\324\276C\005\351=\372\264\202\2768\002k\276\304\342S\277\263\334\030\300\365\265\007>\244\251\316>\306-z\277\252\206 \276\267\273\020\276?\202f\277@\232\230>\036IF?x\2456\276\240f\222\277\216\034f\277w\304G?\274\353\321>-\307\265\276L\3062\277\016\306\271\277\030-\231\276\222\335\001\277\355\325\314\277\005\331s?\323\247\014\300\341\313\216\275\355\371\013?\224 \032\277\256\354\320>\322\n\346\277\013\344\023?\362\235\203?jc\312>\"u\370\277\231N\367>\254\276\230>\024!\261?`\344\026?R\263(?\212y\377>\216\234\267>\265&\201=g\216\327>\003\023\301>\320((>\"\"_>u\337\027>\336\200\332=\031M\332>w\003z?\343\317\220\276)\277\220?\020\321\226>*v\345>\363\177c?yZ\224\277\001g\357\277\347\r\034\2771f=?\350K\350\277\3033.\276\363\302\261>\212\001\200=\266\215w>\017\255l>8\200\211=\020\'\325=\230\322\016\300\305\246\037>\224\352\214>\367\325\n>[\021\023>\255Z\321\2752F\021\277\010d\217?\227\2771\276\030Y\336\276\247\006\257?n\313\r>\264o\036\276%\345+>q\232\362>\237r\355\277\365\301C>G\346\370\277\312\266\203?\0213d\277\023\032X\277\203\242\255>\341\264\345\276f<\252>\212\034\'\277\204\262\357\276,0l?\023\272\344\276\326\246\347\277T\tV>\036w\251>v\256e\275\2443\333>X9\'\300\030kj>\336SD>\216\220J?\273\030,>\206\220\223\277(\2336>\301\307\322>\321P\376>^\247\273>\342\324\276\277\200,\311\275\366$\021>\354W?\277\017@\016\300\266\235\217?@JP?\210j\266?\351 \225\277c?1?\264H\242>6\033\261\276\252\365\013?D\315E\277t\322\226\276\244K\n>7\260\311\2775\t2\277\303\2420>\275\2008\277\020k;?\253\000\247>\331\004\354>n\025\257\277\030k\220\276\241\323=?\354\304L\277H\030\241>\232\235\337=\365\364\251=\367K\342>W\337\266>>\323\363\275\026\236,?R\016\032?]3q>RY\026\277\200\030\341>-\315\n\276X\252\343>]\242+\277;\270\344=\366\014\335\275\224\207e\2770\207y?p\354\236>\007\373#>\257I\022\277\235Ri?(\241\004>d\202\321\276S\376\'>U(\205?T\201\301\276E\276O?\274\\(>;\271\214>\017/s?\017\035;?\210\222\000?B\303\005?\236\026\253>\200\256\021\300\205\352\017?\034q\203?l\274\032?|o\035?<]\032?\037\270\322\277\013!=?\001r\232>\226\316\006?\250\336\000?\03555\277*\036\024?\332\225\303\275\312\340\211?\307c\205\276Q\347\222\276\\H\361>\277{O?<\214\254>B\320b\275\216m\341\276\274X?\276\225\222n\277$\233\307>BZ\332>\234m\262?w\265\004>\375A\033?\0247\214\277\005p\253>1Q\207?\362x\326\276f\233#?\371 \200\277\222\001\242\2751\272a\2775\303\300>u\366B=cD.?,n\205>-2\247\275\2656\306\276\305\233\221\277\302G7?\376\001\215\277s*\267\277\263\243\314\275:\2415?5\025\241>\367L\232\277`\356\347\275J{\003?f\334\t\300_^\026>\000\326\202?\246\241`?\273\340\037\3004f)\276\345\363\267\276\335\350\220?g\013<\277$!-\277-\263\014\276\304\245@?\341\305o\276D\246\030\277\346\236z>p\332\270\276\201\320E?\356i\321\275o\376*?\257\021`?>F$?\326\026\212\277\321\315\226>Y\210\'?\212\353\201\277C\301\030?\246s\230\277\r5\340>\361\204\243>m/O?\265\2626\276\n&\217?\007e\305\275]sl\275,\370\307>A\035\033\277\335\022\204\277\365\354>\277\030^\241>\353\036\353\2760l\365>\311_~>\214\035\264=\331\362Z?\217\207\\?\310;\031>\317y\021\276\223\221\n\277\356\225U\275{=J\276\241\3709>G`\021\276\205\3561>\222\335\314<=\004H\276G\327\006>\335\301\351>\312\031\235\275\254 /\276\0033\202\275\245\357\246<f^\303\276\320{\030\276n\236\225>\026\351^>Lj\004\276f\241\323>v\215_\275\n\035v\276$\215\267>\325\215\257\276S`\377>+hR>g2\336\276\177Y\317\276\201U\004>\301\027d\276\317\201k>\201\016\240>(0\262>\016\0243\276\241\022d>\010F\300\274MT\341=PG\013\276\270\371.<\037B,>F\3074>*KR\276\314q\013\276C\336\314\276\202e#\275\035\206\365>\351k\204\275\330\345T\275\351Oo>\366\303\020\276\017\025\347\276\201 -\276B#x\276\217\275Z>\r\366\037\274\334\235T\276\236\213k>\222,]>d\354)\2762> \276\017\373\272\275\211\003>\276\025U\337\275\"\001g\276\247\305\"\276\374w\216>\'\372\302\276\231-\221>9J?\275\267\231\232=\277\t*\276\3652S>\021<U\277\006\312:=\271\023\n\274x\247\000?\026\262\t>\032}\010\277\306\273\201>\360\255\226\276\220y%>d\0227\277\223U3=\366p\007>\020\260w\276\207p\211\276\311\035@\276\322\027j>\022\316Q\277\313=\277>)\352\342>QP\230>\200\262\246>\365\312\224>\214\325\212\276,\027\005\277\2467\010>\237R\027=\262\340w\276\r\330\315\275\355\032\005\277\307K%>\321&e\276\345\327\267=>8^\275\243\241S\275zD\312\276\241jE\276\036\367Y>\274\303\273<\210u5>\0041\331\276\017\267\253\275\361\242\036>\3006,\277`E\340=\370r.\275\371\365V>p\025\307\275)\326\347>\253\3765\274`\242\241>\256\234\245\276M\246\332>\323X\217>ViX=,^E>\367\240\273\276c\207\021\275\223\032=\276\352\3361>\352\256%\276\270#\225>\251\\\211\276\363\314\016??\300\325\276b\372\311\275Q\354b>\317\267\263\275\256\177\351=K\322\210\276\360jR\275\363\247\324\276B\203\314>\004S\324\276\256iQ\276\314n,>\224M\376>X\023d=\323\227\270\276\375\370\274\276\345\016<\275[\224P\276\361%\372>\034\020\201\276PV\240=\3227\004\2775\235\010\277\275\255\355>\333\215W?D\305;\2762\351\312\276\3608\241\273\346\265\202>\020\241\334\276\362\033{\276zW\n>v\334}\276\242\252\274=u\232\031\274~\321\327=\206\n\222<|y\267=\250\202\322>\244\327\263\276\274\347-\277\315\2644>\314\317\345>\325\235\256>9(\321\275\311\n\305>\270\3422=\026F\'>\\e\375\275\001i3<\230\321\316<\263\242^<\002~`>\2379f\276\221\341\314\274\244\205\301=o=?>\332\025->\001T\343=\352p\026?\203x\205>\364#/>t2\337\276\210\377_>\034\267u>I\037\254\276\223\003n\275\0349\236>\3227\316\276\201\002\232>M$O\276K|E\275\212\255l>\345\024\275\275\036m2\276\364\030\205>\325_ >\334\371J>\206\215\t?\215\337|\275\001\317\237\275`\325Z>\213C\245\273\nU;>\004\\ =\255\312&>\233R.>\331\340\251>\000\216\t\277\326\357\246=\037Xn\276U\273)\276^\003\334\275\205\320v\276\232|\362\274\037\352*\275\262\002\030>[\360\323>\032\355\006>\352\353\276>+L\202\274&z\006>\360u\016>J\n\247\275\206\373\025\277~r\n\277\215M8=\216\200\300\276\036\002\212\276\270s\204\276\254\354\266>u\272\256=\311Q\337<\345\340\215>\354\010\221\276\254&\334>{/\344=\341\354\227\276\0211\275=Od\330\274D\211\322\276P\276\213\274\354\316\250>\304\327\272\275\001z*>\3618\207\276a\232\260>]e\037=\234r\244=\221\237\241>\332\365J\275\347\230\'=\256[\260\276{\224\027=\350\303\254\276\3043\263>;!+>\006\252\353=G\313!>\316\311\005?\266r8\276\356\\>>\013S*=6\375E\276\301mP\276\255C/>&&\244\276F\343\262=~[\250\276\244\336\200>\367%\257\276T\301\205\276\261\336\226\273\022>9\275\244I\363\276\360\014\236=y\376\235\274O\357I\276t\263\223>\241jl\276t\361\241\275\213\334S>\302\226k\276H-\231\276\277Wk<O\367\t>\346.\215\276i8O?@f\370\276=\001\206\275\357\237\310\276\316u\025\276;\003\214>FC\272\276]\250\303>\244\t\333\275;\302\247=|\374\227\276\023o\273\276\200\325\336\274LAk\276D\336\337=\210\032\304<B %\276)L\335\276\"\300f\275}&\316\275\221d\227=0$\240>\023\036\r=\267\214a\276+4\232\276\332E6=\2559\031>b\345\331=*#\035>z\331\310<\267]\270\275\267\304\261>\241>,\274\303Z!\276\222\323\225\276\030\301\000\277\000\353\321\274f\347\201\272\216\352\025?c\303\275\276@\2659\277_m\334\276q\201G>\rk\232>b\347l>5H)\276\020\374\207>3\276\034>7F\264\276?\002;?rZ)=\361,N\273|#\212\276\006O\321\276ZF\210>6\031a\276f\207\202<b+\311>-0\007\277\367\277\262\274\004\021C\277\341\340\203\276d\235\026?G]n\276\te\310=\304\037\253\276\025\250c;\331\205\205>\256\376\370\275~\216\244=\344!\227>Z\341\t\277\003i\026\275\221G\005?E\230\365\274\273\330\270\2734dp>T\375b\276\036\200\210\274\276\271\014\277\333\3677>hF\250\276r\342\345\276\036\032\276>\353\026%\275~W2\276Q\276\233\276\"\017a\276\315\322?\275\252\3220>\235\'\341\273rY!\276\371*f>J\001\327\276{UM>EM\300\276\035y\321=\276\255\005\277\005\n!>\363<\243>\267c!\276\250\027\301\275\240lR=\036\211\202>X\2523\277)\214\201>\3272\221=\341\373R>d\253\r\277l\327}=\253\364\262\276ld\235=?\333\216>\267\215\301=b\331.=\034\245\210>]\2124\274w\262\023>3t\373\275_\222}\276\010\271%\276S&\205\276\244\305\335\276\375t\302\276\024\277\004\274\326-\n>p\277|\276\351_\020\277\302^,\277\341\252.?\n\007\034>\342k\264>\002\330E>\205\236\223>\356\344\336\275\233\260\274>\266\236\226\276\252\2470=\013\224\221\275\244R\005?l+t\276\327\302\224\276\001m\247\275\301\235e\275\365\231\224>}\345\253>\307/\004>\363\034p\275\250N\n\273\363\200t\276wo\'\275P\"z\276\245\233\343\275EE\226>\241\221\371=P\377\251>#\235.\276\2173\014>\n\367\325\276;\250^>u\340\024=\337\223\377\275\223\377\220\274\322\025\225>\270i7=F\277\007\276\n\321V\276\257\005\257>\210\303\244\276\214x\035>zAy=l$(\277\305\347V\276Ks\327>Yi\004?\003\245\247>\344\263T=\027\220\'?\274=\020?c\343\305\275\034%u>\013\332\362\275\343\275\314>\312\260\217\276\317\3004\277\254 \240>7r\322\276B\001\215\276.<j>c/\346\275\306\034\262<h\203|\2760\373\000\277K\tz>\351\250d\276\t\024\221=\254~\261>S\323\350\276X\256\354\275\372f\206=\2739\222>N\377\241\276\222\305\005>d\024/\277\033\037\031?\371\263y>\007\247\220\274P\030\214\276|\334)\276m\373Y=\3105o>=\022\266>\241\247\303\275\232Zc:\223\274\275>\242zR?\327\301\333\275\342\324c>LB\n>4TD?9\247v\276\013\313l>\323\034\206\276\001U\023>5w\242\276a\341\342>\316\n\336=G\225\363=s\236\223>+\004\212\276\235\242 >\302\311\322\276L\235\336\274\256\260??ycC\276N\320\177>\035\300\216>\356=d>~\211e\276\037m2\276~\374o;\240n\321\276\263\3330>ZZ\300\2767L\027\277\344\n@\276\346j\267\275\373.\301>\363\201\316\2766\331\001\276\361\321\226\273\266\346\330\275W\322\226\276\315\334E>n\002\335=\374\226\217\276\364\264W>M\035\334\275\204\332\361\275\371\216\020\276\255s\023\275Y\026\224\276\310p\256\276;8\221\275\212\036\005?\356\211\203>\337 \350>g.\363\275J\n\216\276\354S-\276*\3746=\357\027}>\246(\224\276\310\366\001\274F\250\021>aH\016\276\'\031\361\276\021\214\235=\265\327S;\001\331\233>N\240\322\275\023cl\276\274$\370\273~?\021\276\366\355\024> \372\315<\252\357\365\275\311V\227\276 \207\340\275\376|\307\275I\004T=x\371\233=b\r=<\267\344\373\275\255 \246\276\265gM>\021\241\\\277\177\374\304>: c>r#^>\002.>>\r\264\373\275\035%\331>r\271v\276<\357\273>\246\242\223>\364O\352\275\000\207\366\276\212\030@\276>\230t\272s\355\002>]\335=>\007\327\243>\277h\201\276\216?\213\276\274Kf>\247!\277\276\020$\313>U\334\273=v\323N\276=\246\260=#\360\326>\377U\001?-o\215\276\202\347\277=I[\331;\205\020n\275\354\256+\275\200\303b=h]I>\272q\217<\375\027\215>\323R\024\276\322%>?\2428\005?\340Y\201>g\345\001>\304\035o>AW5=\323\241\234=\016\301\206\276\n\217\207>M\331\270>\177\3706\277W\316G>5\353>\276\314\253\223=\216\225\336\276\203\301\027=\365\276X\276u\244\262\274\211\305\274\276I\355G\277\315\216?>f\266m\276\357\307l\276k\323d=\037<\276>\203t\203>^5\274\276\355\206\304>\320\032\220>\030k\016\276\214\027\313>\346\353\013>\235\257\005>|<\201\276\325D1\277\361gL>:y2\276@\307\">&\247\030>\007\t\253<N}\242>\303d,\275\220w\340\276\005\365(>\330\341\035\276D\246\r>\323n\357=\251%\364>\353\"\323\275q\177\221\275d\260\214;\201R\022\275\002\235\322\276\313\316\000?\241BD?\230-\004\276.\273\354\276\014\225\347=s5\307\2763S\002>g\326=\276\353=\233>\226\356\033>\231{0\275\374\370\220>4\352\264\275\305s/\273\177\332_>rO\305\276p\n\035>\314\032\251\274-\005\257>\210fg>\243\275\267<\2743\033>\014\2314\276\245k\254\276\360\340\022?&(\014>S\314V>\271:\230>\313\302\032\276\027\237k\276\013\017\341<O\220\346\276\267)W\2756\226`\276!\005\025>\254\310\273\2758\230\267\276T\307q\275k)w>\252c\326\276s;~>n\264\244\276\017\312\341\2762X`\276\331\"\002=8\252\340\275\030zG?\302X\337=\270\371x>\215@\301>\363I\344\275EB%\276\nX\004\276\234\304\206\276\t\237\224\276\274>\030\276A.\243=\304\266\210\275|\317\320<\364\014Z>\024\224\031?%\360+>\227\320\317>\007\335z>\252K\024\2777\311\324\276Y\013\035\277H\'\204\276\230\200\350=\272\320\265\276\353\005\n>\201\2152?B\214#\275U\030+\273\331\0309?\330\361\\>\333\216\037\276\374\226\330>\215\300\026\276\231\252M\277[}\264\275 >\020\276\307\216\221?s\265t?tg\307>\307\013\244\277\360\2054\277\205\2653\277\242\010\211?\370\362\010<7\030w\276\320\264\013\277\301L\036\277\267=M\277\265\003\206>\267\t{\277\24367\276\276\003\025?L\313L\277A\366\344\2749f\236\277~\362$\277\346\020\320\276\270|\275\276\332\333\252\276=\353\325\275%\247>\276f\323\316\275\347?\320\276D\315X\2777\233\211=\274\211Z\275\353\330<\277\003f\301\277\227d\250>\t\344\230\277@<\347>\2144\013\300\003O\364\277\202\326\343\276f\010^\277\247\004\357>\335\302\n\276I0\236\277M\204D\276\211\372\241>7\245\"\276\246\272Z=GK\326\276\361k\017\276\225\275\353;\231\255\020\300\270b\263\276\305\363\036\276I\240\203\276K\212n?\374\035\013\277\025b\031?H\276\344\277\216J\031?J\235c?q\357f\277\033\031\377\276\275\230\246>\244\230%>\237s)?\037/\340?\022\2125?\311$\263>G\253\231\2778\'\031?\2460\232?\234\212\037\276A*\340>+\003\216\273p\360\027?\305\221\013\277\2669%\277\351r\302>Hd@\277w\235\325<\365`\371\276\341\254\375<\243-\234\276\n\370\252\277\206x\017\277\337\n\030\277n\244d\277C\021\'>\354i\247?\223\3663>\236Y\035\277\000:\255\276\021\203\375=\340\263m\277QZ\334>K\3334>\"\363o?\225B\212\277@{\374\277\376\227\021\277\026\033\225\277\231*\244?\272K\232\277\031\370/\275\312\367\232>R\t\003\277\366\214i?8%\251>\221=\231=u+\023\277~\207F?\250\372k\276H1\226?L\366h\277\262^>\276\347\256\017>Hq\005\300tg\205?\271\216m\277/]\221?\216\321\331>t\243\272\276\271@\'\277\006\352\310\276\372d\224\276,\235\322\276\037\257\227\274\234\010A\276\305\022\237\277#<\235\276\356 \231\277[\372\026<R\265\013?-\226\002\277(\262\"\276\237O\013\276\221\275#?\322\377W\275\025Z\351\277\214\340]\276+\276\345\276\021\251\020\277JU\371=!\260\031>\206{\260=\230\3107?\034x]>.\326\372\277H9a=,7\322=_\341\214>W\337\t=\363\315\324>e\202,\300\201\372\262<>\314\0149\313nr>\034\005&\277\232Q\357>d\206\000\277\024:\355\276]\200:\277p\214\203\277k\250\344=\230\214\276>\353g\252\275|\374\355\275\271[\004\300\201\266f>s\363x\276`e/\276\236\335\317\277\205\202\376\275/\277Y\2755\030\322=\253IN>#\303\205>\327\341\032\276\203\004\376\276\254\205\253>\377\355>\2748d?\275\331ZW=\356s\240>\276/\346>\n\326\331\277\026\';=\260\215\214\276A0\246\276\340tu\276\203\013\213>b\031\035\276\031\235\373=\275[\331\276\317R\243\276\006\252u\273\235\206\024\277t9\022?\220\367\005>\247\277K\276\204\341l\276!\231Q\275\3156\377\275\025\342\323\276\010\211A\276\211\274O>9u\216\2777\207\020=\372\302j\275k9\004\276\314\360\024>\003L\223\277\240Y\242=N\277O>ZR5\276\260\027\264\277?\230\025\277O\350P=.sX\275\340\274\302\276D\007\202\276k\202#\276\205\341\215\276\242VJ>\216\207r=\233O\372>\303Q\232\276+\232\217\277\027\232\267\277=iW\277\206+?\277`D)\276\256\236k\276$\005\224\276\233\020\317\276*\274\232>\325\302\324<d3u\277\316\345h\275%\213U=w\373g\276f\244\204>\345\022<?\276\367F\276$s\010?/\251\317=m\217\315=6\255\312\2751\005,>;?\006>\334\305$\276\0238\317=\260@\375\276\262t\222\275\373O\347>\224\342e<jS\326\276\340\014\010>\305T\224>H\257_>\t\321\225\276\275\357\372>-\201\341\276\202\027\321\273yp{\274\026Z\221\276\364\027\304\275\010\303\236=t\340\363\276%\217|\276\020M\027?rI\263\276\360\375R=\013\240R=H\251\020\276-\277\203>\215\2117< a\233\276\264\242)>0yC>\024\334\016?Lq.>\251\003\037>\004j\030\276\2505\035\277\313G\373=\257<\257\275\354\356D>\2773\251>\306\325\212>\301M\274>\217c\303\275\000]\202>\223\371\224>\035!\324\276\333\222V\276M\360\016\276\274EX>5\275\223\276\333s\016>f\301\337=\240(F>*\260\213\276\213\341\006?V-6?\364\336\321=\215t)\277\036\000\376=\224\341\254\275\353\366\207>F\0374\276\242\251\370>\300\032\026\276Yv\341\275\014\236\230\276\271\201\'\276\302\261N\276t\220\211\275\237\245\261\276\271K<>\263\323\202=\224l\242>\377\352\273\275DS\236=s\213\351\275/!\207>\360\255\225\2752\037M\2761\004\000>\000\036\264=\277\366\204\276\215\251<>\303\303-\275\374\301\203>z\007\t\277\351\252]\276\3356Z\275\231\\\316=8\307\255\275\300\006\303\276\014+\320>\242A<>\335g\245\276\302\372\371\276\355P\251<\320\024f\275\200\244\302\276\r\354\305=\010\351\014?\362Z\013?\032\224\'\276I/\356<W\312\245\276\206\224\331\275\302I>>\023A\250=\363V\253\276\357t\270>K\347\016>\004\373\020>\3728\257\272:W\247\276`\242\314=}H\221\275\273,\367=\330hJ\275\305Zu=\324\231=\277\250\232\276\276\353\243\342\276{u\221>oD\033\276:Z\037?\375r\262<\201\265\254>P;\213>\310,\235>\326J\262>v\230>?!\240\031\275\251\004\026\277;\376\241\275|\307t\274^\313w\274r\351\367=k2\333=a\315%=<\347\027?J\014\315\276Vv\256<\330\032{<,\201\204=\027v\232=\217/9\275\004\333\033\277O\201\266>\034o6\277\207[\004>\017\252\002?\355\377\263\276(\272\341<e|\376\275\330\3072>\275`\327>\217*\022>\210w\021\277\312\035\220>\311pO\276K\365\266>.\216~\276\220\355*\277\222g.\273\244Ah\275\263p\331<,\330\033=\272\361!\276\177\036\207>\255\355\265>\226\031\376>e\371\364\276+\242\220\276\253J?\276A\350!\275u\263\375\276h\331\321\275\225\264\353\276\337U\032\276/\367\235>\314\335;>\232T\n=\031\373Q\277 \377\244>\350\000\336>\264\377\257\275\027\036\315>\335\356\220\276\n\313\'\276\037\001\257<G\215\363\275\352\330\372\276\370\227\343\276`\223r>\233\027Z\275\324Yp\276u\372\034>\260\203\347=\006~\206\276R\334\203\275f\322\020\276\004\024*?\252\373\351\274\277[\207>\224D\255\275Q;z\276\257\224\007?~:~:[~\013>S]\370=\374\242\216\276o7\365\276\254\2570=\301\373\n>-\352\r>\026R\325=\332\267\320\274\004v\207>\262\006\020>\325\304??\326P\004\275\330\0378>\372\0133\276\316=\231\276\327\177\r=lD\321\275\204\027\210>\300\330K\2751\353\030=B\330\277\274\216\342\250;\030q\203=\2255Z=\265\003\214\276\206\271\036\277\003RV>s\202\301\276\225\214\370\275\326\324E=\367h\\\276`r\261\276\002%\003>\373B,