node {
  name: "input_1"
  op: "Placeholder"
  attr {
    key: "dtype"
    value {
      type: DT_FLOAT
    }
  }
  attr {
    key: "shape"
    value {
      shape {
        dim {
          size: -1
        }
        dim {
          size: 21
        }
        dim {
          size: 1
        }
      }
    }
  }
}
node {
  name: "input_2"
  op: "Placeholder"
  attr {
    key: "dtype"
    value {
      type: DT_FLOAT
    }
  }
  attr {
    key: "shape"
    value {
      shape {
        dim {
          size: -1
        }
        dim {
          size: 2
        }
      }
    }
  }
}
node {
  name: "model/conv1d/conv1d/ExpandDims/dim"
  op: "Const"
  attr {
    key: "dtype"
    value {
      type: DT_INT32
    }
  }
  attr {
    key: "value"
    value {
      tensor {
        dtype: DT_INT32
        tensor_shape {
        }
        int_val: 1
      }
    }
  }
}
node {
  name: "model/conv1d/conv1d/ExpandDims"
  op: "ExpandDims"
  input: "input_1"
  input: "model/conv1d/conv1d/ExpandDims/dim"
  attr {
    key: "T"
    value {
      type: DT_FLOAT
    }
  }
  attr {
    key: "Tdim"
    value {
      type: DT_INT32
    }
  }
}
node {
  name: "model/conv1d/conv1d/ExpandDims_1/ReadVariableOp/resource"
  op: "Const"
  attr {
    key: "dtype"
    value {
      type: DT_FLOAT
    }
  }
  attr {
    key: "value"
    value {
      tensor {
        dtype: DT_FLOAT
        tensor_shape {
          dim {
            size: 3
          }
          dim {
            size: 1
          }
          dim {
            size: 64
          }
        }
        tensor_content: "\305\003D\300\210\313\205?\344A\271=\217\034\007\301l\234\005?;\343\277\275\262\354\013\3000Gh\276\331\233\321=\303Q\220\277\255\347\021\301\022\024\206\300\205\003M<\316\0103;q\333-?\322\224E?\300_4\275\334\366\300>\332S\307\274!x\r\273\007t#>^f\206\275\247vj<\036;\215\277\255\275\307\277\372\371\353\273\273\325\265<q\204H<\'\206\205\275c\215\235<\200\007\275\275\321\224\220\277\026\223\023\275\032\237\t\300\324\007\254\276\301\202\235\274\231\362\030\277\036\2518=(\211\034=`\3055\274\256 &\301(\224k?t8.\2756\262\231=\242^\374:c\265\204\274~\0301\274\265\017\360\272\230~\210?z\214\236>q0\260<\003;.=\205\244)\3004\262\314\276\321\334\336>r\032\364\275\357\332\226=\246\267j\277\237\266\345>\326@\031\276\303U\260=\316V\3659\274!\241<H\356\344=\215 \214\277\001,Q<xg\222;\274\222\006\301\356\3052?5\250\r=\252\233\225?F\264C\274\312\245^\276\341b\301>3\267\337=\374\275\315\300\356B\302\275\263\222\336\275o3\276\277\350wA\274\206[\000<\"D\253\274\002\274\202;\300q\352\273p\322\t>@\251\337\274\205H\004\275\323\266\220?j=M?\351i\"\275\225\345\020\276ck\312\275h\241\347;\357\363\320=\261\354\302\273\001\233\005\275cx\217;g\370\260<g\275\245\274\311\3578<\375\005\n?\322a@\275\344\310\300\275\000\302a\273 \030+?\352C\252\277\230\rQ\275~V\275<\366J\016\275$\003\213<>\006 \274&2G\275\206J\333>[\006\352>\2569\004\275\305\215\271<\027\007^\277\342yD<\211(d\276\220N\212\274<9,=\333\215\344=\350Z|\277\372\333@=J\367\">\264\231\034=\257\007\315\275B-\332\276I\024\035?\232z\246\277\214\237\241\273\246\314\305>\023tP\301\344~\016\276BU\005\300\032\244;<\023\347\227;\364\001\247>\253\256\215>\354gd?\253\221\275\273(d\252\275\327\r`?\253\321,?\306\331\004\276\2133\312\300\363\273\005\276\326\000\226;T\355\177\277\326\236\337<\202\221\233;\tM\221\277\035v~=\356\t\006=\340\007\251\273Y\353\235<\023W\225<\331l\376;\254\004\032\275\021dS?\264\020\321\275\241\\\310=\247\025\006=\241\351\334\274l`\267\300\'a\367\275\256$l<T\373\010\275Zk\032?kg#\276\304\000\032\276\335}\276\276\327\373\001\276\036\326\361\274\313\237\034\275\333\3274=z\277\030\301\207\344\325\277\277\221\002\276\236w9=+\007+?\201i\350<7O\201\300\317)\035\276\245(A\274J\377%?\2428k\300\031\375\345\274=\345\343\277?s\031\276SE\230\273\\\025\'\275"
      }
    }
  }
}
node {
  name: "model/conv1d/conv1d/ExpandDims_1/ReadVariableOp"
  op: "Identity"
  input: "model/conv1d/conv1d/ExpandDims_1/ReadVariableOp/resource"
  attr {
    key: "T"
    value {
      type: DT_FLOAT
    }
  }
}
node {
  name: "model/conv1d/conv1d/ExpandDims_1/dim"
  op: "Const"
  attr {
    key: "dtype"
    value {
      type: DT_INT32
    }
  }
  attr {
    key: "value"
    value {
      tensor {
        dtype: DT_INT32
        tensor_shape {
        }
        int_val: 0
      }
    }
  }
}
node {
  name: "model/conv1d/conv1d/ExpandDims_1"
  op: "ExpandDims"
  input: "model/conv1d/conv1d/ExpandDims_1/ReadVariableOp"
  input: "model/conv1d/conv1d/ExpandDims_1/dim"
  attr {
    key: "T"
    value {
      type: DT_FLOAT
    }
  }
  attr {
    key: "Tdim"
    value {
      type: DT_INT32
    }
  }
}
node {
  name: "model/conv1d/conv1d"
  op: "Conv2D"
  input: "model/conv1d/conv1d/ExpandDims"
  input: "model/conv1d/conv1d/ExpandDims_1"
  attr {
    key: "T"
    value {
      type: DT_FLOAT
    }
  }
  attr {
    key: "data_format"
    value {
      s: "NHWC"
    }
  }
  attr {
    key: "dilations"
    value {
      list {
        i: 1
        i: 1
        i: 1
        i: 1
      }
    }
  }
  attr {
    key: "explicit_paddings"
    value {
      list {
      }
    }
  }
  attr {
    key: "padding"
    value {
      s: "SAME"
    }
  }
  attr {
    key: "strides"
    value {
      list {
        i: 1
        i: 1
        i: 1
        i: 1
      }
    }
  }
  attr {
    key: "use_cudnn_on_gpu"
    value {
      b: true
    }
  }
}
node {
  name: "model/conv1d/conv1d/Squeeze"
  op: "Squeeze"
  input: "model/conv1d/conv1d"
  attr {
    key: "T"
    value {
      type: DT_FLOAT
    }
  }
  attr {
    key: "squeeze_dims"
    value {
      list {
        i: 1
      }
    }
  }
}
node {
  name: "model/conv1d/BiasAdd/ReadVariableOp/resource"
  op: "Const"
  attr {
    key: "dtype"
    value {
      type: DT_FLOAT
    }
  }
  attr {
    key: "value"
    value {
      tensor {
        dtype: DT_FLOAT
        tensor_shape {
          dim {
            size: 64
          }
        }
        tensor_content: "#}H>\374t\250>\235\217\006\276\306y\335><\354\277<\254\272\035\275\345\370\271\274\242L\344\274\361\001\342\275\222S\003\276b\007\370>\007\300\t\275\371\327\205\274\221\013\034\274\220\356\277\276\276T!\277S6+\274\037w\220>\004\363\323\273\024\220\034\274Z}\374=%\312\371\274sl\232\274\324[\273\274\353\315\035>\263d2\275\311\361a\275\215\273\361\274L\343\356\274V\236\013\276\321\311\304\273\270x\221>L6\000\274\005\352\363>;\275\017\275\337\246\373\274\016p\246>\033\271=\275\275D@\275\000\000\000\000,l\243\274\334f\306\274\000\000\000\000\232\305\336\275\257\202\022\274\302\300\233\274-\001<\273QB>\275>\253\"\277\220;\223>4\"\264\274o\322\346\275\3751\332\273\304O0\275yu\307>\000\000\000\000\034\216\357\275\351\035\321=\177bB>h\334C\275\215Z\265>\026\3066\275\224\262\275\274\214\005\366\275"
      }
    }
  }
}
node {
  name: "model/conv1d/BiasAdd/ReadVariableOp"
  op: "Identity"
  input: "model/conv1d/BiasAdd/ReadVariableOp/resource"
  attr {
    key: "T"
    value {
      type: DT_FLOAT
    }
  }
}
node {
  name: "model/conv1d/BiasAdd"
  op: "BiasAdd"
  input: "model/conv1d/conv1d/Squeeze"
  input: "model/conv1d/BiasAdd/ReadVariableOp"
  attr {
    key: "T"
    value {
      type: DT_FLOAT
    }
  }
  attr {
    key: "data_format"
    value {
      s: "NHWC"
    }
  }
}
node {
  name: "model/activation/Relu"
  op: "Relu"
  input: "model/conv1d/BiasAdd"
  attr {
    key: "T"
    value {
      type: DT_FLOAT
    }
  }
}
node {
  name: "model/conv1d_1/conv1d/ExpandDims/dim"
  op: "Const"
  attr {
    key: "dtype"
    value {
      type: DT_INT32
    }
  }
  attr {
    key: "value"
    value {
      tensor {
        dtype: DT_INT32
        tensor_shape {
        }
        int_val: 1
      }
    }
  }
}
node {
  name: "model/conv1d_1/conv1d/ExpandDims"
  op: "ExpandDims"
  input: "model/activation/Relu"
  input: "model/conv1d_1/conv1d/ExpandDims/dim"
  attr {
    key: "T"
    value {
      type: DT_FLOAT
    }
  }
  attr {
    key: "Tdim"
    value {
      type: DT_INT32
    }
  }
}
node {
  name: "model/conv1d_1/conv1d/ExpandDims_1/ReadVariableOp/resource"
  op: "Const"
  attr {
    key: "dtype"
    value {
      type: DT_FLOAT
    }
  }
  attr {
    key: "value"
    value {
      tensor {
        dtype: DT_FLOAT
        tensor_shape {
          dim {
            size: 3
          }
          dim {
            size: 64
          }
          dim {
            size: 64
          }
        }
        tensor_content: "/\305\310=\313\010\034\275D\277\305\275\324)\362\275\003\372\353>\010m\021\276!\314\312>5\313\271\277\266\332r?\\\233\023\276f\021C\277\226\347|>Ig\265\276K\366\000\277\316\253\201<u\223\271>29\032<l\037#\276A\353\035>9\223\237=\372\320\245=C\017\n\300Q/[?\265\006\246\276S\032\312\274dG\230>\242\300d>=_\204=\317E\207\2758\377\020\275\304\246,>[\214v\275wT\342\277<\355]=\014\007\254\275v\246\330\275\244BK\276|/\357=\256\367\374>\\\177\"\275\273]\242\277\262~\250<[]\245\275\311}\300>\240#\307\274\351\227\307\2773\2629>w\200\355\277\0303\212\274\224F0\275\271\220(\276\023U$<\226\370\221\277\323e*\275\001v\236>\307U\226\2756\260^?;M\356\276\217\252\221>k;\231\275FU\314\277G\202+\277D\2561?!\335\017?H\322\024\275^X\016\275\353\037\323<s\365\004\276qE\177>0,f\275\010o\361\276:M,=\337J\364=\314gR=\020\221\235>\303\2766>}\213\323>N\027\311\274\013k)\274A/\376>0?\010=\0370\315?\002\252\200\277\303\027\212\274pTc=\256\216\214>\'\323\205\277\345\025\302\277\301A\374\271:/m?\271p\311\275\033c]\276\022Z\034\276\311*U=\322(a\277X\032\001;{A\264>\330\253\303\275^\370$\276j\307\243\275*\3764\274\262\364\343</\014\273?,\221\315\275\345\210\001>f!m=\344\215\006=+\215p\277M\333\026\275,\207@?\264\035\357>\345\0376\277\342\234\323<\350\343\355\274,<\016\275>*\364\275Z\325\002\277\334\013\307\274\253!\025\2769Q\n<\0210\022\277\334F\215\277X\300{? \322f\274\210\304\234\277\366\206A>#\226\331\276\360\221=\2770}\205\274\361\261\027\276\373\374\242<\243\241\251\275e\321\203\276\244\250\021\276}\255\342\276\221\363\353=\372X#\276\3560,\276\2549\210>\235\275k\276\013\201(\275!=\323\274q/\375\274U\260#\273\177>\250\275\354UJ<\213\311\257\276X&\035\275\316\346\"=\003\037\225\276\340\016\325=\361O\033\2753\312\243<\311q\030>ml;\275*\020\223\275^\252\250\275X\222w=\250\235\202>\217\343\222\2758\263L\275\360\016\240<\202\341\247=\321\"&\276!$u\276\002\274 \276\202fa>\326\333w\275\202v\231=f@w\2765Q\021\276\222m\227>\030\210k\275\211\314;\275d\376\202>!\332\333\275\003S\256=\337\253\256\275\rkO;\230\324\033\276\376q\321>\\\212\255;b\225\031>.2\031\274-\266\302=\256\036\021\276o\265\000>\024J\364<f\217\205>\374\321a>I\324,\276\211\323\330\276\323>\335\275\314\022\026\2757\0273\275\005M%<i\006\212\275 \373\276=]js\276\247;H\277\257\376\013?\203\214x\2775\201\234=\375>l\274\211bt\276\r\345=\277\220\210\250\273\031\363\354\274\315\375\323\275\\\365b\275\221t=\277\352\3613\273o\322\023=\310\210\215\277\223\232\222>U\"\256\276\036\264\374=#\236!?qp\352>9\351\004=\343\270\323\275\220\002\327\274f\345F?\307\0266\275I\367h\276\204\376\000\276N\332\204?\t,\027\276$\256\377\275-\020{\275\232iP?\267\220q\275\251\312\354>\335\264\330>\336\324\332\275\270k\000@KB\261\275\334\217\327\276\2275d\277!rt\277\321K\307\275%(K;\2254\347>\031\351\274=\t\231\235\277_\214>\276$\337z>\3025\315=\266\253}?tw\017\277y\217c>\317I\265\275\333Y\216\277r/%=MO\225\277l\351o>V\201\260=8s\034\274\234\205\334\275\035\373\244\274D\215\314?\224u\205=\031\350\t?\265b\276>\313\013/?`\177t\276\276\331h\277`\006\221>\252\260\355>\316\314\201\276\230\221\255\275l>\274>>\227\262=\333\2268@M\302\254?\364\033~\275\3412\226\275\n5\002>\372\262\230>t\313\224\277Vb1=\365KT\277\220\266s\276\332\375\351\274BE\276=\000\030\254\275(\007\342>\232\320\303\274\342\tg?$\334\265=\355\332P?\010\014\020=\302\022\264\275\304d\315\275\000\231\377?\323_\320=dL\r\277\237\034\010\276\205d\274=A\376\013\277\234\207\244=\006\373\247\276\202\204\336?\366\220)?\035\376*<Ug\217\275\3166Y?\030\n`\275\005\2041>\233\305\253\275gGj?\346\267A\275\205\201;?n\371\027\277\t\273\"\275-\333\324\275\225\344!\276\031V\244>\333\333$?\223\207\023?\276\344(\275\362\366\331\275\267w\202\274\214\005\335:\2001\374\275\3520\242\275 \377\352\274\317\364\207=\020F\201=\376\373\324\273\203l\017\275U\365\340=\342\246\303;$\272\253;\204\337\275=\226\365a=]p\246=|Q\005\274\335\247f\273g\373\'\275\274\277E\275\363+\361\274\022\242>=a\263T\275\226\277\232\275Q\267\343=?\243\366\275\233\"#<o\0322\274\340\213\010=vg%\275\230Q\204\275\035\023p\275w\366\201\275\377\027\301\275\030\205\217\274\325%\223\275\350\202?\275\327\003&<\227\014\346\275\243\017\014\276\007\320\272\275\246\007\311=\"J\254\275\216\024\016\275Q\276\000<Q\023\034\276Ku%\275\216\274\256\274,*p\275\371\276\247=\313\3623=/\320\204\275\250\000\261=\311\203j\275S\255\200\275\002\351\022\272zu.\275\241\255\314=\001\202\252\275\265r\320\275!\254\304\274\200\241\271\2754j\026\275\334\210\200=\260\257\371=74\234\274\206\217\243\2744\010c=Nf\310<\3134\253?\251 \003\277\002x\353?\326a\256?\010{9?\234-\275?\322\232\302>\332\2643\300\0036\204\275\032\005<\275{\274W;\353\367\212<\225\317\026\277\336\261\027\275!\001\234<\235\230m\277\323\367\224\277\245\340\265?v\231\230\275\202\023\033?O\240\030@\272g\334\275%\262\244=\300\374\036=\235u!@^\342E<\261\237\270\276o\340\203\275\241y\215\277\210\204?<C>\014<\000\234\345=qK\216>L#\303\274\3539\343?\331\000\306\277M\266\037\275!\261\026\300-m\'=Pg\303=\226\002\376\277\271.\263?[w\207=R\022\277\274\221\227\232\277\0061\201<\313\223t\276\374\376G=\226\276\013\300\377\034\312=\350\t\220\276+\016\211?o\203\364?\353\337\253\274\200\353\023<*S\030@\362\377\375>\223T\346?;\004\201\275\324\034,=T\037\301=1\371\221\275I\350\025\2753\235\255=|i\233=0:\225=\231\243\236=\200\033e=Vu\'\276\275!\326=\303\335E\276\307\331S\275I\353\217=\356\2630\2768\036\036\276a\r\213\274\365\340\'\2750\250\035>,\002\215\274\273}\"\274\237@@=\356L\331\275\314\366\235=\234\222\363\275\373F\241\275:\035\253\275[\221\003\276\330\037\321\275\t\236\354\275\001?\243\275y\3015<`\354O\275\005\310\362\274\243\313\373<\335\224\335\275\320\365\354<\310\363\356<>6\322=bl\026\276n*\224=\000JF=-v\242\275\260\367\227\274\214\214$\276\006`\347=;\371M\276\\(%\274\230\202\207\275c\0314\276\023\305\\=\245\026\227\275\265r\344<g=E\276\376\223\207\275\251j\262\275k\033\016\276B;\372\2752JN\275\211\027?\276\"\373\025\275l\346\225=\2654\032=S\347\271;:y\315\272\262\227u=T6F\275\r\254\236\276\325(\256\275B\020\000>\270c\255\276\300\212\344=\261\"\t>\310\333\001>(\000\241\276\364\225e>\304\327\312\275\345V*<C\0004\276\220$\"\275?O\237>\315\021\020\277#\003\227\275\216\031u=\023\022\223\276\260\036X=\314\034D>\372\256U\275\257B\304>\332\017\205>B%x=\020\023\247\273 H\370\275\332\217\327>\252\r\355\275j\321\307\275\344\211\257\2756\334^\2761?\000<\345jv\276C \236\275\276\327_>U\274\006\275\322\027\210\276\274VF\275\357\004\377\275\233\273X\276\322m\360\275\347\342\320<9^\340\275\356\301\357\275\000\203i\275w\353\351\275\207\210\007>\267|\362\273d\370k\275\357u\310\275\006\005\207=HN\314<\263\256\353\276\336\361\010>\241\343\232>A\\\377\274\317\035\n=\264\037K>R\320\247\275\'\334\031>?\364\263\275#X\t\276\317x4=Q\017\344<\303\301\301>\376hx\274\223\232\202\276{\211\214\275X\244,\276\000`\002@S\214\000\276\037\371\002?\356\376\207?\\\375\377\276H\223\371\275\245\232\"\277\372\234\010=\2536\255?\023\335x?\002\225k\272\317\306\231\275\006\020\330>\346.|\274D\266\'\300\203\336\235=Iv\020\300\310[\221\276\272R\214\275q-\310\275`sW\2747%\035\277\360\376\311\275\224\035|\276(\002\354<\3210\330>s[\356\274\003\256\002\276\030ue=D\032&?\030!z=d\204\244\277\267\\\200?\240\020\232=J:\332\276-k\003=\2672i>\235Z\302=\351\213n=Hf\264\275\202O\330\275g\036\327\273\'.\313;\276\206m\276\3152C<\\;\003\300\262\275;=}\245\271\277\363\270\267?\\N\000?\364<`\276G\035q\276\025\364\256\276\025\252\326>vA\220\276[\025\007\274\016\357\242\273q\022g=}DW\275(\261\367\276n@\000\274%\027\235>q\357\005\276\000\333\220\277\334\177\247\277\231I\371\276\250j\321\277\346\353\314\275D\251\310?_\n\002<?\377\277>\242\204\246\273\007\253\344\276\217\224\330\277\331\375\331=L\351\006\275\212V\255>\025\t\217?\n\202+\277\313\335\020=\336\303l>+\200s\277h\344\037\276f/\236\275\000\244w\272\211\221\222\277\217\337H;<\332[\276\234\205\010=\307\215r?\355\345S<_\317c\276\300\001\254\273\236\">?IZ\303\275\3523l\300n\336\355>\331\016\014\275\233\216\247?e\037\325\275\274WE\275\0325N?A\363\232\277\220L\237=a\250\227\275\027$\265?N\305\240\275\272D\177\277\035\206\341\275\260\207\236\275\\+\270\275\260\017W>\031E\020\300a\345\026\276}_d\276\233\250\356\276\270sn\276\227\244I?\\\343=?\0364\317=\027\217\220\2754\222\303=>\350\355\274}1\t?\207\204\306;#&\315>v\3437\300\210[\220>\217~\352\276\352w\207>5\272\030?\244\010\352>\003\2158\300\346{\330\275\342\321e>\245\\\002\276\304\272\325>2ni\276\333\227&\274\323\216h\272\001\177D\276`\226\010?\001\304\303\277fw\275<.\377\237\276%d =g\037\244\274\243\271\262\275\320\347[=\277\275\246>\320\330\004\276sw\257> 6\345\275\224\307M?\\K\220\275\302\331_<\210\021\236\275\360\246a?\t\353\236\275\272\362\216?,\325\321?\000\376\264\274\357\261m?\240\312\246\275RX\006\276\236\232#\276\255\332\027\277N/\350<<9\341\275n\237\271>\320\372\004\276t\312\023\277B\017\034\276\301\003\264\277\315\321\206=j\341]\300\241\037E\274\306\267B?\214\364C\276\002\256\321\277\257d\204\275\266B\205<iE\307>\025ll=\345\306\376: \262\232\274`\233\002\275\273#\355\275\010\305+\275\243\243<=\326%\246\275\247\014\002\276\026\\\317=\223:\300=.=\314<\021\262A\275\337rS\275=\257\262=!\216\307<\274\036\330=\356\226\266<O\034B\2745\307\221\275\277\361\316\275@\206\200=\204d\327\275\206u\267<\302\371i\271\325\tX\275\206s\203\275v\267\215\274\276\317\022\275\274Y\325\275\027\226\211=G\000\323=$\253\227=\030E\323\275\222\264\354\273\340\205?<\375K\300<\360y\004=\260\3625=\345\251\317\275%\010\260\275v\222{\274M\370A\274\363&\306=\220e\260<\314\313\210\275FW7\275\260\237G\275\225\023\274\275\336\301\206\274_.\305=W\235E\275\212_(\276b;/;\'c\347\275\311n\245=-\364\243\275\004\265\306=3\n\302\275\241\001,=\250\355\351\273EM\270=p\002\212=a\226\022=\031\322\243=ms\244=\214U\246=\312\331\343\275\026v>\275D\353v=>\275\216=\224x\221<\334\2521=tu\265=p\254\005\276\220}\322=1>\215=\003u\324\275<=\227=\255\317M=\305I\034\275\246W\256\275{c\001\276\265\235\030\276\255;\375\275j\310y\2754\272\214\275>\270\223\2740\024f<?`n\2759\367\255\274am\030>\337\032\306\275\200\315\261=\255i\337;G_\275=\376S\304\275:\205\014\274\245`\001=M\276=\275]Y\321=\301\276\265=\177\323\232\275B\303\020\275QO\212\275\224\305\250=\344RJ\275\357\034\024\276\254%\307<_\240\300=\346\246i\274\262N\330\274J\366b=\343\032\344\275\273O\257<\035H\254=!]\006\276)\t\235=`D\272\275 \313f\275.^\207;Y:\301=$\217\335=>mt\274\003\363\215\2751p\235=:\021\256=\366\276\353=\270\367\222\275\312\336>\275D\277\234=\177!E<we\211?T\271\016\276\256\250\273>\251\205\234>r\300\327>\204\247\206>\231\277\216?~o(\276\213\260\352\277\000\333|\277\326x+\276\256\220\n?Mk\311\275\276\302\237\276\201/\000?E:`\276x<e\275\000\312\354\277\020\363\235\277\240[\271\276\211\223\344<\215b\222\277Z`\265?9\377\374\273\204\323\325\274\364\355\345\275N\234\243?\275\247>\275x6\021\300\200\200\375<>N\256\277Ck+<\3715M=\361\371j=\303\354C=\227\217\213\275\371\207D\276m\037\311\275\230\314\031\276\035\000\t\276\260\026\305<T#\246\277+\212\301\277qT\t\277I\350\223\275\'+\177\275\273\333\260\277\\66=`#?\275y\n\211\275\337\223!\276|\242\363\274\310Y\211?\\\372$\277\033\375k\275\034[O\272\237q\314?\030\354V?\357\234\315\276&\271\271>\213J2=\231\314J\273\034\364\253=\254\260\000\276\262/\351\277j\305\372\275F\343\354\276#\321\t?wi\236=,\350?\277\270\004\235?\262\210$\276F\335u\277\346\366:?\335j\233\273\2759\274\277\260\313q\275g\204\331\276\243\2666\277E\274\030\276\\\363^\275\246\325\274>\t\004\267\276\371n\270\276\355:\265\275A\304\363\276\311\312\243\275H\007\001\273\027V\264\2752\225\343\275\243\001\316\276\355\377\273\275cL\030=\200\232\336\275\333\2046\277\032\234\242\275\316\"\010\276?\205\215=h<\334=\010\033\303\274\241\204\034?2\033\275\275e#8\275R=\271>\002e\227<\r\304>\277\224\213\200?\325@\333>\222l\005\276\330C\201=\001\t\370>\356\023\203:\245\010\212?J\010^\276\376\331\003?\375a\026;OI\023\277\216\236\312\277\270X\361>\302V\035<\306}\003?b\334\030>Pz\225\277%\203\263>\321\274\273\275\010\331e=Z\362\302=\301\217\257=GO\222=tj\235\275\264\023E=\031\243\262\275(\032\267=\333*\222\275\376f\261=E\210\354\274\351d\314\275$\312\250\274u\0164\274\'V\212<\232{\027<\3029\363=\272hI\275\027}\213=(\004\311=\303\177\377\274\2326g=^\254\213=^\255\322\275#\032\271\275\205\276m\275j\236F\274k-\250<`\335:=\242\334\365=\254\036X\275\315\261\010\275*\332\345:\374\363S\275(\230\305<V\220\242\275\374\000\000\276\237z\271\275|\322;=T|\231=|\0103\274\0272\030\275\266\264\005=\275\237\305=7Q\275=\010\256I=\353e\303\274#U\256=\031Y\371\275S\002\024\2756\337\273\275O\244\306=b2\233\275\255\213\353\273\374(b\275r\204\244=\\\3703=\371\216\302\275\372mV<\362\317\312\274O\324=\275\265\347\254\275\333\004E\275\003\231p\275H\0372\275\272\006\250=Qn\223\275\035\370X>y\334\344\275^\333\232=\247\336\021\277\260*\213<\206\334\200\277Z\257K\277\361:3=`\255p?\242\235x\277l{\320=P\272\311>+D\227\275\266h\346?\033\017\320>\356\026\355<44\032\274\'\216g>H=f?\242\321\302>\217\037\337\275F\344w\277\275\032\007\277\347\002\215=\210g\200\275\2307+\275\005L-\276\270A\271\275\2714\265?\364\027\374\2753\214N\277b\005\230=Y\362\210\275\035\300p\275\330\234\014@;=\211\274v\013Y?\263\2355?\216\240c=\250z\231>#>\237\273\336\212\307>\326\365%?e\330\371\276\027Q\340=5!\215\275Y$\207?\031\272\237<\337\032^\277\017IJ\276\275/6\275\226X\234<|+\204=\311\231\t\277\231u\275=\234\036c\275\263pF\277\214\034 >\254\364V?\300Q\341>\027:\370\275*\035\020\275\342MM\275\325\207\244\275\361H*\276\030\2455\274\242\226\262<L\365\225=\316\220e= \306\247\275\361\271\311<\276d\247=\203\215\'>2\214\316\275\334\261\310=e;S=pJ\201\275l\023\000>C\362\241\275G\257\203\2752\250r<b:\372:\254\345\320=\364\224p=\316n\364\275\216\033+=\230k\203\274\2163/\275\215\r\275\274\004n\341\275Ub\212\273\003S\004\276\"[\314\273M[\307;4\225\211=\262g\300\271\361\240\307\275(\024\365\275\363\254\030=\004X$\276-\374\372\275q\363\372=\223@\353\275\3016\373<\213\302\024=\214EG=\305\037(=\370\261#\275\212\374U\275\n\325\264\275=\3601>H:\231=m@\017\276-n\t\276\256\342\254=\354\320\310\275\373\353\336=\274q\261\275o\257\000>)L]=\001\330%=\235\332\342\275]\251\232=\026\004\210=\204-\212\275D\277\260=^\207\020=\233\371\250\274\311W#\275\253yV=0\304\351\275\217X\t>$\222\200\274+~\021\274(\213\376<\350Z\352\274\"\221\017<[\217\010>6\263-\2756}\360=\2040\300=\362\352\t\275\022\3544<\3743\340\2757\030\355<z\247H=d\206\353<\007-\022\2741\336\302;\261bi\275F\033T=g.\203\275U\373M\274\250U\016\276}\201\250<\005\003\020\276\356V\305\275P\035M\275\315\236\203=W;\376\272\033\310x\275iU\302\275-3\'>#\353@\274\027\000\254=\230\263d\275\001Y\r\275\002\034\031=\234\274\250\275\334\2010=\217hi;\002xu=\261\306y=\361\n\342\2750\322\241\274\256-\026\276\350\201R\274\343{\340\274\274\027\227\275\261\373P\275`\2704\275\330\331\247=t\365\223\274fx\235=\231A\006\273\333\362\t=O8&\274D-\310\275S\253\343\274<\371/\274%\230\210\275\t\016\313\275\300\237\367>\371\321\345\275\365{\035\275\'?\204\276\312\371U>0D\240><\360\007\277\336\3505?\036\000\374>\340i\270\276\036\265[\275\0143\033?\037\362\232\274\302\257\351>CF\247\276\361\310_\2765\002\013\275\321\307r\276\005u[>\233j>\277\361\375n<I\311\n\277G\373\351\276\334>\207\273\217u\266=\230\301\312\274&\336\\\276\277<I\2755\274\022?d\315p\275\003\030\"\277\272;\320=\n\374q\276\004\177?\276eT\201?\017\315@\275\307\177\362\275\312O\372>u\231U\275\026*\373\276,\343\003\276\353 \n=*\2576=?Qa\277\377@\021\276ks\022\276\335\242\213\276\354h\233=\354@\352\276qt\017\274K \275\276K\204\n=\t\344\037\277\352\363\254\277\344\031\022?R\265\321\275\352yQ\277\316\370:>\376\231\343>{\224X>mz)=\376\215\244=f\234\372\275\341\317\005\276vA\013\276LH\244\275\365~j\275\227\341 \276\253\007\230=\354u\313=\010}d\275\244L\336< \241M=\370\270k\275\032\275=\274M\342\010\274l\235\010\276\356\352\027>x\254\354=\2711\347\275f\257p\275w\3512\274,tU\275\303\202\022>;\205u=\n\304\350=1g7=\247=\014\276\344q\216\275\320z\357=\02083\275\300\323\204\274\231\210\030\275\034y\224=\013!Y=lm.\276\346\016\206\274\3362\244\275\031\270\010\275\217G\033\275@\366\024\2751\272\220=\016+0\276w\333\000\276\024\226\314:\0144q\276\254\305M=9\217\211<\331d\263=\201\026\236\275w\205\030\276}B\312\275V\335\'\276U\375S=3^\206\276%\240<\273=\365\t=\216o\005<\377V\217=e\213\352\275\346\271I\275\004\234#\276\337T\227\274HG\301\275\025\375\340<\034k\025=\210$\272\275\307\340\213\274\315\372\004\275\223\345\331\274\317\264\213;#k\352\274J\305\323<\331?\363\275\375)\301=\324i#\276n7\025\274`\354\274=\023\324\307=\nT\004<Z\013\023\275\366\266\203\275w\370\256\275n\207\234=\246\310\350\273Ou\004>\006\3317\275R\272_\274^S\"\2757\241W\275\247Ck\274\020\273\344\273;A\215=\224\'\202\275\307h\246=\2214\t\275\021\033Q\276\234\004\225=\020f%\275dl\217<\206bH\276\020~\225\275P\206\355=e\030\341<\325\017\214\275Z\300\353\275\346\356\221\274\311\222\307\275(n\311=\030\022R;aK$\275\371P\200=\331\370\230=\372cQ\275\211{\334\275\007?Z=\272\344\264<\3465\002\276\261\351\222\275\225\203\324\275\272\004\275=1\007\265\275\026\003i\274\'\367\302;~\243\016\275\374\223\237=\215\225\216\275\273\247\243\275;\376l\275\210l\023\275\000\337\010\275\310\247\310=0#\377\300\370C\023\275U\377)?\244#\240>s\316,\277\032\242\021?\207Y\227>t\233\027\277\017Y\\\275\3766\337?K{\336=;\304\261\276\272\341T\275U\302\352\276xC\356?F\263\220\274`\301m\275\234\010\321\277\210R\345\277\000]0?\024\272n=\324,]?ro\004\277\333\233\310<\366\241\270\275\324\r\323={\366\204\277\343PO=\004Q\377\275s\025\220\273\022\335\255?\361\344\004>\355n\003\276P>\320<\346\212A>\267Y\315\275\315\363\240?r$(\276\374\212;\2762o\177<\245\362u<\251n\246>S\270\271\275\321\000\222?8\247<\275\200\200\256\274\'0\213\277\032\334A<\201\206\356?&\327\327=\206\002\255\277t_\207\275\303\352\326?\366\363\230?\320\013\004\277\005\t\350\275\222\n\201?*\315H\277\212}\264\277\361\324\202?\013x\226\275\236t\030\276\366\206\372\275\342\373/<\211\235v?>z\036\276\354\232\004\276\201\003\005>\321\030\323?\231\301\200?\021\n\032>\251I\225?/7\333\276\343~\202\277_\337\007\276D\365\220\277\362)\374\275\302\214\337>|\305\224?\324:\215\275\312\353\236=\333\321\276;\314\325x?c\372c\277\252Z\244=Za\201\277\377>\331\277\371c\250\275\302\357\026\275 g\014\274\3111H\277\300\277\255\275\262;\361\274d\230\341\275\340\374W\277\223\275\274\273\005*\312\274\330\226\265\275\254\227\370>\345\311\000\276Y\3151\277N\376\256?\234i8=\020\317\017\277\332\032\014:\367J\274=\201\205\264\2768\273\346=\004\301\260\275\033m\024\276t@\017\276=H\373<\006\3064\276y\327\361\275\245\222\254\277\r\325\266\275^q\236\277gd\r?\323\316\311<(I)\276\276\334\035\277.p\202>\302\333\006@r\3361>\205\354q\275\311 \332\274\031rj\275\377\274\221\275\002=\231<\224\241\033=\"\277a\275\027\233\230=\030;\257\274%\202.>\2201\361\274\326g\214\275\376D7=H\333\201=\321\273=\275P;\264=XzS\275\023j\330\273C\253\312=\030\\\005\276sbz=\332\214\357<N\275\213=\226<2=m\274x\275ts\036>\217\206\211= r[\275><\353\274\\V\311\275\240\227\263=B\216\251<\233\037W\276,\264\013=\274\204\014\275J\266\350\274\275\001\224\274\0245\215\275\307)\361\274*p\207=\001\354\310\274>xe<\372\226}\275W=\322={\240<:\017\310\373;\243\222D=\321\245\024\2756\313\225\275\3164$\276\361\321\236\275\016\233\360\275\006h\315\274@\327\302\274.\022\210=E\323\345\274\347\272\225\272\026\021\230\275\337N\016>\001\336k\274$\265U\275b-\034\273\307\343\360\274=\336Y\275\375\007\225=\273\224\230=v\363\006\276\240\031\275\2751\301\245\275\022l\243\275j\225\027\275tX\202\276C\220\207<\032\036\370=\010n\031>T\300&\276\265O\361=\276L\222\274\235\257M\275\345\375Y\275\357\263h<\364\333-=\323|\t\276\236\3021\276\005k\345\275\024\000\034\275F\266\260=Kz\216\275\273[\254=G\0238>\231+\016><\362\261;d\353\203=\334\367\023\276Z\202\022>\236!\243\275\025w\321\275Lh\313=\314\330\003\2769B:\274t\224\275;\014\216b\275\340=\225=\234V\312\274\025\3428\275U)\006\275\354\031\245<$Tw\276d\372\257\275\257\335\212=K\330\371\275\227p\351\275\243\220\362\275\027\232\035\275\001\360\202\2756\360J\275T\207\231\275D\200O=\230B\261=\335\213\272<\n\235\036\273\315\033\027\276\374\353\'>\263A\347\274\277,\206;\373[\200=$\013\345;@\320\203\276B\037\300\272\352I9\275a\335N\275\244\360\013\275\033\347+\276!\254\373\273+\204\034\276+i\331=6\305\270\274\274\367\203=ly?\275\013=\236\275\270\234\375<\2321\r\275\251\363B\275\326\353\244=\252\367\231\274\245\340r>\227\236\224\276t\345\003\275\367\372\r\276\315\031F\273I+\255;\'\356\001\275\357a^\273Pz\023>\270\215$>\314\232f\275o\346=<\344~Y=t\341\321=\3053F=j\252\331\2758$\246\275\025\371%=9`\260\275\033\246+\276\215Y\311\275U\277\324<\201?4\275\324\207\300=\302m_=\031\353\005\275,\262\314<\200\331\232<A\301k=\257R\255\275w\336\014\273\365\247\376\275\t\373\221\275\370\376\004>;q\320\274GF*\274\253\330r\275\211\032o\275\"\347/\275\027v\365\275\r\200\303\275ZN\021>&\322\212=\022\352w=\212\233\301=\227;\025\276\377\2107\275J\321\315<\0020}=\005\246`;\327\206\245\275{^\022\275\276\t\023\276\262\030\366<\372\201T\275|\227\315\274I\017!>5\255\016\274}2M=\010d\244\274\260k\276=\314\006\007\276\275\310\232\274\366\241\317\275Ex\352\274\310Q\253>j\tZ\275m\240v\274\373\315\023\276\265\277\276==\350\005;\206\317\274=\\\250\310\275\355\253\022\275\025@\313\274+\365\'=4n\236\275\210\320\216=\356\007\264\275%\202X\276\234Q\337\275 \235Z<3\"\331\275)L;\276\346\326\237\274=\t\022\275\035I\322\275\220\351\205\275\322(\323\275\2102\021\275\376\200\224=`\'N\274\273X\253;\233\002:>\022%&\274\021%s=nR\337\275\000\366\016=Z\345\347\274\006\332\217;\342\323\321=>\222\360\275\323\322\266\275\251\030\203=a8\344=\t\265\005\276\002\213\222\275\367\014\356;Mg\324\274\275=\004\274N\241K\276 \201\020\276\273\013\006\2760\365\325<1\270H\275\027\216\370\275e\342\326\274\227/j\275\0131#>\353o~=R`\037>\024\316\267\275\312iE\276\'3\311;\334+}=\340\352\224\275W\371D\2769A\204=\226q\230=\317\224\t>\227\315\002\276\275\345\003\276\034\322\220\276N|J=\023iC\275\002\004\227=\022W\000>\301Q+=\003\274#=\272r\255\275\025;\210<C\215\333:\315S\260\275\234\254\000\275\2706*\275\014\252:\275\3751\031\275\022\223\362\274\300\013Y<\t\273|\275\004\257\203\274\002y\322<\005\037\035\276\374\330\016\276c7z>\344\350\243=\376-v\275\311F<>e\270\260\274\177\022\244=\231\356J\275h\377u\275\234\330\251<\375\362]>mj\224\275\232\260N;F\217\257\275\273\223\272;\223\302\021=\3379\200\276\233\212\231\275\237\352N\275gG\013=\364\202Z\275\t\346\272<x\020~\275x\377N=\240 \324\275\022G\213\274\000\242\366\274`y\234\274\234\325\261=\n\345\307\275\346c\321=@\271\275=XC5\275\260\370L\275\360\322\323<]\304\362;\260\031V=L\250\361\275\300?\002\275\220K,= \210u\275\270\322C\275\214A\301=$\202\232\275;\033[\2750\037S\2758\220y\275\264f\323=\260\032<\275 \245v\2750\315A=\340\205I=\364\366\036\274\031\264\327<\250of\275`\t\003=\000\215&\2730\321O\275\360\\\342\274\200W\031=\251\274\315\274\217\314\347=\223\324Y\275\310\325j\275\030_\276\275\005i\375\273\300Z\320\275\250<\346\275,\375\243=\310p\324\275@\230\\\274\320y\340=\266i\354\274\322\325\247\275\2541_=Y\365\247=\256p;;\0307{\275\307p\243\275@\005\363\273\0308\024=\017C\001=K\207\203=C\343\226\275\314{\302\275[%:<zY\230\275:\234\250\275lV\240<\374\357#<\345,w?\343\016\241;\346\336\027>\005\343u>{|\237?\236p&?\337V8=\000\346\251?%\334\201\277\347\244w\276\212\252J9\317\\\t\277E\254\320\275\222\201e\276$\322\223?\022\006\300\275\211\362:\275\353\"p\277\000\210\002?\031;}\277\265S\307\275\210=\226\277\200\035\027\2776\222\202\275!\r\335\275\000\204\362\272\354\331\224>]K\006=U\020B\276\343~Z\274O\357\200\277\265\367\245\275~\367q<u\030\242\275O\215\361\274\203\270p\275\243+S=\014\331w?\314~\027\276\373]\372\276\277\376d\275\257\203[\276cb\302\2764\246\327>\312T\006=\326\306;\276iI\242\277\265\023}\2755\205.\276\355x\007\276\020E\256\277\220\030\005=\246\372\371\277\235\367\225?;\370j\277B\232\272\273\017)\246\276\250\262\346\276\316\023\016?D\237I<\306\255\001>PW\265\275\365B\350\274!\341\221=\205c*\275\200\370\225=\246\227\326\273(\254\227=\3031\220\275\366\0052=\013Xa\275\263\362#<\340\2025\275\263\2104=:\261\362\274\013\212l=\373|\311=\032\330\356=\3358\226=9\331\214<H\245T=\2672C=\021\333\033>\323\256j\275\376\247\204=\326\350\'\275\272p\327\273\305Z\032<\247i!\275\254\254\245=*f\347\2744Y\242=\203\200H=\226\252\275<!@\331=m\221\324\275w\325\324\275\340\237\202<\376z\230\275\324z\213\274#\367\216<\263\315\"=c\360\320=\210\240\230\275\207v\n=^\334\010<\000\2735\275+y\204\275_X\016<,\230t;\275\330\220<\342\214\226\275\005\026\251\275\3016\014>\247\326T\275\207\213w\275d\204\212=\230|\007\276\274\204\211=\346\216\310=l\271;\2752\243\r\276\210\243e=\234\266\335\275c\005\023\2750\026\271<t\'\232\274]\2541\276+L\010?~\330N=\013\240\324>\345(\225;\327yf?\023\313\244?\227:\212\276\266\027&?\025=\215\275>\311\231=\017<\301<\265\010\274=\243j\256\275(\255\253<k5\346=\221\345\247\275\273\230\031\276\2343\251\276J}\234?\241\333B\277\363\355\003\276\375R\205\275\211\2352\277\276\357\306\274x\233\266=\320\344\334\274o\227\007\277\230\202{\275\274\025Y\277p!\342\274\337\177W\277\373\377$=\007\206I\275\240\211\003\275W\246\032?\245\212m=|L\031\300\261\253<\276\344\222\363\273\251\322\027?\200\324\261\273I\2034\277\276YZ\276<\3317\277E\004\231\275*\267\334\275\207\0208>\226C,\276\\\225?\277\353\362\236\275\251\016\014\277S\000\276=X\362\202\277\217j\376>\255\177\217\277t\301\326\275T\305s\277\221\216\373\273\"*\272?\235\342\225?\241\324C\275\206]\232\274\n\321\262\275\200\364|\275\227j\224<\346.\017\276+:\320=\2478\242\275\321T\316\274\325$M=hq\253\275\001\001\250=\350\036\334\275\344;P>@F\205\274\326\005\200\274\311\232\210\275#$%>uP\177\274\3367\310\275\354\027\031;\232%\325\275m\313\031>\370\271\310\275\215\200\237\275?\353<\276Q\257\264\275\302\307k=\273W\337<\360\345\271\275\232\035\007\275\301\033[=\317\013&\276\346\222*<#y\033\276<\003\262\275\231\022\000\276\344\233\350\275\372\nP\275T\017\n<\374\212\310\275x\035\255=\211\200\271\274MOn:;U*=\275T\004\273\277\370I>\313}\217\276\024\3358\2750\245\372<8\227\216=\275\304`\275\345A\216\276\014\324\206=zf\320\2750LU=\247/\266\275\303\360.\276\327\353\347<\026\2052<\272\370\327<\211t%\276\215>\264\275$}5=\"\322\013\276D-\245\275\215\036\236=\354K1\274\005N\004\276p)\260\275X\366\206<\326\251X=\334\352\013\276k\323\177\275\222\262\263<\332\215\006\276d\250R\274\341{\317=t\277\275\275\2019\271=\333\n\222\275b\014B=\301\350\t<j+0\276z\223t=\023\236\220\275\343=\342=\246\260\214\275\020\027t\273Z\036\377=\372\363\373\275\306\261\231\274h\341g=\023.\224\275\246lr=\266\230\222\275\330\027\231<\344x\346\275X\265F>d@\013<\246\277\022\276\2038<=O\370m=\3553\002=\007\305]\275\305\276\314\274G\211\001\276I\213L=\352\326u\275\213e\004\275\315jZ\275\005}\307<\261C\266\274\014\212f\274 \212\371\273B\332[\275\024w\004>\321\010\204\275\277\376\216\275\007v\226\275t\376r\274q\2733\275\\\357\001>3\255\216=\030j\351=\027X\344;\311\273\315=\221\034\261<\212\001\345\274WQ\007\275v\031\347\275]\3072\274\300,\263\277\\\036J\274\324\351>?\377\307\t\277v\037Z\276\271\026o>w\204q\277\207\313\310\276\354\367\226>\315\304\365\276 \304\274\275|A\254?2\3559\275\020d\210\276\300\343\305>\217\213\374\274Q\313\230\275\374\313f\277\236\226$?\020e_?3\367\271\275\217\344\356\275\310]\203\277-E\277=!\027\345\275\000\257\351\275mG\363\276\323\352F=lT\005>\254\211\201=\2318\255>\034\314\362\275x\007)<\000\345\342\273\260`\243?\246\237#=\2070%?)\300\264?s\013\t<%\314\265>g\202\224=\215\313\307\276:\200\033?\247\276\253=\267g\254\275\346\035\373\275\215\300y?Bv\277=6I2\277UP!\273\344\'#:\364\221\251\275\345DD?%Xw\277iH\004\300\351\244\267=L\320@\277\242\344\"\277\257%\010?\273\256\347?\263</=wM\035\276\006\177\351\275R<\030\275\231\031\000>\245\034\007=\031\002\037\276\361\262{\273R\230\023\276\340\226Y>AL\220=\321\274\375\275\314q\014=-1\275<o)\312\275R\333\213<\031 \212=\264\021\274\275\245\020\301=\357\340o\274\224\225\246<|\217u<\014g\250=\305\'3\276\330\212\232\275\002O\215=\267\330\313=>8\255\275\030b\206=\350q\246=\320\372r\274\236an=K\005k\275\300m.<\026f\037\275\314\227\276\275\2302Q<33\260=\224\001&=\353\377\225=\204\210I\273V\310\224=b\214\217=\327\315\205\276\340N\037\275k\351b<Q\257\237=g\030p\276(\336\360<\204l\227=B\365\333\275\242\364%=\351},\276\247\036\213<\237m\253\275\001\322\353\275\342\3311\276\251@\237\276\030G\354=\370\357\362\274\302\005\357\272\271\327\000>\217\356\217\275wt\375\275\254Z\265\274\227\347%=F=D<\024\374\211\275\320P\366\274\252\240\300;\020&\345=\356!q\275\316\247P\276\031m\014>\301\365\335=s\236\030;\345BJ\2754f)\276\213%\312\275Z\320\311\275\000\251j=<\211\215=\322O\244=3j\265\275\326\003P\275\274w\031;\246sJ\275#\321\214\273c\270\326=\374\235\372\274\263\021E>FS\027\275\020\017\367\273\314\334\346\275W\304\324=\020z\001\276\312P\020\276\004\303\271\275\177aM=\034\n\205\274,\252\016=\345\007\313\275\312m\256:x\250\376<}@\272<\'\005.\275\001[\272\275L*\343\275\360/\370\275\222)\343<#=\330=\277u\225\275\323\365p\275\233\371\252\275A\357%\276E\244\306=\237\'=\274\322\310\014\276\320\372\327\272\206\261;<\204\t\224=\207&\262\275T\\\311\274\3556\240\275o\023\217\275\250\357\031=]J\343\274\220\275}\275\004{\326= \204Q=\034\254\333\275\214\355\301=\270}\364=\224~\316=lb\302=\370\312\005\275\034\266\205\275\334\220\377=\024\233\261=\360\021\325<\360\266\334<\240\306\001<@\305\304\274(\211\370=X\300\315\275x\371\000=H)a=\020G\317=\320|\275\275\340\371\236<\330x\021\2750_\341\275\210Ml=H|\203=L^\272=\0005@<\314\373\330=\310_\353=@\3772=\330K\214=h\252\223=\200\014$\273\310\336b\275\000R\240=\200\356\224\273p\2465\275d\211\313=\000mT\2734\346\316\275\260mD\275\304b\311\275\310\025\222\275\304\317\303=\320\357\232<\270\r\322=\3549\211=\304<\337\275\300\205\375\274\300\216\277\275\220\340\326\274H\301~=\310\305\031=L9\361\275 \334\300<(^x=\030\010\220=X\306\302\275\240\360\234=\360\201\214<\210\023:=@J\203<0\221\235<z\2219\275\377g;=q6\243=\367L\344\275\205i\305\277n\341\342\275\331\212\361\275\311T\210\275\246\305\025\300\025\333g\276\241\371$\277\307!\006\300{ \376?\372n\215?x\314\224\275\224\007\215?\245,\024\276V\334\026>n\241\334\277\016^\004\276L\005\315\275\255t\251?\\e\377>\235\312\262\277v\213\362\275\316\204\300\277}d\266\277J\376\351\275>fk<\200\004s;\250\340\367\277I\253\025\275\334m(\275\230y\302\275\270\304\302?f\350\365;\277\200\276\274 \240L=\254Q[?\364\342\236=\215\240\021\300M\303\n?\347\357\223=\316\323\217>\r\226y\275\266\177\216>m\330>?\302;N\277\205P\227;\311\313\255=p\350:?/H\316\275\371z*\276b\272J=r\266-\300\251P\372\275\004_7\300\277\305\033\300\223\232\302>\236\313+\276\240\262\'=\nt\"\277\262d\\=\310\226Q>n\324\246\275\007\032 \276|\263\272\275 \253l\275M\000t?5\243\267\275\002\021Y>zV\026\277\301\320\314>vs\265?\360\231\'?2}\342\276\275\343)\2778\233\037?\244\346\307\275\266\216G=\216\316\231\275ye\023\276\225\277\246\274J\320q\275vO\343\275\364\313\233\277\250\234\250=\027\177\236\277$\221\321=\313x\206\276\256\350*?\2314o\276:\372\232=XS\327\275\366\307\327?\233s\003\275\271\'\312\275\000\316\345=\270\246S\277D\002\376=\267\310\314\275\210\226\335\275)S)>F\225\306\275\211\230\307>\364QH\276\305\353\241\275\315\332\025?X\242\035=\341\270\322\275\252}\007\276N\224+\277r\255\347\274\227T\177\275\341\205\004\277S@\254=\026\021\230?\003 \202=(\232\033\277Y,\017\276P\005U\300\264xc?\020I\r>\3726\374\274\016\021\233>\021mI>\2024\362=\020\300\310\275x\243\311\275h\034#=\030gp=\254\212\272=\200\315\315<\030\217\"\275\300Q\312=\020\340\314\274p\373\025\275\350\357\231\275\254o\323\2750\317}\275\250\334\236\275\000\304\213;\270X\273=8\025\331=\030\360\257\275\260x\004\275\010\301\310= \364\366\275P\326\207\275\300\r\261\273\260\337\361=`\302;\274\274\n\250=\360\342\245\275@\036U\274\014C\257\275\330Y\253=\360\226\367\275 gm\275`\251\220\275\320\025\306\275\230\037\302\275\200\247\270<\220\366\365\275 T\222= !\235=x\316A\275H\342<=\020b\347\274\000j\273=\220B?=,`\363\275\350/\026\275\230\351;=@\203C\274<\255\267\275(\005\376\275@\375\000<H)\030\275\240=\220\274\340\205\027\274\014\334\376\275\024\366\375\275\004\220\245=x\356}\275L\024\347=\310\264V\275\340\324\227\274\300j\230\273t\260\216\275\274w\331\275\030fM=A\263\237\274\355\347\271\275<AL=\226\027\256\275\306w\000\277\312C\213\275%\300c\277\310\237\263\276\025\246\314=\026+N\276\346\004L>\000EH\275\323\022\201>,\214\240\276`\375h\275\332\330,>\244(\270\275\273Ee?\345\007\326\276)\201\371\275/u\300\275M\204\003\277\003\311\253\276\354\317\302\276MW\362\275\255p\210>^xf\276\266\336<\276\010\235\257=&\205\014:\307\202+\277\005\310\236;\300\237\303\275p\3216\275\344\016@>\222\277\r\276\312\332<\275\236\225X=\r\247\355>L\324\353\275\355\207\n\276\337i\233\276\017\014\240=\000\240\004?2\263\265\274\370\2466>\"\357)?\033\304\004>B\275 =\313\333\002=\316e\246\274Gk-\276b\347\276>!\026\267<un&\276\333\307\002\275\275#\205=2\362\313\276\230^-?w\321\365\2741c5>ta_\275s\002\032\277\323mR\277\030\233\336=\274s\264\275\330\262A\275\344\375\311\275\363z\223\275\300\223\256\275\002\245\250=L\007\316\275\014\010\257\275@\254/=\357e\274\275\372\260T=#\273:=D\265\256\275\333\323e\275@Z\371\274\023\336\235\275\023!\367<\236o3\275\313\033\022<\266\344\360\275rX\266<\3469\371<4\340\274\274\036\005\271\275\201d\323\274\177r\264<\237\230\014\276l\372\323=\334r\347=\205T.\276\303\373\261\275\332\245\353=p\261\273\274N\370\346\2750@L\275@}\026\275\3319\316\275\001y\010=\344\265O<[m\234\275\310\001\247\275\005\373\257=nV\301=\310\266\305=[[\241\275\360\003\236\274U\366\002\276\363R\261=\327S&\274=?\351\274\nG\200\274\026\372\314\275\237\274\330\275\330\262O\275\210\305\275\275\002\316@;\2636\274=e\320\222=W\251\330<Y\372\";U^\020\275\001N\006>,\275S=E\330\254=t\321\320\275.>\275\275\214\324Y\274\243\237\'<[C8\275u\217\265=\371?_=#\243\274=\342\241\244\275WL\014>@\254\002\275\021!\221\274\303\253?=\341{\361\275\320\254/=\362\362\204\274G[\001=-\031\036\274\030\337\372\275g%\322=\367&\240\274cu\017\275S\207\271=\203\215v=q\2351=\222\323c\274\362\270o;\007K==B!\000\276\310^\215\275u\251\013\276n\004\234\276t\353\313\275\n\237\275\273\353\353\311\275P%a\276\220)\213\275\312i\003>\262\301\365\2756V2\275r\321\030\276\364\276s\274\375\344\325\274(\364+\275\371\333{\274<5d\274\230\004\266\274`\006\007=\t%6\276!F\n>\024\004F\275\345K\316\275\026\272\242<\007\347\266;\2326\301=E\253\'\275w/\n>\2751,=\231ow\275\207\373\021\275\324\327H=\327c;<|\215\260<\356D\233\275S\350\356\275:\000\204\275\317\204\001\276\275\227.=9F\002\276\373~\256\2734\310{=w\247\301\275wu\020>b\014\310\273\006\016\272=\376\227\222=Yv\240<\346\304m\275\215\355\341=\303@\202\275\242\3675>\n*O\276$\225.\276\236\235E\275Q\302\256=l\371\262;(\235&=\272\301B=A\211\351=\263\r@=KL\317\275\215<L=\230\314\310\274\250\214\177<M\nM;\302o\252<T\021\246\275f\\\002\276\360@f\276\334l\370<\026AI<\263\263Y>?\210\265\274\237\365u\275@#)\275 \027\352<b\3102=C\2654\275\325\376\000>\336\356d;9\304Z\276\311\216w\275\031\275\r\276\216Q9=C\341\360\275&\254y=\344\316e\273#\224\364\275\273\252\036\276%\344\351\275F4.\275f\255 >\230q\215\273*O1\273\331\331\341:\254\214\276\275K\032y=\347+S=\016\016\020=FQ\026\2762\211\332\275\263\240\r\274!\222\250\275|\232\033=xr\202=C\327*\276\247l\003;\257\275\001=9\261\316<!\036d\274l\336\346<\300?\300\275~A\016\276\336\226\346=/\307\344<\356\022\246=\207uY\276\207\217G\274\"\357\234\275\335U\350\275Wi\006>\031%\226={\223\343\274\273a?<\206A5<\234\330>\274\355\300\263\275,\246\337=\364\354\273=\002\235\030\276TD\213=\261j\207\275\215\002\371\275\267\200\231\275T\001~\275\375\002\t>\320\255\276\275\215D\230\275\267\360\n\274\252x<\275\324N\013\276\217t\003\276\330\000\374\275\374|\335=\345T\024\275\005(\253=\235\000\177=\3152\341\274\325\r\203\275+\306m=&c\332\275t*\375<\342;\310=S\344w\275\t\325%>\\Z\270\2759_\t\276n]\"=\215\216\036\274`\006\226\275R{\345\273$j\213\275\364\312\026=\327\214\367\274\347\270o=\014\014\314?\2401\217=s8\305\277\240T\253?[\0211?\205\330H\277\021F\361\276\235|\331\276\263\371\314\277\0344S\275(\3725\275=l\321\277>\026\265=\251\021\206\275\307\214C=Gi\023\276Z+\003=\013\366\345\277%\033\307\277\236_\365\277uI\307\275\201<\364\276\323.u?\023\216\202\275fpu=(-\347=5F\327?\310\"\014\275\301\262 \277\320\371\362\274\213r\257>\304\253\300\2757\371\221\275\355\013Z\275\3350g\277\204\273A\275U/\272\277\177\237\r\300/\356\277;Qg\007\277\244R\275\275\266\001\213\276(i\361\276\305m%\277hU\031\276w@\007=\"\203\336=\225\026\275\275\221\340\023\276D\005n=\"a\317>\352\325R\275\004\r\217?7*\356\276Q+\200>!M\257\275h\021\034?\363^\330\276\300\014\243\277\211\007\266\277\364\234\331\275\307\312\033\276\030f\237=\3270\233\2756\374\003>\215W\220\275 \321\007\277>.e>\254\372\315\275de\221\276\036,\207\276\211\031{?\256\262\254>\365\315\257\276\275\350\223\274\241\360p>9\377\341;\251\336\240>t\272U\277\036\377\035\276\014\304\335\275\267\2538>0\221.\276C\3011\277SH1=\260\217\312\275kp\242\277\234P\232\275[\273\262<\333\216B\275\362\226\214\277s\3400=,\321\210>\340\330K\275 \306\033\2774\237\317\275\362|\025\276\325\336\276\274k\235L?\357\007\314\275o\2369>\215].>\232\\\366\275\031(#\277gki\275:S\037?\376\212\017>_~\207\276^\364n\275\340?y\275\016\371\017\276\324\210\204\275mH4\277\252\250\355\275\255\273\211>3BD\273\214\024H\277\303\003\245\277L\270\003?@\0002\276\332\332\035\276nr\031?\303\352\254=\256|\020\276\225gg=\254%%=\026\263\177\275B\211\005>\301}\231==\214\336\275Q\021\205\274Z\000+\275\342\371l\275\231\360\343\274\310\261\247\275.8\335=\'\204\364=R)\250=\225\352\326\274<\005\351=\235\030y\274!\361\301\275\263(\036\275w\255\203\275\362^\212\275z\204C\275\324\030\200=\177\326\361\275Y\n\206=?\355\340\275\306\243\235\275jZf=9g\017\275\270\354|\275h\231\373\275Tx\344\275\302\274p<\332\026\240\274%V\367\273\370\243\372\274\0314\313;\357_!\275(\211\346\275\241{\324\274\370\226i\275\223\304\314=HS\351\275\207\367\356=\323\363\231=\336\253\336=\242\307`\274\230\237\324<\006\370\225\2756\351\007\276\363\200n\275jl\177=\'\253\204\275oiG=\245\206\024\275\337\216\264=9g\363:\3727\353<##\246=\020\334\246=3\026\366=D\202\340=8-u\275}\010\272\275\016Q\352\275\re\235\275\251\214\307\275\367\357\355\273h~R\275\273L\024\276\321K\025\275;t9\274Pq:\276\263\030A=\027\007\275=$\350}\275\251\027\310\2755\0308>\001\036U\274\224z\232=\331\373\215=T\273\032=\024\212\207=E\226&\275@\347,=o\"4\276\200\356\004>\r\344\374\275\"\332\232\275\265\353\005>\375\213\004\274/\036)\275[\033~\275\204Q\020\276\370\242\256=TK\227<\241O9\276\344_\260\275\375\367\216=@\273\003\276hIF\276A9\227\274\"\204!>\230\005\004\276\312\334\016\276\005\244M\275\342\361\024\276\250\307\362=\270W\324\275\260\007\354\273\262\304h\275\305\351\'\275`H\324\275\307\007l\275\3256==!\347\253<%\324Y\275\267E\341\2751\302\203\275B\374J\274\357\254\343\275\363\367l=_X,\274\177\245\235\275M\203O;@\033\221=Y\243\316\275R\tA\276xZ2\275\221n?<\271\256\330\275\rnO\275\013;\320=]\343\273=\213\250\253>\001\201\275\277\004N\314>\312?;>\304\361\013\277\257\311B>E\334A>(\373\036\276}]-\275\t\022\230?<\365\237\275\344i\370\275\306\216\021=gbz\275/B\016=\371\006\365\277,\027\037?FV\014\277:\\\n\276\035\203\242\276\336\260\311\275}\035\036\276;`\221=xyr\275(;\216\275\n\303\225\275Fxl\300h\321\325=\256U:\276\223\344\363\275;q\374\273(\241\262\275\353\364\206>\036\340\322;m@\214\277\254\201c>\201\n\322\275\230\212\341=\304\320\n<\325@\320\277\271<\371>\022\260\026\3009\021\352\274\000\013\332<\377\002\237>\363\333u\275;\350\024\277\020\0079\276\t\341\276\276w\337\234\275\030\300\024\277\233\'\252=\247\206(?\000\344]\276\236#l\27791+\277\010\252\003?\024\242\364>JG\330\275\027\037\355\274\254\233\316\275\267\203\255\275F\304 >\314vv<\233\234y\275P\233\313\272%b/>*\007S>\013\241\000\276BD\233>\032N\342=Qv>\274\211\311{\274\327KW\276+\265>=\025I\323\275VIS>U\203\230=\267\010w=\016K\323\274\242\222\232>\261\356\211\276\014/\224=z\360\262\276\330\326\203\276\2511{\275Z\235\016\275\314[\205\275\334\272\233\275\246\222\377\275+\233c\276\230R\017\275\003\3415\276\234\177\211=`\325\206\276\340\275\014=C:\035>\212\320\027\274\376\365\017\276\332H3>l0J\2759\376t=@\237\310\273\",\330=\234\327\335=\251\267\302\275\227\321\307\275x\r\003\276\344\342\353\275\242,/\274\017\361\205\275\037\022\274=\363\223\245\276JK\236\275-p\321\276\243\302\362\274\207\241O=r\356\340;v\270\243\275\021\274 \275m\020#=\034v2\276\304\327\302=\330}F\275z\237\231<)\025\233=,n\212>\245G\246\274\255\352\306\2754\035\030\277\240\256\032>E\357\350\277\354\244v\277\361\000^=\334\030\204?hux\277Z\375\237\275#f\016?\366\210\332=8\014\334?\353@G=\312-\256\275\037\242!\275Y\225\033?e\300f?\302\367.?\262\034\221<F\355\022\277\200\255&\277G\257\265<\207\343U\275\234\026\216=\315\264\247\276\035S*\274yB\303?p[\254=\002\274\214\277w\3646<\017y\331\275\300\013\323\275\225\277\005@+\330T\274\013:\337>\332|1?VQ\262\275D\253\247>\310>\301\275\017\271\027?\376\235\340>\336\036@\277#_\205\275\353\320\254=\003\013\200?K\225\246=\205\024z\277\345Hh=F\302;=\231\255\276\275:0\274\276\300\346\363\276\262\341v>+.S\276\371\005]\277\027\347G>\366x8?\017-\234>\010\233\252\275\334\203\211=\260\230<=\240\003\250<\200\024\314\274\000\270{\271\200]\n\273\260\331H=\320\246\242=\200#\220;H!\"\275\370\005s=X3j\275\020\262\n\275dt\266=Dn\370\275@J^\274\270\250y=`lZ<l\335\377=@\000\237<\010\034\304\275\220\240\223<\000\022\367\274\300\203\206\275\230\020\335\275P\033\354<\370\264\010=\300F\326=\324;\206=\250\261i\275\020O\215=H *=X\213*=\200f%=0z4=tZ\225\275\210\004\224\275\244A\267=\200\244\274\2750r\237\274p\204\r\275\260\\\233\275\330\215\217\275\360h\266=p)\320\274\340\361.\275(m\201=`\233A\274`*n<\330\213>=\344\357\236\275`\314\265\2758D,=\360\316\304<\244\317\232\27503:\275H\333\344\275\000\210\037\275\000\342n<\240J7\274\2344\237=\360\030\344\274@\026\215\275\224\244\350\275\2757A=\350\325/\275\302\026\261<r\003\356\275\263\301\225=\034\366\013\276\335\343\276=\327<Z\276\237<\023>\037\367\325\274\032o\221\275\tv\353\275\312\300\033>\302\001\337\275\265\332\251<\362F\277<dI\263=\235N\333\275jG\203\275#^\265\275\\n\206<\312\253g\274S\354*\275*J\274=\3005\t\275\"L\032\275U\356\'\275\222\031\320\275\245\2449\274\312\252\351=D\005\200\274\017S\322\275(e\306=\035\354\321=-\221\016\275_2\t\276m\227\230\275x\332\026;\221:\023=\273\261\247\275\266\207\300\275\321H\204=\311X\304= y\\\275\226%:\275{\331\330=\371&\004\276\035)\276\275\351\331\214\275}\244:\275\261\3009=\315\035\004=+\310d:W/\0239n\365\000\276B\377\347\275\237\014\300=\026\271\204=\004?\323=\376\250|=\253\243\274=,\372\362\274iE\332\274\256$\254<\2428\374\275C\254\247\275l\021\326\275\315Y#?\344\306\253\275!\201\025\275Q$0=5\"{?Ai\244>\352U<>\036\365^?\264\334*\2770^\t\276\t\232\317\272\244c\354\276\321\320\231\275\212+\024?\202O\277?\224$\216=\022>\310\274!\320\266\276=\2024?\377\205\205\277\210\301\246\275J\000D\277]\270\002\277\"K\020\276\303\000 =\260\010\355\275\244:\267\276\332\356\022\276k\347\002\276\307\207\024\276\272W!\277()&\274DzP\275\210\n\n=\322]\206>\216<\211<\246\245\033:\302b\241?\210t\204=\365\311K\277@RB\274\2672\221\276\322\332\310=n\025%?\271d\262\275(uk=V\"|\277)\3160\276\366\255L\276\023\216B\275\322t\004\277\327\313\230\275\022\230\203\277<J\027?\313?\274\276#;:\276B\215\010\277\233\306\333\276\203F\202?\017:#\2762X\231\275)\330\037\2751\031\010;[\347.\276\016\350\014?W\324:\275\273\234\033?\222\377\227\277\320\266\366>\242c<\276\344V\306\276^E\326=\003V\217?T\005>\277\000u\217\274E\250:=\013Fd=\351K\221?\352\260\306\277\005J\217:n\362`\275\"\013\331>\355\246\365>1Hb?\277\330\307\275\245\235$\277DH6\276\215\226\010\273\010D\210\274\000\315+;kQ\\\276T\200r=\260l\"?\020\020\261=\350~\233\277\327&\255\275\"\323\017\276\204\261\271\275]a\310?\031\203p=\352\311\027@EW\t?\352\351\025\276%\327\201>t\273\260\275\255m\n@\tA:\277\310V\261\277S\366\240=\361\333\027;\353\002|>\301W\251\275\232V\227\275[\273m=\264\211\271\277\357\366\226\275\340C\203\276\274\203\270\276u+\345=\210G\205=\363\266+\277\023\301g>\246 \347>\024\323\"?\031#\247=\"c\326<|\233\002\276\211\017]<\007@\234\275\331\317\017\276\346Ra\275\014FF\273\035\2760>\006\014\277\274f\360\360;\341[Q\275\2140\243\275\036D\342\275\343\241\022\276\325\375\332\274\010\354\224\275S\016{\275t?U>\212e\267\275\235A\246\275\362\335\240\276\301\001$\275pp\264\2756x^=t\2427\2767x\272\275\021r\246<\231\"\327\274@\'X\2743Q\027=\3314Y=\202\305\030\276d{\330=`\005\267=\027\251\201\275\210\332\260\275\324 \367\275\003\244~=EX\033\275\353\353\301=\364\t\000>\305\353\211\275\261D\311<\254/\311=\030\177D<\307%\364<m\343\003=\236\210\225\275\002\\\332\275\243\250E\276v|\010\275\335\202\216\275\\\246\233=!\030\331\275\350\247I\275\370,\244\275\022\271\204=\235b\027\276\n)\033=\350\262\353<g\222Q=<I\316\275\tJ)\276\303n\332\275\366\002\253\273\216(\007\276H\226\351\274\307I%?\355\260\206=\316\360\210=m \014\277U\237\212>\252\032\016?\367;\377\276#I\324>\270@s?h\376h\277 \\\300;\246\235\"?(\377\351\275y\334\261>\026\037\036\277\351\177m\275\230\305s=+\354\031?\276\203\224>L\333`\276\301p\013\275!`\257\27622\010\277\374\274\032\276\\D\007\274\001\215\003\276H\324G\277\322\345e\275\366\303\232?\034\214\023=\277(\230\277\241v\345\275\276\257\240\275\337\340\036\276\343\335\203?\rS\273<\215G\273\276$\234D?\034L\216=\355W6\277\323)\354=\203MZ>)c\211\275\235\031F\277\224\214=<5\004\275\274\336\240\232=Pk\373\275x\177\345\277\201:\017\274\240\035F\276\373F\240\274\n}\027\277\214\021R\2772\370\232>\215!\241\275\305\222\221\277)\223O?\n\214\010?\321p\022?2\033\223=\317e\246\275\205$`\274\361\003d\275\347U\334=S$\314=\263\264\307\275\333UG>\302\210\n=\264\225\270\275\254H\016>5J\320<\314u\223<\014-j\275\264\023\376\275\352\036\307\274\225\277\214\275\273\035\"=\331\'\221\275\334R\031\276\323\020\001>2\220\025\276\233\027\326\275\034\265T\276\301\ty\275[\325\355<\272(\310\275{\273\000\276\006\267\215=6|L\274?\317\177;\307\316K\273\3115\325\275\000\2418\273\260.\025\275h,\325=THC=\000\216\337=Z\340\347=\016<K=\034\274\016\276\253\240\332\274\365\362\235\2753\357\337\273\300\226\240\275\364\373\212\274I\276\273\275^\372\357\275\345r\007=%\221\323=\257>\353=\267W\310\275\253m\214\275\205j\256<\270\207Y\273\250\241\366\275Q\246\017=\201\372-\275<\031\254=\341\375)\276\013\370\221\275\304k\256<=\243\350\275\034\370\026\275\246\276\300\275-\351\025\2758\037^=\306\234\213\275$n\262=7\373\332<\366\254\342:t\035\035\275\222\343z\275\332\013\256\275\2758\027\276\306E\352\273\324\337\354<\311\036\256;\314\017\222<R]\223\274Y\272\302\275\035\337\r=h\304\235\275d\204\324;\013\037\273\275Bc\007\276\000\274\201=\374h\266\275\315\023\333\275o\002\027>\223U\206\275\016\'\211\275\206\356\020\275\200FP\273\213\252\342\2741\274\370=(\275\253\275\232\202\004\276\213m\354\275Tq\377<WW\362;\360\272v=\310\334\217=\322\341S\275\371\233\220=~\320\250=\277+\204\273NK\002=\177.\003=\010\237\013\276oh\025\275j\212\355\274\026\\\316=\361\236\262=\370Y/=e\255\371=FaS=7\352D\275\215\0029<L@\231;\215\352\224\275\372\333\t\276\277\243\211=\325\214e=@\240\000>I\210\211<0\371<\275\213@\017>\254\032\322\2750-\211\275\253\026\035\276t/\216\275\222.\313>3\034\320\275\003T5>7\0175\276\022\365o>\254<@>\303\273\245>\345\345\351\273\035\371J>h\326\250\275\013\232\347\275\353\034\217\276\304\303\023\276{\237\337=u\301\026\276\316\361@\276\000\214\241\275\264+\360\275u}?\273pK\237\276\347\350\251\274\246\231+\276\274\311 >\346w+<\'\337\213\273\244~\267\275\244gt>*\327\224=\265rD\276\256\014\000\276\352%&\276ADY\276=U\023\276\373\277\313<\020\304\002>\205\362\226=\325\366t>\301\266\317<F\357\006=\267/\022\2768V\372\275>\025\214\275\212\337\371\275\357Q\007\277\031\305\317\275\201\224\240\274\004\377}\276\010\024G=\034l\013\275G\2125\276\023N\371\275]\277\235=D2\221\276\216\235\275\275\000\006\277\275\207V\006>x\014\021>zh\375=8,\230\271\263\353E=\336\342S=\365\302I\266\3304\234=\026\334\246=\245\250R?j6!;\232\372\253>\301t(?=\200\234?\307h\327\277\246B8>\213\"\227?v\376+?\200\314_=\004\230\017;\340\031\321\277\024w\341\275xj\275>\\\233\002>E\200B\275r\301\305=V\003A?\203\350R?\344\345/?\305\274\006=\305\352\315>\203\335\332\277\t\324\320=\031\031^=k\317\246=e\031\254\277\212\355\277\275\273\303\264\276\251\032\243=\275\361\214\275in\346\275\375Q?\275x\324\303\275W\3552?Q\360\271\274 \036\351\277&u\232>\005\266~\274?4&\277\347]\224\2759\002\034\300\'\245\003\277\202L\003>1\035\320\274\235\375\036\272t\277\312\275\003y\257=\317\024\334\276\252\302\200=]\360J\276\312\037\003\276\245\003\237>W\226^?\353T\177\277\213\236\252==3\032;\336\300\003?\372T\214?^0{?\214\211R\275\212\307\222\275\275\274Y\276n5\017\275*g\245\277\210s\227\275x\353\332\276vq\306\276\177\322o\277\261\212\213\277t\252\253>\314fz\277\332\204\345<x\222J?\321\021\n\276\304x->\t\n4\275\346P\360>.\324-\277\367\326\207\275}#\001\276\215\372y?\'\236\232\276\004\246\222?\267\241Q\275\177{0?c#7\277\006).\276\207\336\326\275\232)\341\274\261-3\277\255\374\344\274&{\000>\301\304\375\2753\242c>Yi\306\275\276O\n\276n|\206\275\003\226\034?x\305\202=\306G\254>j\200\265\277\341\363\222\275\025\2624?P]\250\275j@e?[U\231>\310Q\350=\3328\250=\344*\370\275\361fG?\344\234\241\275S\355R?F\\(\276\360\225\265?\261\021\005\276\014\232&?\353\245\200\277fr\037?\306-\336\272\301\320z?X\035|\276M\210\226\277y\251\034\277\252\033\376\275i\010S=G\2372\275\366\254\253<\257M\332\275\307k\026\273!\247\341\275wi\023>q\260\310<\014\204{\275\025\023\354=ZC\301\275BKS\276\020$]\275\342\263\"\276\211V.\276\251\245\341<\233\310\225<\024\321\212=\256\351\365\275\033\270F\273\370\000i\276\035cK>&Z\275=\037b\n\276\333c\250\275\317\005\245\275\213\345\230\275\346r\006\274!\252\r=D\253\362<c\326\250\275\302\254\022\276_\037\236\275MLG>\220]\003\276}\325\254\275M\264\364\275\2775\031>B\215\266<I\311\372\2749\031\366=5\374V;\265<\325<\365\320\347\275O\267X\276\213\273\301>\353\013\025=\346\330y\275?\371\010\2760\315\000\276\334\360\236\273x\346u>\1777\234=p\277r\276k\023M\274E?\344<\334e\033\275<Wc\276U\210\'\273\024\356@>y\016\300=1\022>\275#x\200\275\013\';\275\324[\377=S[\035\276\355\255_;\252|\317=\334]\252=\026 \237\276\225*\t?\252\370\225>\025\272>\277\'H\203?X\2409>@\200#>\331\303\001>\200\337q;\033\025\303\277\312\177\016=iS7<\310\024\212\276\205L\233<\022\243\226=1na=2\256\332>$\264\207?6K\330\275\355\336\003\275$\240\'>\006\001]\275X4\311\275a\354\302=\316V\014?Rk\010=\033H\031\277h\327@\275\207\332\201>N\261\020<9o\311\275\313\334\246\274C\325\200?\361\371\273=\242\343\200\277\2363\216?\310\2035=\335\360\036\276\3336\320\275$\233p\300\210\3130\277OWr\275H\273Y\275\010W\026\274j\217\003\275,l\207;\321\016\246?\313\372i=\271\365\014\277\361\315\233;\213\364\326?\003o\277\276i\335J\277\021\006\317\274\231\357 ?\371\370\203\2776jV?\301\033P?\300\237\014\275\272\'\335\275\251\353\252\275\225\206\335\2758\350\342\277#n\346<x\3703>\r\212K\277\004X\267\277\270&\226?B\301\323\276\334\r\225\276\0208Y\276\250\337\371>\250C\345\275\214\345;?\351\251\226=X\3546>/\350\244?\001\002\035\276\316\263\206\275\231\227h\277\367\227\252>\324\371\002\277%\2478;\302\356\357?\246\360\334>U\323\004\276\303-\376=\340(\307=.r\233>Ts_\273k\250\361>\034\013\216=-\177f>\357\242\377\275\327\366C=\\J\372\275\221f\347\275\203\245\312\275\253\217\202>\036az\276\216V\013<\002\010\244>@E2<!\374\320\277\251e\017@\304y\353=\216bM\273\203\225\354\275\211\022\302\277\207\275\262\275%\307*\2779\364H\275\013\206+?\332\375z=\241\362\351\276<\306\207?\232^\000\277L/\253\274\033\004\366\276\216(s\277\034\235!?\360G[>a5\245=\003\226\326\275\311\361\272\274j\014\"\275\325Jo\274B\371w=\201\264\274\275\361#\003\276SO\316<n\364\337=\333\337\277<\364\217>=\207\202\355=\t\360\217\275\335kM=\300\357\260\275\365\236r=\372\346 =\250\301\201\275\206U\317\275\016\271E\274\030\234\244\275\362\276\003=\322a\367=snZ<\206\022\250\275b}\373=\223i\347\275\266B\274=\200%\235\275 \356w\275\360\341\277\274}\332\357=\320=\206\274-\353\251=\212#7\275}5:\275&\251$\274?G8=\326>P\275b\302(<\323\240\240\275\210\255\300=\303\017\201=M\376y\274\n\370\222=n\320O\275-Y\217;:\247\353=\023\223\314==\267\2668\312\366\316\275\'4\217<\030\272\017<~\005\312\275R2\223\275\340.\264=V\320\353<>\333\356=\2131;=\334c\323=\227ar=\034\305\270\274\311+\231\275|\243\270\275)\014\362\274\335\t\342\274^\004\367\275\336h\206\277\037\342\357<\242\252\326=\337V\301>\363\341\323\277>@\032?,\212\274>X\203\261\277Q\200\350?03\207?\345K\217=94\007?\017\223\006\276\352_E=\251\363\222\277N\323\036=\316\232\343\275\346\373\375?\264\244E?&\n\275?\213\204\271\275\366\023\262=\244V\371\2768\030\261\275KZh=*\002\306<\326F\244\277\317\267\352\275oW\304\276\021\277\001\276\311\376\010\300\262\246\203=\2727\257\275\016=s=\355k\206>A\220\225=\310\343;?\244\213P\277\243\330\027\276\3557C\300h\004 =\243\013\315?\331\0273?-N\221\277=k\331\275\215%\002>HT\367\277X\252\270=\300\3750>\032(\3439S\177\000@\276\374E\275#\256G\277n\364\033\300\001\363&?jl\241\273\000\255\335;\256\036\376>Sh\206?^\244\343>\017\t\232<b#\032\275Y\302\314\275\3765\352<Y\346{>\213\0256=\264\233\200=\243\305\246=o\202\254=\027w\t\276\327\365P<~\346==\2177\243<\375\324\225\276h\007\202\275\333#\237\275\232\200\017\275\231\373\365<7\350\311\274u\034\266\2757<\\\275kL\024>\212&\210;\371\251J\276^\n\034\275\235f\017\276\270\371\005\276s;\321\274f\342\357=\242\352\244=\304\3221\273\0317\236\275`\"t<\254\325)<\344d)\276\024a\314\275\207A\004\276\021M\003\276y\225\367\275v\374a\275U[6\276#oT=ak\327<\277\377\203\275\343k\202\275+Z\022\2763\030\202\275\203\276\222=\256{\373<\263:N=\322\026\235\2758\232\317\274K.\205=\016\351\037=t\234\240\275\010\270\207\275\261O\n\276\036nu=9(\">\274\026R\276\353$]=\304\205\366=*\021\250\275\"\\\177\274\376\204\006\276\334J7\276\301\254+\276\0036\350<:\000\214=!\375\265\275a\316\212\276\034\212A?lJ\337=\032\216\232\275\2420\037\275\241^z>W\335N\275r\241\234=\'\262\260\275\257&\232\276\331 4\274\307\'X\276\305\307\306>\371\343\204\276\261\330\t\276\354x\241\276\335\254\250>\322\376\316>D\233\226\275\341>.\276\253\016\364\276_\363\201\275P\262\345\274\233\314:=y@\355\276\365\326\220\275\362g\037\276\004l\r\275\26085?\235\255[\275>\334E\276>\270\016\276(-\014=\266\207\270\275\330\370d>\201?\233\276\357pz\275\024\017\233>\223\034\022\275\250\021\032\276\032\273\357>\243\2224>f\014\344\275\264:&\276\313\303\320\275\204\220\366;\333\242\213=\223\"\241\275_\033\206\276\310\353\251=\351\301\246>kd\'\275\r\217\212\276\375%\243\275\235\350x=a\355\n\276L\370\221=\326\367\235\273q\357\214=\276{\305\274\2231n=?\330\357\275|gq\276],x:\311\306\252\276\301\005\t\277-\257\334=\242\221:\275\211j\264\277\034?\036>A\357\235?\3103\035\300\372s\001\276\347@\277\277\270\327\340\275\212\345\310>\305\032\n?\335\311\356\275\332\274\254\274[?\226>\3538\\\277M\366-\277\226KA=\304e\365\277\003\357\202=\330\312\024\275+\304o=\2123\004\275\270\245\247>\346\036s=\353\351\212\277yE\267=\202\226`\277\001z\241=\037\243\005\276\205\347\225\274\254\370C\276\306n[\275\244\034M\276z\252\214\277\205\237\344\275fDe\275<\207\t\276\213\033M?\366\260\305>\306;\006\300\t*]\275N\231\024<\013Z\002>\016\326\224=?C\203>\225\201\n\276\351\263\003?\030c3\273\nc\266\276tx\351\275\"\245A?K@\363\275\336Qu\277/(\342\275E\257N\277\017\266*\276\232\331\262\275N\267\367\275EH\362;t%\366<\215\265~?\216\"t<\232\320M>\312%\200\276\312\250\213?{\330\032\277\024\271\376\275+\257\255?+\362\333=\347\254\035\275\316^\024\276\323E\320\277V\r\006=\250y\027?\234\213X\276\273c\030=\270\377\273<70\n>W\230f?\345z-?\233\272\211=N\312\241>\014\351\n\277x\r\003\276\226S\222\275r$\225\274\262\014\220>\312\036 \276%o\033\277\373\016\'\273\304.r?0\315t=~M\232\273?\320\257\274\210\233\003?\375\t\207=-[i\277\354\365Q?\014\360\014\275\246%\373>\245\206\251=h\344+\300\274\214\177\277\315Rw<:\0225=q\224\230=\322\2219\276\310\221\311\275V\033\260>(,\000\2765\214E\277\006o\331\275<\307\320=^\373<>`\215\332>;\317`\275\220u\356>\351,!\277\0270\275>\253\334\000?\2501\025\275 \020Z\274\360\376&\275@*\026\276\237R%\277\r:\322\275\223G@\277\233E\237\275*S\324>\223\225\037\277\322\021x\277\267@|?Ub3?\245p\227\277\205\263!\275\347\277\263\277\203\343\275\273E\024\327<W\366\033?z\r\315\275d\220\315\274\352\326\026?\201\262\367>\244\247\246\276\\R\001>{P\306>\003\265\036\277\323@\223=!\r\206=\216\306\303\275#\3767\276\342 \344\274\327\251I\275e]\305\275\034,\337=\331\357l=\200\346\242\275 c^=\2574\342>\361\213\335<\376\352\n\277\002\251\373>\027I\223\275\"\240l\277\300\323]\274\037\302\373\276\216\014C?\r\375N\277\324h#\273\n\301|\274\2069\001=\017R(\275R\001\024\300\'\324-\275k\221!?m\276\244=\210\314\346?[\223\020\277X\360\266>\333\203\240<`\2304\300`\305\274\277\212\204\033?\024\001\235?@G\361\273<i\250=\240\2651=\2175Z\275\201\223\031\275z5W\273\236t]\275 U\227=\355\307\200\275\203\031\n\275\007s4\275\004Z\215=\242V\304\274]fZ\275G\374\205<DT8>\250\003\220=\t8\352<eB\332\275\270-\317<\330!U=*\331\351\274\032\342(\275?\t\363:R\365\253=\023\317\317=\362\202\231:\363\253\204=\375\000\235\275\233\344\312\275c\326\255=\224\327\337\275.YG<\267;\222\273\264\360\210=\2000\214<\223M\306=\370\317\220\275\334H7=Y\320\274\2750~j<\214\263\321\275\270\013q\2757\200|<\300\276\337<\344\356\264=k$x\273\375\351\311\275t\346\023\274c\343\265\2759\213\217=\035H\004>\201\345\246\275\371(\345;\334\336;=\000\245q=\373\262D=ihv\275^y&;\221\3345\275\211\205\002=\336\264Y\273\231~\035=*\004\032=\350\203\346\275\336\306D=QO\241\275z\362\303\275E\033t=\017yq\275;\354\233\275\261\016U=\376~\005\276\202\010\337<r\372\214\275\310]\214\275V\365\254=,dY\275\007`\271=\223y\361<\030Bo=\0275\234=\347\352b\275\201\202_<`\007\252\274#\217\037\2751\371\255\274;\234w<;\300y\275\017/\024>\000\253\231\275\272\255m=\303w\237\275\310e\375\275\231$c<\250Q\006\276h.n\275\340\004\203\275c\314;\275\326\2364=\2016_=\250\267.\275C;\331=gB\316=;\2478=\252]i\275\001N\364\273\336\267_\275\372\217\360\274\375\212/=\352\0319=\311\251H=\330\024\252\275%\033\277\275\n\002\374;\367\336\324\274w(\355<Q\346\311\275\215,\330\273@\\\344=R\3565\274\275m\245;\253}\335\274\354\245\245\275A\363\332=\2465\026>\375\260\314=\210\310\205\274\033\020\237<E\247k=\023\014u\275c\006\276\274\277\035\277\277\025x\332\275\214\212\024?>\217\331?\001)G\277(\270;\277\302\362\220>\341\356\252>^\301\374\277\032\337\237\276}\316\377\275DB\356\277)\375\335<\311\264\247\277\034\232\301>\236 \010\276\020\037\024=\217\346\201\277\320\237(\277\013\247\215\276\307(\n\276\262\256\333\277\307\036\244?\312\327\335\275\301\313|\275\300\352\263\275\313^>?\214\034\304\275N\264`\277F\315\210\275\340E\201\277m8\\=\260w\014\276\223\244/\274i\372\212\277\242\377N=\324E\032?\226\006B\275\thu\275o\271x>\036\202\202<,k\301\272\203\006g?\367\330\306\275\342\341\223=\013\325\304\274t\037\222\276\344,\257\275\261\277\374>B\277\020\274o\030\254\277\024\266t\274rrq?\0000\204\277\251O\344;;\027]\273Y\030\304?\361T\247\276[\310\023\277\331-\223\276n\037\377\274\357\327\240\275\325N\274\274\336G\314<\301\351B=\215\t\337\275a\312{\274\223\310\203\277\253\236\341\276Lv3?\337\',\276DLv\276.\367\254\277\010\360:\277/aa<\375\242\227\276\3125\334\275\002\240\032\277\232\030\215\275}h\022\276B\335\006\276XJY\277\251\302\350?Z.\210>\347\361\211=B@=\277\314\312\007>yg\266\275t\247\013\276\276\035\215\274\035\317\r?\007\216\340<\022\3056\277N,\322<q\310\236>T\004\020=H\350\002\276\245\017\202\275\027Ce\277\331\035M\275\263\315\326\275\363\273r?,\321\221=\000\025\306>#Y\r<1\346M\277&\010a?\312\352/\277c\355\r\276\035\352\003\276\245u\201>\351 \304\275\021\234\232?\3029[=\315\r\304>\n\002\361\275v\225\237=\271C_\276\372\306\353\273ml\313<z\311\253>\024\350\232>\215w\370>\224\330z\277$\276\013<\025:\207=1\363~\275\320\216\230=*\273\310\275&N\201=\247p\202\274\233\275\244\274h)\221\275\274\250\252\275\3754 \275\234\313\313=\215Y|=\273\302\240\275\r\021\350=\233\260\257\274\032A\246=\274\357\244\273>\215\317<8k\000\275j\002\376\275\327w\026\275P\214\312\274\305\242\022\275\225\325\303\275\225\300\002>\350\327\265<@\230\267\275%o5=,.\255=\364\360\307\275O\274\205\275\353\320^= \330c\275rJ\331=-\020\326;\237\355\211\274\340\276p\275\226ir\275\322\036\227\275\302\377T=\360RU\275\340\357\276\275\273\315\355\275%\350\370\274\234\375\351\274\020G\253=N\360\320=\244i\244<\372^\215=\357J\204=|\224o< v\333\275\346\023\204\275eB\334=\254r\315<\221X\n=\221\272E=-\026E\275a\311r=\215\301\221<TM\317=\004fD<\277\205Z\275\002b\"\276K\322X=\336\007\036=\007B\220\275j`g\277\266\345+=J\201z?0go\274\252I2\277\265fx\277\207\036@\277_\260\207\276\263\261\356>\272\ty?\303)\007\276vV\253?A\262\003\275\221A;?\230a9?\301+{<2\247\243=}>\232\277\244\370\263\275\323\347\006\277\221\302Q\275\275\376\221?\341\r\002?\n!\272\275\003\033\227<\006\024\r\276PiL?du#\276/\317\226=-\304\025\276\236\356\274=O\221,\276x\235\274\275\254\313u;\317\256\030>\325\347x=\262\032y\277\351\372\331>\242>\001\276\0246\372\276\034~\306<\333Q\205\277e\347\350?K\375+>\273\305\236<\031X\251=*\007\252\277\33588=!W9\277\2326\223;3v\235?\222\372\304=\323C%\275\310ZU? U\267\276\275\035\302\275Q\220\253\276\257\205\200\2771@*\276<\'\250>\005o\307\275\345\343\261\275hh\235\275?\023H\275h\202R\276\305\027\313\275\220#|<\006\365\016\275\021`q\274E\370\263\275\323\236\246\275\235\225\246\275\307V\213<\371\326\212=R\206S\274\224`>>\234?\342\2750\271\271=\310l\374;\200\307\252<k\247\177=%\010\250=Y\332%>\300\030\323=\003\306u;\323 \367<\310\323\270<y\201\356\274\274\367\234=\013j\022=\341\206\200<_\003\333\275\230\211\363\275]\031\341\275\374$\241=\374c\021\275\'\302\254\275\206Y\237=\002\243\211\274\272$\237=\346\254V=\204c\000>M\034\204\274^\034\"\275\217\3529\275\017\262\351=\271z\201=rw\371\274\257\207V=`\247\314<\364\ti=^\036\203\275\251$\344=s\223\342\274+@\330=7\244\270\275\2163\277;M\375%:2\036\213=\245\016\203=\033Z\330=L\326\215=10\313\275N*\225=\007\232&=\337\325p=\014\343\n=\252Lv\275\255\336\037\275P\260k=\270\231H\275&f\332=\360uF=\017\366&<P\034\235=@\200\257=\247u\341<M\345\277=\341S\002\276\000.\357\2756>\271\275\213f\273\275Em\037>d\303&\276oF==\277R\005\275\006\245(<\350\025\276=\"e\222\275}R\226\275\376\366\237=\256\206h=>\327\006\274\236\323\241=\377\365\310\275\376e.=/U\352\275\010f\360\275} \375=\363]\334\275\236|P\276#\352\220\275\240\257\341;Dl\003\276\374\356 ;\333\347\254\275\350u\234\274\233\323\327=,\316~=\234\020P\275R\234L\274a\200\376=o{\274\275\317\037\310\275\306\205\032=\005;*=\312P\340=\016\343\206\275\250\275%\276kcg=\332\375n\275J\366D=Q\370D\275\'t}=\340\030#\275=\200\023\275}\240\032\276\244`\025\275v \016=\241\370\355<b\334\342\275r+8=2O\256\277\036g\377\275h\362U=\363PE\276\000p\216\277\274^\311=I\3056=\000\014\234\277\307\310\250\276\263j\267>\255XA\276.\307\016>\353|\001\276\017]\013\275m \004\277\374\332\250\274p\345\267=\027\223=?\327\375\327;e\224\301>GC~=\250\000\223?\26224\276\023g\322\275\201)l=4\347\251\275S\251\'>sq>\276(\316\327\275\330X\250<\356\376\202>$.\030\276\205\270\205\274\355\204\247\275Q\362\242\275\2705\356;\252\220\217\275LE\014\277\250\370`\275\267\312\233\276\271\332)\275\330\017\002?\3371\007>\271){=\254\251i\2751\355\022=\353\316\316>T>\253\275\'D{>\020b+\276\371\252\365>\035\312\005\276\007\025\213>\262=\203<\323e\242>\330S8\276E\020\026>\014d\201\276\025& \277 \016G\276\270\237\014=\342\365{=\365\3334\273Q0\373\275q\331@<W\255\020\276\266\252\204\275\334bD>\336\3166>0\353E=\313\023:\276\302\304=>\260\027@\276D)\017\276wg\263=\210\033\252\276j?\244\274\0230\010\274I\270L>\360\230\234=\315)\350\274\316\237\344=\304#\306:rz=\275\205\324\250=\037>t\276\304&\224:\301\370\211<\027\354\270\275\272\037\n\276\322$\216=\312:\254\275\221\031\367\2747\275\250\275\337\364\221=}\257\241=ny \276\036\372\215=\336\202F\275}q\307\275\016t\363<\312\306\274\275\211\371\323<\346F\336\274\263o\r\275Q\211\332\275Z4^>\327\022\214=\025\211\250\275\t1-<\r[\323\274\257c\320\272\261v\202=\n\361\232\275\315d\032\275\305\376\n=\020\375\251\275y\343`\274B\310\371=\324\001\257\273\244c\206\276K\353\007<\212P\021=\254,Q\275[^\025\276\304a4\275!\335\335\275\305\230d=[1\002\276z\376\317=\2639\326\275\025#\224>$;,\275\371\303\326\2755\321\022=f\027!=\230^\222\275\227\231\000\275#_\256\275\256\360\333<9\034\200\275 \240\363=\365\373\013=+\331\035<\035a{\275m]\344\2758\3640\275\024\247\250=#P=\274 \207\222\275[\326\032\275\276\023\005\275\3672S=Ht\227\274\002\014\'=\367*\256\275\344\235\217\275\360\2400<OE\022>\373\317\310=W\027x= \016\327<\23581=a\0160=Zy\300\275\003{\032\276\345\n\252\275_\024_\275#v\363\275\212\320\353<\335XA=\322\232f<\037\3456\275\263\031B\275\037\357\000>\026\262\354\275\373E\220=^(\304=\372$M=\030\026\373\275j\275F=\000x\344<\210\327\215\275\261\020W=#_\335\2757\331\365<+G^\275\353\226\332=\025\357P=\t+\211<\364=\370\275\230\241\342;\325\337d?i6\305=\274KD\301\305\371K\300\253l\310\276R\220\237?G\033\306?\010P\237\276?w\260\2770\262\224=\254N\217\274\350H\210=\010\361\206\274c\2528\3003\n\346>\216\226\r\276\327\322=<\035\214p>\305\212\363\276E\271\353?\017\010\255<\343\247\265?\240\377\233?\200m\272=K\354\216=\234B\242\275;\202\307?\"\304C=<K\221\277\213W\246=\343(6?\320\022s\275\320\253^=xl\334\275\210\251\325\277\306\356\004=\177\232\316<\326T\336?\323\3418;\202\366\243?\355x_<!\223\201?\317\260\031\277?\\J?\035l&=\224\213\364\271\242i\346\276\263\3623<\240\265\200?\033\263o=\317\273&\276B\301\212=<\237\226\277`\262\206\277\017?]?\203\201\"\275\005g\021@\010\276\036@MZQ\276\376D\266\300\\\333\301\275\360]\221<\027\321\373\2758\007\017\276\216gk?%\305\326<\261\013\016?3\340{\277\213\224\372>\027 \200>@\266\247\277,P\302>\211dY\277\254\363\332\276}\204(\275\036>U\277\275\375\024\276\327\211\004?S\027\267>\276\001\353<\013\r\332<\232L\206>\023\327}\276\264 \233=^\353\360\275S|\302\276\\{\350>\035G\322=\031\272\247=q\177\252=\330\013\227\275\224^5\275\327\177\254\277\354\275\223\275\3165\345=\241\270\367\273\304V\252\275\313j\005<\216\240\n?\227p\003\276\263\255\325\276\327\017\222\276N\246\023\275i\034\207\277\235\341\231\275\201\340\016\300\037?\004?\"?\003\300\250P\211\275\322\341\367=\003\375\025\277#N\364\275q\001\326\275\220g\212=\221\365\317>\261`\310\275\245}c\276^\'s\276;8V>\202\302/\276*Z)\277[ab\275e\336]>d$\t?\201\214\331\275\363c\023\276\323{_\275\217\206\034\276\321\344\325=\326\371\222\275\337\036\320\275\301\357?>\362\351\341\272\276,\331\273]\202}=\206\343\322=7\244\267\275\331b\207=\177\357Y\275\3149^\276x\342\314\275\215\263\\=\033i\247>\313\037U\275\026\302\227<\272H\234\274/\357\326\275Re\252=\223z\213\275\273<Y\275R\021\345\275\367\t\270\27576\252\273\235\356\240;Q\246e\274\250[\211\275=\331\002<\231&\177= \267\211\274E\246\014\276\257\265\332<\344\037\264\275\006\260\330=\347]\371:G\300\021=\227\020-\275\264FB\275Q3\"=\213`\247=\224\372\020\275\323\325\244>R\033\017>\'\010\202\275\021\235\364\275\372\0045\275\355Z\037\276\272\021f<^\342\373=\221py\274\225\n\n\276\002\274\241=\235x\347=\037:\272\273\022v\305<Q\303\231=d\224\255=\274\211\300\275\217\035\301\275\252\332\335\275C\342\013\276\240P\374<\315\021\327\275\036b\206;W\356\322\275\020\017!\276z\312\344>\303\275\r\276\243\240\323<E\001\013\275\265wh=\'\tl\274Oc\224\267\306\206\366<\025#u\276\276\210\345<\243\324W\275D\355\235>\364k\030\275]\263\276\275\226\312\262\2758\233\264<L\262\013=\211Z\223\275L\217\311\275\207\263\024;Lw\313=\344\225\253=\n#n=`Z\027\276\235\262\315=\375\233\254\275\243\236\256=ZT\301<[\3151>\230\022\014\276F^\036\271\031b\213=\373(\342\275\001\017?=\237L\211\276D!6\276\200\265\277=\007V\267\275\305\317\347\275\032J\254>X\340\314<\243\023\014\275S\016P\276ksM\275\232\224\352\273\275v\035>\374\317\031<\354k\031=\016\274\201\275\365\250\275<v\205\213\274\230\242\367\275\217g\356<\335\372\246\274D;R=\n\354\310;,#\207=&\353\005=\375hS\274\367\264\033\2764\275T=l\370\002\275\030x\370\275h\301\216<\212\326\265>(E\234\275\240x\251\275\314\371Q;\222\316K>_\310\032\276b\341@>\276B\264\275\331\3134\276\013\3354=:\300\221\274\373\335\000?\002\364K\276\023\217\215=n\350p\275u\234L\272\273\215\032>\212\352\204\275\303\335q\2747N\364\275\313\000<=\370\363\035\276i\217\014\276\375\271\243\275mY\276\275O\247\231\275\252\274[\275\350\360#>\016\rS\276\362\002\362\274\007lv\275\330\323\023>`t\254\275\347Y\244\275\274|(\276 %\007\275\013t\203=1_h\275\211Y\230<\274\223\223>\031}\314<\375\332\325\275\210\010\030\275\252 \274;\274r\372<<\374[>t\271\275=a\035`\276\346\005\002=$\337\364=\255\322\277=d\311\250<#\003\252\273\276r\226\275\3437\373<\367p\037>?L:=AL\302\275\362\001\367\275K^\357\275\202{\021\276\260\017\254=\007\330\235\275\350\210\232\273\374O\313=4\035\337=\214\022\351<\303j\227;4\242\366=S\205\227\276+\034\313;\267\\\210=\2020\262\276\321\r\362\275\2315(\276x\267u>\325\307`\274\257\275J=\r\221\360\274\255Cj\275\264\300\230\275|6\277=R\275\217\2749r\241=\242\276B=\273\027\351\275\277\352`=1\212-=\205\325\354<\323\203\006\276\213\306=<r<\242=Wt\244\275I\250\321\275\205\3775=\343\204\030\276\017z2\2757\237+\274\340\2122=v\240Q\275\260+w=\342\355\336;N]\"\276\026t%>iT\206=A\221\325\274\333M\242\275u\037\302\275=&y\272\000\022\253=+\210P\275Zh\033\276\340\311\014\276T\'\335\275\242\256\340=\356\270\035>\227\215\247\275\352\017!\276Ur\271=VW\205\275\tG\213<G\375\274;\301\227\002\276\330\206\230\275\302\221\014\276\212\3474\276\r<\222=,w\007\276^U\340\275\210\252\001\276]/\200>iW\031\276,\323\223\273h#\263\276g\227\357\274?\315\034=\350q-=\222\251\023\276\031\331N:\206;C\275H\223e\276\274Y\227=\261:h\276\317X\277;K\027\264<,l&8\320\255\300\275w\251I\272\007\300\305\275\r\372\304\275D\302{=\225\270;>\026Q\274\275P\361\321=\033\257\253\275\343\372\006;\231A\032\276y\227\000=*\370\245=\303\357\256\274\347/X\275\000H\242\275ylC>\017?\305\274^\340\251\275p\363\323\274\375Et\276\"\255\003>+\233\327=\323\234\240\275\273Z\"=\262\274\363\275gT\014\275\217\204\335\2754\235\237\2745\014\224=\177u\264=x\347)\276\031\035X\276(H\316\275m\004\365\275\023^\022\275\345\r_\276\315|\241\275+\247\220\276+\310*=X\222\310\275\344R\203=@\027\247;1P\271=\227\002\314=\234\311\233=\262\226\334=4\320\232=\000\224\233\271\370T\213=\035\3709=P\263\026=P\356\346\274\030\243\317\275p\234\240<@\004\341\274TZ\240=\200Bv<(2\304=\003\203\245\275\300\260\361\275\240\"Y=\327\342\260\275\\{\265=+\363(<\350vQ=\200>\273\275\354\362\321<\000\377:<\026\260^\275\200\330\013\273\260\334\312=`r\304\274\330 \t\275\000#\326;\204\260\260=\300V\r\274\300\312\326\275P\266\223=\202)\005>\370q\352\275\020\223\324<\020\3265<\330\034\361\275R\036\265<\374\371\030<X(Z=\270\265\237\275`\271\347<\331\376\313= \253\325=\360\024\312=0\301q\275\377\317\321\274y\301\002\274\351\336\t=E/\272=\310\3402\275\245\030\302=1\366\022\2756}\276=\000\304\222\275Xpj=\3706\372\272N\035\010\274H\0229\276\030\256\200=\2423\241>\316x\037\276\260\344\223\276\035U\023?\341\026\221?[\222D?\227\017p\277\3229\000?\037\207\233>\t\207\245\277\245}\304\274 q;\277\314\364\315\275L\375\300=/U:?T\351\314\274\201\272\314\273\365\223^?\325y\033\276\253\261o\276iL\373\275H\227\n\277\035H\274\276T\331L\275\365\033\350\274\312\355e\275\277\025@\277\252\325*\275a\373\334>x\004\254\275X\227\255\277#\230R\275\017,\025\276\367\366-\275\036\245M\2770\327e\275k\206\363\276\343\371K\277\350,\356\275\346\"J\277\263\262\303;b\251d\275\213Q\t\277r>\277=\215j\207<#t\334\2752\335\216\275#\247Z\274\233+0\277\314\276\340\275\300\276\274\275\315\212\301\275\017\317\000\277\265\024%?[\276\006\277\266\302\346\274\325C\242\277\201!\004?\304\2563?9\277\177\276\206:\345\274\264\365\330=^\\\216\275\324Y\350\274\226\031\343\275\345Mz\275\241#a\275(;\277=h\326\370\275O\245\202=\t\270\270\275\264\'\341\275\r\001.=\370qA=-N\313\275Z\263#\275\3222\242=2q\235\275\300\336\240\274Q\031\250\272\361\227\321\275\006V\271\274\261]X=\203\001\312\275zz\"\275\346\316\261=\323l{=)7\307\274:_\005=\274\262\320\275\356?>=\234\227\264=\177v\007>\220\316\265\274\315\315?=\356%!=\264\307y=T\242\374\273`\276\245<d\r\252=\240\003\027\2750-/=\033a\227\275\0304\231<e\332c:YW\327<\001J\001=K\035\270=\037\270F<\331\330|=\223\266\365<\2212\320\275n\341\010>IIZ\274\257\331\364\275\201x\002>\277\216\354\275c\266\226=X\214/\275\037\224\244\275Z\006\363\274\274\342\272=\207\277\364\275\271\204\272\273\324\340\263=\211\247\265<$Ug\275P\007\212=\235d\336?Dh!=\245+\222?\321\211\337=\317M\344?L\331\205?\334\036\347<X\200\274?\370\356q>!\341u\277\204\203\t\275\213\017\372\276\222p\030<\371\312n>\270 \224\276Pi/\274\304{\234\275v\317/?\223\000\241?pq@\27651\260=\250\213{>+\261\333\276\\\307\341\274\372\332\n\275n}\003\275\273*\312\276{\213v\275\233\036\330=\177\224\307<\211\007\303\276\215$\212;\225\374\364=;\235\006\276%\227f=Fr\207\2754]\202\275b\316\203>\251i\257\274\232\373\007\277\243\373\264=`]R\275\266P\235\277\332K\204\276\246\246\204<\210\274\270= \024^\277\017\247\313<\311\306\020\277\177\312\207\275\030A\324\276\252V\033\274pm4\277\2019\031?H\243\013\277\035\331\301\275s\357\232\275\177\n\222>\323\3258?\310]k??\024\350\275I\304f=\277\227d\275\372-\004\276\355R\027=\274\222\006=\344\206<=>\016\305\2753\232\322<Md\007\276\362\273j\276f\307J>UB\'\275\000D\320\276\317\330\240\273\2127\243\276\266\335\322\273>\343\256\275$\223\347=\375\013X\273\354~\003\276\2529C><Q\273=\243\315[\276\303\343~;\353\321p\275\221\233\260\275\275k\332<L\331y\275\301P\217\275\t=\'\276M\336\r\275\262\353\003\274\364\311\226\275<\334;\2749#\210=?T\027\276\3335\332\274\3276C=\312+@=\3602u\2750\013\221\276o\236c\275\305R\314=\263\240\243\275\002\237\201<(~Y\275{\264\254\273.\340\232<2\377e\275\013\337\227=\304\235\343=5\221\305=\251.\252;\224z\200=\206\241\237=\264XA9RD\353=\326\212\310=\230\260\337\275Y\317%\275\275\341\377=\357\310\025;\\\256\030\274K\3003=1\2624\275\210n\237\275!\217\303=\303\365\353<\242\243\020=Vj\002\276\234ni\275\007B\265;*\325{=\033$\356=.\333\301\275\375\361\003\276k\210\033\274s\220\236<\006RS<H\300\250\275\262\276u=c\321R<\236\026.\276g\266==\271\324\004=G\270\344=\245\230h=yi\222\273@\353#=`\240<\275\300y\254=\352\240\266=\023e\217\275\007\3637=\033\022\203=\270\211,\276Da\033\276\306\250\000>%\1773\274\360?A\276\372H\033\276\366+\202\275\317\332\255\275\347\343O=\216\366\\\275,\301\243=R\313j\275\212\323\252\275J\005C=\260]\251\272\353\347\216\275\0222\307\275\034\264+<\223\242<=\256\336{\275\273\315\273=\245\251\022=\"[\002\276\235\001\300=T\177\373\274\222\014J=\022\375\303\275\345\252Y;`\277\005\274|\230n\275\327\306\304\275\022\017\316\275\364V\235\2754\2603\275\342h-=\241\025\262<.eH\277\014\3120<\340\262w?\377bP>l\325\004\277\377\256\211\277v\316\251\276\2440\202\275\217\217y>\317\204\212?4k\004\276v\335F?\201\377,\276\022\373\005?[\016\262>\003)\325<m\005\031\275\355\010\014?\321\330\340?\334jT?\315\'\010\276\314\t\204?\010\014*\275:\237\230\275`o\253=\224\323\216<w\010\274>\035\014b\275\215}\336\274\020$\032=\227 =\277\305\276T\274Z:\357=n\231\005\275\002\232#>\326M\215\275\211\030\235\2760Y\336?\354;\027=\027\372Q?\034(\372<\376\342\362?\005\320\342>S\203u>?j\240\2752\346\341\274e\206\247\277x\237\203\275\247\307\007\275\301\342\017\276.\'{?9\377\271=4\"F\276\227\021\254?\035-\200\277I\316m<2)\016?]\305\020\277\026\373Z?\020\317\365<B\337\212\275\345\207\021\276\350\206N\275Q?+=\353d\276\276\336%\177=ax\350\275J\r\023=\263\363\264=\273\003\241\2756c\\<y\005\375\275v\327\006\275\305\344\371=\2444\275=\257\nS\275\034@\252=\252N\025=Q\230\026>\r\377\277\274\305\224\303<\352:\002>\261M\231<\327\254\024\276\016\322)\274{C\214=X\034\310\275f\331\231\273g^F\2747\314\344\275\377\313N<\231\326A\275\227M\214\273\222\262\361\275\027:/>\204*\n\276\001\357\225\275x\"\023\275\364\360\330=\3200\250=\362\342,=Ac\230\276\030\205J\275\241\331\'=\345\342\277=\243\247:<\231\003\037=o\3656\275\264\201\221=~\345\264\275\241\236->\203|D<:h%<\020\235l=,\207\254=##\\=\320\002\355<\246j\027>\030\'\013\275\333~\300\275\025\302\037\275\221\254\233\274W(\265\275\255]8\275\355\255\315\275\235\367\032\274\311g\r\276\222\2447=\252O0\276q\201\212<x\364\033\276\340\020\316=\372E\331;W\367U=+\230\305=B\356\302\275!\273\252=\316>\375\274\242F\360=FR4\275\317\233.<c\344\324<\235\017\215\274\243g\371\275\203\021\215\275\351\262\327\275l\222p=\254\211\212\275!;\214\274l\332\205\275\023\010\257\275\3624W=\301\202\304\274x{S=A\250\224;\214\256l\274\261I3<\222\240\236<P\253\273=\326%.=\353\253\364\275`J\301<\376\311\310=YP\274;\"\372\210=\3626n\276{\014\234\274\320\202\235=\020\301\315\275\331%\375<\202\016[\275]81=R\272\300\275_/Y\276;v\016>\240\332N\275\034\266\204\275S\371\017=^e\020=\266\271J\275E\330\227=\354\347\323<\235\363!=\013U\204<f\310\232\274\3216\352<\267L\212=\302Z\304\274\340\233\262=01x=h\256F=\340\370,=X\245I=\200\177\370\273\200\3136\275\370\335\\=@\203\247<<]\271\275 }\031<\320\334\273\274({\247=hb\330=\350\024\275\275\234Q\332=pd\347\275\300\211V=(\374\034\275\000\231\251;0R\206\275\000\017_=\220\177\301<\024\272\331=\260@\225\275\010?(\275\00051;\000\250+\272\014k\234\275@\352\300<\300\341l\274\300Y\322\275\240\266\357\274\270\366\262=\\-\324=\360\"\233\274\200\372\264<\034-\330\275p\031\250\274\200\345r\275X\310\366\275\344\272\370=\000\364y:@\3051=@\342$\274\200\321\225=X\332\241=\230\213\336=\224k\314=\200D\224;\220\211\314\274P\363\274<\020\200\205=\324\316\367=\220\266\355\274l\372\235=\370\217d=\364\204\352=p\224d=\300P\332\274\370\014*\275\2608\332=\240\014\242=8\316]=^\353\233=\351p\343\275Z|\350\275\236$\230=\272\217\276\276\373\232\210=7 \305\276\021\020\257\277\016\247\212>9\371\010=\346\266\007\277\357\337\301?\262\363\247?\206\210\231\276\302U\021<\013\337\242\276\3221\005=\236\223\317>\213\000\272>\rN[\274\031A\333\275\367\030\250<\322T<\276\017\3303\300}\253\263\274R\264\206\276 (f\276\2676\262\275;\246\002\276\005\207\332\275\322\274\002?#\271\037\275k(\221=\301EQ\274dx\260>\336M\323=\261\230\313;IyR<:\356\331>\222\313\000<\361\356\">\322\244\203>\032[\277<YZ\003?78\357</\034\377\276J\007$>\037\300\311\277\274nt\275UU\315\275\250\374\306>\262\022\313\275\242\211X>\307\254\'\276\202\211\364>L\221\326\274\364\307\001\277ly\n>\301?d?\302\241\032\276\264d?=\021\t\034\277\235W\206\276\010\373!\276B>\035\275\344\266.=\010\266v\275\014\256\265\275\260\375\321\277\037\364\003\276\204R\254\276\024\335_?\\\"_?f\233\004?\256\211(\277\260\227\225?lAT?\355Cs\277P!\350<\340k\205>\177\304\013\276;\013a>>V\370\275\316v\315\274\201\361X<Z\224\375=\351Zk>\026\230\276\276/\203\364\275_s\025>\254S,\300\005\201\217\275\006\345^=\020\326\301<V\373\'\300Gw\273\274\257P2\275/\355\265=\273l\321>\230\201\253\275\355L\246=\360\241\366<%L\n\276@\252\337=\253\\\n\277u\003c\277\230%\236\275\271f\274\276\230\330\366\275\322\366E\277X\0035?\211i\025>\333\334\317\275X6D<\241\207\337=\363\013e=\321\342\231\277X\033+=\250\211E?w\252\036\276f\2323\2740\332{\276\256\334)>\236h,\276TW\315\276\272EA>7\n\017?0\330\303>0h\321\274l\024\336\275\314\205\314=\220{K=X_\245=\2404\273\274 \352%\274|\372\372\275@\257\243\273\274\331\356=\260g?=t\244\305\275\020\336\032\275`\266\371\274\000\341\257:\234\204\234=\000\001\323\2750\356\326\274\314\266\245\275\320t\271\2754M\266\275\270\333\225\275dx\215\275\030\256\240\275\220~\177=8\220\344\275\210\224\225\275l|\276=\310\266U=\020B#=\270\224\254=d=\274=\020\004\375<\200\266\341\273\200\300\202\275\254v\356\2754\242\362\275\000T\332\275\260\010\201=\200\014J<\220\357\340\275\340*\315\274\020\000\347=@\327\\\275\360\007\311\275\000#\246\275\244\"\301\275$\234\261\275\300\245l=\020\255\242\275\034\204\304\275h\023y\275 \360\344\274\240\257\277\274\300.\374\274P\303\337\274\200\n\252;\340S\354=\240\336\202=\374\270\373=\300\321g=\240\2316<\\\014\373\2758y\312=?\263\243\275\331\336\306\275\213\245\236\274\2142\013\2764Q \277\211\240\265\272*\324r\277\006\037\325\276L\204;\274\035\010\224\276u`\256>.f\250=I\017R=\300hT\2764WR\276\362\3355=\006\036\241\275lM\000>(\241\r\277\010\005\006=2\346\320\275\370\035\360>L\240\272>5?\353>\253\317]\2752\312h\277\235\326\213\276\231\t\245\274\036K\357\274\332\220\374\275\226\360\014\276\316\t\037\275\2325\">\332@\315<D\003\315\2765\032s\275\014\213\\\276\013\233\364\275\315\216\346>\006\275\377\2740\273\243<\261\362+\277\356g\254<\033\351\334\276\200\260\272\275\324,\004;\274\213<>\220h\225>;\301\025\276\363?D\276\206\032\217\275\345\230v<\261w\201>\224\230i\274\273\255o?0\014\014\276\332~n>)\016v\276\327\007_;\352\032\226\275\225\234\021?\322q[\276\030\370\276\276E\274\335\276@\236\254\274\364\324\250= \334\'<\365p\201\274\236o\270=\340\246@=\365\033\366=A\352i\275\362)\025\276\206p\316\275\374\234\266\2744Z2\275\256\215\312\274\246\016\341\274+!\301\274|\271\253\274\212\334\354=\230\025\013\275\222\334\211=\r\274s=\262\373\201=\214w\376\275\243b\205\274z<b\275_\013\264=;rL\275[&,<\3766!=fI;=\034c\302\275b(\315=\252\252\345\275F\346N=0\341\270\275\222\330\032>\360\t>=\037\002\243<\253#\225<q9y\275\236\3772\275T\222\357\275\240\237\375\275\274\347\213\274\301m\033=<\273\231=\033\033;\275\234\323\250\275\212\031W=\300b\000\276\275\264\207=\237{\263\275\337\024\240=\270,b\275\366\\p=\333\221\353=\233\325\361;A/6<\362\340g\275V\200A\275\343\343\332\275\252(\305=\257\306S\275\303\347o\274C\261\247=\255L\232=\330\033\t\276l\236\221=E\222\313\275\007\006O=\354\2135=\346X4\274\255\303\351=ww>\275\037\"\000>\n\335<=\010}\372<B\242\332\275R\232J=7\354S\275\372\362z\276l\202\347\275W\372m\275\236@(>\263\347K\276\000P\363\275\375\237\027>\220\317\036>\237\376~=\237a:=7\235\260\275*\214H=s\320\331\275R\344\336\275\311\022t=@\014\224=\340g\233<q(9;l\205\365\275\341\354\300=\376\321r=\007\216\375\275w\324\035=(\034\255\275k\312\247<\243;c<6(c\273\331\254\033\276\264\203\353=\327\276\267=\227Jy:\364{\014\275\252l\223\275\252\2613\275\220\343u\276\353{\376=\3653O\275\324\033\233\275\331\267\265=\273u\037\275(\212\344\275\235\030\371=\037\265\253=v\263\274\275O\306\333<\343\020\031=\016\377\221\275\362u\"=r\035\200\275`\177\236\274\307q\254=3\224\315=\245,\251=J\215\033=\232n\232=\0004)\275\357\324\203<\203f\025=\251Y\256\274\261\306M>\355/\267=\3758\242<\350\344\245=H\t\212\275R8\252\275\341hP\275\372\372;>\231K\255=\325\\v\275\021}:=\206Y\345\273\375\277\031>\313\342\364=2\212#\275Y\251\016>\306p\221=\373n\315\275\321\024\354\274\2563\016\276\010\343\333=\037\241-\276-\326F\276\005\356i\274\315\355\351=\262}V\276\200\312*\275\326\211\254\275\212\255\r>)\254\013<\210\t\365\274\327\241\234=\247\316\006;\201\r(=\241\265\r=z\365\336<\376\201\260<r\232\235\273<J\341<\241#\304\275\026P*=\362*\376\274\317\320\323\274*\021\006\276\272\237d\275\007u\n=\201\262\244<\002\342\274=B\201\323\275\rl#\276\341D\234=\345\rk>\347\211\317\275\334P\031=\371\3067\275\371\310\355<\210z\001\276\"\2721\2755\016\253<\312e!\275\220&\346\275q\326x=\017\'G=\231\373\367=X\023\306\275d\376\232=\217\256.\276o\212\022\275\206\264\326=\322\340O\276\032]\356\275{X\353\275\023jP>Q\221\'\276\343M\374\274$M \276qy\016=<\277?\275\204\232\204\275\345\260\017\276J\016j\274F\243\r=\261\231\205\275\rc\000\276\265\374`\275\"{\252\275\2136\350\275\376\347V=\233[\273<m\005\257\275Dn\020\275\232V\221\275x\"\265<\343\330,\274\2608\211=V`I\276A#\360\275\370\354\247\275_W\347<FXv\271;\031\334<\211\037\246=\317-;=\350\'\230\275\234\032\250\2753\323\343\273\360\234\270=,\260\340\275\342\332\t\276\227\023@\273\253\316\373\274\265\274\217=8\245\214\275\357\213\026\276\255j=\274\247$\203\273\277\006\240\275\020\333\204\275\0138R=\367\236\332=\343\237\272\274\201$\342\275\211\222\030\276\014\364E<v\036\336>\"\362:\276\231a\325\276O\257,?\025a\213>(\314T>cJ\307\275\n^_\277\244\312\337\275\306\337P\277T\331\346=\242?\003\277\035\3304>$\345>\275Yl\340\275\221\321\376\277+&\214=\330\034\223\276\337\215\255=\313\240E?u\225\240>\344\276\354<\215I\367=\264\002\302\275M\365z\274\355\273?=B\335\207\277\260\373\221=\002\324\207?\350tP=\037\006\350= \217\217\274\270\202(\276\372i\341\275\014\342P?\327Z\347\276\357A\177<rYt\276\020E\321\274<O<\300\334z >\374\204\217>\334g\"\276\t\251\243\274e\021\021\300_\232\000\274[\265Y\276x\003\374:@\362\247\276\262\310\352\275H\014A\277\364\346<\277\"]+\277\222h\017\276\373,I\276\360\203\307\277F3\216\274^\037:?\360\204\371\275-`a=J\0200\275\017T\025\276\324I\255\277d:\263\275;\261W\275\333\303g\277\245u\222\277\003k\242>\n\"\007\275^0\207\277.\331O\277\341\010\006>\037\206m\275\301\213\214>\021\217\302\273j\266I>\3270\014\277\336tY\273\274\224\025\275&%\214?\247\031Y=g\220\325\274\034\003\306\275\300\317\300?\245\002o>(\221\223=?\374\030=(\353\224=\027\204\322>Vi\243\275\010:\017\277\037)\251=j\302\242>\177\004^=B\300\033=\000\014\265\272\231?\356>\030\253H\275\020\013\255\275XL\323\276\220\347h=\342\023Y\277U\022\266\275\376\324\201?d\2779?tc\016\277n\212\203\275\006v\001\274\221/w>b\251U;\247\034C>\035Y\363\275\263\262\225?\377-d=\377@\312=b\374[=\3632m?#\270\331\275\312aN>\376p\026\276c4h\277\363\017\003\277\356;\t=!\353\324=\301\264\270;\261l\240<0\363{=\236=\306=\r}\315=\232\031\260=\305`\314=~\365\317=\014\212\344\275\302\356\203\275\n6\367\275\366\221\247\274\241\306\020=\327\005\242=\257Q\013\275\\\220\242=*\024k\274\010 \376\275KZ\001\276\270\265h=\021\002\010>\232cP=&\214\247=\'\211\333=\351\002\014>\203m\230\275\200\306\353\272\270\006\367=\375\\\307\274K\321\261\275\216\255:\275<\301\265==]\243\2742gg\275>!\317=&&\307\275\221\360\014=\244\366\247\274\271\227\207=\313#\335\275\366\304\253=\367\203\024=\365L\246\273\256\226\336=\262\024\261\273[&\247=\312\230\246<\211\274y=\242\242\221\2755\370\264=\257C\036\275)}\257<x\230\227\275\006\343\300\275\033\0109\274\274\314\340=}\231}=\367\354Y=\355\356\037=\305z\375\275i\207:=4\244\247=\275[\207\275\007\330\236<\312\343~=`U\356<\212\224Q\275%/\r<\265>\254\275d!\270=\0305\226<kT\000>\257\222\000\276N7\267\275.u\274\275\351\225\204\275\244Zh\275Yk\270\275i\265\033\275lU?=\255\313\231=U?\004=ex\233=\325\253z\276{\253\222<\271\0364\274\3230\266\275\014\002\271\275z\257\335\275A\304\364<\3149\266\275\257V\254<H,\252;T)\350\275mG\321\2756\331\321\275\221\360\367\274\n\247\353\273Y\375D\276\004\2467=\203]w\275\350\351\213<\005\272\036\275\326\251\t\275\341k\025=\217\306\034\275(\233\213<\232m\376\275D\004\375<8a\323<W\371M=?\350\000\275\342\341\000\275\021\344\377\275D\375?\275e\013$\2740\236\244\275\335\374\263=\234\267E=\034r\253\275\203V\351\275\025\033\334\275\214\356\202\275#\306Q=x\333\016\276S!\356\275\343\237\270\275lk\245\275\225j$\275&\377B=\023u\323>\254\210[\275\003\324q>rr\017?\203\314\251?\225X\263\277rQ\364\276 \251\252?\201@\212?\314k\204\277Ij\241<j ^\277c\030\033\274\263\231\312>\206\223U>\221\020\333\275\000P\312\271\340\275u?\352\326i?]\3727\275ml\301\275\364\235\037\277Z\221\016\300.\365\025\275Qd\310<\335\353k=6)\000\300\266\322\370\275\357\370\262\275\324\035\311\275P\034\204\277L\242\324=\347\241%\275R\243\n\276\337\327\361>\r\337\327<\314\271\000\3000\007\036\277\355\373\266\273\030T[\277\001\0038\275s*\201\277\2751\t\276l\266N<3i\005\276o\000s\275\233Fs=T\202\353<\200xE\277C\205~\275\375/n>|\260\312=\277W:>\336\321\363>!R4\277\231C\307\275\234\353%\277\362\360\312>i\2052?\032\327\003?Y\341\216\275\246\000\r\2762\363\r\276\325\014\321\275%4\207\275\236}\232\2735\267\004=\332\360;\2760B\211>\270?\277\275wH\003\276\232\220\020>\214\260\317\276\371\006\237\2766\361\245\275\270\305\270\276\246>\026\275\344\210\023\276\204\273\272=\0305\022\276\206\000@<\334\352|>\252!\031=\244\362\336\275\262\313(=:\216T\276e\035\206=@\314\030\276_E\203=\374\252\220\275 w\375\274\213\303]=/\220\202\275\035\264<=4\271<>\352\030\t\275\245\361\241\275\2112\230\274&S\202\276:\313U=MF\206\276\377\007T\276u\256\271=j\332\223\276fsN\275ai\215\276/\273==^\177\210\2753\363Z\275\206\203\000\276\323U\350\275<b\362\275(K8\2755\207\231<r\222\237=U\314\270\272}\377Z\276\345\316\200\275\325\321\030>-\014\013=\225\201\224\276\244V\351\275\275\363\221=O\010\033>\250\320\251=\202?q=\312>9\275l\365{9{5c\277&\302A<\207W\211?\250\312\261\276|]W\277\2445\327\277\'\356P\277\031\251\035\277\257x\321>\277\t\231?f&\026=\321\202\237?\363V\235=\250\351N?\303s\340>\020R\330=\'wy=\223\006w\277xYT\276\344\337\003\2772\0212=\352~\272?\3709\014?}F <\235^\002=\247$\326=\304\277/?\310#\022=r\003z>3\003\203\275\036\211\265>S\374\005\276a)\332=\010\226f\275g\014~>\344b\304\273\022\007x\277\216:\010?\3557 =\323\314\022\277\270\352\316\274%\364\221\277&\211\315?\205x\356\275\205\201-=Q\017\274\274{*L\277\266\255/\274\301mL\277\262\320k\275\300\026\223?\254\253\251\274M\216\303=?\365\013?]\007O\276m\331\206\274T\333\347\276|\254\201\277U\361h\276\354\027&?8\t\023=\230K\'\275P8\346<H\215\343=\000\032\271\273<\254\250\275\000\362r\273\000\013\224\272X j\275T\211\322\275\220\374\177\275\240\312Q\274x\352\231=h\243\306\275\210\272\374\275\264\030\363=D\274\272=l\356\302=\360\003\243= E\305\274 %\207\274\260\365\332\274`$\213\275\340\275M<\200\202\033\274\010tK\275L\336\232\275\2302\316=\320\213\324\274\000\2312<H\321\251\275T=\361\275\020\266\254\274p8j=Pw\316\275\240\234\221=\360\334\222\275\340\267\376\2758Jc=\020`.\275\320t\\=@S\325\273\324z\335=x\371\240=h`\264=`\004B\274\304X\245=P\006\271=\360\276\363\275\370\366\371\275H\342\326=\340\276\221\274\310\315\177\275$\360\224\275 \026!\275\314K\357=H0\310\275P\220\365\274\300\326\341\274x\266\317\275<\251\306\275\340E\372=\240\340g<\220\342\213={\367u\2750\203y;\340\300\202<\017S\336=\351\007+\275\261\357u=Q>\366\275\260\335\213\275\272\t\362\275J\246u\275\272\256\235\274H\325\317;d\210*\276\301\373\211\275\340G\255\275\275Y\260=w\233\306\275\352\267\023\275`\006+\274N\200\306\274\3371\t\276\006\241\340\275\245\312\320=\221\025b=\030\347r=h\035,=Z/\352\274\332\342\251=T\277\256\275\314\325$\2751d\032;/\237\243=\212j\013\276]\277t\275J\320\366\275f\342\377\274\014\256G\275\200\274i\273\236}\220\275Z\345\306=\335\316\314<\r\300\225\276\034\374\244\275\334\3617\272h\253\366\275\010_\022\276-\370\275<Lbm\275\334L\356\275@d:\276\350\251\001\276_\002\304\274\201s\360=\357\333\305=BwW\275\306\241\n\276\031\271d\275Cz\334=f\"\340\275/\231R=\342\246<< \303\365\275o\245\031\2760\226\274\275\311\212\375\275h\365\211\275:]0=S\021l\275\232\035\032\277\027\223\334\274\254\201\000\277q\206\001\276\302\"\221\276`\257V?\277=\374\277Ng,\27766\343\276\376\2320\277\376\315I\275\033\310\201\277Kp\254;J\341\271=\372\240C?\335h\023\274\263Z/\274\326\304\330>\207\"\343\276(x\265>\014_\251\275\362\316\213\277Y\037<\276Eh\343\275\363\343\212\275U-2<\372\364\316\276\241B\007\276bs\233>f\004\340\275\252\277\264\276e\303\020\275T\003f=\332?[\275S\320\343\276\303\344\232\275\343<\306\276\016N1\277g\253#\275v\224\r\277\3773\272\275\t\210\022\277\353\244\264>\346\347n\276\231\236\020\275[\305y\275\375\261F\276\340\317\306=\271=~\276w.}\275\314\001\236>\363\234\030\2764\232\263\276\314Y\321>\303\331\226\276d\373\320\275K\311\321\277S%V\276\251b\247=\326\2077\276s\024\016\275\325\034\\<|_E\275\321od=\367\305\017\277\344\217\225=>\334\251?\370>\230?\346Q\262\2768\010\275\277\360\314K\277\253\251\335\275\232\277f?\214^|?2\327\352\275)\000\274?\360\370\370\275^\020\271?`\024\217>|\237k=\r#\330\275\377IS\276\036[\262\276\020t\346\276\022\356/=|\014\376>\207]\220\277\236\372\337\274O\t\264\275\267\037\342\273\376\340)\277k\264\254\274\253\033\016>-\201\257\275Y\376\025?\037\273n\274[\356\013\275\240 3\275(\007d?g\006m\275D6\321\277Zt\005?-8\000;@=\021\277\033a\006\276\177*0\277\261uJ?z\274\223>K\350\226\2751\016\235=\010\357\367\276\3131\010\276\336\246Z\277\030\010\215\274\235}\363?\225\322 \275\270\363\264>\336\201p\277\202\365\203>\\XY\275\272\270}\276ykW\277\342\205\020\277\303\031\014?\005\220}\275\205\007\000\276\253\020\352\274\026C\245\275\304\302\303=\033\257\325\275\342\302\214=?e\310\274>/\216=\364\366\300=\304\370;\275T\206\306=\013\024Y\276v\243==\264\021\020\276\"[|\276\316r\266\275\277\2073\276l\246\324;\335-|=Z\215r=\2043\227\274D\006\301=S\302\245<\037\"\254:\276w\344\275R1E=\267\234K=K\025\343=\373\371\346\273\247\367\333\274c\271\357\2755\343\250\275b\262x\275\215J\014;\223\324\233\274\257\253T\275\260%\237\275\321wf\275\221c\007\276\200\235\221\275\272\230\217\274d\314\270\275\363M*\276\320\"\310\275v\267\002\275\016m\030=\263\375\343<\177\371\002\275j\204\230\275Y\356\013\275&\013\026\276\227\004\033\276\360\223\345=J\227\365\274n;\001\276hl\277\275\261\352\375\273\024\311\267=@\220\303=\351\264\206\274\323\203\206\275\220F\363\275\355\347\022\275*Y&\275S\216\220\275v\344\301\275\035\273\340\273\t\031\263\277\202Z\350\275 E<?\213Ny\276\371%\252\277b\346\037?%\010q\275N\343\332\277\301\351\202\276\313\342R?\205\260\203=J\235\037?Z\017\005\276\215\214\204\276\223Q\031\277\234/f=\375 