node {
  name: "input_1"
  op: "Placeholder"
  attr {
    key: "dtype"
    value {
      type: DT_FLOAT
    }
  }
  attr {
    key: "shape"
    value {
      shape {
        dim {
          size: -1
        }
        dim {
          size: 21
        }
        dim {
          size: 1
        }
      }
    }
  }
}
node {
  name: "input_2"
  op: "Placeholder"
  attr {
    key: "dtype"
    value {
      type: DT_FLOAT
    }
  }
  attr {
    key: "shape"
    value {
      shape {
        dim {
          size: -1
        }
        dim {
          size: 2
        }
      }
    }
  }
}
node {
  name: "model/conv1d/conv1d/ExpandDims/dim"
  op: "Const"
  attr {
    key: "dtype"
    value {
      type: DT_INT32
    }
  }
  attr {
    key: "value"
    value {
      tensor {
        dtype: DT_INT32
        tensor_shape {
        }
        int_val: 1
      }
    }
  }
}
node {
  name: "model/conv1d/conv1d/ExpandDims"
  op: "ExpandDims"
  input: "input_1"
  input: "model/conv1d/conv1d/ExpandDims/dim"
  attr {
    key: "T"
    value {
      type: DT_FLOAT
    }
  }
  attr {
    key: "Tdim"
    value {
      type: DT_INT32
    }
  }
}
node {
  name: "model/conv1d/conv1d/ExpandDims_1/ReadVariableOp/resource"
  op: "Const"
  attr {
    key: "dtype"
    value {
      type: DT_FLOAT
    }
  }
  attr {
    key: "value"
    value {
      tensor {
        dtype: DT_FLOAT
        tensor_shape {
          dim {
            size: 3
          }
          dim {
            size: 1
          }
          dim {
            size: 64
          }
        }
        tensor_content: "\325\200\244=Ncx\274\210\226\242\274\241\204\203;x\255\365\275\313\nb\276~g)\276\027e\016>E$\271=\355\354\260\276\2030\343\277W\213$=j*\026\275Z\303F=\014\361\322\274\377\"N\276\244\362\334\273[g\230=P\351\337=/ \022\276\365\344\217\275\214\\\247\276?\033k=z38>\376\315\036\277\277a\033>\035\270\007\276k\241x=\034M\'\2766\217\263:p\224\023\3008\237\034=\315\215\263\273Nd3=\275\275B\2752h\205<\312+\300\277\270\332\035\276\345\277\"\2751\247\327\275\005\325\206\274\303\177\223=\001\362\000=\344\263\250\275\220DD\274\342\220D=\240 \217=\273\247*;\204\227\031\275VL.\274\006?0\275\220\225\315\276\355\211\210\276\336\353\232\276\340X\206\276\354H\005=\0342?=\364\230\023\276\214\376\364=\2127V\276\244\251\267=\347\016\213=-\010O\273\341\375\327\275c\033\364=qk\340<V\020\203\275\323j\325<\211\242_\276\013\201\367=\207\314\006\276d\304\034\276\034L\347=\234\007\333=\263\200G=\005\331\256\276B3\020\276(\233==\025\214\006<\264\3241<=\000\317\274k;\343<\372\023\204=\275\255\022>6\203\303=-O\330=5\326\n=\373\373\252<V\321t\273\220\317\032\276\257u\014>\270\253\025>\270\021\375\274\013gJ\274\256\235\007>\001\361\026>l$_<@\r\014=/\r\210;u\361\037\275R:\302\276}\252\014>\035}\316=\2411\033\276a_\036\300e\317\322=\254\307\270<\325*\373\275#\260\t\276!\342\277=\236\317\313\275o\250^=\216\213\232\275\257\t\211=zL\342=\253\354\035>-\242\261<\000L\2169=\302\"\276\254\303/=\177\301;<-\210d=\231c:\273\314\206\377<\277\344\037\276\311\322D\276\n\216\266\2738dH\275\023~\310\277k\001X\272\277+\246\275\031\026\020=\271\337\316\276\335\256#\277=\367\031\276\320?\016\275,\326F\275\247\306\210\276N\002\367<\212\366\332\276=\030\020>l\001\262\275H R<\212 \253=q\240\312<:\235\347=n\236\275\276\001+!\276N\343\214<\341U\004=X}\205=Bqx\276\203\341\322=o\360p\277bhu\274\222\034\370\277\306\204\347\275\273Z\025;\367\035\277=v\307\204\276U\363\246\274F9`<\233\213\257=\036\032\225\274:Q9=\314\334n\275\251\002\021\277N\372\326=\224|M>\240@\345=\365M\332:\031\036\310\2753s\220\275\361\351\267\275\270+\322=\364\374\232\271\356\005l;\352\t\340\275\342\305\034\276\014z\366\275\222\267\033>e\303u\276\255\023\224=<mg=%\321\224\275k\310\003=\213S\215=\246>!>\324\260\300=\021+\022=w\371\3029\220W!\275"
      }
    }
  }
}
node {
  name: "model/conv1d/conv1d/ExpandDims_1/ReadVariableOp"
  op: "Identity"
  input: "model/conv1d/conv1d/ExpandDims_1/ReadVariableOp/resource"
  attr {
    key: "T"
    value {
      type: DT_FLOAT
    }
  }
}
node {
  name: "model/conv1d/conv1d/ExpandDims_1/dim"
  op: "Const"
  attr {
    key: "dtype"
    value {
      type: DT_INT32
    }
  }
  attr {
    key: "value"
    value {
      tensor {
        dtype: DT_INT32
        tensor_shape {
        }
        int_val: 0
      }
    }
  }
}
node {
  name: "model/conv1d/conv1d/ExpandDims_1"
  op: "ExpandDims"
  input: "model/conv1d/conv1d/ExpandDims_1/ReadVariableOp"
  input: "model/conv1d/conv1d/ExpandDims_1/dim"
  attr {
    key: "T"
    value {
      type: DT_FLOAT
    }
  }
  attr {
    key: "Tdim"
    value {
      type: DT_INT32
    }
  }
}
node {
  name: "model/conv1d/conv1d"
  op: "Conv2D"
  input: "model/conv1d/conv1d/ExpandDims"
  input: "model/conv1d/conv1d/ExpandDims_1"
  attr {
    key: "T"
    value {
      type: DT_FLOAT
    }
  }
  attr {
    key: "data_format"
    value {
      s: "NHWC"
    }
  }
  attr {
    key: "dilations"
    value {
      list {
        i: 1
        i: 1
        i: 1
        i: 1
      }
    }
  }
  attr {
    key: "explicit_paddings"
    value {
      list {
      }
    }
  }
  attr {
    key: "padding"
    value {
      s: "SAME"
    }
  }
  attr {
    key: "strides"
    value {
      list {
        i: 1
        i: 1
        i: 1
        i: 1
      }
    }
  }
  attr {
    key: "use_cudnn_on_gpu"
    value {
      b: true
    }
  }
}
node {
  name: "model/conv1d/conv1d/Squeeze"
  op: "Squeeze"
  input: "model/conv1d/conv1d"
  attr {
    key: "T"
    value {
      type: DT_FLOAT
    }
  }
  attr {
    key: "squeeze_dims"
    value {
      list {
        i: 1
      }
    }
  }
}
node {
  name: "model/conv1d/BiasAdd/ReadVariableOp/resource"
  op: "Const"
  attr {
    key: "dtype"
    value {
      type: DT_FLOAT
    }
  }
  attr {
    key: "value"
    value {
      tensor {
        dtype: DT_FLOAT
        tensor_shape {
          dim {
            size: 64
          }
        }
        tensor_content: "Kw\214\272\227\014\243;\000\000\000\000C\271\272\274<\225{=A\270\252\273\000\000\000\000$n\201;\314\335\022\275\002v\353<h\'\274=\303\215G=\227\251l;\300\230\215;\210r\254\274\"\022\"<\027\254\313\274\350\020~\274\020\267\005=\030w\006\274u\030&<\341\236\275<\317\272#\275\267\366\007=\243\334\014\273Ax\226<\261\255e<*\342\t=\000\000\000\000\277\216N\273\010\372Y=a\260:<2\'b\274C\341\367\274s\016\2639\322\324\215\274#P\217=\230\353\3669\376\215\023=\3162\007\275%q)<\231M\340\273\255!\277\272\000\000\000\000\000\000\000\000\243\"\033<\373>J\274FNz\274\231\262\203\273\271y1<B\0243;\3572\201<@Y\304<\270g*=\246O\004=\n0\377\2747\371\367:\356\202\232<hVI\274\013\\\351<5\277c\274\3622\333<\014\227\323\271\000\000\000\000"
      }
    }
  }
}
node {
  name: "model/conv1d/BiasAdd/ReadVariableOp"
  op: "Identity"
  input: "model/conv1d/BiasAdd/ReadVariableOp/resource"
  attr {
    key: "T"
    value {
      type: DT_FLOAT
    }
  }
}
node {
  name: "model/conv1d/BiasAdd"
  op: "BiasAdd"
  input: "model/conv1d/conv1d/Squeeze"
  input: "model/conv1d/BiasAdd/ReadVariableOp"
  attr {
    key: "T"
    value {
      type: DT_FLOAT
    }
  }
  attr {
    key: "data_format"
    value {
      s: "NHWC"
    }
  }
}
node {
  name: "model/activation/Relu"
  op: "Relu"
  input: "model/conv1d/BiasAdd"
  attr {
    key: "T"
    value {
      type: DT_FLOAT
    }
  }
}
node {
  name: "model/conv1d_1/conv1d/ExpandDims/dim"
  op: "Const"
  attr {
    key: "dtype"
    value {
      type: DT_INT32
    }
  }
  attr {
    key: "value"
    value {
      tensor {
        dtype: DT_INT32
        tensor_shape {
        }
        int_val: 1
      }
    }
  }
}
node {
  name: "model/conv1d_1/conv1d/ExpandDims"
  op: "ExpandDims"
  input: "model/activation/Relu"
  input: "model/conv1d_1/conv1d/ExpandDims/dim"
  attr {
    key: "T"
    value {
      type: DT_FLOAT
    }
  }
  attr {
    key: "Tdim"
    value {
      type: DT_INT32
    }
  }
}
node {
  name: "model/conv1d_1/conv1d/ExpandDims_1/ReadVariableOp/resource"
  op: "Const"
  attr {
    key: "dtype"
    value {
      type: DT_FLOAT
    }
  }
  attr {
    key: "value"
    value {
      tensor {
        dtype: DT_FLOAT
        tensor_shape {
          dim {
            size: 3
          }
          dim {
            size: 64
          }
          dim {
            size: 64
          }
        }
        tensor_content: "\336\340\276<?6\277\275\270-\327\274\325m\372\275\2703Q\274^p\267<\273H\204\275\342\373\271=\036\341X>\372d-=\017\213\264\274<\335\235;\353w\\=G\227\271<\216\356$<\"\222\021\276\035~3>\254\237/\275\347\263d>\223\260\340=\250\2326\275\243\276\331\275\331i\r<m\317\201\275\305\2165=\275\312\260=\371\022\331=\224%\003\273\033\177#=`#4\275\370aJ\275}\211S=l#`<~%Z\275\260\362\031=\225 \304=f\254\337\274\245H\375=8E%<\260\352\246\275\326\017P=/\220\227=\312\374\206\276\336KD=V\315%>\352\323\346\276\267\213\221<\232\217\026\275_9\310=\317\027\347\274^;6\276wgX\274\275e\201;x\010\271=\227\222\212<K\325\367<&\364\3169\202i\333\275\377{9\276\034vf=\3519\334\274\261\345{\275\212\347]=NWW=\357d\221=r\306\220=\344\372\005\275z\374\220=\305\345\206<\353,\237\275j/\244\275$\324\334\275+\221\374<\032\224?=\030\207c\276\345\314\237\275t\345\235=\311\004\211\274s\331\263=9B\242\274\217Y\215=\344\3655\275\263\035\316<O\320\255=@\340B=\365\316C\275\214\252M\275 \305H=\360/\r=v\241\367<\212\231\311=\243\261\201;\354\273\224\275)a\024\275K\373\361\273~\362\260\275\351\025\r=\177\372\303<\314\325E\275*\243\337\274!Q\303<1\375M\275+\370\035\275sd\222<o\244\000>\376\"F>\226\331R=\000V\007<\261\264\320\274\022S\236\275\206c\033\273\263\\\016\276\2556\"\276\242%\256=T\016\265=#K\245<_\2718\273\2408\266=\271\250\342=\201\237i\275*\376\030=P?A\274eD\327<\241\027{=\321\203R\274\027\273\r=\343w\353<\215\257\220\275`\365J\274\214\204\260=\210\340\374\275p\233\240\275\274o\331\275\000\260r=\360\031\345=\230\266\372\275@_9<\334\246\304\275`\313\007\274`B<<\000\317\242;\320\257\333=\350C?\2750\366\213\275@\003\034<\270\"\021=\210V\237\275@\226l=H\212$=h\025\374\275\274T\332=0\207\304\275\314\373\203\275h\312\031\275d-\230=\000L\227=\360Df=\2300~=t\267\305\275l\243\375=\250\266u=\000\224y:\000\221\365:\240\264\335\275\214\234\226=\260\005\216=0C\357\274\340\220\277=0\3448\275<\245\236\275\020\014\216\274|a\313=4 \216\275`w\335<\\}\265\275\370\317?\275\254\326\366\275X\026\233=@\234\372\275\260\320\216\275\010\305\262=\240\377\245\274\220,\272\274\000A\355:\350\304\326=8m\031=\220/&=\224\320\247\275\370>\254\275(\222\207=\000f\210=\000\334\3459\223\251\270=\017W:\275\366j%<&C\307=\364,\262\275,\017\221=LeH=8\214\205\273\261\271\376\275\251\267\252\274\365\237\n\277\003\327!<0F\207=k\374\354\274\352Y\001\2762\273L\274\331\361?=N\250{\274\025lb=nP\232=\nM\311\275Xz\256=w\241r\274[\305n\275^\355\t\274aF5<\236\302\032\276!MT=;\322-<\310\"\326\2754\211\236\275\254xM<\2640^\275\255?\340\274\005\016\206=rx\323<\004`\301\273\212A\200\275O\027\216;6\031\250\275\030\361e\275K3M=,\021\007\276|\351)\276\240\025\000\275\206G\214=\231L\231=i\030\257\275\272s\241=\375\225\235=\013-\257=gT\203\275\330\311\243\275\373zk\275\010\234\374\274\201h\226=\035w\260=\377Y{=\274UN\275\375\221\224=\214i\272<\021\210\306\276\224\267\022\275U}\243\272y\247\334<t\257\336\273\310 \225\273\232P\202=k<\216\276\261\312\001\276\2269Q=\221=R<\207\036:<\222\016\337=\207\345\025>Dc3=\256\336\314=\\\000\242\276\362\220\211=4\017*>us\022\276\242X\367\275k\222<\276\023\326\241<7\000&=\367\376\364\275A`\206=3J\340=3\350\261\275x\210\231=\354\345N=;&\005\276\277e0\275$Y\002=\372\247M=\030\037\222;\037\257\270\275\367_\027>,z\332\275\\B\364=\323L\274\275\261\316\t>\033\026\305=C\277\346=\237S\366\275\331\360\034\276\260$\211\274!\003\261=\240\310U\2769c\373<\032iV\275\275-\030\275\311>\\>\361\016\320=\253\355\202=\352^\211\275m\201r=\353\255\205=R~n=\307\206\246\275\364\224\014\276\347\357\332<\347\001v=h\231\235=\223\317\240\274p\034/=\250o\004\276lN\210=P0\352\274\310\223\006\276|\215B>0\311G\275QF\235\275\332\032\214;-D\324\275\367\247\223\275\336\217\314\275\005\307\234=\002H\376;\025t\330\274\314\342\350\275\305]\354=\3475{=\"\230X>\342\330\025>\002\022\354=\025\2323\276\243\226\263\275\360\244\237=\2767\322=\222\255\360; (\202=\010X\234>\274%*\276_y/<\211\275\320=@\3406\274\033\313\303=\034\316d=\323\347v>\214\321\005\273]j\312\274P\0264={h\371=\232,}\273\235\324\211=@\327*\275\006\242i=\"\230\\>\235?\242>\177K\276\275\222;\362\274\223\177\207\274\024\000\n\272\221\377\002\275:c\313=p ^\274\271)\201\275\202\210\220\275\215\032V\275&\203\341\273\221\336\257\275L\254.>+g\243=\030\271]=\306\243\355\275\033)\265=\240\216\326\275\243R\026>g\3173\273\274\225\225=\200T\215\275\350\305\315\275\300\305\325\275\024\206\350=`@(\275\010d\362\275\310\337Z\2758?h=\010\344\305\275\\#\252=\340(\267\274\374\363\345\275\200\324\365\2740\335\242<0t\377=LR\273=x\036t\275\340\346\223\275 p\r=\360\216\255\275\344\222\202\275L\002\323\275\340\370\245<@b%\274\030\261\006=\360*5=\000?\267=\300\305\233;\344[\267\275\324\305\315=\004\227\314=\304-\275=,b\261=\330s\026=l\361\306\275\030\216\370=\330\342\340\275@\252*<\304<\310=\250m\021=\274\336\234=`!?<\020/\326=\234\277\353=\260\244.=`\226==p\204\337\274@\360W<\200\244l\274\374\013\332=P\277*\275\004\207\323=8\321)=h\3149=\370\201\277=p\337\303=\350\333\337\275\300\035/=\030\304\210\275@\363\206<\030\274\220\275@\245f=`>B<\200+\004;@3s\275DP\001\276\274+\276\275u0\277<\211\313\300=\244\253(>\277\255\004>\237\306\023=\210\235\361\274h4\317<\004\200\014\276\245g*\276\021\004\326\274^\205\373>W\205;>:\217z=j\200\271=\334\030\311<\254\311\307=r\250p=\324\356\201\276\022\301\301=\206l3\276v\251\350\274-q\344\275\304\265\230\275B\020\337=\001\024`>\351\227j=\200\314\377\275\205>+=n|\200\275\356\362&\275i\2708;\227,\207=g\376\306\274\3121\030\276\022\000e\274\332\342\210=\020t\325\275\235\365\033\276D\375\233=_\224=\276[\317\330=g\034\024\275\334\332\201>\271Kr=O\177\213=\023\022\020\275}\331\232<\323\212h>\357\003>\2759\2745\275\332\342\376\274\221\013\235<\301\342p>\264\214\352\275J\001\220<\3038\350=\362n\203\274\221\314\030\276\3753\024\275\331<R=\336A\335\275\332\273f\275\262\303K\275z\224\313\274\243C\003>o$\346=\301\211h\275/\3628\275\2145\002\275\357\r6=\251\261\234\275\304I\262\273\326\263A=)\203\027\272^\304\216\276R\332\025\276\034\214\360\273\002@\264\275B\204\007\276\222\266\335;d-\327\275`\324\246\274\215\303\271\274\030\036\341=\033\310\020\276P\032\224=\313K\275;\370I\213\275\357\034\001\275\371\004\033<\301\3649;e\346\365\275u<\267\275f\362\315\275\003\331\265=\020\346g=\206M\313\2753\006m=IN\373\274K\240V\276\205\260\251\2758\230u;;z\t=%f\242=\t\230\177\275\200\350y=q\004\331<\003\213\010=-Z:=\276 \260\274\324D\004=!\365\274\274\321\240==\240/[=\257\036\322\275\262H\003\276\370\034j\276\3649,=I\010)=\266\346|\275\321\235\346\275\227\367n=\213\206\325\275\363&\325\274T\352\360=U\377\031=I\362\222=\375\210M=`\250\260=B\354>\274;\244\225\276x\261\206=}\344\356=\350.D=\374\360-=.c\236=HO\035\275vP0\275\351\260\025=}1\213\276.1\211=\220]\233<\035\257\350\275m\302\342<~\311\322\275\t\3414\275\242U\332\274#1\221=\311\\\336=\233\204/=\034>\367=l\242(\276\355\025\307<\206\355\215\275P\361\026=E\310\206;\001\317n>,\301\351=\027K\020>\303\305\256=\001\233\324\274\245z&=OI\201<\241T\231=\002\025\013\276\257\325\026>\213r\370\274=\355\225\273j\266=>\253\032\371=\260r3\276W\253\253<\252\016\231<\276Y\372<\274\354\331\274w1\201=\266\311\216\275\367\302?>\210#\262\275\317\021\302\275\275\3047=\262\250\212=\276\352\030\275,\253p\275G\036\263=\017w/>\372\207\202\274\365p\302\275\317\354s>X\321\334\275\327I\371\275b\266\324\275}\362\217<+4\300\274\236\320\201=\332 \311<Rb\323\275#\002\277=\221\262-\276#\311?>}\345\224\275w\311\266=\272n\355=\374\237\n>\315,3\275\030\267X\275d\362g\2758\247\014>\255Qm\275\277\006\r\276\026\330\243\274\035\200n=~\333\200\276|@\013\275\274\310\305=\273\224\214;~\001#>\333y\037>\300\257\307\275\331\331\305=\337\316\200\276\2576\257=\027\037c\270[f\321<\217?\t\276%\214\307\275]\342\035\275Wo\020>\375t`<\277\033\216=~\225\247\2758V*<\374)\227\276\333\204\342=\331\222\325=,\223\241\276\252\355\223<\001\230\335\275^=\013=\360\343H=_\311\000\276\311\270o\275\203\217\031>\257I\355=2\321M>\212\257\220>\3721\315\272?\365X\275y\274t>\265#@=,\366\322=5\236@=m\227+=&6\030\276\304Q\030<*\"\234\275Q2J=9\353\020\275\206\354\214\275\025\221D<\244PY\276g\205\000\276h\250\216=\002<\016\276L\365\r=P\271\025;G\314\345=z\254\202\275\010pa>J\213\n=\220W\027=2\"\311=t[\010\276E,S\276Wr\302\275r)9\276.\375\357\275\235\346g=d\272\212\274N\312\222=R\003\3727W^Y<\203p\305=\2567\307=\306&S=\327\265\224<r\347&>\024\317\203\274\367K\223=I\003\361\275\250L\005\275\310.\222=\252\254\231\276\226\207\273\274\215\025\310=\2551\027>\254R\304\274\001\215\367\274\261\360\230\272\346Y\351\274\325\374\215\275\006\377?<\226\367\035>\274\224X\275v\017\021\2760\241\033=S=\372\275\202\362%\275\270i\r\275N\034R\276\253n\225=\246\241\032\274}\320\014\276\223\260\026>\242\016t=i\327\202\275\241]\203\274D\347&>X\242B>\177\020,>\312\004\357=]\355\367\275\277\021\204=\364\212O\276#\220\230>78\246=\234R\234\2759\300\300\275\001-\255\276\323\326\035=\362\252\345\275V\001k=\276\177\277<\3325\216=1\275\341\275\223\345\211\275\277\201\205\275\017@\036=\215\276\367=\203\337#>\307\001\214\275\255t\273\275\220-\233\275\270F(>.\246\247\275\346\346\014\276\256\261\000\2767\275\033\276\222\343\343\274\301\005a\276\372k1=\374\207\234\275\030 \214=\302Z\221\276\342\243\315\274lL\324\273\n\271\376\275\303\323.=O\036\246\2756\\\270\275\203t\342<\177\'\336\275\374\265\343=\315\350\233\275kff\275\"\206\346=\026\227\217\274tV\361<Y!\034=&\312c\275c_\217<\305\346\255\275\226bX;\234B\264=\263V\340\275\341\004\242\275\370\252\320=\205\351\345<\253\337~\274\221\021\020\276\356(;=\301\017\341\275y\030\352;\254\374\236=E\334|=\367)\t\276Q,p<\235\243\004=\36650<+\220\364\275\324&\305\275t`\352<^\3147\276b\315\017\276H\334\333\275\031\324\246\272\277~\323;\002U\306=\205\336\000=\251M\263\275\016\0051\275\322\004.\275a\224\257=\332\233\351\274[E\017\275\021\237\3059\262Y\235\275luD\276\357tB\275\335\242\206=%\014\221\274\354\240Y=}\032\245=+t\306\275\254\177\242=}y\343=\324\323\246=c\021\231\273\3408\346;\337j\221=ekf\275\276\362\013>\323{\263<\372\364\221=\371\204\245\275_+;=\244\205\311=1\032\364\275\225(\221=\005\275b=\345>\227\275tB\025\275\224w\253\275\253W\306=\2219\330<\347\354\027=\302\356\345\275\320Q9\275\261\365\371=\177\264\261=\017|/\276\215\246)<\006bw\275)k\247<\266t\217;\216$_=\2410\031<\001+\271<\014\356E\275\225\\\367\275F\010\370=&!)\276\205\265\300\275\"\313o\274\271\323\246<\301\267\363=[\\\352\275\320\\\361=B\216\255\275\304%\275\274\3374\273\275\366\275\351\274\216?P\276\263\237&=\007j\304;b\352\027<\2375\300\275{\345]=]\277\\;\351Q\336<\005\202\";vX\"\275N\233\365<\203\270\267\274\215\271\230\275\374\260~\275\327\336\257=a:C\276\340bb\275\323R\302=[x\220=\266Dc\275\007z[=\020\242\331\2751\372R\275\310W\252\274\301\264\335\274\347\005\273=\337\264\336=\356N\334=\252+\201\275\304\322\222=\261+q\275\341\275\251\275(\243\255\274\256\"\017>\361yu\275\'\314\235=U(\211\275x\324\300=\253Ie\274\212\262T=\343J\207=CzX\275R\013\216\275\247l\317\275\000\216W=BGV=<\240\271=\271\330\324=y)\220\274R\310\313\275\002k\222;\033\n\225=o\311\027>\017pk\275$\023\315\275Q\266I=\003\217\323;\361l\302=\367\206\366\275\324\334\313\275r\322\255\274\225\236\230<<\356$\276|\323\236\274\341\224\224\275\323b\032\276\347\234\375=m\232J\2769k\302=6!*>L\322\360=gD\031\276\277q\031\276!\220\\>\350\027\030>\215\367\323\275\t\365,\275<\207\227\275\224xW=+\007n\276\377\'\272\275\224G\n\276(\304\300\275[\003\304\276z\270\357\273\313\373s\275\005f\307\274\242\022\033=\263s\222\275N.\373\275\0222\006>S\250\'\275\017\253S>\027\221\311<\001\361\277\275\252\234\010\275\000\234\354=\361\203\001<\250\247\025\276#\024l<\355\267\371\275\247\224\263;{\303\331=q\200\005>\265\266\217;%\202p\275\010f\366=q\356\253=\004\326f\275Py\252\275?\245\220:\377\377F\276\361\317\266=M\304\360\275\316\354\007\276\250\274\215\275\376\010\213\2744\032G=\301\356\217\275\275\316\337\275o)\375=\253\334\216;c\311\272\276\200\363\275=\221Gv<?\017\214=[RP=d;\305<o>\017>b+\271=\270\377U<m\017m;\254\177\034=;\023\222\274\236O?=\"\355\200=\220\206,\276\235\230\235=\332j\014\2763+\307=IW\235\275k\244@=\323~7<\004\\\237;[\237?\274wh\231=F\2164\274\0051\317\2753a\364\275\324U\242\275z7\021=)\3558\275b\305\006=\323\007\200=\307\212\253<\267\232\324\275\332\243\210=\306\277\n\276\335\304\254=\024\332\205=e{\247=S\030\260=\r\336/\275H\351\272=\253\030\253=\234\227\361\275\361\260\245\275\305]\237=\034Qj\275U\303t\275R\223C\275pF\037=\\_(=\225\341-\276\346\225/=\234;\273\274\025\242\\\275S0\t\276,;\317\275\371\257\320<\201M\252\275\315@a\275!L\222\275\004\327\245\275k\243a\275\311\014\203=\204\316\025\277\306\305\020\276\311\333\345\274?k\350\275S\203\273=[\361\357\2753\252\242=\220\332!=\t\306\260\275\203\3045\275\267\373\322\275X\252\\\275\013/\256<x\216\253<\266\300e=:\227\303\2756O\262\274\034\032z\275\262\035\353=b\325E\275.\'\375<\356\3732\276\014\266p\275Nx\222\275\226\032\272;2\251\232\275\243\301\367\275\232\256\220<\273\ne<\257\264F=!:\314=y\345\232\275V\241r\275\340\345\246<\226\027\342\275\217\353\021\276}\204\260\275\373\000\030\275\200?\242<he\216=+\023v=\321\036\252;U7\332;^\231\214=\246\342\377\275\257\335\r\276\307\035\002\275\275.\003\275\244\212E\2767\262Z\275Gg\350\274p)\334\276\242\024\254\274\236\r\000=\270\256\005>(:\357\274\305\"\237\275\033\334\212\275\227\242\232=\372\275\201=\260\256\033>\254\210g=\360\263\271<\263\2647\274k\030\013\275rV\236=\226\320\370\275#|,>\374\235F=\014\362v\275\353\202D\275M\367\300\275q\234+>\033\"#=\343G\305=\334\306X\276\r\024\241=6\210\325\275\013#\366\275\1771 =k_\240\275\366\360\272\275\007\275\004\276\377\224D=\033\253!>f\010]\275~\237\333=kn\223=\n,\352=\313\355b\274\316,\351\275f\221\037>\370&\r>Wg\362\274\364\210\023\275\305\200\004\276\370%\370:#-\252\274\314L\222\273\315|\246\276Y\211\353;\360Z\356=\352Z\223=d\320\312\275.\202\232=yU?\275\227\351f\275\276* \275\352\377\265=qs;\276\027\n\206=\265\305v\274{\342w\276k\213\270=\275R\253\275t\217\207<)\362w<\212S\340\275\357(\364<\320s\236\275\022\206\243=`\335\267\275\367x\347\275A\036k>p\202\276;\344f\236;HCG\276\036\215\313;\315~\236=\252\246B;\036\364\257<}\213^\275C5\356=CO\212=\344Q\177>\355D<>A\266\262\275\306#\370\2757\210\223=3\367\002>\260\210\247\275\0266\022=uq\032>\310hv\276\200\236\216=\020\376\241=\207Q\243\275\250\031S>&\354O\276NNu=\216\2162>s-p\276\256\252 >$\310\373;\025B\365\272L\312\007\276\203@@\276\020\020w>Y\376\344=\234\270#\275\315\005\025\276\3344\376=eY\332=\275>|==F\215\274\372z\330\275~#\326\275\210\2606\273U\373\013>\233\'\026>\003\330\251\2762\321\270\271,\247\247;\271W\275=S\327\t>\337]\243\275\305P\350<\010\357\013\275Gv\223\275\265.t=\247\313\251=\022\363$>\224\2716>\0253\326\275\335\371\324\274\370\351\305\274d\326\277=\260U1\276\363J\232\274\222\205\313=\255\240?;\036\314\007\274\364+\316\276B+\372\275\034\324\253=r\3702=\262\003\226\275\006bQ<\3621\017=y\\\244<x\262\345=\031\371\250\273\355\314\350=#\212\023>\001\240\006\273\377\302a=N\327\234\275\342\022\342=n\204*=\013\335\250\274\332\010\213\275X0\247\275\023s\340=k \322\274\345E4\276@\246\323\274g\2611\275\335\324\323\275\346a4\275\326\017\033\276\005\000:<\214\0013=\332\322\236=v}\330=\225\354\256\275\375\r#\276\024c\246<T\004\325=\003\021)={\233+\275\027\302*\275\005\222\241\274\223\241\206\275\376a\032>Q\303\024\2741@(\275\316@\361=\236\362f=\026\341X=\357\276\232\275D6\221\275V\300\327=,)\301\2741\260k\275c{\215=D\231\261;\2527\250\275\254\267\277\275\242\242\300\273\252\215\035\274\313#j<L%\273\273\303\311g\275~\232\030=I\344\n\275\321_\260\275\244Q\250\275@\247#\275\246\233R>\313\256\206>$\252\010\275d*\255\275\375\324\255=\215\217\273\275Yn\365=?/\000\276e\373{\2753:\326=\031\000\n\276\'\237c\276\316\366\033=b\315a>\334\250`>\234\256\"=\221\006\372\2753\013\301\274\3638\201\274\364\203\217\275\251%\037=\227=\236\274\324\016\213<\206\014\247<y\377\265\274i\246a\274Q\266\324=\306\252\214\275\321\201M\276<\347\226\275#\022o>\253b\221<LM&>\330\007\010=\301\370.=\336lT\276fY<=\324\313\344=\251K\007<x\0019\276c\366w=U\037\251\275k\252\232=\244\232\'>\253\225\211\275\343\036\333\274\336\307\236=\272\354\035\275\251\273v\276\276\014\201\275\014\223\236\276\013\024\254\275\331\345d\275R\277\357\274u\276\017\276Y\210\250\275\327\007\267\275\356\341\263\275\036\010\233\275j\246\344<\353\261\347\2731}3\275\373\374\237=qB\201\275<b!\276\232!O\275\230\211\333\275VB\n=+\222Y\276\335.\376\275_\226\255\275\033O\307=\365\366d\274\021\217\321\275^\3019<HX\231\274\246\351\325\275\366\234\345<:\264\027\276\246\277\002=\205\036\003\276\277\007\256\275\232*\230\274\214\177\315=7Q\033\276\031 \216=\034\2359\275\242r\t=\345\227\336\275\207Jr=ay\031=,t\'=\346\034G:\342\243\301=\324\000@<y\332>\276\007>\032\276rm\344<\224td\2756\2670\275\271\334\374\275\220*T\275M\355\366<=\253\221\275n\023\344\273\336!\371\273\027\307#=\016\361 \275\227\277\031\276|[\306\275q\2317\276;*.=[\226\200\275\3341\243\274\273\355\370<Zd{<\007G\232=\255\323k=\334m\210=\256\332\t\273\"\304\375=\003\n\343\275\326\262\010=nR\022=\263\356\211;\332\0134=|\220\273=\246\310\220=[\322\307\275\275D\207=~l\267\275\275\343\255=(\026}\275e#\306\275@\267\350=\367\311o=\243\271)=\347\265\020\276\022\301e<\356\036\355=E\013\256:\034l\234=\026\\\246=\354#\226\275Rf\241\275\023\332\263<\375\002\271=\202+\301={S\331\275#\203\210\273V\010]\274\343^\375\274\277\2313=\000Y-\275\t\354\225\274\253\224\024>%\320}\2753)\276=\306\260\234=\263\314Y\275\335#\321=P (\276\224*\262=[\341\345\273\273Zd\274\007\222\t\276\346\037\244<\0336\201=\314\266\230=\3524\331=O\255\204\275\036qi\276\341\027\267\275\205$\275\275\r/\241\276\334n \275k\026\366=\213\312\370\275\222PL=78\203\275\363p\204\276\333\003R;\215\315\253<N;\323<\014\3134=Mp\204\276\004*\234=\277\244S\275\263\263\241\276G\364\215<\366j\222\276\216EH=\273l\026=n\026\361=\2076o\276\262,\326\275\\^\037\276\006\307c\2754 \000\276\0335:\275\004\343\237=\342o\211>\275h\213\275\230u\271\276\313$\217\275\371B\243=\342\032\221\275\211/\261=\177\\\r\273\323D\251\275\361\005\340\275\237Y\213\275\001!X\275\210\253\277\275.P;\276\216\302\356\275\277\020\215\276\0138\325\274\305\324\206\275\345\246\026>\326\010+=\237=\001\276\202\231~<B\033\237=>\346\025>\257b@\276\256\225\267<\330>\213=\234\230\367=\034U6=\210\037\320\275\213K(\275\\H\000\275\363A\023>O\177f>\023g\020>a\265\341\275\034\257\257<x\007g=\326S|\274\277\325\220=\221\346\225\276d\030x\275\247\203a;\030DO\274M>\034>\0245\014=%7q=\250\2203>\314\307\003>^\300\007>\274\321\254=<\310R\276H\240\247\274\023w\033<\371\021\313=\354\004\334\272\223-\322\274:\325\000>\277\234\\=\373\372\003=\0257V\276a\330E\276\033w\232\276{\214\316=\025\274^\276\207\311\255=%N\021\274*\364c\275\256\354\324=y\005a=\327\256\370\274\227o\026\275\336~~\274?\200\354\275\214\376\241\275\351j\241;L/\024\271 \206J<\007\007\004\276\224HC<\341\332\037=\376e\247\276e\201>;\255\222\241<\316\213~\275L{\302\276\010\345\013=\250@\323;\317t\023=R\2256\273\227/#=\201\222\321\274\343((>\231\3754>\013\331v\273\256\332\246=!\310\300\275\341\000j=\340\345\312\275a\n\301=,\374\237=V\037\224\276T\330\273\275\324\001-=\247\004\346<\024\250\027\275`Q\233\2757\360\237=\3766\343\275[Gc=\344$\271\2758>\n=\'%\206\274q\214\261=xw\254\274\326c{=1\302\203\275\tm\005\276&\316P\275\353\t\013>\260\305K=\250k%\273\353~J=\nP\017\276\305\246\240\275,[.>&\213\002=R\004\350\273n<F;*\330\277\275\244 \037>\350\223\251\275D@1>\354S\232<\375\227\204\275\273I\320=X\215U\276E\030\364=\332nS<\203n\354\275#T<\275\322\372 >\266\234\314\275sZ\207=\317=\\\274\233\341\373=\3410\006=,\227\304=0\320\245;\204\261H>\367\007\224\275D\256\330=\t\230\275=\274\344\021\276\270\331H\276\305}\361\275\332\246I\271\307\203\007\276\t\025\305\275\315\263\023\275h\217\243=\367\226\t=\316\232|<nu\003>\224\221\364\273:a\331=\010\nA\275m\212\376=\202\374\227\274\263\371\310\272\341\345\207<\275\276\037>\271G\r=6\252\332\267u\237\256\275\3028\311\275w\247\375<|H\362=\023ol=\314\365p=\336r\374=*\316)\275\374\346\245=\337}\327\275\344\330\001>\270W\255=D\252\200=j\017\025>\250\354\031\276\247\022\246=($\376<\343\n\371<\367\233!\275\004\227\n\275NBF\275\014\314\341=\325\264\305<\375\002\307=\374 99Vg\314=\201&\003\276\031\367I\275\234c\360=\325\013\345\275&\210\256\275\322\031\007\276\307\322\037>\216\267\215\276-\204\016=\237\320\274=\013\347:\276\336\371\n\275\254\301\213=\031\027\262\276)\376D\274Y?G<\255\250s\276M\025\326;\356\224\332\275\031\343I\275\036\306\003\275\\\345\242\271\357\321>\276e\277\025>\001r\247\273h\023\201\275\265K}\276\223\204x\275d}\256\275\206B\223\275\002\227\327\275\005\246\r\276A<\241\275\275@j\275\026%\331\275P\r\356=\320\346!\275\200\321\311\273`C\376\274\350\244\036=H\263\252\275 ]D=\340#\316\274\334\253\223=P\022\244\275`\260\220<(v\025\275\270\\\255=\340y\344\275\254\246\262=`D\334=\264\203\324\275\320\353\257<P\367q=\354i\325= W\310\275\200\314\372=\020\320y\275\220\327\252<\010&0\275\200\330@<D\004\247=@\300\362=$E\264\275\364\300\260=\3100\224=P\323\370< P\243=\330\324T=\000\343\022\273\220\303\021\275xy\360=|z\270=(\316B\275\360\325\212< \240r<`\356$\275\310b\t\275@\201\265<\\\001\270=`\337\325=p\223\240=4\257\347\275\000\372z\274\030\022==\000+\031=(.I\275\200\320_\273\250\t\361\275\\W\354\275\374\353\366=\230\370\254=\250V8\275\370\277$=\200F\264=\200*\022;\300+\316< \031_<\340+\303\275\027t@\274\310\234\303\275\021\263\270=OA\023=,\006e=j\224\251\273\010\313\177=\252A\321=\375\005\336\274\344\373~\274\037\322\n\276Bs\223=\n)\271\275\035\332\204\274\003\2533=r\303\304=lV\245<{\326\246\275\004\032\005=)\203e\275\030\301\001\276\314N\313\275\265\310\301\274\330\300\233<;\253\013\276\246\221\272<\202\243\262\274\017\204\300\275\217\2220\275J\361\036=\010\345\256\274-\260\023=\327\234\316\273,\024\325=\013\2261\275\322\027F\275\207Hg\274\264\212\031\2754\333L=\211\236\361=&\274y\273\037\363\371=)\231x\275\233\360\321=e\350\361=\177\000\033\276\302\341\324=\271\234\014=\036\263\367\275\313\233\270\273N\321\033==\333\331\275#\007\312\274\357{\354\275e7\265=\00706\274\371\262\330=\020\323\240\275\017M\247\275\0319\223=\002\336l=\247\213!=\221\004\213=\243\227\251=\375\201\\\276\372\366a\275F:\307=}\036\306\274\303\302&>\"\334\003>\313!}\276\037\177U=\024\211\300\276L\303e=R\332\005\275\023\024\360=\345d\200>z\233a>\332\301\351\275`\260\035\275P\373 >i\301\215<kr\207=\263(\347\275Ct\323\274\251\215B>[\001k\276\271y\235\275(\366\201=o7\256<\255\271\210>B}S>\257\233t\275g\272\270\275\220\226\222\276\033\257\n\276\323\236\035<\302?\347\275\2343\013\276\333\034L\276$h;\276N\2412<LA\206>\'\226@=\245\267\312\274\007\200 \276\243q\255\276\007\377Z\275a\2449>\353S\036\276z\231%><\233<\276\345j\001;\210\324\r=\247\267\343<\304\210\357\275\235\234\230>X\203\215>w\237\004>\265Z{=\272\255\357\275\357\236\270\275\322\272\252>\374\234\016\275\'\314\261=\377\374[\275\344^@\2765\372Q\274\226r\314<\307\356\330=0g\217=\326\030\264\274<\177I=@\214\333\275d\311}\275\t\224\373\275\377m\276\275C\324\345;~\350\334\275\2631\273\274\275\255g\276h\346\304<\324\274\340<f\204\271\274\250\366\210\271\350.\013\276\001\250p\27449\n\275l\265j=Y\006;<\251\250\230\274\331\272\271\275\251u3\275\212\310b\276G\332\225\275\321=\346\275O\313\214=y\030\316=\347\265\016>\340h\370=H^\374\275o\210\316\275\377h\334\2740\247\210=)\212\020=\253h\256<1\272\252=;\246\257\275\374\260\247\275|\010I\274\001\237\313\274\307\240\240\275\322jk\275\223\372,\276\272~\361<\242\242\271\273\030\351\273\274\263x\314<<\350\352\274\262\333\216=\213O\351<\311\345\210\275\336\365p\275\337\344\031>\032!\277\275v\334\317\270?\331\361\275\247D\253\275\225\351\231=\264!\232\275\330\312\375<\311-\333\275\242\031\032\275\204\332\265\275\225\365\232\2754v\321\275\235\335\030\276\261\337\236\274\251\335/<\t\217E\275X4\n\275\277\340\261=\202\003\225=\210\201\377\274\320\341\224\275\337R\244=P\350\277=\200s\251\273\016\261\236=\341\214\327\274\031\357\324<\023\010\036\274\274V\002=:\264\270\275v\261\201\275\234I\'\275\037g\n=N;\360\274\372\367\203=\225\342u=\334mo\275\320\357V=hU\220=\321\213\230<\263\242\001=\253\027\202\275\371]^=l\256\260=r\301\334\275k\311a=\245\235n\275g\016Z=\373\211\274;\027\351\031<\326\377\240=\374\247\207\275t\236O\275,\373S=k%\251<\211\202\253\275\262\314\226=\003\225C=\377\353 =\211\357\314\275Q\037\205\275\224\230T\274\233\n\237\275\377\275\256\275~\256\263\275`]\275\275\026\221|\275O\317\006\276b4\243=Jo\243\275\243\360\337=\255_l=\031\332\263\275\'\257\321;\\2\204\275\236\345\300\275u\325\353\274\246Y\035\276\244\237L=y\2214<[\007R=\016MF=\r\267\314\2751;\263\274\304\201\345\275\252Q\212\2751\221&\275\362p\254;\204\331\204\275qM\267\275\255\222e\274\340\236\201\274\210\202\022\276\236+\277\275\035\314\014<\223b\304<Gk\221\274\372*\347\275\331P\302\274\224\373\224=E\264=\275\353V\004\276\277\333,\275\000\273#=\336\213\334<}\321\212=\341@\205<W|\366\274\023X\321=_}h\276\363d[\274/\016\350\275\234l\313=\346\002<\275=\\\000\275Q\257U=,\340\010\276\n\230\235\275\026\000\325\275\251\202\205\272\014\262\301\275;Mp\275@\335\344\275a\330\271\275?\335\226=\375\203\324\275!?\212\275\342\253\323\275\257+\314\275%\005\372=\315#L\276WwE\276\003P&=\345\016\375;# \211\275\212\306\346\274\341\366\025\275\311[\221\275\305\271I\276`\355\215;K\354\266\275\262^\025\275\224\234\031\276\356\030\n\275$\300\017\274\345\217\242\274\200\023\227\276\221\273\270=\013y\215\275\272\021^=b|.\275_t\337\275\242\360\n=\211\362\204\275&\267\324=\340\354\323<\327\301\315=\311A\035>\230\305@<\324\262\305\274\t@\367\275\367\201\"=\021\340\356=\206\362\226=F\274\336\275\022\322\274\276\272\365\265=\010\021\'\276/\225\310=\2216\315\275\002\237\t\275\330 3\276\n\032\177=\325x\206;\272\311\256=#\305,\276\336S]=_\014\300=\307\310w\275a\377\010>\014\354\300=\241\262\271=\275%\256\275\261\016\211\275\364\2727>\242y\202={\224]\276\363\020\003>f\227\220\275\202\312\231=\347W\300=}\244\270\273L\206\225=Eb\316<\327\213\262<_\240\211=6v\035\275\2303\361\275\344 \n\276xR\036\275d\321\317\275\330\206 =\351\227\030\275\254v\002=\3472\274=\3046G=2f\206=\027I5=\2528\302<\210\252\231=T\343\210=b\220\210\275~\323m\275y\311f\275\002Ts=\005_\263\273\260\023\230<\235\306\362=\234*\354<\304\341\227\275\274#P=\361\2621\275rY\022\276\234W\272=\204\316\014\276\361\355<\276\227\227\023\275\353c\177\274\010g\374\275\340t\222=`0\t=\216\031`:e\346W=F\355\305=y\252S\275G71<o\372\347\274o\264\207=\242\306I<\021\310\312=\250\2376=\332\022\340=\200y\024\275\263\300J=s\244\352=\0238\006\276\023\313\237=\337L\256=\350Zk=\317\231\217\276\013:\267=\237\225\376<0\237c=\330:\n>\277\245\274<\231\3303\276\275\001\352=\023Z)\274\226\035\022\276\032\204\037\275j\361\234=)\305\025\276\010y\020\276\'y\r=\037%\031\275:\332\224=\313jg;\230!==\206LF>\243\017\205=\356oj=\"\230\253\275\315R#\276\377\337\252\273s\265H<N\022\217=Q.G\276\263\3224\276\275\371\226\275{m)\275h\222\000\275E\2007>\267!\023>\233zE\276\027\271\034=z\326\210=\217=\224<\240\370\215=\265\304H=z\271\261\275\3033\303\275\333\026U\275\311\346\247=\226\024f=s3\246\275\271\034\324\275\276\277\235=\316[\307\275[%\t<\251bT=\037K\376\275vP\213=+\271\001\276\320\270\244\274\356\346\010>94G<6\256\260=+\025!\274\331\370_\275\022\326\355\275\346q\002<=g\003>d<$;2zY>\274\036\005\275\367\224\270=\345)\216\276\217i\215\276\032:\223\276\214\310=>\3062)>\034(\352=\203j|\275X* \275\ts!\274\370)r=\344I\307=\032\017`>\343\216Z\276\332@\334\275\366{H\275ay\272=\314\310p=\\\0277>f\266\336\275o\254\323\274`\214~=)2{\274a%\257\276\356\003+\276\026C\262=3\232\211=>\351S>B\277\274=\337\236y=\201\r\222\275\364\344\231\275\020\366\340\275R{\025=\200\250\236=Xo+\274\324PW\274\ti\311;CR\201=\245\216J\274\331\3555\275\221}\320=\257/\316=\360Z\004>/f\374=w\366\365=\276\013\241\274n\367\334=\267@U\276\r%*=e\005\013\277x\222\200\274\350\357t\274\325S\262=\2617\213\275\315QI>\250\275\002\276\317SE\274x\330y>d~}=A\263\276<\333\265\030\277\310\226\332=,\231\251\275\340k\257\275 \262\255<\r\301\030=\205\347f=\'K\205\274s\302\035\275\020\007\207\274J\276\253=5\220\006\277\361\' \276|J\002\276X\270\264\275\213\022f=\0043\021>\203\034?;\257\251\021>i\222\013=\325\330\231\275\014\340\213=\350\3531>yc\010\276\022)Z<\357%1\275\034\217\246=\022g\267\275\273\263\000\276K\220\005=\273A\352=8\333\212=\2735\203=x\005W\275\361N\005>`q\021>\352b\220\275\212\350\276\273\363\271@;\032\210+\275aI\221\275F\347S\275\371\376\025\275\215\257\017=1\021\333\273\306H@=\003l\023\275\210\316\204<P\t\231=\312\211\355\275k\017\r<R\265\242\274\023:L\276\262\205\024>\240)\316\274\206\372\203=\004,O\275foq=\264?K\276\027\224\025\275\013\354B\276\221\225%\276x\313\237\275\355\t\366<\361\026H>\034\325\236\275\334jM=\254\344\246<y\264\007>\027\277\363<\370PE\275\321E\360\275\204\273v\276\000\247\344=/\016\334\275)\036/=\207a\007\275\371\020\010\275\226\2400>\340\014Z\276Q\377\010\276\311\346*\275\221\002\264\275L6\224=|\335\315\275\263^\242=\320\265\241=\275}\337=\322\2441>@ED\276\270GE<\324\n\213\273\017\361D=\\\243\200<\023\025\357\275?\253z<\351\244\r\275v\343\360\275UqY\276D\244\024\276\245i\377\275\033\356\345\272\321\331\314=I\212\312>d0Q\276R\336\227\275e=>\276q\235\031>\003BP\275on\221\275M[\362=\\\331E\275\212o\361\275\026\233J\276\271p\025\275c\237\256\2759\365\316\275\371p\264=`\025\240=(;\025>{\222\264=\256\277S=)\320t:\036U\342\274\255\266\030\275\372\336\204>\270\\\t\276\336\223S;o\3629;8F\013\274\014\361$\276;\364\231=\026\330\203=\'=\200\275\276j\301\274\005\330\312=m\315\236\275e\312-\275:EM=lt\356=.\262\225=\242<(\275\2342g\275\305\341\036>\242\304\246\276/\232\010\275\024\003\025=hv\205\274\301\265\236<\253\343\202\275\353\251\331<\211\213\212\274q|\241\276\266\010$\276.\014\326\275\232;O\276\022\021\023=*r\002>^\271\366\275\321\033\233<,l+\275p\\\233=:C\304<\310\244\245\276A\245\342=\216L\271=l\"\n\275\013\266\030\276;n\202=M\355}\274\\uA\276\220D\261>M\031-=\375F\245\275\022\357\314\275LY[=5v\262=\264Q\305\275\246\231\312\275\302\237\310\275\311k\017;\236\366#\273}wj\274pNp>I\014\366=\250\337\242\275\374\335]\276\266k\242<B\365\355<PC0>\031\226\216>*\373Q>\255\177\274\274\335}\036>N-\345\2754[\r>85\317<Z\377\024\276\214\016\277\276@\315A\275{h-\276\3047p\274d\025-\275r\350\r>\332b,=\312J\021\275\001\nc>(\263\240>n\177\256\275\331t*=\264<m\273&\343\356\271\r%\267\275\372\032\224\275\3258\377\275A\355Y\275\315{\331=\263\0164\275}\205\200\277 \304\336\275\270\030\236\274k\240\366;\210d\203\274\313\234\205<T|n=c\307\321=o\255\177=\033j\334=j\244\374\275\025g[\275\322\314#\275\014\343\312<d\322\"\276!\373\312\274;\"e\275\020\311\031>EM\261\274\020\033\246=\275=/=\"\016#\276\374\365\202=fcw\275\316\332\343;\352\n\346<46\2439*>\025\276\346\262\257\275\034\367\302\275\177\344\307\275}\335\252=\\w\016;\215\270\203\272\037\264\232\275\001\363_\274\025\366\277\275\\j\004\274\013\036\363\275\254mT\275q\374F\274\305\360\254=W\003\023=xI\311=\336\312M\274\022y\333<\246\250\262\275D6\t\273\253\r\232<\027|\021\275@=\365<X\220\022\277\205\315\301=\215\236%<JxX=\031\032\242=g\005\251<\214Om\275\207y\223\2752\316\241=\253qL\274\035\372\317=\321l\226<0r\337<\241\376\007\277^^\226\2751\331\202\275TEN\274\305\223^=!\224\373<D\310\221=\337\224/=\302b\227\275\321\033\361<o\250\265=\343\343\210<eCN\275\376e\303=\027\374L:\207\207l\276?F\306\274\265w\210\275\354W\351\274\201\264\270\275\004\302\263\275\250=\275\273\2529\223\274-\223\005>\333\206\226\275w\016\t=c \265=\375D\235\276\201sI\274I\004%\275$(\373=5sQ=c\233 \276\000\2112=z\t\325\273x\303\214\274\033\024\242=\273s\237<\\\213\222\274\336`\225\274\214\r%;\031\210\276\273\373\277\301=o5\351<\362\254\035\276\336\206\013\276\\\t&=\2542_\275t\332\016\274\363\347v\276U\007\230=\250\301\205\276\3772\307\275\302a\215\275\254\345\220\275pU\252\275`\307\273\275\004\230\341\275\260\376\202=d\226\323\275\010$\316=\3500\003=4\343\202\275\220\326\310= j\231\275\360f\336\274\304\272\233=\324e\235=L\004\226=\020\227\211<\3006\230\275pC\342=0\177~=\330b,\275\350\370/\275\3502W\275@1\203=\230*k\275dr\367=\304\340\222\275(6\347\275\004\372\343\275\364\203\335\275\020G\224\275\000S\302;\320\365\256\275\334\267\214=\320\305\222\274\220\031l=\000\036\304\273\234P\350\275\340S\355\275\3702\251=\340nA=\340\230%\274\260\025\300\274,L\342=P\177\252\274\310\2736=p\314\273=\220\331|\2750\211\334=\274\344\337=\234\270\330\275\2400v=\240x\325\275P/\337=\330\347e\275x\303\374=\200\202\241\273\010\375\347\275\300\202\271<\314\361\361\275\350\022h\275\3147\347\275\300{q=\030AE=tm\342\275\320\336\325<\200v\327\273\300)\350\275\244M\375\275\200\327\371\274x\224\237=<\343\251\2750\243\271\275h>~=<\375\367\275\220\226\255<XE\036\275D\270\341=\000\221\033\274\200\343|<$\212\342\275\300AC<@\205\321\273\250K\007=X\365+=\264\336\311\275L\357\265=d2\327=\300u\030\275\000M\031\274\000\370\260: \314\323=h\005\024\275\374A\231=\310$\340\275\240Kb<4i\351=\260\343\252=P\327\210\274@\002\212;xR\240\2758\335 \275(\347\t=03|=\300\374\006<\000_\250<L\001\320=\340\350\340=\320\226\214\274|O\252\275\304\023\310\275\000\352h\2738\250\034=\260\333\013=\014B\372\275\010\212\210=\260\330\324<Pz\210\274\0103\265=0\345Y\275\260\301\265<\000\030T\271\030\021\036\275\300\361C\274h\372\201=0\355\026=P\225:=\250\372\374=\014\037\314\275\2657\242\275\367X\315<\267u\367\275\373\325\n\276\305=\004\276\221\'p=\271\212\342<\237\263\224\275\024p\322\274\342l\241\275A\206\r\275\030Kz\276\263\321\255\275\251}#\275\310\023\251\275\200\250\026<\206\001\324\274A\005\234\274\356B\325\275\354*O\275\205\032k\275Y5d=\314\213\214=\323\334\307=\227#\202=\240\264\177\276\364\326\367\275\3776\252=\303\2027\275\214\341C\275\345\371\243\274\351\324\270=\003\272U=\270?\244<\232\244\222<P\036\227<\222\003\362=\n\366c\275.\206\262=\026OM<>\023L>\316\301\263=\035\336\030\275\372\225\234\275\265M\255\275\tL\254\273/\235\234\275\321\270\340=\327\226\221\275T\261\245\275e\235\274=5\346\350=\301U}\274U\210P=\230\340-<\327\351\270\274\025\220}<\3008\202\275\357\233\234\275\322]\021\276\032\277\256<t\220\235\275\316\255\352=&\346\017>_\273\277=\037\022e=BW\302\275\027\356\312\275 _\240\275\006\206-=\220\323Q\275\200\210\306=]S\333<8\321\266=\330.\201\276\351\214V<\302\034\354\275\n\n\223\274\034\304\000=\211\211\321\275\022Q>\273\303\236\377=Q\'\306\275\225z\022=-\352\240\275\376\377\264\275\211PT=\326\232\352=\320\353\220=JN\004\276\342D\206\275gFG:\014B\304=\245_\312\274\020P\306=\377B\024\276u\\\247\272\002\345\360\275\026R\016\276\354\242\264=0\373X\275Ct\250\274N\021\231<Hc\224=aq >O_E=\024\263\n=e\232\234\275\261\021\310\27569\270=\320w\271=.7\353=C\\\353\275+\237\n\276\347A\254\275\266\365(\275\014\242\350\275\363\355\274=\'\377\266\275%c\366\275\0034\002\275\251\232N\275:\013\361\275\343\250\242=?:\313<U\242\235\276\271|y\274G\234\005>n\020b=k\266\225\275A\354\377=\254<\255=#\027+\276\225\361\254\275K\365C\275\362\365!\275G\0132=\004\346\264\274&\022\022\277\033H\002\276\010\242\235=4\347\356\275\021q`\275\2259\222=\325=\261\275n\347\320=}\333\327\275\234_7=\216O\202\2752\314S\275\324C\371\274+\313\007=\032c\025\275\321\216\371=\264\365\244\275C\265==\342\237\343;\245NX\275\346\345\221\274qo\345\275\350\310\312=\222\367z=1\272\'\276_\305\234=\242\250\354\275m\375[\276\226\330\025\275%K\n\275[%.\275\215\302`\275\322E\n\276++\331=v\263\256\275\347\237\343\275\241w\306=}\001\255=0\371\025>\211\007\344=\260~p;\203\003\037=\371U,\275\345JJ\275d\031\252\275u\266,=D\267\314=\210M\036\274\255\340\256\2759*\252\275\t|\322=*\241\256\276<$\273=\024\t}\275\215\030\003\275\205o\237=\236\365z=\362Qe=)Je<C\357;=4f\336=*\306@\275s\211\347<hlF=\030\035,\275\242\245\227\275a\305\253=\326\3047=\205\027\351<:\001\325=\000\311\222\273\235#\355=\332\331\301=\264\206\371=(\245\223\275QX\221=\335tX=D\275\233=l\312\357\275~\355\277<\'\272\276=woZ\275\030\237`=\2509\"\275|M\354=\231\"\033=\010\"\254\275R\311\317=\275\277\314=\220\307\255<!\351\236\275\261;$=\021\000\205\275a\2208\274|\004\320;\364i\275\275~tl\275\030\325\377\275\376\242n=\335.\211\275\3508w<\267;\244\275`\371\231\275\215\212\327\275\300N\241;\\\217\306\275\017\202\312=8\310\260=\271_\254=\312;\272\275\317\362\231=\230+\023=WT\350\275\367\236\205=\353\361\263\275X\351\243=\241p\256=L\264]=\344!\365=\264\263\001\275\024\3434\274\353\314\304\274\010y\025\276\253\357\343=2N\022>\260\357\025<\226a\243<\356\024\014=\031gt=/\375!\276\321\026\356=\363\353\246\275\004\366\265\274\331\0137\275b\r\032>WL\355\273\204\376K=No\t>\341\301\244\275j\270F=%\3769=\355\235\275;\3266\212\273\271\316\233\275\355~\337=\255\374\314\274\345\375\207<\241\314s=\r\022\021\275l\260\220\272+\363>=\251\235\253<\371dz\275[\261\222\275&\354\313\274P1\373=20\256<U\355\266=\270\244\246\275O\\1=!\353\370\275\377\314\256\274\322\023\322\275\243\270\031=\307\032H=\002#\275=\325\313\265\274#\247\371=\202!\001=\333D\222\275\345f!=\332\244\006>\344\316\376\273i\254\023=B\360\231\275\2304\t\276\264I\331<\331H|\273\032\312\330=\342\252\275\2759:\037=jh\327\275\266\365@>\277\205\371\275\304\000\201\275s\010x=G\275B;\324\304V=-\241\t\276\276.\263=?$&>\332\352\240\274\005\245\322\272\220\266\276\276l\255\263\275X\322\262=v\246\014>\200\247+>$\376\254<\240\263D=\215\363\264<@\2775;v\327\354\275\312B\t\275\'\276\207\276\315\337:=[\030\262=\251o\277=\004\275\316<;\335\353<1x\263\275\335\363\n\276^^\353<\037\216\363=\242\323,\276\315Z\213\276\365\365}\275\260\001\223=u\235\327;I\334\215;7N\301\274\010\030\014\274\306\306\255=\'\t\340<\272\203>>\344\003\335\274\337E\035=\305\342)=\363\252o\276\244\347\256<:h\316\276\'e\320=\323\025\000<c-\240=\205\301\360\275\3207\237\275a\362)\276\255i\211<\320\252f>\220\351o=D \212\275\207\005\244=\336\006\274<\235\201:=\341\365\321\275\007N\276=;\275\014\276\315\323\013>\\\302\301=\n\025\375<\032\377X\276\027\013\032>\036\347\260\275:\343q=}\2536=\252\375\317\274\265T\342=\023\031y\276w\034R>\014\341\245\275\334\315==\355}\304\275\344\340\025>#\3738>\211\211\326\274\367?N=\344\355\300\274\2566\275\275m$\335\274K\320\243\275\340\2469>K\336b\275\337\267\303=\344\\9>\257\002\316<\313U\223=\362\326\214=+2\327=\272{\374=\205\2115\276L>\334<\321\023\245=\276\'1=\331\326\240<A\365\355\274h\306\326\275^.\022>\264\312f\275\304U\"<\246sP=\001\022c\275\324.\267>\023i\275=1\t\367= \374Q\275\353k\225\275*g\201=7v+\275_Z\005>\206\346\t>v\272\005>I\236\t\275i\014\254\275@\227\351<Zec>\250\232/\275\263B\304\274O_\345\275\343\223\316\275\361$.\275\202U\205<\200\3363\276n~\301\275\301\003\252\275/\330\364;\253fX\275Q\232\n\276t\250\266\275N\201\210=\220\245(\276]\254/\276Q\273\247\275\340\376M=r\307\014=F\003\260\275\314\306\207={r\336=e\250\330\275#z*>B\303\220\276Y\002\260=\213\373*=\301\220/=\361\014\223\275\330e\234\275\363\325h=\013\000\236=\263\227}\276\t\327]\275\033\224<\276\267\001@\275JR\354\275\035\334\035=\272\204\373\273\362\220\031>\327A\241\276]?_\275\204\2412\275\352\304\276\274Z\373\"\275\367i2\276\251K@\276\213%\026> z\002\276\300\305I=\375a\332:\234\360E=\214U \276L*\014=\320}\376=\326\010\027\276\221h\027\276\201\326\253\275-\376@\276 \0143=;\"\037>\344jU<\247TI\274\353\375&=;\247\205\275\244j*\276\211<J=\244+\210\276K\250^\276\\\256\256=\207D\270=\377,B>Il\347<mfN\276?O\334\275\371\354\r>\t\001!=27\206=\203v\302<\243.\017=\347\277\310=)`<>#t,\276\030\317\321\274\306Z\222=e#\031\275l\302\205\274\013\3406\276)\355\255=\232\003\225=\366\231>\276Gu\244=4{\'\275\356\"\322<G\276@\274~}.>8\026\215\274:\014\347=\376\261\343=\272\317%\274\006?\374<:R\010=\320_\261=7\222\354;%a\203>\266V\374<_t\327=G\032->\276\256[=\2557\002\276\346\364o=\347$R>\266\335 >\'A\\\276\373E\337=\002\302S\276j\307\030\276aM\214>u\206\262\273\210\237\206=l\"1=ZI}\275\235\316\244\274`\307\206\275\335\004\334=\322\306\206<\236e\265\275\024N\212>\332\365\231;Qd\007\275\014\343\214\275g2\016\276\275Q\324\271\302;I\276Tm\301=\306\301\026>a\037\245\275\t\316\313;\312(\001\276\007\315\226=\233\253\361\275\340\232\013\276\332T\234=\273\013\227\275\013-\310=\306\232D\2767\363N=\303\r\306\274\312\354^:\031\363\242\275\321r\351=S\356\272\275\001n\206\276\r\242b=}Ff>\034A\251:,WN<\372\210\334</\254\323=\330\355\033>\275X\255\275\322\024D<\347\223\200=\236\330n\275\300mC\275s\332\364<\356S\004=\311\017\323<\373\377\260>\226Z\'\276\003\324\243=\260$\034\276\220\230\271=`\226\260=+|$\275\214\034\220=H\r\227=\024\023\244\274\323\265\003\275\021`\306\272Z\\O\275\030\276\021>\356*\t>\034\227\315\274\250E\270\275:\375\216\276z\270\"\276\363\226\371\275\020\2356>\2539\335=\247\177-<\027b\353<T\007\232=\204\335\001\276\020\351\006;\362\317/=\037s\362=\224\323\006\276\206>\227<@n\240\275\372\321u\275\320/7\276yd\307\275M\260\217<\363\007t<\364]\340<\227\346%>\250a4\276\222\024\014=\340\034w\275\275\r\006\276\014\235\013\274)\331N\275y\311F\276\020\272\200\275#K\250\275\273!\350\274\217M\231;\034Z\204;\257\346\007\276\372p=\275\321\341\007=\237^\205\275\r\223=\275\310\263\242\274F\321\341\275C\203\003\276y/\031\275\n\213\265\275\256-z\275\313\233r=\010\003;=L\014\277=[\327\270;\3458i=\031\253\316\274a\365\206\275\255\241\341\275\241t[\275\226\362\311<\326\222>\276&a\034={v\311\275\000\017\002\273N>\216\275\313\027\227\274\353^\266<\2430\355\274\316\361R\275\320R\234=\226\t\254\275\263\030\213\275\323\216\215\275p\355n=m\323P=\310!?\276\031\034;=\010\277\307=:\263E\275WXg\275\207\237-\275\366Jb\275\311\017\253\274\262\346\006\276\344l\340\274XS\\=\306c\343=\326\356\030=;b\225\275\266t\231<E\267\214<\276l\230\276u\374M<\2400E\276\210\005\201=6\tQ\275\317N\362\275\223pq\274\263\376\235=jN\246\275\244.7\275\304\257\211\275\373\031\246\274\224\307\236\275\376\024\205=\031~!\276\311\305\371\275\277\300\246=\332u\314\273\343,\321=q\024\355\275\236\235\205<\206\333&\275\201\360\346=\371\t\306\275\215\273\242\275\221{\245=\002I\263=\311\004\242\276\t\001\357\275\'\334p=\246V\025=\304Q\244\2759\265\342\274\232W\325;\207\354\372=\334\374T\276(\374Z=\261\366\217=\000g\313=\273\364\313<\241\215\244=bD\335=\026\301\235<\005\327V\275\370\351\201\275\0101\226=b\t\240:\014\367`=\266\355\342\275\220\027j\2762_\273\274\230\'\307\274#\332\261<\\\213\022>n\377Y=\322\010\256\274k1\256\275A\262\205=\377A\260=\334\366\216\275,\rJ\275\253\210t=\215Wb>9\376\201=\337\251\327\275\360\325j\275n\032\3238m\322\220\275h\252O\275\314\312#\275i\227J\275\374\330\274=\036\024q=f\255\"\276\025q\364\275\360/I\275\033\320\336<\266\344\354<b^[\275>\n,>\034W\211\275\370\002\215\274\357\357r=\215\221%\275\363+~>0S\262\275{j\306\2750!H=\303r!>\355\253P<\344i\324=\230\006\301\273\264\017\222\275NQ\345\273\340\330V\275\230\340\252;\327\345d>m\371a=\007V\233=\\\274M\275A\016\210\275\242\230Y\2761\256=\275e#`\274\n\033\013\274\205\267\371<\274\376\007\276]Y~=\206\334l=\177\246\371=o\234\360=\033\352\316\275\0356\333\275\272\237|\275\3168\317\275\350\266\256=YH/\276z\251(\275L\377 \275c\301\267\275\000,\013\276\373)\027\275\227>\207\2740\365y=\337\221\220\275\241\016\307\275\307\301\001\275\340\2650\275\376\216\004\277\226\220\314\275\035p\177\275\276r\016=`\210\241=\243s <f\261F=8\027\210;Y\265M\274\336\247\325\275\t\n\\=x[L\276\257o\262\275`2*\275Ts$\276U\2346\276\020\317D\275\225\361\026>\354$\341<\335Iu\273\210\241\362\2745M\336\274-\202\177<\323\276\n;uw\375\272\240g\257\275\3215a<G\251\204=\372P\372<\245\320\242<M\216\221\275\235\014\325=\224\007\227<\363\274\305\274\251\014\024=\231\301\227\275\305\340\263\274\356BZ\275a\034K\274S\212\t<\240\326\343\275\306\205\211\275\215Yj\274\36420\274JJ]:\027%\365\275\276\302\314=\302l%=\033+\351\275\371\302\313=9\331\232=6\305\357\276F\017\330<\003\217B\274\350\264\203=\353\366\262\276\364D\353\275\252/\204\275\334dZ=\021\341\301\275v\2218\276\203d\366\275\241.N>RG1\276\342\000&\276\3170\377\274\354\236\354<\274\305\024>\271\336\010\275\220d\251\275\227Q4\275\253>\365\275\212\247\003>\272\233\221\276\364G\007\275\216\'\030>S\210\212=\276G)\276\310\010N=\257:M=s\025P>\346\r6\274l?r<\231\206\224\276\'\253\245<?\006~\276\217%\274\275tm\217\275;\r&>\207\002\204\276\225\262\013<\353\223\200=\321\202\210=fNH\276\356\373/\275\332?\351\275{i\367=\312\334\277=\005\356\026>5\032\341=l:\305\275\331\271I\275\r\342\014\2748\003%>\375s\233\276!-1\276\256\335\202\275\0367)=&\000-=L\014\243=\2414\253==(\322=\206\254\264=\350\207w\275{7\331\2750=z<\265n\n\276\277\240,\275y?!>\255\372\207\272\201Iy\275\3567\023\275!\275\243\274\372\250\245=+\347\250=\3650]=\244q\253=\345e2\274\250\343\301\275Jp\3479\"D\244<\327\206\370\274\250\025\2429#\t\034>(\244\014>\034\177\226\275E\333[>rlD<\352\374\327<\267\250\303<\333%\031\274\211X\212=\t\317\030\276\371)\276<\266\200\317\275\343?b=\027M\273=h\'\254\275H\323\212=9n(\275\346Y\302=\2027\230<\242\334\321\273\347\027\322<\\r\304=\230l\367=FQ\342\273n\"\224\2753\245\302<\304s\272\275\262\341\243\275\333\tA=\302)\330\274\177\274T<\253g\320\275\344\243Z\275/\022\326\275pB\026\276\030\245\206\275\271\270\242;\n\244\243=\372\020\022\274\242\300\035\274\331Z\000\276\006\0029=\321\264\271\274\331\347\307\275\325O\262=UV\200\274B\245c\276\014\324\270=[9\371\274S\327\001\275\375\354m\275\275\271~\274a\221\217\274\257Q+>\032\\\247=\177\360\262\274\213\027\334<\215\345C=u\311q\276\361\303;\273u\214\260\274\320\221\340=\332[\010\276\r)\364\274\024\374,=\3270\001>\177\303\240<\032\341\256\275\324bV\276\260R\371\2752\245\033\276\220\320\301=\256\357\021\273ydv=\021\240\360\275\330\375(=\264\326\250\275\321\327\324\275\004\302\217=\252\'\265\275s\203\247\274\370w\252\275>%\367\274\246B\303=Q\302?\276y{z\275\315{D= \2222=\222\262\264\275\254\254\221=\2057\333\275\2473j\275\257\262\247\275\313\226{=\277\366\302=\256%:\275\305YG=$\207\240=H\237\232\275\2529\243\275R#\010\275\237&D\2762\210\265\273e~1\275\342\366\r\276\236\251/>\031\311u\274\326Kq\276\333\271\314\274\350\265\255\275\313P\377\275\231|N=\345/X<\367r\230\275NE\201=\225\370P\272\244\316\316\275\007\254J\275\216r\307<\303Rs=.\272\033<V\313\250\275\207\'\n<\255\261\334\275V\356z=\241\266\006\273\227\346\210=M3\347\275O6\250<\303\305\235=Z\236\252=fVh=$\036\"=\310\343\347\274\321\273\306\275ew\274\275\255l\365=\230\265\255\275Jtl\275\222YD\275\013\270\272\274\002e\350\275\230e\316=\275\316\232\275{\214\206\275*Uz\274\207\310\344=\343\000\304<\220y=:$\347\216=\245\365\262<\346\274z=\324\207\234=\363\212\014>\372t\263=G4]=\016&\273=f\212~\274i1\207;\000E\216\275~ar=Lb\323=O\330\004\276\210\003\"\275\037k\240=#`\222=B\007\177\275\264)\255\275\266\025\016\276\034i\201=z\314\001\276\330\202\027\276\010\306\227\275\352\371\007=\034\350\027\276\2279\036\275\n$\373<8\324L\275$!\262=\200t\274\273\250\217\004\275\370\246\232\275d\225\255\275\214<\365=\200\030\036\273\300\007\373\273pz\255\275\014c\361\275(\316\016=\210\306\\=,\002\272=\244\372\234\275(\376i\2758\364\360=LR\376\275H\262G= \241\323=\374f\315\275`\225R\274\200\262a;\234^\201=\200\004\010<(\023{=\264\271\303\275\220\213\214=\0107\263=\350K#=H\372\033=\370\312I=\010\003B\275\264\353\255=,A\263=\270\363;\275p\340/=\200\353\261\274\344\313\370\27500e\275\024\t\337\275 \321\273\2744}\254=0r\307\274\000Ex; \215\026\274\030O:\275\200\307w\273\350m\203=\010\330\010=\000.\n\274\244\325\332=\020\311\233=\314P\222\275\014\361\344\275\300\222\216=\220_\342=\240\335\177=@ \202\274\030CY\275\020\336\221\275`\216\034\274\354$\310\275\000\\D\274a)\360<ihk\274\026\250(=Q\261\267=\270\023\216\276\224\342\304\275\240h\025>#\255\230=\225\265\021>\233a9\276\301\022\234\276\304\336~\276\344\023==\016\377K\274\207\274\322\275=\242\242<Pw\030=$1&>)\034\351</\376\005\276\316\2343=\341\276\316\274\\\246S\276\274#\257=\370[t\275\231\306\216=\325kg\276L\031\321\273\212\365\305\275zD\001\275`\334\022=4z1=?\271\367<\353\300\320\274L.\364<\210;\317=\356V\246=\02628\276\260\327\035\275\020\3408\275\230k\000>i\2014\276\316(\201>\214\010\033\276T.\253=\014\324\030>\255\240\023\276[\375\201\276n\251H=\317\216\023>K<\302=;\340r<c**\276\265\251\306\275I\360\202\276fP3\276\n\223\035>?\025d\275*\032!\275\267X\033\276\203D\246\275j6F>\202|D\276D\016\260=Z\241\014>\313\247?\276\320R\364\273\362\273\n=;7\001>\024t\002>Zk\016\275_\332\331\275rc\350<\232\031\372<\302\')\276\224\254\257\275<Q\000=B\222\247\275\300\242\243;@7h\275\260\355\027\276\214\r*=\2036\003=\334\336\200\273\325\355\216\275\335\336\257=\370\254\343;\201r==q%e\275{\204\207=f\330\250\275\210\373\250=F\r\333\273\261\303\207\276\336\366\241=2/\233\275\215\035\003\276\231\340\272\276\021ZB=\372\r\010\276|g\272\275\326a\207\275\237\306}=~\360*<\333\003_={cI\275F\016\223\274\267t=\275P\004.=\032\267\225=^\362\t\275\273\036\020=\275]\267\275@i\362\273\271\317c\276\'\235\314=*\0168<\013=\272\275L\017u=\350\334\027=>\006\247=\\\260\204\2752JM\275\224\021\224\275\333\315\270=\"D\223=`\020\277\275\306\360\241=\200v\357;\354;\212\275X\251\222\275\370\'\204=\004a\346\275@\212\352\275p\220\257\274\020C\206=,\245\254\275\000\3207\275\340\336\246\275`D\010\274x\375\245=L{\352=\020\307\353\275\200\311\327\275`y\343=H\031\337=\030\311R\275\310\264\235=@\343\341;\0006D;\220\000\242\274\370tw\275P\275s=\000\017\263:\240+\313\275\030\365\352\275\230lq=\000\220a;8\222\324=\2243\271=\220[\210\275\360\353%\275\010\233\313\275\320\307\260\274\270\031\267\275\200*\302\275L\002\241\275<\206\366=P\020\371\274\220\036\220=\240\217C\274\304\'\303\275\0301\340\275\320\001\210\274`7\253\274@.\377<(\314H\275\000^\030=\200\340\330;\300q\321<\320\232\201<\000\224{=\264\206\311\275\240\365y\274\274\222\365=\240\026\215\275\330\034\365=\370\304\350=\214]\342\275`\324\336=\024\341\334\275\254\375\224=\240\320\354\275W-$<\371\013x\275\372\370\214=\201\253\306=\020r\024\276\301l\010\276{\230\252<\217{\331\275\024\350\004<zq\304=z\301\002\276\334f\234\273\216//<_\333\300<\215[\005\276\212w\201\276\226o^\275\242\272<=\233\271\365=\316\234R<\nX(\275z-\360\274\237\001\312\275\370m\204\275h\023\260\275\301\366q\275\300\256r\275\341\277^=^2:\276\022\253G\274\037\'V\276\303\301\311\275\272\347O\276\313\277\204;\324\315\020\276\200\032\324\275.\265\n\275uC\272\275s\214\361\275\217\240\217=\362\353\273=]\"\203\275\327\247\003\276\207\266\302\275\200\373\272<]\220\237\274y\024\363=\301jz<\233\026\352\275\014v\225\2757!\222=\032\3465=\t\224#=\347=\247\275\254\314\014=\357N\232\275\245,\376\275\326\006w\275U\214{=\271\361\241\275\230\341\336\276\233\'\247<\205S\307\274^\222\006\275\362\334\222<\211\255\251\273\257\227Z<d\317\212<n\006\376=\213l\206\275\270r\243\275\035h\014\276d\264\212\275\001-\324\274\245zq>\360i\027>\247\354\360\275\273k\221>\233\246|>\013\366\205=\215\321p=<\033/\275\214\314\250\275l\220\237\275\016\345\243\274\372x\017\276\3435\266<4\222T>\212\325\220=\3112\002>\021\356-\275\037\202Q\275\326\264\310\274\304Zb\275|\202\211\274\350-I=\211r\360=\206\247\216\273\354%==\216\007\235\275\321\033f\275\317j&\275\231F\024\275\007\003\313= \315\201\275\221?\237\275-\017\313\273|U\274=\032\3013<!]\270\275\340R/=\3221\r\276\2576V=\325_\245=R\376\206= \350\016>@\317r=t\332\241=\006y\005=\327\231@\275\364\346W<\260X\377\275\254&=\276\301\201\225\274\371\324>>\224^\257\274\321\005\235=\257\236\004\276/!Q<\024U\032\275\342D\325\275f\307\242=\r\350\264=\360q\002\276\207H\370\275L-Z\276\345\250\221>\0376\323<7z\312=\n)1\275\326\030>>\366\017\314\275\215\2415> \207\225;\322\373\003\275\255\312Z>\013\343\351=\360\302\230=\374\034\241=\321\034\036\276\213\212[>\336d\224\2749\302.\275\"\336\212\276j\240^\2768Z\244=\365\366\024\276r\223K\276K\207\262\275\'\240g<QT\326=\325\213\307\275Mu\247\274\322\237\327<\236j\026\276\354\305T\276\335T\037>\003\177#\276y\344N\275\010\225\212=P\250\246\275\030\304\304\275Kwb\275\037\027\375\275\001=\252=\235\337\201;\264\217\032>yRI\274\366N\216\275\035\253\215:\344\003-=\352\010\253\276\317\265m>\377\330\274\274\260\350j\275W=:\276\340\271\002\276\356D:\276\037\204\212<\322Vf=\352%\264=@\267A=\250y\326\275 \322\343\275\364Y\245=\220\0052=@\255\206\273t\232\330\275\340\354\270\274\230\3167=T\352\361=\334S\322\275 \304\271\275\264s\314\275\260\353L=@$\370=\364\002\355=\214p\240=\3504\224\275x*\005=\300\020\205\273\300\361\324\273\350B\337\275H(\237\275h \350=\300\316\256;\030Kq=\364\002\307\275\220\333\355=\000\207x<\224\024\220=Tn\307=\224\323\205=\000\027a< \357\264<\000\303\342\273\310me=\000\030\263\275lW\360=HcL\275\004w\351=,}\341=,B\252\275\000]Q\273\000\213\367;HL\226\275p\364<=\254\014\316\275@\375k\274\200\n\032<\340w\377=\254\203\242\275\250\r\366=\320Te=\024\222\370=\234\240\251=\214r\214\275\300\023\026\274\340f\203=\310W\264=8\003i\275@H\243\273\270\213^\275x@\271=H}\256=\021\210\220\274\367\217\003>\347\312\003>x\243\203=I)\357\276R\342\311<\371\333J\275\335\031\\\275\344\336\204\274B\024\217\275l\237\354\275{B\241\275\245\300\001\276Beo<\252~\306\275\000\247\215\274E\005)=\245\341\254=\030G?\275\034\343<\275\216C\240<\303\313\241<<gM\275\232\261\024\275\334v\367=\374\231\271\275\n\303\274\275\374\250\335\274&\205\210\275\232/\301=\275\322\240=\243\031I<\310*\204\275\225R\322\275\241\373\220=D\266|==\026\236\274\266\356\226\276\307M\255=s\036\213=\351\347\r\276\nb\343<\252\350\306\274T\366\242\273=\372J<\347\334\240\274Rm\020\275\370b\274=[\230\024>rZ\005=\253.\346\273W\300\330\275\310\216)\276\364hF\275<\236\003\274\352A\362=ns\014\275-A\372=\207\221L=\263.\014=BV\224=\271+,=\247\347\374\274\360\351K<\353{\234\275\340\355\006\276\266C\010=\223f\360\275\020\312\227\275\354\342u=\211\321\004\272\317\227$\275X\371\275\275\271M\033=\252\320\313=V\215N;\304\271]=c\324)=\027j\250\275aa\212\275\001\301\351\274\334r\377\275%x\302\271\2509\034\275\201\243<<a\247\320\274\224\357\244<\257\177\301\274\2045\"\275\320\326\222<\233\316\016=>b\301\275\024E/\275\236}\330=/\303\227\275\022\t\234<\360\306\264<\315\345{\275\250H\233=\3437\256\275\261\215+\276\257\3747\276\312\232\335=\267\306\255<\330\237\004\275\373`;=\366<\235<\347\365\253\276\343(\367=\024\257\277\273\003\301f=\225\366\333\275\345\206\t\276\032\351\005>\032*\234\275@\275%<\227\220\211=j\337\210=x\202L\274\277\213\222\275\207\232+\275->\027\274\336\216\270\275`pV\275\224\215\302=j\226\032\276O\262\016\276\314\365@\275\366<\211=_J\363\275\017d\341<\225\271\333\274$\177\252=\t\\.>\2001\031\276@a\323=\355\n \276\201\313H=\"/\005:\354=\215>F3\315\274\216\335\270=\364\307~>\022J4\275\212\203\343=[\242\234=m\3534>-S,\276\254\220\267\275y\262D\275;\227T\276LD\245\274R\325&>\273b\332\273\024\206\244<\027$\325=\036S\304\275\220\2208=1:\342\273&Qd=\365\035\341=\371\341\352\271gY\'\275N;.\276\200wm=F\231\n\276\\h\016>Ja\021\276\275\374\025>K\277\240\275P[\210<\343A\257\275B\253\016>\327\220\210\276 \321\014=Gr;=\315V\357\275{%\230\2757g\215\275\370m\353\274\306\233\333=\2507[>\001\306u\275\310\315k=\362\326\324;\014\334K\275\034\307\235\275\304\367\303\275L\354\347=%\243\254<\200\264\n\274\246\021\001\276\001\r\325\274&\020i:\002\246\346=\353\310\322<\027\217\216=\214\375\232=|]\020\276\275\340i\275\274Z\356\275N\214^\275rz\304;+\"\022\276\376l9\276gn\005>J\357i={\3551\276\327\232\220=\263\276\030\276(\220\270=o\234/\275D\251\034=\263\371h<?\316?\276h\260\273=\260+\226=A\006\036>\327Vw\276!4\374<\214\372\332\274\317\352\344\274`\203\373\274\247\302+>\313uY=W=\321\275\313%\347\275\245\210]\275\034\026>\274\005\365\230\275?\3218\276\265\022\306=\225\203\013>#\254:>\014&\321\275\311\321i<\214r\362=\024\345\302\274\250\362\377=@=`\2749\3605=\367\260\231=\270\n\023\276o\376\236\275\361\322\217=qG\273=\032\306\332\274\212k\264;\353\317\'>\375\034O=\263\222\017\276YTa=\026\307\026\275}\264,\275U\221\362=\035y\247\275\270^\357=G\364N>B\220o>\217\373\257<\022\3432\274S\234\007>|>\\=\346$\322\273&\000\343\274\336\240\023>D\221\356\275\361\3105=\226\364\304<\344\224\231\274\nd\036\273u\354\321=\313\253X=\343<\327\274\002~\324=\231\353\343\274?\241\022\276ou8\275\224\006\200\272\216\327;=sDN>\3766\323=y`I=r\252\215\275\361\031$=>\304z=#E\272<Ra\317=lr\222=\tk0<\227\022\377\275\354\370\014>\361\202V\275\320\370h\276\367W\325=\260\014\271=YXQ=\262\251\301<\265\260\030\276E\244\000=yU\307\274\203?X\276x\n)>/\214+>\361\330j\274\364\177\327\272)\247U>^\333Z\275\354\217\334;E\357\017>2E\216=M\331U\276\264g\223\2765\014|<\013\326\217\275\013\'\034\275 \235E=c\036K>\000\355m=\226\035\242\275\325L\257<\252\230 \276\300\317\321\275\030\203\212=,\002\010\275Us\251\274\246\265X\2762*\335=\223\"a=c\214k=d\374\330=Sk\222\275\316Z~\275f\245,=\300\376\333\273\345\334*\276\214L\276\274\025\232\216=~%\210;\263\326\342\275\327\204\372;9\t=\275\246\343f\2729tO\276\350_\n=\345\3042\276g#\206\275\344\'\374\275\260Ow=\302\034\337\274\317\000\342\275\361|\244\274\247\320\004\2763\242\336\276\274g\214=w\301\203<\220\200\226\275\224E*\275Y\375#\273!\210\275=\014\320\004\276\225(\340=j\332c\275\020D\246\275\221v4\275,\030)\276\020\246\n\276\223bu<v\373\021=}\231\211\275\372\014\024\277t\310\252\275P\327\001>dP`>\221\244x\274\373\362\240<\026g\271\275\225\334\300==\353\263<\376\221\030=;8\037=\2757\242\276\244\0205\275^n`\276G\362\265\275A\262\271\275\302+1=\364k\213<x\027\033\276\237r\242\275\251\326\317\274\251\367\021\275\335\360\201=\316AN>\243P\030\275:\177\030:\245\326\216\275\213S\001\276#\035.\274\017\026\243\275\334\"\335<\327\302\037=^K\020=\037\302\341<%G\324\275\212\264+\275\250\206\022\275f\363\010\275Z\321\020\274\254\223\257\275\022*\200\275\201\340\336\267\n\230\220=\033K\204\275\271\364\232\275\261{\343\275\241\377\022\275\332\244\r\275\3720\335\275f&D\274\347\372\276=\374Q\362\275dH=\275f\201\232=6\220p=K,\341\273\360?\"\276sc\304\275\377\261\367\274K:\265\275\351\274\241\275\321?\241\2753\001\013\275\365\376\325;G\234\007=<\307\250\274\025O\352=\270\036\210\275\316RL\274&C\370\275g\357\023=\275\250\303\275I\026\220=\304\034\253\275\316\023\313\273S\0256\275=\342\263=\322\362\211\275\014\277\224=\326A$=\244\034\361<(\245\351\275Tq.<\007H\010=X\355\017\271\2233;\275\273-J\275\005\357\335\275\220\032\373\275\227\014\272\275\370X\342=\004\215\220\272\364\322\224=\222\217\352<\361HY=\033\356>\275\356l\274; \265r\274\256\255\232\275,I\220=\364\373M\275\024\023\204=F\004N\275P\344\260=\276\350\236=\016\261\246;-j\245\274\311TY\276\235\312\367=\331\227\177;\342}\347\275\\\373[\276\355 \274=\225\tE\276\300\315T<\215\326\357\275\013\010\316<3\262\356\274\240\246x\275u\311\255=r\364\300\275\330\336\361<\224\231\"\275=\356\216=\332\005\314=\205qC\275q\205\316\275\274\"<\274j\200\250\276Z\355\024=\334\320&=\304\233\332=\374\030D<\225\3227\275\372\200\030;\3754|=S\324V<\034r*=\247X\265=,\356\330\275\376\255\252=.\206C=\361\323\231=\253\332\202\275\321\003\204=\261:\253\275A-\000=\342~\246=c\251\300\274\017\264h\2742\205\373=?\363\212=N\345\222\275\373\254\365=\036\325\210=\010\231\3776\231\n\272\275\230lh\276\354\251|\275J\3530\276\3578e\276\265\213\243\274\330\252M=ej\210\273\217s\347=\0237\177\276\242\365\363\273\235d\334:\352mo=3N\000\275\276T\334\275\240\251\3529\337r\001\273\353mF<\203\346\363<!\026;\276\316\353\300=\321\030\325\275\020\206\244\276\215\374Y<J\321\177\275\206M >O\247e=:\036i\275\370\357\005;\362\023\0377\201\037/=\315\030\207=\252k\332=b\365h\275\2129\023=\366F\002>!\343\260\276I\206\n\276\316\033\026\275\333\225\271\2756c\245\274]7\200=\337\006u<\362\250\013\274C\310\307=\214\037\030\275\353\363\251;\037\243$\276\023\306\245=\271g\001>\314\271\247\2741\305\307\273\313\337\230=\004\330\300\273\321\205{\274\241w\014\276\267]\342<\200X\221=}\315\215\275\t=\315<CG%\275{\013\231<\034\310\220=:[\204=\312\0130=\013\250\211\275\2407\202\275\311\020\212=;\212\304\275\233\0025\275\305z\243\275\260n\242=\371\037-=\001\311\306=\314\227\207\274\302\177\343\275c\317\323\275@\236\323=\026q\363\275z\213\305\274\364\2313\273\315\341\t\274\207\325\230\275\033v$\275\\\316\370\275(\344\306;\376\334(\276\350\210\272=\314J\277\275\223x\006\276\300\3672\274\255r\335<\321\377\002>\240\346k=\335N\010<D\373\254\275\364\376\264\275\263#\226\275\033\026\213\275\327\206\374\275\255\202r=Xu\242=\312\r\234\275\3002\266\2750\323\345<j\363\036=i.\205=\230\276\323\275\223\203C=\274\370\256=\3409(\275\362\216\220\276\230\357\375\275\256\204\001=3\353\270<z>\020\276\003\364 \276q9\017\275\344\266\215\2741\350\236\275\373\205\032\276\242/\326=+\3067=^\273\211\274\223=d=kky\275\005Ot\274\372%Q=\341J\352\275\026\307\364;p\326\226\275m\3049\276\014\344\257=\336\310\245;\275X\275<\350^\214\275O\0216=\361!\213\275\375t\367<\375\317\367\275f\250\007;\361\023\227\272?\260\344=\362k|=\356T\263\2755j\361\274\377\233\253\275C\344\021\276\221\240\266<MR\363\274\267\260\324\275\000\017*\276\342\026\004\274m\026\005\276\000s\304\274\225h/\275\013\230\002=q\224\371\272\252i\305=\0326\004=\202\236E\275\344\203\235=\006\374\222\275Q .\276G?\233<9\242X=\2608`=\2039U\275*\0101=\000\320\226\275-i\311\275k\274\373\275\312\320\362\275\\\013\340\275\007\315\306\275\235r\304\276(\352\274\2743\273\005\276\006,\222\275\345k\031>\247U;\275\315\225\231\275\271\236*\275\373w\361\275\243Y\222=\314x\224\275C6c\275\351\247\317<@\361\256\275\351\324!\276\265S\222=\n\000\376\273\013\262\321<o\212V=\t\276\203\275\241\346[\274\375\310\027\276\270\006:\276R\374\364\275\246<d;\375\334\333\275\262\254 >\t\000\205\275|\320}=\240MD\275?&\000<\225\031@<?V\262\275\021\363\007\276\232\036\002>\245\347I\2759\301\201\275~\264\377\275Y\022`=)\352,>,\273\005\276\014\367)\276t\316E\274\362&7\275\302A\"\275O\371\213=\260t\345\274\356\225\205\275\033G\323=\357t\347<\233\033\177<b\241n\275\354j\006=N\224\232=\240\237\177<I\2216\275\2028\271=%\347\273\275\244\234\232\2746\317\313=(\353\022\275\200\030\016\276\203\2736\276\210\273\362=CW\231\274,\341\201\275\341=\256=!4\210\275<\001\204\275$\310\244;\203E\253<\323\037(\275q\000\265\275\230\332f=K?\332\275d\362\254\276\234D+>\331\350\302\275\335\0103>l\010g\275m\007\321=;\\\277;=b\363\274\\]k\274\007O\237\275\244\031\202=\227\351\223=\346\031\332\275\311\260\231=2\312e\274.\034\216=\013v\320\275\007\362\335;\016\234\013\275@\226\007\276D\030\371=ce0\276\017\342\326=X-\371\274\342E\252\275\206\301j\276^L(>\317t8\276\337\242K=Q\301\007\276FUx>\346\001\352=:d\217\276\334_\215<>\260o\276M\333H\275\234\023\260=\0033b\276@>0\276\232\272\215\276\016\336\010\2760\036\322=D\013<\275\036\316\334\272\364\367\016>0\316\332\275:+\007>\325\330\227<\350\340\375\275r\001\337=\204L\032=\234\000~\275\002HE\275\025\250\206\275!\021+\276\236\2533<\311\202\303\275\241- \276,%\005\276/\026V=\021\315\271\274\272P\004=qr\363\275)\305\020\275\2009\240=6\334)\275\334\306\020=\276\220\311=M #<\361\237\342\274\024\300$\2757\326\021\276\230S\215\276\333y\020=\236\033\261=*\265\244\275,\207j\275=(\203\275\231\225\203<\247\270\234\271\2601\253\275\214 \322=f\013\226=\325\206\213=\241\037\252<\306\230(\277j\322\245<,8\000\276p]\257\275\002\277\305\276\227yV= \253\022\275\311 \025\276\2432\325\275\221l\242\275:\3041\276\342\221j\274A\336_<\243Z\246=x ;\274\341\353\366=\345W\326\275|\374Q\2750\024\006\275\313\340\366\273\326\331\302\274&Tb\276i6\020\275\330\022\003=\032\022\251\275\220T)\275\325\375\316\275\005c\321<r\331\260=\301\214\306<\304M#\275\200\300\000=\\\306H\276&\264/=\027\363\026\276\262\204\215<\347\216\027\276\035n\306; \026\225=j\t\341=\353\364\266\275\256\374+\2764\217\213\275\305\255\325=\223^\013\276\256\207\226\275)/\036=\210\362\317\274,\231\207\275\370%\227\2756k#\276)e\321\275@?\002\276\270r\275<\320\376\365=3[\244\275\217\334A\274z\343\252<\020\022\277\275\206\005\277\275\245@O\275\367\270\214=125\274\323[\224\275m\016J=a\364\231\275\317\274 =iD\321<\330n\003\2767\021w=\210WI\276\003\251\316\275\261\267c=O\010B\276h7\275\275\n\375\033\276\340U\353\274kMH>\t\242\233\275n{%=\240\242V=\320\361R=\2133\202=\271\235E\275\336\010\204</\261|\275\re\250\275TM>\276\035b\023\276+X\247\276\213L\374=\234\n\355\274\370\225\346\275\320\271\000\275\220\002\013=_\337\360\275\314\026\205=#`\'=\236\2079=A\305\255\274\226\252\235\274\"\007O\276\300\366\331\275\221\312\357\275\222\017[\275\323\303r\2765\007\323=\361\356B<K\366\261\275\256\'\004\276B&h\275\221\002g\275\275[/=\332*Q=\331\246\301\275M\355\007\275\003\367r\276\330J\234\275\340g\257\274\274\034\253=m\031\300\272\302z\014\276|\2472=,\271\276\275\217\334\267=)\n\027\274\217\352\343=,\314\340\275T\207-\276I.\002\276\220\330\344\274\212\231\215\274\202\275\316=\362?k\275M\210J\276\234\034\t\276\022\226\371\275u\014/\275\036\343\001=\233>\315=\037\026\271=\"H\005<\374\233\253\275\006\007,\274]x\202=U\'\223=O\273\007<V\177\221\275\322\244\'\275\226\311)\276\307v\350<T\321\320\275=\022\275=\303\332r=\357\207i\275\203\234\016=\211K&<yc\020=\364\320\212\274\202G\272\274\231n\253\275\034O\206=\253\234e\2755\036\212\274\302\311\234=\356\214\310=y22<\"e\341\276v\272H\275\305\312\021=j\206q=.Z\r<\375\"\233= :\372\274o~\025\277r\001\314=*\r\231\275\005\250\223=\377}\204=&\317\313\275\357\206\330=@W\033\276\032\317\304\274\363P\256=\327\350K\275y\013\351\275\237p\000\2743\203\216\275Rz\300\273S7\325;4]-=0A\317\274=*\274=8\236\315\275\210&\n>\322\262\274\275L\010\240=\313\221\322\274\222K\366=\212\277\034=\334\312\347\275\377U\010\276\007\310G>7$\303\275d\026\332=\365\303\324\275\014\343\235=\003M3\275\200[\311\275\337\355=>\265\344A>Q\312\234=\007\334\213\274\366\364\256\275\310g\263\275\357\314h=\210\226\357<H\247]\275e\030\374\275^>\232\275\362\305\260<\375\322\255=\014f\020\274\300\252\213<\257`\276=\357lB=n\330\300=C\303\366<A\245\304\275H\265\027=n<t\275\307\177\216=3\234)\275i\304\205\275l\000\262\275gn#\276\\\270\030>c\0048\275[0\332\275I}\021\276\304\217\320\275\325,\350=./\032\276\025\365y=FB!\2763\375\223\276\007F\223\274\343 C\275\271\214\022=\320$\003>,\252\"\276a\321\213\275;\216\035\273\004\220\370\273\020\360\331\274f1\324=\222\204\211\275{\320\226=\223\377Q=U\2116\275B\035\270\276\260\020\232<\231\250\312\275\270\247\252=x\217\364\274\024\021\201\276[\023V=!\010$\275\201\027\305=\177\215\231=\266\270e\274L\257j=m\032\203=B\320\245\274,\0356>+&\236<}\250\027=h\"\326\276\335{g\276\261\335 \276~\3157\276\006h\263<w\203:\274\214\341\237=V\022\211\275\251\266c\275R\004\n<\323\313 \276-\r\300\276\374\231\216=\275{\261=\017\252\260\275u\016Y>\313j\302=\207\032D=\005.\301\275\257\202\245<T\301\356=\020\213\333\275\365\303V\275\335\214\177>`\245\265\275U\346\352=\005\327\207;\014ug\276\335\275\321=\341\374[=\3552\236=\366\275\014=\227\347\263;\351x\341=WP\311\275W\313r\276\000O\271\274\234J\361=Q\210\305=\"k\323\275\301\025q\275\033G\311\275h\2000<5s\020>?\234\373<\234V><l\016u=\204s\203=9aO=~g\361=\000]*>\203\253W\276T\332N=\027\017\242=4b\207\275\302\275\205\275\367\351*\276);\316=\213\000\307\276\277^\017=\036\305\373\274\007\266\022>\'\275\237<\036r\272=3\267\234=d\324\014=\013\023\275\274L\234r\275Z\364J\276@\0030\276@u\030\276\260\034\342\275\221\001\t>@?t\275\336\337\027\274s\247\032>5\2714<.\024\214\275VG\034>\226`{\276\373a\256=\241\213\331\273\205\330\240=\035\241\212\274\211lI\276Ii{=\256f\357=)s\350\274V{p=\256\r\371\274\217\177\200=\235\004(<\260\271(\275\2252\304\272tYl<%\3032\275Yd\245;w\356;=\017\232\037\274\254\272\016\275\0302a\275\034=\333\275T2\250\275\253\366p\275\364\350\306;9\005\245=\337h\261=\003\231\374\275\031\0070\274\322y\326=\'\251\211\275\024\340\226\276\326\254\033\275\243\357\270\276]\024\263=\233a\222=\233\177\223\275\272\263\373<\276\017\252<\360ra\274\237\300w=\200\217E==\340\024>\022\360\210<y\nt\275\315\335\r\275\263)\317\275<\023\001>\365\213_\276\363\r\311\274K\350\237=\300\362\301\274=\360\206\274~\231R\275\376+0>0\336\327<\350k)\275\\\224\014\275\247\263\332\2754\270\250=\005V\t\275\300\312\353:@5\230\275sa0=\302_^<\372\347I=v\204\240:\240\212\036\274m\215\261=#\035\353\274L\351D>\216Yc\276\0221\206\276\352W\310\275XLz>,U\367\275(\207I=\210\206\021=\345\223\007<\235\362W>\200\247|\275\017-G\276\215^M\275,\002+\275\305\334\241\275\021\255b>\266\270\021>\2763;>\351\016\032\276\277\262\215\273\232i\263\275z\313t\275\333\301\262\275T\2252=\211$\371=\326<p=#\315\361\2750\004`=MW\370=\333\251\205\276\256\321U\276U\345b\276\366m\016=\0071\022\276\303K1>\201*\271=\332f\255\2751\240<>\261\375\202\275\205\210<\276\227\224\250=\306\353Z>\351R\003>T\214\272;W\037\356;\2274\021\276\365\256i\275\307\362^\276\262)a>DQG\275\023,\254\275h\177N\276H\362B\276`\206/>9%\374\274\254+*< *A\274\230\370\251\275X\030F\275\230\375G=\240\314\373\275\240\322?\275\2244\301=\014d\376\275\\(\344=\320\346\270<\020{\337\274\000\032\250\273\260\020D\275\354\276\221=\224\372\374\275\204\264\307\275\244\260\327=0j\347=\030\206\316=\300\017 \275|\262\271=\220\224\307=\210\360\037=p&\343=`\321h=P\331\344=\0006\374:\230\336X\275\000\365f\275\330nP\275H\244n\275\300\371\370<l\300\250=\224\202\203\275\260>\301\274x\373\227=(\267K=|\r\235\275h@\025\275p\375+\275\020\026\237<\340>v<HG\036\275\000w\374;\304\335\243\275\360\036\201<\000\r!<\030\027Q=\330(\321\275@W\313\273\204r\357=\254\362\374\275\034;\365\275t\333\344\275|\242\345\275@\246\212\273(*\301=\240D\264\274@\3614<\3049\356=\3104\267\275\200\373~\275\030\251\350=\310\222\214=Y\233\225=`\340>=:\250\177<z\363\206\2758r\237<\247\036\243\272\252\206\006\273O\'\362\275\337z\235\275N\301\337=\240\267\022=\007\312R\275R\211\307\273\354\251\016\275\000\263\270=\233\000\321\275\020\024\373;\250O\027\274/\367\272\275d\233\330=\032\327\340\275\356\244\344\274\221.\240=\327\t.=\341\313\355\275\316l\303\275B\271\236=g\314\333=y\306 =\0018\353<\307\303\316=\222\255\334\275\310.\203\275\'\276\206=\010\360\264\275C\375\252=J\357q\275\224\235\205=y\361\354=\021\242\240\275dY\005\276F\201\373;\253\034\000\273\023\233\t\276\301\207\200\275\200\260\236=\350\005Y<In\241\275\016\274\000\276<x6=\'\275\301;\374D\';0\000\\\275\245^\255=m\211Y=\r)Z\275b\215\262=\003y\206\275\036\357\346\275\250~l=\025\235\246\275\364\216\010\276\014\037\326\275\276\304\264\275\233}\007<\352\346\202\275\264\337\305\275\354m\003\275\246\304F=E\241\016>\301\302\313\275_\325S\275\\\264\000\276\350\350L\274A;\355=Aq\305\276c\324P\276\276}\353=sVL\274S\222<\276~c5=e\372\301\275\257\240\001>\232\030\344\273fE\005\275\035\005\021>6\266\014\2760\215\222\2750D>\275\310N\016>>\302y\276\377\367p=\333\265\337\274\264\'\260=\321(\331\275\300\232T\275\276l\016>\3065\356\272\236\252\026\276\nC\253\274\267\366\232\273\033\020\343=\032H\215\275\360\272\371=%\230\214>\032\252\026<\305!!\276\251o\311=oGT>\277\202k\275\347\262s=^E=<\013|\236=\303G\027>\207\023\'<\205L\322\275\216E\327\275_\372\274\274\242%\307\274Y\246\251\275g\'I=\221:`=\256\225\014=+\372\001=\017<<\275\203\025\377\273c\003\203=\257>\006>\031\371\276;1\265\300;B\006\212=\334\223\316\274\331\343\177\2752\343\023\276\377\312 =y\317\367=\207\347\237\274\317\000\254=y\276\220\276\251\374\330\274\202\250\032=\344\n*\275\325ET\274A\320\010>p\r\357\275W&\224=\311\0230\276F:\206\276\227\362\274=]\004\347\275\004\252\3059!(\270=\345\225*=\232\307\312=\276g\351<\332\361\233\275wH\007\276G|\312=[,]\275\033\215x=\033\326Y=\252T7\2753\006,=\r\027\367\274\331\221\307=$\266\"\276;\326\326:\017\372\014=W\300\200\2759M\307=\277\200\212\274U\277\337<M?0\275\352\201\260=\310\234x\275\333-\262=\330m\024=\324\316\t>.-\306=c\374\261\275\350]\t\276l8`=\266\323\272\274\237\340W=\220\274v\275|\361\'\275\250\277\236=!\331%\276\236\214\270=YG\204\273\303\224\025>C\314\254=n\263\002\276\010\322\330<\025\205\262=\276+O=\021\245\026\274O\200\311=\201\357\276=\346\016\337\275\r\345\252\274N\365\014>m\356\031\276k\007\003\274\017w\006<\0219\207\275\016\355\006\275\244-\030\275\250\250\265\275\276\016j\275>(\244=\305\364\002=\010\327\361\275Z7\253=\250\342h=\234\207\207=~\021\312\275\354m\231=}\261\321\274m\371u;\325\353\255<\353\250\230\275\331\223\244\275\311:\325\274\300\267\214;\350\364\225=\374\373\346\275M\314\363\275rN\227=>M\016\276\347\031?=\264\3006\275p^\241=\342\230\216=i\203z=\333?\254=@\310g=\001%\206\275\256(\354\274\353\271M=\331\331p=\022\ne;\022\013S\275\322\210C=i\000\273<\233\0305\275\314/\352=\3015\262\275\227G\314\275\2125\000\276\255x\016=\010\321\366=A\302\260<VB\251\275\\1P\275zGL=/\331+\275\341\310\312\275\272\\\326\275\205\212-\275\266\350B\275\271\366\252=6\317[\276\027\373i\275\025\313s\274\216{\010>\344\364\306\276\323E{\275\343\026\243\275\355\000\231=\311\344\224\275\"{\301\275\262\227\220\275$\273\024\276\013Bt=w \231=7\201f\272\177\224t<\222]c\275\310\271\302\274\030\314\025\276\201\325\372=|\266\270\275\241^m=K\316\013<\307o\211=(\344\227=\340x\022\276\355-\340=\327\312\206;\230\371\232<\365\364\000\276\nl\022\276\312\254U\275Q\364\326\275\000\020\317\275\370\016\234\274V\372s\275\200\\\362\275\221\253<\275%\365|\274=\230\273\275|{\321=\306\223\227=V\234\224\274p\336\300\274\334\355\224\275\320\000\325\274\371\362D:\223\027s\275\275\034\"\275\345\245\224\275g\"+=\362\273\263<\252c\260\272fI\322<\203\237\235\274\3268\315\275\216lK:\323\335\255=Q\354\317=\224\375F\275\310F\230<\037\257\326\275&\222d=\257L\242\275\024\010\264\275\265\313C=\242\221\030\275\301[\304\275\255\375\331=\317\310\315=^\353\233=\343\211\253\275\342;\275\275\344\242\210\276/W\367\274\207\352\031\275\034Ep\275NW\241=)\207\322\275\227\350\\<#\207D\275g\035\020\276\"<\255=\036~c=\'y\313\275\271{E=\227\2256=\3170\300\275V:\014>?\323\360;\202\017\203\274\376\377\252\276\303\272\304=\241\334\216\275\373&\227\276\016\365\214\274\261X\007\276\364\210\307\274\236\317+\275\272\353\252=p0\\\275P:1=F$\251=\272\210\233<\034S\305\275&\273\031<do\352\275\223\026\207\271\376X\236\276\272A\257\275*\006\306<<\254\324\275\201\233:\275\300\026\220\273\366&\363<\342\255\216\275>\335\240=\216\222\220</6\346\2745\\\006\276G\r\330\275\311X3\276\345\361\336\275\335\030\315=%\006\274\275\357\003\257=\255Pa\275kb\014\275p(\334=\374y\200=\354\257\311<\211TI=B\227!\276i\371\302\275\252\010j\272\014q\243<=\032\275\275;\r\303=\357\255\275\275\242\026\276\274\244\356\266=\204\000i=5r\361\272K?\002\2759\247\311\275\311\030\001\274\240\231\376\274-\324\336=s\010\246=\315e;=\3272\340=f\232\371=:w\017\276{T\222\274q\243T=\277\257W\273\335vF=\357\000\351<\020\355\246=\010\321\031\276\363\271\307\273\351\341\r>\204\022\207=\374\206\001>\017\256\366\274\270K\302<\256v\352<o\273\354=\340\261\234\274@@\022\275\266\307\370\274\245\000\343<\321\246k=\030\363\360;\322\333\347\275d<\203\2752\274j<7O\376<P\n\347:\353s\237\275\365\361q<e\372z\275O\003\222=\321\272\367=\271\342\366<\221\001\265=z\005\220<\300\331\360\275$#\351=\006\226\220\274t\321X=\246\370->@\241,\276\260F\246=\203\316\032\276\207#:>\347\021\331=\343\231\245=\326\r\023\276~\262\026=\313$\333\274\371\223y\276\246\300*>)\373\320<}\376\305=\323\375\r\275\311\262\032<\242\037\347;\3210F\276{ q=C\032\211=8*\'=\3449?\276\303\223,<D\266C\275A\271\243=\003\014\350=\200\003y\275\014\375\321=\310Ua\276\342\271\035\276\223#Z\276\306\n\250\275\266\204\\=\240a\375\274\034\355\231=\177\344\241<\'\351\275=\317\261\273\275\3055\024>\331M\216=\376\026\n\276\261\004\302\275B\241\230\276\204^\307<\327Z\323=\'\375*\276\214\215\277=C\017S\275\374X\004>d\022\266=sQ\301\275r\350h\274\332&\351<7\233G=\362\230\213>;\324L=\3438P\275w\322\351\275\226T\257;Qp\315\275N\0013\276\235t\277\276\354\347\323=\221\366\330\275\244S\211\275\255\267z>\250\354\260\273\343\367\014\275\375\304\215=7\351\016=\216$\347=o\033\266=\210\343\224=Z|\315\276] \213=T\033\t\277!\006\333\275\030\001\253\275A\004\242>,\321\371<\327Z*=C\324L>+\371\025\276_\005\024\276\314az\274\021\333\004\275\027\363\202\274\313\347\301\275\364\331\327\276\276\022*=\225`!\277\341\341\275\276\353\003\260\276\333\346\264\275\342\372v\276P\3128<n\261\377=\347\365\034>1\350\252\275\231\233\373\275\"\\\241\275^\257r=Nb\036\277\005\021\327\275\363\225\272<\227^\247;\264\355<>!P\270;t!\266=\034\342\213\275L\333\321=\345n\316\273{\244\235=\346\375\245:D\357\235\275\213bX\276\260\221v=\246:\331=\204\225\334=\255j\313\275C\031\010\277\rUB={(\032\276\027\244l\275\022\224\314=\300\256m<qS\257\274 \201\211\275\232A}=\344Nc\274p\322\370\275`\024W>\372jP\276\337\377\000\276\314\002\346=`\311\027>)\352\365<SD\246\275\2136\021>\342\r%\275\346c\016\275-b\326\275\326c\230\276\016\275$\275c9\265\275\250\305\360=T\333\251=2\367\333<\343\353\211=I\376\007\276\325J@>V\211\206=\001\202p=rP\346=\355-\351;\307NH\273A\274\024>B\204\204\2753\217\320=\r\2071>*\nq\276\264\322\213\276H\303P\276.~1>?\226\034\276_\243\003=\360Q\241\274K\212\200<\245^U>+\366\037>\274\370\316\275zb\253\275\2253\006>\034zr=\316\335]\2756\036\310\274\026L|\275SM\302<@\372\251\275t\2613>\350\027\212=\343[\222\275\037\205\037\276D\201w\2759P[>\224G\250\274hA\377=\203\320\311<\212\256\323<G\244\201=\323&\316\275\325\226J>\251\3506<\t\263\235=\255!\307\275\025)\036\275Jw\014>\005\270\t=h\356\351=\320\215#\276\245\235\001>\312(\262;\316%\312\275E1@<\035\310l\274\275\323o<\324\234,>\035X\236\275W\312\330\275\212.\354=\\+\016\273k \234<y\256z\276r\347\027>\273p\210=[<\227\275!\231\010\275\302P\231\274l\305F=\016\304Z\276\272\005\031\276u\275j\275\323\241\240\274`\356p\275K\025\254\275skl\275\342S\263\275:e\223\274<\233*=\025Q4\274\344\007\275\275K-5\275\350\356%\276\203H\275=\266\367\025>!_\025\276\310p,\276\312\003U\276/\247p;I\017\201=\364^\\\276\025=\t>\030)\354<o\237l\275Teu\275LN\007>\216#\367=\270\220z;\006(q=G\356\242=d\200a=\362\357I<\355\260\031=\213\372\365<%\261\355=5\326\331\273\311j\205\274\325\347\220\275\326\257\354\274\374\370\246=\350\010/>\342\210\003>$Er<\351\340\334\275\211\030\232:\3732\273=C\200&;\004\257\272\273\t\300\252\275\355\371\357:\361\026\337<\334u\241=M\r&=\276\224\232=%\352\225;\3628\270\275B\222\274=\272u\\\276\303\375L>\037\303\227\275G\230$>\326k\204=\004\255\215\275\3245J\275\257\373\200\275\027;\202\276\366\377.\276a\035\223\276\307\024\027>\203\020\305;^\016(\276\034_\036=<\215\215\274\202/\311<\3615\272=w[/\276\255\r\000\2768\307\367\275\374\264\355<\367\360\263\274\352\366\024\275\036\213T\275\210\310\266\275\211d\311\273\374hx\276\317\007\200>\035\312\321\275\207at\276\315Ui;\225\331\223\275y\200\204>\035\272\252<sH\004\275[I\204<S\217\004\276\222\333\216=\205]\217\275\221\366-\276\360W\220<R\326\255<\333/3\276\017\322<\275\320\267\r\275\331\340\345\275\016g\342\275\216\266m=\n\204\217=\304\353\300=/\035.<\37742\276\213\200\022\276\343I\032\276\320\313\265\275\244s\275\274x\272\360\271\005\267\017=\335\264\247\274s\206\255\275\033,\023\276\247\252\264\274\355\260\007\275\227rZ\275\235A\267\275\021\343&\275=\201l\275\366R\327=V>\301\275\025\252\376\275\335H\223\273\326\261\210\275\316\267\037\276\275\036w\273\3516\332\275\252\2674\274\356\007\337\275\324\341\361=\3771\341\275\022{\361\275U\274s\276:\244\010>\232\235\023\274\331\247\211=}GU;\314\361\031\275\307\265\370\275N\262\016\276q\223\324=e\2010\274\333\026\203=\333u\323<\336\203\\\275\372)8=M,\315\275}+\206\275>\026q\275\335\n\244=\206\225@\277\276R\200\275\274\351\003\275B8|\275\354\337[=\213eQ=\250\361\273=\241\363\030\276]\231\340;\023C\321<$\240\265\275FX\215<\263\237\224\275\267M\030\277\365\005\241\275:\237\277;\034\014\303\275\342\300X=\3672\023=T\375\347\275\352\300\234=.C\211=\307\323\356\274\023\257\355\274\367U\334<>\310\231\273\333o\312\270\226\327\226:tU;\274_\353,\274\305B~=\3203\001\276D\004\264\275L\202\373<R\235\217\273\201\312\304\275#\001\005\275\372\3141\276N2}\275\221\307\245\275\350\253\203\274\364\001\226=\311\207\264\273)\274\267=n\201G\275\253\3337=\354&\003\276\264#\340=\245\340\232\275\265L6\275\306\312.\275BQ\356\275S\021\000>\010@x\275\210^K\275\323g\204=<\024\302\274o\212\240<\313=\330\274$\226\375\275\004\241\344\275\301\345\341\273\335\006\264\275\336S\362=\301:\375\276\320|\347=\367\200\221=\314\353\336=`\177\267\275@\341q\274\234\263\205=\370o\"=\3406\256=\240\300\013\274\204J\374=\200\345n\274\240\251\177\274`\344;<8\336\201\275\254\014\311=\300\0101\274p>\264\275\000IE\273p\\\233\275 \\b\274\240\227\215\275\300\305B\275\300=\302\273\010\000\237=\010\364\252=@\007\001\274`\356j\274@\343\232\275\010\324\204=\020 \274\275 \205\301=,\333\316\275`\241D=\220\207\225\274 \207Z\274\220\377j=\230C\331=\020\214F=X\343\230=\360\333\305\2748\203\231\275\014\365\306\275\330\006@\275(\2349=\354i\242\275\324\036\304=\034(\336\275\240\210\005=\220V\251\275\010\320\204\275\020}\336\274\200SH=D\215\346=\344\207\377=\214\217\235\275\000\234c<\224(\231=\354\260\217=\304\341\206\275@\000\240\275\210\302\265\275\370\353\251\275\250\310\021=p5}=\300\354\255<@\r\213\274\244\205\330\275\200\325\332<\000\367\371\272\000i\310=\360\n\230\274\270\311\330\275\340Q\273\275P\363\207\275\310\310H=8\252\347=\310b\320\275t\202\322=H\016\300=\014\332\246\275\300\177\\\274H\303\371\275`\252\303<(\277\244=`\310\343\274 \264N\274\014c\215\275\250-\326\275\250i\201=\000f\304\274\350\212\300\275\324.\217\275\374t\253=\220\222Q\275`|\244< \203\337<,\365\346\275pN\213\274\310\366s\275Ph\312\274H\245\303\275\004\374\272\275\200ng\273\034\033\320=\030\225\276\275$\243\357\275\300oC\275\344\231\264\275\034\310\344\275\360\322\277<\020\314\234=\340C\003<\014\206\337=\300\223 =\034\372\246\275\200\316\235=0i\310<\200L\332=\230\r\017\275\210\213\210\275P\022\027=\200\027\005\275\320\224\240\274\270$\t=\024A\257=\224\200\314\275\230\356\216\275\020\210\307\275|2\221=L\335\200=h\316\377<\036\375\250=}\324-\275\335+\261\2755_\303=)\027\002\274\242\334|;)\213\222==\351\343\274\262\256\020>\251\335\026\276\216\243\264\275.\016\263<u\304\213\275o\025\216=F\r\231\275\347\333\322\275A\206\271=\032\021f\275\267\377\375=7\224\274\275\220S\325\275\250\257^=\300K<\275x\254\324=\276x\372=\335\313\004=\000&\000>h\342\217=/\005-\275\225\333\321=\305\315\177<\344\275\250\275\367W\236=;\'\207\275\333\303\254\275Y\304\214=\235\327@\2765\371:=+\302+=\222-\001\275G\274\237\275;\262\302\275)\363\327\275\034\330m\274iWR:sj\332;\372\271\275=\366%[\276DU/\275\024/\254\274w\r^\275\n,\261\275\217L&\275\337\375k\275\267\363*\274^O\257\275\337\273\276\274\327r\234=gg\210\276\210\310\213=\316B:\275\316\272\323=P\030\004=\376\342R=\221\236\230\275Ne\223=\363\305\037\275T\001\236\275z\262\257\275\000\256\312\273\363U\257\275=\'\222=\310\366\277=\t-E=~`\360<\310\003\t=\237\'\360<\312\277+\276,G\361\273\350q\035\276>\n#\275\r\234\033\274\030\243\030\274]\234#\275\337\207\230=\216\347\202=\375\276\025\276>3A\275\226Bx\275\3152\345\275q\351\253\275\036\034u\275\030\375\212=\007\336\332=r\'\330\275\002\334\030\276\223H\037\276{\317\211\275)\r\377\271\374\2024\275\213\016\036\276[0>=\373\013&\275\005\330\302=\272\022w\275\351\343\304<\337\244+\276\247\232\232\274\340\314\032\275r\000@\2741%\253\275\033|%\276\036\374\373\275\246\336\023\275\227~%\276\237M\347=\336I\017=) \253=\302h\007\275\"[\351=\235N\236\273L\\\357\275x\204\033\275\377*0=C\213\257\276\265\331\244=mT\277\2755\373\000\275\321{\010\276\222\002\275\275[\205\264\275\300\345\256<\037\t\242=\362Bj\275\301\016\331\275\022 \274=\331\022X\275\343\230\215\276X\317\233\274\036\025\233=\n\200\320=\363\304\037\276\375\246\235=\277\272\214\275k\344@\275\337\205\271=_\257\306=\233\262\374\275\373\260]\275\326<\306\275\310\250\340\274\274\340\236\276\266\2601\275\370\373i=X\216\307=\370uo=\026\020\243\275+p\034\274l*\013\276.\'\342\275\273x\326<\245\254\002\276L\251 \276\342\226\270\274F\2161\276\214\3502=7\256\t\276\304\250`\275\341V<=Cv\224=\360\330\326\276\271\275\027=C\345\021=5\263\370\274baU=\310\t]\275\236\211\260\275\262\311\014\275s3V=\305\0346=\250\250\223=\324\017:=\334\311\207=\255\332)=-~\002\276\270Q\227<7\377\207=\\/4=\210\345\327\27644+=\030\372\010\276\013J\363<= s\275\344g\231\275L\272:<V\310\317\273\277l\376\274|\237\330=\366\240l=^\350\002\275\037\271\336=\330\353\027<@\006\201=4 \270=$\021Q=\375\320\360=\250\246\325\275\330A\223\275$\355\350\275\266\245\235=L~\346\275`\001X\275i\022\222=\nU\217<\030r\224\275\234\035\333\275f*\224=\257 \370;\274B\231\274 \323\262\275P1\225\275\017\275\'=ffJ<`\243\255<i\366\345\275\325\364\237\275\020Z\313\275\270\372-=\206e]\275\224\021\375=lY\307\275\270\347\202=\271\372\252=+\316\002=t/\322\275,\225\250=k\250\362=\016:\301\275X\235<\275ap\376\274\010\220\324=sbv=&Wm=\214\034\277\2756N\210=\314$\301\275#\203\221\275H\300\331\274\240\233\230=\007\200\307\275}\241\310\275\262\006\275\275p\316\351<\255\324\260=X\017g=fx#\276\004\"R<KNG=\367>\377\275\302\312r=Do\276\275\010\366m\274Y\035B\275\352\033\020>)\202\275=\313\177R\275<6<=B\271\314=\322\032\275<{m\314\272\003\220\234\273(G\001=\333\t\020<S\033N\274+\300\251<\021\247\320=n\001\307=\244\213\334=\263\252\033>\270\0253<X\\\364\273m\254\370=x@\237=\241\227\255=\216\033\235\275\231\022\330\275\'\3340\275\021\355\346<\234.`=p\223\230\275\276\342\373=w6\340=\360\3428\276f\354\237\275G\217\005\274w\347\246<E\253r</\231\231=\371\365\321=\375\224\342\275\212\215f=\035f\201=&\014\215=\237\035E\275\370\034\220\275\212\245\356\275\201\3608>\221\306\205\275\207\177\276<S<\305=\207\013\334\275hc\246=9\001\210\275\302\360s=\003\372\211\274\357i\n\273/jW<$\">=p\250\271=[-\310=\236\031\354=\0312(\276\266\310\364\275I\037V\275\0217<\276\367\030@\274/\340\325\275\022\323\010>\261\006\247\275\271Je=\313\360\231\273ud\021=\376\371\034>\366\317\201\276\335\245\241=c\240\371\275b\017\222\273\204\325d<?\202\361<\031\262\353\274C\000\247=\"\030\321\275}\310\025<\021\236\215\276\236sI=\006^\002\274o\236y=j+/=y\033\375\276w\372\004\275=\367c\276rio\276\363;R\276M\220\333\275\277\372\204=\277n0\276m\'\312\275\021\023%>L\241\204\275u\t\231<\340?\270<uB\257\275\203\360\263\276\371e\203<\002\265\037=\351\021\027\276\342\221\205\276>\344\261\273^\001Z=\037&~\274\346\r\220=\310\370\354=\001\337\252\275\306\302\205>2\220\375=\227:\275=&\201\351\274\331\031\250;F\336\016=\341\013#=\367,p\275ib>\276\207\307\002>\007\331\004>{l\007\275L\230,>eV\260\275\032\322b\274\032\267&\274N\246\'\276\014\\~=\177\377\230\275\330E\215<G\237G\276j\207\034>Y\247\322\274l2B>`M$>>W\324\275\033\230\001>P*~<\363u\016>`\233\342=f\230\267\275\213V\371\274\223\032\341<\204:z=\326x\350=s\'\322\275\221%\317\275\311kH>\362bu\275O\245\260=\231\245\016=\252R#>.P?>U\242\000=\232`\305=\007D&\275K\200\272=o\242\300\275\234\270\020\274\365\'&\275\276\337\010>+j\036\276N\023\311\274\304\346\031:\267\200\270<\002\265\264;\355W\243=`\010 =\264\034@\276\266\345\274=\333\372\230\275\316c\201>\035z\322;\3568-\275\r\341\221=\364\025\274\275c<\013\276\013\376\337\275\267\300\351\273x\202\222\276\327\273\300=\023!\036=\1775\004>\310\265\022>\312a\215\274\336\376\210\275C5\302=\343,};G\006\177\275;\350y\275jZQ\275\376\306T=\271\231\301=\247#i\275\363\315-\275\227\311\312=i\366\210\274\267\221,\274p\374\211=\307\365\240\276\353\324\373<r\235\306\274\221C\242\275\245\331T;\037\304!<o\220\'\272\267\372\270=\311)\240\275\'\"\354\275M\357f=1\341s\275\362\224\276\275\256\210\206=0\266i=5s:\275Ww;\275G\305K\275\341\222K\276o\3643>!\002<\276\004+;\276\202\t\211=9\233\344\275\353\362&>\306Zx<\202\271\001=\216\226Z>\016\330\275\275\"\332_<\272\3202=1\317\006\276bQ\201\275u\266K;\324\007\213=s\037v\276\373\313\024\275pO\361\2754\004\330\275R\265\207\273\216S\307=\304\267w=N<r=A2\026\2746q\213=g5R\275D\300\036\276\3736\211=jq\203\275}vB\274\254\305\027\276\352=\261=EtM:\204?7>e\275\n>\000\251\320\275\032\n#=\204\005\002\277\265\316Y\275;\350u\275c\004K>\355\334\003>E\177s=K\251\277=\3465D=\200)_>\007\366\305<?\010G=\370p\345\275z\246\316=\313\372\341\272B\334t\276\017\r\020=\323\233\037=o\003\263<\251\277\"=~\211\211\275\201\215\326<{\206\205=6\357\"\276J+\363<\322l\326<H*\250\275\221;\253\275\027m\021\276\217\216J>t\315\005\276\340\'\030\276\006\010\201=\303\367v>\016p\202\275\013\323\027>\n\343\326=\215\311\272=\352qE=\365\247\364\275\000\271\370\275\324\3318\275\033\377`>\264i\225\275\270\270/=\025\262_=\376\360\007\275]~\213=x\2032\273\240!5>\320T\264\275\262\324\251=c\007\252=\177\203\301=\240\331Z\275\004\3042\275B\266\202=\236.8=\336N\373<\032\014\304<\257\257\341\275C\007\225=H\037\275<\202V\007;\2407\346=H\230\325<Kz\245\272\241\270\366=r\351\025\275\236\026J\276]y\024=\016E%\275\216\334\203\275\315\300\315=\2543\245<\026\257\225\275\221=\017>\377\317\270<\344?r<\206\321\010\276xl8=|\274E;\376Y\006;5\330\274\275f\333Z\275\026\206\313;\251\'\324\274\256\365\250\275\2211\362=\243\2444=\007\331\272\275\271.\361;s\024\001\276~\214d;H\265G=\251\247u\276+n\205\275F\253H\276\3736\303=\343\255\225\275\204\311\303=\211b\232=\217\240`\275\021\0007\276\003\270\252\275<`\371=\341\253T<\364zj<\276\275\023\276S\025\233\275\225]\255\275\016\354\0358\036L\253;\356K]>\217K\301=\330\023\334\2732\303\327=\200}\212<]\217\260\275\337\n\240\275U\213\\\274\337\025\350\275v\003\310\275\237\325\245;\263\272%\274)\367\343\272\246\353\225=\304\265\217\276p9\004\275\273\033\214\275_\243x\275\263\233\031\276y\022i=\234\'\'\275\320\351\232\275U\024\212=\341W5\275\361\341\027\276\244\355\370\275\027\345\236\273N/\335=\337\2434\275\335\372\2609\315\316\265\274\037\201\037\275\312`\342\275t\333\275\273\323\344R\273\272\304\212\275\374\346\014\275\3115\260\275m\353N\275W\277E\276\365\014\n\275r\014\t>@\220\327\274jT\353<[n\313\275\236\223\n\276s\212\034\276\037]7\275P\240\232=K\177w\274O\325.\275\355\274f\276\207/\315=\0032;\275A\354\030\2750\037\337\273\332 \t\276e\261w=\017\250\305\275\256@\014;\023F\336\275\312\356\234\275\017\035\370<e\226\226\275\254\327\257\275\321m\273\275\351?T=cq&\276\313\000\231\275\373\234\003\275\323\177\356=\207o\306\274S\220\357\275G&\324=\023\362\026\275(\203\271\2733\311\257;\007\300M\275F\010%=\307\277\341\274\207G\222<W^\037>y\322\030\276\307\242.\276[\211\246\275\326\362W\274\320\256\247=\244\317\374\273W\2733\2761\353\321=\353\261.\273\212\237F\275\3550\224=T\267b\275\007\037\377\275\tX\352=\322\364\026\274\205K0>\0023\224<B\204\204\273\315$r=\274\361L\2751\034\273\275\247\\\271=\024g`\274-g[\275\215\245\035<\214_\241=M\270\227\275\241\022:\276\316\r=\275\334~\312=\3117\275=\366\224y\273\2776]<\324\004\226=\273\212k<8\211\254\274\005\n\237<\203\356\217\275<dU<z\366\314=\335\257\273=\330\317\371\275%:\251=\023\313o\275\330WK\275$\215k\275@T`\275\220m\253=\033e\226=V\227f=T\301\216\275\352\265\033\276\0275P=f\333\222=\017\002\300\274E\214*\276\352\013\003\276\004\361\317\275\n\223\226\274\342)\341\273u#\340\275V\320\263=v\265\366<\305\343 \276\301\344e=9F\260=\033\361B\275\2070\262=\317\377\247;\277\242\027\276(\325\206;\235\246\212=\330\231\324\275\262e\212\275\257\360\347\274z]\245=\237\372{\274\271h4<_\306\253=\263gq\274Be\r=\264\221?\276\337\250)={mS=\267\344%;0\230v\275\206\031H8\301\204X\276hT(=|\034\022\276Dz0\275\304\033\237=\233#\017>\031\021\311\274\t\352Y=\217V\361\274\367\202\222\275\201\223\375<D\361Y=\33743\275\251\014\213=o~\021\275tJU=\014\337\r\2765\271\233\276\006\307\316\272\277t\255=\005\314\306\275\275\023\204\274`\325,=o=v=\'\217\302;n\305\321<\222a\235\275\321\004@=3\n;=\354\363\020=\t\370\224<\254\005\227=\206\214\250\275\210\024\336\275\260\3454=\032\324&\275\202\025\021\276\315\213\277=\265 \010\276Q\276\277\274Os\356\275\231a\271\275\340j\007\276\202\201\202\273\325S\223=3\320%\276^oy\275\323}\032\276R\311\305\274Mz\270=/\304\356=6\347\021\274\376P\311<\026\022\344\275Y\260\035\275\211\320\226\275\031tu\275m\004p=2\231v=Z]\002\275\234&+\2740\355\t\275CQu=\240\025;=`~\232\275\217\340\371\275\261aK=BW\316\275\311c\214\274\376/\336;\302\206\372\275\271\307\300=\311\256j=\331r\233\275\230@%\276\223\200\271\274/\336\275\275?X\216=\034K\301<\006\251\004\275>\367\\=\262\370 \275\033\341\262=:H\261=o,\217\275\031\314\201=!,