node {
  name: "input_1"
  op: "Placeholder"
  attr {
    key: "dtype"
    value {
      type: DT_FLOAT
    }
  }
  attr {
    key: "shape"
    value {
      shape {
        dim {
          size: -1
        }
        dim {
          size: 13
        }
        dim {
          size: 21
        }
        dim {
          size: 1
        }
      }
    }
  }
}
node {
  name: "input_2"
  op: "Placeholder"
  attr {
    key: "dtype"
    value {
      type: DT_FLOAT
    }
  }
  attr {
    key: "shape"
    value {
      shape {
        dim {
          size: -1
        }
        dim {
          size: 2
        }
      }
    }
  }
}
node {
  name: "model/conv2d/Conv2D/ReadVariableOp/resource"
  op: "Const"
  attr {
    key: "dtype"
    value {
      type: DT_FLOAT
    }
  }
  attr {
    key: "value"
    value {
      tensor {
        dtype: DT_FLOAT
        tensor_shape {
          dim {
            size: 3
          }
          dim {
            size: 3
          }
          dim {
            size: 1
          }
          dim {
            size: 64
          }
        }
        tensor_content: "X\nP\300fP\203\275B\031\206\300\n\025\306\275c#e\277\234\3405?a\341Z?\331\202=\300w\206U\300P\301\351=\2420\344>O\023\363\277\002\023\200=\004\244\203\2759\025\257\3001\210Z>\343.B>\367\275\332\275\323\226\325\275\365\342\337>{\255\334>q3\206\276\351\006\276\300\207>H\300Y.:>\344\347\326=\361\326\256>Z\027\312\276\310kk\300\343\267r\275gb\231>wV6\300\006\307`\277\365\307\312<\337\\0\276T\313<\275;\226\033\274{\n\226\277\324\334\315\275\323W\334>\265\306\255<\250\217\221\276\241T\260>Ts\205\276L\250\000\275U\317\214\276/i\203>\250\003\232>\353\r\245\2756,\211\276\325[\027\300JL\234\273\324\205\236>\'\217\335=%0\253>\035\227\315<Ps\367\275!f\023?\276\247\035\275b\374\220=\243\342\204\300\020P1\275L\240\211\275\342\260\306\274`\357w\300\220^(?8\014\272\276.\373J?\017\027\252\275|\332J?\177_J\276\305K\277\276L\037\331=|\230\217>\200\263\373>\t\020:\277\177\034,\300do\215\300\017\006\256\300Kw\344>\256\001F>;\377\002?\222\246B?\247a\372>\200\275\305>\205b\341\275\332\021\265\300\233~3\277\022D\n\277\3765c\300\311K\346>50\316\277\300\000\273>\233\330r?\256\364\237>\361\225\316\276\024\031\321\277C\260>\277>\303\203\277\0332\220>a\252?>\033\333\301>\206\350u>\246\217\336>\240j`\300\351\204\304\277\006\273\t?{\276\251\277$\252\355\276\205\223\000\300K\014J\300V\2165\300<\3363?\376-\000?E\362\215>\252[\330\300% \212\300\242\346n\275\303\363\351>`\371\226>\210P\205?\371Q+?\214\020\r>\304\366\212\274g\203\226\300\223\265K>\370\250)?\250W\256>\277-3\277f7}=g\253[\300e\210;\275\240\3028\277Cr\310\274\234\036a\275\354v\277>\230\177\241=\003\377\273\275\201\305,\275g\016\335\277V\017\035\275*\205\210\300H\024\206\300\244.x\277y\246\332;\357\215\231>\314\341m>\241\237P; \350\231>V5b\276\277\376,\274\013s\017\273TE\010>\033\325\200>n\002\275\274Q\3375\274Je,\275 \214f\275\'S\325\275\241\307r\300\253\025\225\277\0167\206\300/\270\272\277v\330\226>\"u\036\300c\235\027\276\313R\303\277\322\017\202\275\360%\275>-H\000\300\333\317`\275\337U\020=mn\376\277\007\253G>\224\262n>\231\"\250\277\311\375\200\277\206\263\036>h\230R>7\227\017\274|>\202>\250?\275\275\241\272\001\300\210\236\317\277o\352\241\275\010\273*\275rm\024>z\325\017\300z\315\225\300\303\001\007>\021\030\026?\356\361\177>\300\314Z> \325\370\276\216q\256=N\212\362\275O\020\320>\330P??a\201@?\240\257\257>\240\315P\300b\202\204\277\367\304\010\277\230=\024>\364\323\303\275/\262\231>^\244\232>\247\026\376\277e\253\223\300+\362;\275\002\002\237\2741\206\263\300E\210\315>\034\243\371\276z(\002?$M\203\3005\005\350>>lG>j\301\334>\212do?\220\324\333>7\007/\275\001ft>9\253\317\275\331\346\002>\006M\017>I\233o\277`a\245\274\033\003K\300d\226m>\2457H>f\246\311\300\020]\232;{f\343>[\250\333>\272\363;?\225\024\010=\371\0379\300SCt>\221[0>\234\362r\273\360-\217\300E\3608>\021\336\345\273\326\254\247>\233\300\227\274\313%\250=\327\'\320;\351>{\275\214\206\356\276}_O\277I=P>\226\246\r\276\201\313\037\300N\311V\275\033\305\207=c\244?\275\001 %\277\306|L>\031-S?\331\323:?:\343E?\004\370\317\274\325\363\256>\367\216\347>\311\343\022\277\3450\337\300o5\205?\363^\312>\255Nq\273\232s\217>\024\362`\300\243x\211\300\000\025\t?\271\020\276;\304K\036\277n\020\347>\356F\336>C\rN>r\030\337>\350jZ\277\"It\300>\274t\300\207\332\306<\242\030\323>\2756i?f\303\210>sK\316>b\035\203\277>\310E>\322^\344\277q\320\214\277\364\364\322>\351\010\333\277\312ZX>8\230\323\300#9l>\327\337\'\300\365\323\000?\243\022L?\275\202\274>D`\301\277\362-\202\300oK\377=\236y^\277\330\n\206=\241\250\341>\"\322!?\234\271;\300\"\312\200?.\360\327\276\250\233\024\300\302{\203?\r\262\261\276\251\360\300\277\001\356k>\355\267\251>P\336w\277?\202/?\340\031g\300\020#\023\274\245\310\207\300^Q.>\nM\250\274\346\252\367<\023\017\251;\230!\216\276\234\211!\300\312\'N>\3203\031\277\004\245\007;oG\373>eBt>\207\244\206>\331\322\201>\345V]\300\341^\227\300\307\323\267>\234\326\370\276\006,M9\005_\323>r\216\376\276\271(\030;r\311\374\274\031\337<>\361A\222>\276%\272=\311\0320\274X\317\236\300\220\266\370\273f $\300\376o\340=$\025\217>\361F_\277\013\363\321\277D\236&\300\r\037.>A\217\017<\371\324\204\300\036\035\206\276jC\261>\331\371\010=\"\362\374\274\006\336\321;\230$E\300}\345\262>\244@\225>\313L,>ik\001?\275hQ>\313_\210>1\206`\274\250\200\236>\036\224R?\024\0266\300\275\020\233>\343>o\272\251~\014<\024\243 >\273\376N\300\354^`>\332\340\304\276\315\341\032?\342\255\246\276\264\007\265\300\234oh>kf\314\2760~-\277\347\221\340>\314\007\304>z\267\021\277\276c\212=\031le\274/\373\324\276\362\037\022?\320y\324<\203Z\031\300\243o\252>\005\203\222>k\207\230=\005\251\353>\261\253\333\272\372[\004\276\265\305\370>\225\370!\300+<\254\276M-\231\277y\341\217>\353\272r=\361\\X>o\253#\277\242\235\301\276%&\214=\377\321\225\274=\347\226>\343\223\225\275\305\377s\275\224\342O\275\242\230\333=\367`\230\274g,\201\300\023O_>\3317\t>T)\\\275n6X= N\023?;1\202\277\3141\241\276A\220\314\275\327\030\202>\217\342*>\326L\255\275\006\207\t\275\262\304\037\300\026x\t\300\010}\310\271G\032\211\275\305w\323<\317\332Y>d\327N\275\212\3073<\322\264B?\'\306\010?c\222%=xa\211\300\255\305\262\277A\253#<>\033\255\300h\367\361>f\006\265>\377\353\224\300\347B\365>S\026C?\332y\274>\344s\376=+N\253=1\244;;\016h\037?6\301\335>)\363\247\273\2447\304>:-\237\277e~5>\353\245\016>A\270\271\300\267\324\244\277y\nZ?\242\275\372>\350\200\201>\330\225Y>\207(\303\277\006\240\211>\243\275\235\277\263PG\300\r\371=\300H\264\271\277\026\346\376=\305\030+?\030\241t>\366\354\337>g\2345?O\214\034?\016\334\000>\333~1?\2645e>\260W\233\276\272\324\317\277\347\203\342>\206\177\237\277\204\035\037>EjI\277\204\262L\277\"\035\235\277\334\213[>\002\277p\300\230\007+\300\264\265\312>\000\013\330\276\331\206\227>\334\235\226\300\2623{>(J\310>\307M\021>\275\370\017\300\034\271\000?\035\243>?\215\332\255\277\237.\220=p\344\256>\233/\364>\033\315`>o\264L\277\334#\032\276=\377)\275\007U\201\276,\273\342<\345\274\366\275\326\373K=\326\303\313\277\334\234\021>\201\203\316\273O?\317\276u\304\311\274\273\347\006\275=}\263>\365\254\354=\301\212`>\213\010\373=\220\273\314\277Y\032>\277\313\243\306>,!\313\274\244\370\234>\013[\243\276\323\313\275\274\315\005\036\275y\033\357<m\252;>\034\3617\277\"b4;:\212R<R\377\321:;\317\206\2779\247\235\300\327\2376\274\335\010\006?a\207\346\277\010\276\213\277#$\347=\010 C\300\031N\260\277\314\310\227;\252\334^\277Hg\264\274NC\026\3003w\030\273Q\272&\300\325\251\000>\276\304U>\020\323\023\300\270a\026>\250\272\006\2760\322T\275\275\266/=\244\361\261=a>\303>]\252\033\274\360\247\032\277\2222\362<S\245S\275\367J@>\345\306\034\300\010^\247\271e\233\233>\217\033\247\277\331\276\024?"
      }
    }
  }
}
node {
  name: "model/conv2d/Conv2D/ReadVariableOp"
  op: "Identity"
  input: "model/conv2d/Conv2D/ReadVariableOp/resource"
  attr {
    key: "T"
    value {
      type: DT_FLOAT
    }
  }
}
node {
  name: "model/conv2d/Conv2D"
  op: "Conv2D"
  input: "input_1"
  input: "model/conv2d/Conv2D/ReadVariableOp"
  attr {
    key: "T"
    value {
      type: DT_FLOAT
    }
  }
  attr {
    key: "data_format"
    value {
      s: "NHWC"
    }
  }
  attr {
    key: "dilations"
    value {
      list {
        i: 1
        i: 1
        i: 1
        i: 1
      }
    }
  }
  attr {
    key: "explicit_paddings"
    value {
      list {
      }
    }
  }
  attr {
    key: "padding"
    value {
      s: "SAME"
    }
  }
  attr {
    key: "strides"
    value {
      list {
        i: 1
        i: 1
        i: 1
        i: 1
      }
    }
  }
  attr {
    key: "use_cudnn_on_gpu"
    value {
      b: true
    }
  }
}
node {
  name: "model/conv2d/BiasAdd/ReadVariableOp/resource"
  op: "Const"
  attr {
    key: "dtype"
    value {
      type: DT_FLOAT
    }
  }
  attr {
    key: "value"
    value {
      tensor {
        dtype: DT_FLOAT
        tensor_shape {
          dim {
            size: 64
          }
        }
        tensor_content: "\232#\006\301\346\312\361\301\365b\223\301c\217\017\302\031{\241@\177R\241\3013\300\325\301\337\336LA]V\355@\000\2738Az\240\305\301g=\315\301d\214\226\301\211my\301\206\215\327@\356\356\221Ae\3377\301\004\"\016\302\222\224\361\301\356)\252\301\266\036\206\301\202\353\234A(\361j\301\006\\\255\301\262\250\254\301\230XQAZ\276\207\301o6\037@\233\265\035@+\364\007\302\340;\374\301 \237~@\026\021\251\301H\013\354@\203\213,\300n\177TA\353\363\241@9\342\372\300\223\032\025A\311\311\276\301\323\036\350\301z\242\257\301\272\233\251\301\000\365\244\301\272Lb@\243\226BA\340\312NAL\2424\301x\026\247Aa|\345\301\374\236\272\301c\375\245\301\001\t\017A\313\365\240\301I!;A\256G\355@\337\270\001\302\216\t\371?\214\003\214A]\361{As\317\n\301\320\243>A\305\026\350\301\010\226)A"
      }
    }
  }
}
node {
  name: "model/conv2d/BiasAdd/ReadVariableOp"
  op: "Identity"
  input: "model/conv2d/BiasAdd/ReadVariableOp/resource"
  attr {
    key: "T"
    value {
      type: DT_FLOAT
    }
  }
}
node {
  name: "model/conv2d/BiasAdd"
  op: "BiasAdd"
  input: "model/conv2d/Conv2D"
  input: "model/conv2d/BiasAdd/ReadVariableOp"
  attr {
    key: "T"
    value {
      type: DT_FLOAT
    }
  }
  attr {
    key: "data_format"
    value {
      s: "NHWC"
    }
  }
}
node {
  name: "model/activation/Relu"
  op: "Relu"
  input: "model/conv2d/BiasAdd"
  attr {
    key: "T"
    value {
      type: DT_FLOAT
    }
  }
}
node {
  name: "model/batch_normalization/ReadVariableOp/resource"
  op: "Const"
  attr {
    key: "dtype"
    value {
      type: DT_FLOAT
    }
  }
  attr {
    key: "value"
    value {
      tensor {
        dtype: DT_FLOAT
        tensor_shape {
          dim {
            size: 64
          }
        }
        tensor_content: "s96?\025\262\215?#\322\257?\\\247\203?\006P\212?\r\006\223?q?\271?\003\314I?\322\257s?\376\277\242?\302\273\200?x)\277?\373\001S?\006\264\202?\322I\204?L\237\205?\313\351\177?!D\272?\320\224r?\325h\201?\332\352\214?\217\004\272?\024o\361?\327F\214?W\327\211?]\024E?\230:p?\266\214\336?\331\253@?\003w\203?Aa\206?\225\366P?\302}8?\265\372k?\177\030\235?G\330\210?%9V?O\365H?\177\366\215?\211\242\212?C\327\241?1\207\234?\007\233\231?e\302\233?}\003\342?\001.y?B\302M?\024\351t?[\024q?\353\235\225?\244\305{?\261\000\301?\353\312C?\243V{?\226\202f?\241\216h?\023\301\210?\270\007\203?L\236\201?\257\253\216?\213\t9?\230\351\203?\303\254\226?99a?"
      }
    }
  }
}
node {
  name: "model/batch_normalization/ReadVariableOp"
  op: "Identity"
  input: "model/batch_normalization/ReadVariableOp/resource"
  attr {
    key: "T"
    value {
      type: DT_FLOAT
    }
  }
}
node {
  name: "model/batch_normalization/ReadVariableOp_1/resource"
  op: "Const"
  attr {
    key: "dtype"
    value {
      type: DT_FLOAT
    }
  }
  attr {
    key: "value"
    value {
      tensor {
        dtype: DT_FLOAT
        tensor_shape {
          dim {
            size: 64
          }
        }
        tensor_content: "\362\220\373\276\312\360\254\273\243\255+=\024\263\370\275\3511\314=\373wM\276\327\313\236>ck\026\277\375\023/\276\032\021\214=\353s\005\276!\0342>\020`\315\276\036(\326\276\307+F\276&\\\207\276\3319\t\277_\354J>\310\262\316<\323\0212\276\334\rI\276Z\267\237=\032\002\202>\275\361\036\276w\221\346\274>\017(\277\200 \014\277j\363\234>b\245\233\276x\360\007\276Jk\266=\375\272\030\277\202\t\007\277\315\222\346\276\033m >\t6H\276j\325\346\276\330\331\237\275]\025\275=\253\313>\276\326O*=\202\365\235=\361\222B\276fr\222=J)\352=\236\327\t\276\245\3100\277\342\322\257\276z\311\304\273\304\266\325=\024]U\275\301\322\333=\253\2612\277h\256\271\276\247\340\231\276\372\006\276=+F\252\274\265e\r\2767\347\244\275\027n\244=6\307\n\277\206\364\252\276\340\0231\275\257:\302\276"
      }
    }
  }
}
node {
  name: "model/batch_normalization/ReadVariableOp_1"
  op: "Identity"
  input: "model/batch_normalization/ReadVariableOp_1/resource"
  attr {
    key: "T"
    value {
      type: DT_FLOAT
    }
  }
}
node {
  name: "model/batch_normalization/FusedBatchNormV3/ReadVariableOp/resource"
  op: "Const"
  attr {
    key: "dtype"
    value {
      type: DT_FLOAT
    }
  }
  attr {
    key: "value"
    value {
      tensor {
        dtype: DT_FLOAT
        tensor_shape {
          dim {
            size: 64
          }
        }
        tensor_content: "U2lB\034h\260C[\356\336B\240g\375Co\264<D3\030\245D\027\014\276Cbz(CK\264UB\243\365\003CGO\017DS\227\377C\355cYC\236s1C\257\237\355C>)\026C\317\253\372BL\305\377CEB(D\354\033\020D\364\274PD?\314\350Aa\3426C#\033,C\310\356\\B:\320[B\316=\202C\023\360\211C\357\212\003C\207;MD\301\204kCp\353\003C^>eC\327<\277Ci\030=A!STC^eWB\351\273\340A\354\017\021B\002\324\256C\264\3028C\275\204pC\342\014\nD\250\314\351CN1WA\3615RC\232\003rB.=\005CS!\204C\360\264\025C\363\324\226C\246\237-C\025}\rC\376\355cD9g#C\225y\334A\252\206ND\200\357[D\353\341\377B\272\2474B\374\237\002C\214\374\023C\247NOD\025\343VC"
      }
    }
  }
}
node {
  name: "model/batch_normalization/FusedBatchNormV3/ReadVariableOp"
  op: "Identity"
  input: "model/batch_normalization/FusedBatchNormV3/ReadVariableOp/resource"
  attr {
    key: "T"
    value {
      type: DT_FLOAT
    }
  }
}
node {
  name: "model/batch_normalization/FusedBatchNormV3/ReadVariableOp_1/resource"
  op: "Const"
  attr {
    key: "dtype"
    value {
      type: DT_FLOAT
    }
  }
  attr {
    key: "value"
    value {
      tensor {
        dtype: DT_FLOAT
        tensor_shape {
          dim {
            size: 64
          }
        }
        tensor_content: "\033l1HL\037\006J\351\274\346H\334\361\205J=\216\004K\240k\207K#\227FJ9\356\026I\036&KHg\300\373H\321\265\232J\245&\366Jt\370\240I\236\245`I\366\001GJA\245\344Hf]\353H\261\037}Js\314\322J\324\237\232J`\325\007KR\204{G\353\243\237I\345\231YIg\035LH\354\277\334G\225\004\357I\002\3270J\275\333\021I\034\277\364Jb\333\227I\214L\035I\321\276\317I\325TkJ\226\"\244F\337\355\210I\227\035>H>\034\251G<\375\244G\274\337\017J\376\357\201I\035n\331IK\316\223J\3017\322J\207\324\014G\005T}I\224\231\006H\267\364\013I\306\211\257I|(=I\247s\020J\210X\220IAm\333H\360\273KK\257l\032I\005\261yG\265\371\001K!\014)K\244\274\256H\035J\237G%\025\036Iw\371\005I\177Z\032K~\251\212I"
      }
    }
  }
}
node {
  name: "model/batch_normalization/FusedBatchNormV3/ReadVariableOp_1"
  op: "Identity"
  input: "model/batch_normalization/FusedBatchNormV3/ReadVariableOp_1/resource"
  attr {
    key: "T"
    value {
      type: DT_FLOAT
    }
  }
}
node {
  name: "model/batch_normalization/FusedBatchNormV3"
  op: "FusedBatchNormV3"
  input: "model/activation/Relu"
  input: "model/batch_normalization/ReadVariableOp"
  input: "model/batch_normalization/ReadVariableOp_1"
  input: "model/batch_normalization/FusedBatchNormV3/ReadVariableOp"
  input: "model/batch_normalization/FusedBatchNormV3/ReadVariableOp_1"
  attr {
    key: "T"
    value {
      type: DT_FLOAT
    }
  }
  attr {
    key: "U"
    value {
      type: DT_FLOAT
    }
  }
  attr {
    key: "data_format"
    value {
      s: "NHWC"
    }
  }
  attr {
    key: "epsilon"
    value {
      f: 0.0010000000475
    }
  }
  attr {
    key: "is_training"
    value {
      b: false
    }
  }
}
node {
  name: "model/max_pooling2d/MaxPool"
  op: "MaxPool"
  input: "model/batch_normalization/FusedBatchNormV3"
  attr {
    key: "T"
    value {
      type: DT_FLOAT
    }
  }
  attr {
    key: "data_format"
    value {
      s: "NHWC"
    }
  }
  attr {
    key: "ksize"
    value {
      list {
        i: 1
        i: 2
        i: 2
        i: 1
      }
    }
  }
  attr {
    key: "padding"
    value {
      s: "SAME"
    }
  }
  attr {
    key: "strides"
    value {
      list {
        i: 1
        i: 2
        i: 2
        i: 1
      }
    }
  }
}
node {
  name: "model/dropout/Identity"
  op: "Identity"
  input: "model/max_pooling2d/MaxPool"
  attr {
    key: "T"
    value {
      type: DT_FLOAT
    }
  }
}
node {
  name: "model/conv2d_1/Conv2D/ReadVariableOp/resource"
  op: "Const"
  attr {
    key: "dtype"
    value {
      type: DT_FLOAT
    }
  }
  attr {
    key: "value"
    value {
      tensor {
        dtype: DT_FLOAT
        tensor_shape {
          dim {
            size: 3
          }
          dim {
            size: 3
          }
          dim {
            size: 64
          }
          dim {
            size: 128
          }
        }
        tensor_content: "$\310\364\276pk\004>t\303\360\276\260\016\203\276\317\361\237>\323\363\213\277U\363\205>#\026x\276+\262\205\273\016C\r?\213\001\032?G[C\276\261\257T\277\265gE\277w\016\031>\275Wb>w\025\021\272\200\303\224\277\312&\316\276\320 \317\276D\306~\276\214\240\233>=\325\226\276\303>L>\331\207\263\277\217\032\341\277X\366\203\276s,\026\277\366\021\246\276\302\336~>\3300+\276\200\270$\277\372\007h<.\217\222\2773\177\337\275Ib\211>\253\277!\277Cz\010?\207\366\177\276\033?\222>\007Nn\276\235\034\242\276D\017\327\274{\204\264>\360%h>\364\363\001?\242;%>98^\2773\205%\276\275\271 \277\276\321_=\026\"\006?\362\234\356\276$\314e>\025\305\242>S\205=\277\240\203\227\277)J\220\276\264\200\327\276Y(o?G{\004\277\0312\226=\314Q\000?\014yc>\315G\376\276O\361\253>\314&\240\274{\321\226\276\252\252\007\276\305\377\202\277\241E\026>\350F\326\276\344\373N\277\261g\317\276\233\220\234\276j\256B?\234q<=\344\356k>\225\252S\277\227E\355=M\202\335=\'\322\273\276\365$\016\276\263I#\277\307J\346=\037\254\231?\216u\217>bhO\277\203\203\224>\367i\211>g\022\210\277~\336\255>\226\005Z\277\272\232\261\276zn\223=\210\000\253>\256\310w>VP\263\277\266m\022\275k\335\365\276\224\037\240=\251\330\341>dS\263>\372\267u?V:\370\276\213\357\243\277(4\t\277\\\204$>C\327\346>(\312\202\277\253A\030\277\3763\215>\266\235\205>\270tq\277\26127>h\352@\276\233*\352\2757@1?\302GU\276\260\274\314=\030Q2\276\356ve>\2246\304>H\373\327=<(w>\324\371\333\275\255\277J>@\237\357>\273\366H>\006\311\331\276\376@\325>\325\347\311=8\302\361=\347\306\364=\206O\311\276\331s\271\273n\240C\275\220t(\275G\211\277\275+\252!\277\253\037\202=bMW>y>@>@I8\275\222r^>\222.\\\276\343\327\271?u\307\026\277\\\321\213\276\216\245V=j\323<\275\033\211\231=v\000\273\277Tq\261=\3029W=\227\033?>pte?\352\310\210\275\276\007\321\275L\371\022>\376\210\270=\255De\277_\241\207\275\177\213\240\276\253\357E=\267\322\031=\203]W?\273\324\013\277\204X\230\275\252\251\374=\031\236\220\2746\010\204\276\346G\255\277\262\013\372\275\246Ri>\352!!=V\017\274\275\305\004\335?\303\325a?r\332\321\277\241 \325\276\005\027\350\277k\241\332\277^D^>\'\360\313\276\246#\316>\274\004\225=\255\371\230>\203N\323=\031\002;=\007\\7\277;^E?*\021\273?G\316&>\242{\026>\3113\014?\272wd=\022\217\224\276H\243\334>\023\001;=y>\'?\016\245\270>\223\013?\276\223%\246<\276\027\216> 3\203\275\220\352\211>\311\034\257\276\257\255\353\277\317C\320\275\031\221;<\231\314\245\277\277W\022?:P\246\277,0a\276D\345r\276\014\215\037>\036X\003\276\303\215A\277\377\225\321>Gi\233\277i\350\226>-\366\262\275\216{\242\276\233l\255\276\031\376@\300{.\216?\310\332]\277\301DI\275\355$v<4\213\314\276\264o&>g\004\032?\253v\021\276\376\025_\276>\352+\276\334\314\204\276\336\356\335\276\361+ >\3209\204\276G8\272=\363\344 \277\262\361\233\275x\264$?\014%\245>4\207)\277\003\277x\275:\200\n\277\001}g>Y\311\325?/\335\211\276\334~x\277T\270\013=`\033\350\276\030\372%>8j1\277\013J\036?\277\324\331\276t\361\003\2768\301(\300$\370\265\275\256\3339>\323Z\370\276D\3728\276\236%/\277\3449x=^\013\227>^\003\261\275\356\021\316<\260\241\211\275{\235\204\276,\375\037?0M\024<\304\274&\277\253\254\254>rK\243\2779\353\211\277\355\305Y\272\364\341u\275Y\325p=\023\t\037\300\351\321\370\277YBe>\263]\330\276\361w!>T\031\245=\037\005W=\034\371\374\275<?\000\276\243_\007\300dT\000\276WcB\277\256\251\254\274\207I\331>\262\365m=\200u\342\277z\017\242=\332\325l\275\'\000M\276\254\343J=\'Q\250\277D\023\347>E\245h\277\346\001R\277VK-?fXI\276\037n\035\300\335\250\250\276\205\201@>\360_\271\275\225\235\214\276\317\253\236>\310-^\277\350P\225\276yOu\276\254\365\344<\366\014\202={\222\225>YJ\237\276J\374<?\007\017k\276*V3\276lm\035\275r\007\232>\306Z\244=\312\217T\277\247\317j=\"/\267\2776R!\300\016\365G\277,\370O\277J3l>\374.\000>\373l\205>\264\024B>\226U\200\276=\315\344\275t\376\364\275\207#\312>\360\375\374\277\217\006~?\006\031;\277\210\327\247<\240\340w\277\2114F\277=\003)\275.hd\277\344\221_\275\356OR\277\237\004w>\362\314\305>\336W\364\277\376W\276\276+\223u?\013\370\274\275\323\226\212?%\207\t\275\275\215\337=\245\375-\277\202\207\361>\235\370\251=V\310\346\276a\246v\275rA\214\274\"\342!?\3211k\277\250\267\220\277\344\352\206\275\336\266\232\277\300\207\352\277\367\031\335\276\316\256\224\274\363\272!\276\027/\017\300)N\221>\223\346T>4\227-=\345\233.>\225wI\274\211W^=\005er\277n\250Z\277\202\203\225\274-\217\031\276\001\342T\275\235\340\336\276$\026?>\346K\205=\264\340}\276\242\335D\276\3424\327=8.\300\276p\203\233\274\321\2574?\2735\375\273\212\001@\276}\010\224=\327\235T>\325WS>\241\277\217\2761\235\032?\0360\321>\20036?b\321\363\276q\237\000?k\245\177>A\200l=\030\327\205\275\275\346\271\277\230K\224>>+\341>\3114\363>\362\267t?\3348~\274@\305\256\276x]\211\276\342J+?\205\325\033\300\237\363\262>\331`\232\276\272\030~\276\033/\020\277\231\252D?\334\312\226>\010\250\r>\\\366\310\274\302\213\221>b\000\305\276\010FW=\266\334\307\277\021:\356\276\257\221\243>\017\027\266<\233\221\320?\037\001\344>(\217V\277`PW\277]\312\374\277:\276\\\277W\264\277>\000h\213\2779|\207?\304D\005\274\326\006\211>5\245\001\276\323r\241>\304H\372\275\214\342\365> /\243?z2\215=K1\r\274\'\324\330\276\313Sy\276\347\244l\277hP\000>r\023\316\275{\037T\275$\257\336\276\3301\255\277\016\372\224>\246\340\223<\265j\254>\223\330i?-\242\310\276\201\330\213\277\350\031\017>\272d\000>\365\216\212\277O\257I\276\366\005\246\275\362\331\321>+\014\211\277\205\021\243>\"\253\013\276\375\365\232\277Qz\353>\225\0351\277/.?=\371\277\230\277\227!\213\276O\n\241\276\017\264\200\300\313\027\312?\251\306\332\277\266Dy>vS\224\272\215\201\357\276\250\013)\276\323\352\036>D0*\276\317\"\'?Qc\216>\227\237\310\276\231G\231\274k9q>i\000I\273/\301\020?\375\262\306\277!\214\304\276)\254\351>D\320\024=\315&F>r\317\246\275\236e\330\277\217\351\226>\350\344\216?\315\226\326\275M\335\263\277\226G\010>pX\216\276\256U\205>\321\200f\275\210X\347>0\214\310>\305\236\\\276\220\354\006\300:8R\273t<\310=\336\361\332\277\242\206\242\272v<\212>\370\231\250>\2149\242>X\307\370\274\361\217L\2754Y\032?\234a=>\246J\333>}]\262\275u\023\005\276\037\027\246\276N\3100\277\030\006\316\277\307\361L>\345@d\276\325\255\355=\001\000\314\277\350q2\277Qh\n\276w\rh=I\345m\276\006\331\230>E,\214=v\232\243>C\020\342=6\271\233\277\360\236\313>6\370\247\277W\'\207\2769\033g>\0302\227>\370\3772>\031\342\212\276\320`4\277\354^!\2753\"\377<\377j\325\275\316\241\226<\240\324\201>\223?\214>\365b\227>uS\022?D.3\277\251\340\224\277\020\227\221\277\307!\224\276\010U[\277\253\221\272>\360\210N\277\262(\325\276]\277\305=\344O\301\276ic\261<mu\034?\315\330\341=\352Y\354>\020\267\275\274i\370\355\275l\244\305>\330\3627>\334%\351=&\n\003\2777\207\036>\032S\245\277\321\023&\277!\222\217\276Ux\002\276\221j(>\\\221B>\237\361\003>m{\016\276?\310\363\275\030\024f\277\3634\316>\213_\221\275iQ\002\300\250!G?\036\257\252\277U}\366>L\323S\277\372\332\037\277\361\320\346\275\236\2321\276y\237\203?2\236\234\277\3131\205=\341\2020\276\347\240\312\276\203\030\210=GW@\300\274\005\356<C\263\302\2779\374\021?\216y\r>&Ru>\000\335X\276k`\303>\037m\355\276Q\3674?\377\326\022\276\2057\376>[\037\362\276b?\n\277#\206\242<\222\342\017\277\361\020\177\277\227\242\016\276\336\276\260>\274\314\207\276\316\r\337\276\377#\305\276N\245\267\275\316\001\"\276\006\323\225?\243\237\006\276\275R\305\276\374\024\354\275=>\204\277\300\216~\2753\364\245\275\253}`\276HiT>\301<N>Wm}=\207Q\231\276\32473\274\342?\316\276Z\304\232\276\307\354\224<\261\203\244>&d\306>\237\177f\276\232\350F>\363\030>>}t\336<\361\267\221<F\223E<\263\205\221\275j4\345=\315\2077\277\355\354\224>\215\351\251<u\246\014>\235>\316<\351\212\301\277\226\207\223>\014\021\324>\237\005\021\276@F!\276p\177\235>\003\263\242\274\233\0029\276\035\275\224>\345\263\275\277\227d\242=\251\240}=\264j\340\275z$\313>\222\341N>\244:\276>\3730\341\276\344\322\223\276P\303\203>\376\\y>\224|\265>\023\312\317=\003\310\033\277\035[^>\276\017\233>~\235\273>\032\354p?\240O\353\276\216kx\277G\372\202>\010\223\321\274D\341\323>\356\215\213\277\200\203\340>\2735&>s\212\">\243l/=\201-\334\275\221\316\300=H\326#?A\326_>\001\252\300\276\220\247\213>\342\373l\273,V\226<\363>\373\276<\357\365=\247\213\240\276\257\2722?R\245\021\277\231\205\354\276%\250\345>\301]\001?\356n\373\276c\334\272\274\314\363\270\274\334\230\324\276\355\010\024\277NJ{>\346\213\004\300;\nQ?\361Z}>K\273\277>\352\244\236\276\254\332W?\201%\001\276\234F\\\277P3d?\252k\356\276N\206&\2756\200\030\276\021\201\265<\360}(>P=0\300~\351\366>\351\0370\300\035p\320>\023\314\003\276\3727I>\036\277\202>E\220\314>R8\360\276T?\365>\010\312\230\2762E\231\276\r\313\355\276ZR\256\276c\256\231\276\007?\025=\004\340\201\277\251Y\216>\354X\304;\304\251\226\275t\023e;\\\211\377\276\212\336\355<k\357\335>y\366\326?\253\247\343\275\312\320\036\277\231\3658\276\223\305\002\277C\"\341>\334\341\357>\330\t\n\276^\017\275=yW\323\275\363\377\204>=\022\213\276X\312\277>\246@\302>\007\232\022\276\3059,>\035\036\354=L\277s>g\363\266\275\201\340\350=\023\330\225>I\031\213\274\270U\264;\236\346\246=\223\262\324= \334\203=\002|j\277\303\301\223=Lp\020\276\000\335\021>\306\375\n\276\304\355L\277Y6\314>\237\217z>\1779\006>y\001L\275\205\333\320=\231\016\266=\2553t>{j\025\2758\277\301>\264\333\231=\363\367\304>\023q\347\275g\007\266<\363xc\2748\021\030>a\t\t>\237\025k>\330)#>\206\354$\276\322\250\207>\022\t(\277.\234\275\277n<\007\276-\337\307=\260\2660=\364\016\211>>\027\217=\020Ig\277C\275\203>\2066\202\275\227~G>@\247\223\277\"\276`\276*`\321\275*\037[=\007\315\231=\030, \276r\351\007\276\021\361a<\267\027\302=d`\327\276\237\021\246\275\201\244\t\275\230\261\204=k\3524?\275dC=\023wy\276e\272E>\240\366\211\277\250\227\256\276*\260\225>\225*:>\006B\252<\227\373\014=\025\361\274<\322\177\315\277\220-e\274\2728\006\276|y\226\277i\365<>\300iR\300\225\033%\2761@Z\276I\350\005>\202\212\326= \276\377>:-L>i\224\244>\205\304R\276\004\370\177=V\375\241>\231\301\331>O\317H\300\344C\340:[?w\300\0058P>\237\217\353<\032=\334\276L\211\007>\302\3143\276\242\335\214\276\007!5>\235L\031\276*5\277\276>c\273\277e\215\036=\341\341\025\276\373\257\013\275\317I\222\277PkX>0\242,\276\316\255\215\275pR\"<\"\322\264\275\217b\314=\2373\250>\362\016\342=\214\000\022>\2462\216\273\330W\356\275y\364\330\277\327\317d;\361\334\344\275A4\032?q\002\005=\2415/=\2341\252\277\203\204\373=\230\332K\276a\3145\277\272\332\263\275:\215}?}\"\254\276\232\374\230>\372\232\002?0f1\274\2463\205>:\243\337=)3j>\246\215\227\275g\313\017\277\263\347\307=4\303\r\277W\346\261\276\360\264\254\275\030\311\237\276D\025 >(m\263\277*\030\241\276\216\273\353\276\3561\353\276\374i\017>P\274\212=i\222\202<\236\024\252<\353\033\316>\300\002:\277\303\353\247\276\276h\212\276\223\227D>f\214\314>\305M`\276^\374 \276\266a\005\277 \256\t\277\0317\333\273\026\367\004\274d\271>>\3425*=xs%>\333\225B?\356o\322\275u$7<\252\343Q=\007\222\007\277? \036?\227\007\033<\367*\203\276X+\226\275\273\255s\275\256\315\270\275\340\215\246>\322Uc=\220\241H\276\240]\242\277\317\371\206>\245\262\014\276\353\266Y\276\337\262\036?\035n\335=\241\374b?{\016\245\274\222X\373\276\2639X\275e\r\036\273lK`\276^\346;>v\373^\275mE\301>\336\025\205>\372S\013\275\023o\021\276J\357\344\275\374\306:\277\027\220\016>\007\321(>\027\226\320\277\277|Q\276\034\372\001\277\016F\303\276pS\355:eM\261\275\313/-\274-K\013\276\027*\373=q6\002\276@\\~>yQ\231=*\037\274>>\240.>\216A\262\275\305\0233\277\207o\'?\300\206\224\275\253\356\004=\226Ys\274\344n.\276\nk\247=B%8?\016.;\276\003\200%\276\007\032B?\016\227\215\277\357\020\017\277\250\347\272\275\203\303\020?1\3735\277\362\024\364>7\253\033=\ryK>?C\010\276\274\302W\276\255B\240\2767\005\261\276\3029\321\276\213\252\250<3\037\304\275\t~\262\2764]e\276\305H\025\300Lt\275>G\302\005\275\317~a>f\346\256>K\t\344<\357\247\236>IU#\275\003\004\354=\304\3061?a\261\265>\313\212p?\037\341U\275\372\306\365>O\262\203\276\247*\237\277`\311\240>I*4?o\267\n>\tL\370>\222K\326\276\375\346\344\277&t\334>\306\300\237\275#\370\241>\000Hg\277O\2530\300N\272\266>@L?\276\275\271\230>\336\025\004?\363fK\277r6\210>2\331\262\276\236\3311=D\276\023\277\377\211\274<-H~\276K\210\213<\365\265%\275\036:\n>\010;]>\264g\350>pi6\277B\267\021\276\361M1>nq.?\203\222\206\277v\332\031\2771\0162?\247!\246\277\344\032e\276y\001\017>\201\272v;\030K\031\276\275\207{\276S\250\345\276\263\350\005\276\233\260\032\277\250\037\226?e\267F<g\027\016?\031\034\365>0\265K\276)x\337\275Y-g>C\307\333\276\261cF?A\311Y\276I\'\017?e\2204?\331@\220\2779u\204\277\340w\356=Ji\331>\313\363\253>\350{\206\275\200;\241\276\303\273\322=\245\\\212>\310\272\016?\375\324\261\276T\036\253\277\2076\263?\261\372\243\276d\223\021\300~p_\277\3031\247\277\023\247<\277C1<>\247\303\366>\317\021\261>\367\301\324\275\014[1\277\235KQ\277Z\271\232>\300\354R\276W\247\263>\377\323&\277\330\220+\276\220\247\204>\342\275\t?\335\353\351\275r\001K>Ra\322>\247\327\342\275\210;7\277\202m\177?\021\017\316=\3257\316\276$\300\210>\026\253\021?\207\331\201\2766\021\002?q\322G>\206$\317\277\373\264U?(/\342=xa\025?\260`\027?\216\372\371\275v\354\343\276b\027=\277\217U\363\275\221\260F>\232\032\206\276q\'\245>\314\276s\277\360\262\343\275\315u\037>\t\247\027\277\301i\236\276\245wf>q\302-?\222\232\033\276h\025h>\033W\020? \247-\276\247\n/\277\336\340F\276\007\212F>\003\n\303\276\343\3023>\364\265\317>Z4\210\276Mo\356\273U\004\217\276\254\003\"\277q~\">\211\r\\\277\305\352\371>\r\367^\276\361\031.< (\313<\247L7>ZL\032>q]&\276l\253\016?\333\277&? f*>\235\310\320\275\235\025\315\275\254\023\3279\357\270y\277\351\220I\276\344S\022?\314\366\275\2748\367\243>\227\001\245\276Vo.\277\244\324\022?\302\241\210<\241\355\220>y\255\026\277Se\023\277\374i\321\273?\244%<,\341v\276\276{\017\276\324Aq\275+Fe\276\032\346\334\275t\235\230\277r\236\377>\304\260\223\276\005\271U\277f\264\"\300\243\000\353>\337\211\233>\240 \206>\201\222\223>\221s\357\275Li\032\276U\210$\276\355\332\241>\326\367\243\276#\002^\276r\020\231\276b\352\341\274\237\300C\277\223\334A=T\247\355>\231\276<\277+S\332\276\305[\266\277\204Mg=\3677\306\276\274kL\276 \206\221\277\344\332\251\274\332m\240\277\272\2152?S\377\201\276^\227\027\277!\013\271>\201:x>\310q\334\275\254\332\372\277d\303\007\276\207l\206>\253X\350\277\201\022\264<\261\256\001\277\314:\263\276\3201d\277^\352p\275\001\257\245\276:\025\355\277\302i\352=\220h\330\277\021\004\177\274\014\254.<A\201\310\276\237\370 >o\005\212>k\364\206<\347\341\347\275?+M?o\330\230\277\317R \300\023V\257>\345f\234>\205\0006=\"\223\340\277<x4=6\305\325\275\273\026A\276\212\252`=\301\267\202\276\315pa>m=\"?B\223\021?\237\"\274<\213Y\001\277\023\372`>\260\303\224\276\271\266\\>6\247\215\2766\376K\276>\322\026\275g\330\331=\206\256h\276\373\327B\276\374Z\251\275\347\350o\276\255\265\321\2759N\226<\371\226\265\276\234\350\321>\320\216\004>\352Y`>\321\300\255\276\215`\226\276\367\226N> \2645>\351\330^=C\255E\275T\301`\277\030\024\262>\372\273\256=?\177f<gU\266\274\233m\271\277\027/)\276\314O\367\275\370\256{=\221Xn>f\262\007?t;\231=\356\025@>\\O\013>&\217\313\276\264\023\304\275\031\276\310=~6\326\274\315\210\017?A/#>kY\014\277\'\003\017\276(\343\376>\223\371:\276\3636\342=\235\220n\277\330\250\034<b\300\224=i\345 \276f\013\007>3\362\264\276\231n1?\214\221\345\276\021\310\010\277\212\310$?&\252\265\276|\227y\273\376V\316\277&H\245>\255?\002\276\2311\203=2\232\213\275\306\004\215\276\211\221\032\276\247\370\303>\231*\244>\363_Z\277]\245\351<\270\356L>2.\337<\363\325\033\276-#!>\232\306\237\2760\211\362>Y\376f\275\240\325\312\276k\244\t>\300T7\276\033\330\003\277\177!\202\2763d\231\275I\244\220\277\335\3700\276u\232R>\240\251\222\277\325\347\370>\374\002\n=!\031\252>\024Z\227\276\030\226\213\275\230*\305\275?\\\031\277q\377\360>\263\267\005\277\002d\003<\036\0344\276;t\214\275\222\277o>vLG\300\034\351\023=8\346\034\300(C\201>\2737\207\275x#\342=DI\252>\244m\362=\256V\035\277\002A\226>\235\003\360\275\356\302\340\276\222\030\220\277T\336\000?2*\227\276\244\2449\276\034\025\335\277\000$\215>;\373j>i\2323=YH\257\276\022\271\275\276d\341\354>=\255I?\314\335\342?\325\257\210\275\201\254\030\277\247\000\003\276\241\352\255\277Y\033<?\216\265\021?\356Z\304>C0L<\350\236\"\277C/2\300\'e\206\276\213c\231>L\016\306\277\270\317\033>\025\304\305\276sD\367>M\3150\276\263\206\355=&\241\377>\013\216t>\323\356\234\274;\377\250>\325\262\320<\207\306\375\276l$.\275l\331\377\277F\221\341\277\034I\276\270c\000h<Pb/>\375\202.\300]\341\366\277\201\225\325<\035\010\035\277\017\345\336\276\341\313\033<\266X\261:\325\320a=Ik\t>\212\364\364\277 \316R>g\224\274\276\352m\313=\002\003\246>\316\331\304<\305=\303\275\302\220O<m\200\315\276\032\274R\276PJ\257<F\235\006>;\375\275\276\221\207F\277\016\352:>\272:&\276\364\3140?w\2758\300@N\210\277\212Hj\277\277PT\277\270\245N\277v\035\021?\026\226@\277\207w\211\275\301\351 >?\363\010\276\\\253\345\275\315K@>=\367\377=g\'~\275G<\223\276C\001\341\275\024\2219>\027\207\255\27508\273=\302\254\273\277\231,\372=\263\216v\277t\346\335\277\335\330\263>:4R\277Y\316\274\272S\374\256>\253\030?? n\010\276\341!D\276n\336\237\277|\225\226>\030|\345<\323\347;\300\224\365\255>\304\307\034\300\016\307\225>\373\177\217\277B]\001\277}\017\340=^\254\301\277W\2359?-\016\216\277\261tu>\020o\311=\213\016\267\276\323\221l\276\355z\320>\333o\367<\335\201\274\276\272\004\r=\347\016\322=M@\241=io\t>\312\023\274>;\010\365\276Le\216>R\216(\277\372\307\243>\230\324\240\276\255\356\303\277t\246#=\366{g\277w\262\007\300:~\261=4\230*=h\030\257=St\210\276\337\221E>\231#\353\277\300_`\276\376\323\222=:\214F\274w\341\225\276W+ \277B\351t\277\310V\234\275\354*L=\214Sv?\tr\254\276\352O1\276(\256\260\274\314\214\000?\341Ut\274c\201\222>\266Qq?#C\314=\223\017}?\340A\003\276\354\017T>\013\001u\276\316\246J\276\246\272\006?0m\032\276\320\222\256=]\300\252\276\307sS>\306C2\2776\007\245\277\204\231\002?\300\317r=\005\360$\277\204\220\272\277\201\356x\277\025\377M\276\226\363\350\276\335,\260\275Wb\"\276d\014\007?^_\344\276\261h%?aG\010\300\317\257\221>\270\177\252\276+s@\275\331\314\r\277{5\004?\2268%>\321\200\326\276=\367\317\277\242\\\241=e\300>=\032\341P>\204T\360\275\366\322\222\276\367S\267\275\027\364g\277\203\317\024@ \211\277\277\';\'?\332Zj\2773\020\320>/\232\227\276Kj\320\275\305(P\277\342\364l\277\037\377\242>\\bW?K\304\262\276sJg>\201\376\036?m\316\241?4\305\221>\027\033\354<\333\263\373\275\323\335\216\276\002\007\341\276y\256D\277j\333\266\276m\251\020\276m\367\203\277\262\277\361\276\"T \276\332\340s>o\034\031>\366#\342?}\204\261\276D\333\257<\240\210P\277m\t\030?\371\243E>t\207\331\277X\250[\276d\330\253\277K\335\270>\n)\026\276\225\223\230=\350;,\276rV\314\277\273w\244>8\263\\\277P\256;>7t!?^\311\340\275\376\035\233\2769\217\023\277\352U\371?ae1\277g^\n?\203\353\315\276\017\2123>\233r\265\276\323\240\023\275\262\342\325\274\032x\311>\255#%>\366M\225\275\365\310Q\276iJQ\277<\326\370<\rs\246>\2534\240\277\013`\360\276\0276>?\351K\021=\260\364_\276\226(\300>l\374%=\345\257\263\276\314\206$?\213\314\335>\322\321\206>\037-C\276|\360\316\276\220! >\360s\261=5y\214?\340Z\t>\231 \200\276J\206\203\277R\240!\276):G><\"T\277\025\360+\277z\357\370\276\225M\261>\354\223\227\276\315\305\215<\331\342\342=\353\334\250=\032\226\343\276y\267\201>\304\351\202\276\337Rz\277sKb<,\027\t\277q\252\346\276t\\\337=\352+u\275\024K)\275(\251\223\277\303\270\217\277\245\257\323>f\\\034<9\353p\276\212\355\024>Y\246\002?\321\300\242\276\300\311I>\352d\244\277\210L\037>\006\301\222\2761v\250\275\250\200\354>\224\321\213\276t\334D\277j[-\276\231\017\036\277\rs\212>\323\270\363\274\300\333\234\277\325\370\275\2739\260M>9\330\322\273.a\363>;\350$?\223\030\276\277\362\241\232\276vF?\275~.\305\275\220\325\221\276\225\331K\276E\255\036>\2109\220\2764\177\202\276\225\326E=\367\235\244\275\014\315\211>\375i\305\275j\327D?w\370\327<\347\250\347\275\360\334\357=s\024Y>\355\375\303>wt<\277\341X\023>\242\341\320\276 r\264\277\ta\255\276X\302s\276g\323N>\271\227\334>\274\005\004?\003\263\024\276\243\312f\275\200\372I>O\376\226\276\345\020\231\276?\263\223\277\0014-?\221\206\022\277\3601\031\275\213\021\222>\254\317\225\277c\317(>\331\352\021\277\235\005\240>\026\303D\277\025\0222=A\347\r>\333\307\\\276\036\234\336=\203\214-\277\205#\267>\350Z\315\276\365\372\304>\242k\233\275;\251|\276\271Y\264>\264A\314\275\334A\033\277\365;,>\177\033\240>B,\014\274W\334\234\277y\3779\277\246p\214\276\325P\013\277\317Xd\277\262\013s\276\376fT>\021\2603=!\033R\277p6\260\276`x\001?\301$\235\275\t\2312?:\032\252=Lg\306>\014l\231\276m\350$\276\325th>\023G\216\276\222\3119?z\373\215>\243\301K\277\272\224\335\277\260\007\262>\332\017\036\275#\331\325\277\346\352U\276;\222\r> \2027>\344(\332=4\240\325\275\360b \275j]y\276\345i,\2766d\034?\277\033\005\275\004\255\037\277\206\367d\276\363c\274\275A\036 \277\267\370\006=\016\374\027\276\346\250\250>\215\027V\2779\345\003\300\316\363\211\276\330|(\277\203\234i\276\333K\025>|\235\276>\324T1\275bdQ>j[\252\277\371\304\010>+eI\277\r)\034\277\251\363;?\033q#\276\377y2\277\253\272\234\276\343B\021\277\027\220\007\276{\342\346>\267\223\321\276\007\315K=As\237>^Me\276\355\007\314>\001LT?\277x(\277\337H\215\277\303\366\354\276-tf>]\020\334\276\357WZ>u\273\271>=\314\337\276A+k>\271\322/=\240e\027\2758\362\001>m\304\037>\226B\200?zNf\276B\346?\276\366\233B>aBG?\267^\372=\024\362r\277\004\267\300>b\355\\\277\256\372\\\275\315\" \275\024\232\323\275\033\032\267;\247YT>G\021O?\215a9\276\314\013^\276\231\3622\277\t\335\210=U\200^\275*6\355\277\314\n\221?\372\350\021\277\037\007\236>4\224\253\276#\340J\277\372Th=G\241M\277\316~\305>5]\300\276\313\266m<\271\363\031>\372\275\004\275\337\231k\276C\241%\300H\273@\275\0028\216\277\351q\034>\254V\206=`\037\212>\305\013\033\276\344P7\276w\240\315\277%,\236>\222\000\274>\314\253\220?\232\235\022\277b\325\225\276\032j5\276\231@F\276\277\246\005\277\004D\355\276\021\322\223>\321\327\217>\177\005\216\277\'\234\330\276x\247\256>\315\242\327\276LW\251?\2057\r\273\002\214\035=\210\242\357\276\251\244T\276\3012d>\367\034\306>\350\037\261\274\235\202\312\275\226\352f>\260\255)?\027\220\232\273m\346\345\276ie\213\275\001\345\320\276\217t\216\276m\256#=\224#\245\277\t\007\225=\315\343\334<>\221\350\276n\306\253\276\257\'\214\276&\204f>6\002\263\276\247\2220\276\234\336*\277b\255\177\2750\"\314>\036X\017\277{\201\300>\367\353y\277\236\216]\276\370\257/\277\364h\212>\325`s\275\350%V>D\014\025\300\277\307@>f\n\216\276Z[\200\277\347\253E\277\252V\016\277\\3\271\275\\\030s>[\360$\275\000<w\277\026)!>\341z\232\277x&\216\276\274\363\346\275\2623\016\300E0\021>\366K\302\276I\307\346\276)\241H=xz\340>\213\345u\277`\342\344\276\0200\363>\301J\373>\023|w\275e\237@>\021D\333\276\372\346\362\276\325\305%>|\020\272\275\'\301\256>}H\004\277\376\320\321\276.h\363>\367\231\223\275\263_R>\3630\357\275\204\003P?\337e\364=\3070\001\277(\317\333\275H\374\260>x<z\277\3448\177\276\315|O\276\336=\016\277\301\355a\276_c\262=-\233\333\276\021\020}\275\365\340\370=\242\362\354>\210\302\212\276\364\263\t\300\227d\225>\035\266\213\276\273\350\250>\345\312\032\275\246\2566?\363q\314\274\344\026\014\277\340e\233\274\367\200\230\276\223\016h\275\211\257\322\275Vv\375\274\020\370\304\274\375y\301\277\276\254U=B\231\365\276\202\035\006\277\274R)\276\r8\201\276uK\203\276\334\177\364>\026~\366>;:I\276#W\304\275b\371\216>\354\377\251=\332}.?\021\025\003?2s\205\273\271\376\020\277\325\376\027\277\223\032\365=\002\245\003?\035\203\\\277\243k\003>\312\205\354\275\366{/>o\006\021?\3321*\276\274e\331\276\304`d\275\204R#\277\255\274\363\277|H)\277\371J\254<\366\227\220\277tBb\275\024\005\261>\322\366\271\276\236\033\315>\237\306\350>M\337\362\276#\257\341\276\037\031\272=8\222Y\276R\271\253=\356F\205\276\344c@\276\336_\036\276[bt\276\220\177\311\275S\365\242\276yN\223\275\257@\034\277L1\001>\036\221V=\340l\246\275{v\013\275\262\377k\277\257\314\271\275\331\346}>\336m\202>d\242\302\275\313\351\031=\276O\005?B\205M\275v\036\252\275\254E\262\276|E\315\276\'X\215=b\336\177\275\n\366\026?rT$\2767\350R\277\215\311d\276\364\243+>\244\370&\275\200\322s\277H7\022\300N\321\025\276]B\213>\375\030\027\277\016\323\022\276\374?2<\271w\375\274\233J\374=\346\372\205\276\\\243\322\275\303`\214>\334\020?\277\315\302|\277\361Y\021?^{\222<\211\336\027?\266}g>\025\231 =\333\234\251\276]\224\304?\352\376\274=\020&\252\276\023G\351>\203IY=}\024\202\275\013\237\220\276\275u\227>W\303E\275\246\202t\276\325Fm>\342\311a\277\343\032h>\336\376\243<\256I^>\265t\203\275\000\367\355=5\035k>Gl3\276\300V.\276\337\272\021;\027\240\023?l\216\201>F\200w\276z\373R\276I\234\255;\371\177\363=5\356\204\277\r\204\204=\265\264*\277i\252\'>\300I1>\313\364d>c\224C\276\023\342\311\277\2660\210>d\243J\2776\342D\275*\374\026\276\027\014^\277\274\177\242=,\340\365>&Y\'\274\337\234W?\037f\000>\256\277\235\277\213\213\200\277f,\271>Q\262\274>N\364!>\300\264~\277@#\222=x\371\236>\250\307!>\254\245\014\2760\226r>\311\023W?Y\235\014?$\232\274?{\253\214\275\237\"\324\276\357\013\226\276JV\352\276F\333A?\251j[\276\326\371\270>\364\255\036\276\375\261\331<\204\215\235>\224\276^\300\353\347v<\227\377;\276u.\'>[\016\364>\322\320\035?}\204p\275\035D\016>E\311\021?\302P\217\275\350\220\367=#,\322=\331GK?|\034I>p\354\367?\273\217\026\300X\315\007?c\331)>\257\036\242>\275L#\275\272\362\311\277}d\212>j\375\007>\210\204\326>\254\t\351>Ct\200\276\201&Q\276jm\344>\002I\334>\215$\005\300>?\257>\212)\237\276\303\212l>\001gI\277K?\367>\013k\201>\321L\274;\023=\200>\273\034\250\276\377N\273=\3162N?\342\325\235\277O\210\313\277\002\357\343>\361F[\276L\223\246?)\225\363<]\312;\277y\334\277\277\321\246\025\300\3574\206\277\022D=??$\\\277\255\353\257=/O\212\276coX?\367OG=\267\234\347>\361\345w\276\274Lr?C\005\216?\010\2264>lD\311>\353R\264\276\037k\317>\221M\304\276\352\234\242>\t\223=\276\007)\022\275\242\261\322>\235\321\351\277Q5%=\355\025\002?_\364\347>\212\271\027?\257,\223\275su\030\300\315\2720\275\004}F=\367\342\214\277\030JE\275\353\235=\300o?\002?\n@\211\276\032!\037>1\240\333\276\247q\243\275\355\371\360>*\254\225\277\301-)>$g\306\277,\346\226\277vC\335=\035g\216>Q\273\301?\315\201\t\277l\226I\276\344Pc\276\340\210\242\275\034\314\273=\342\216I<no\235\274u\375\'?}\340\205\277\324\262m=\265\237}\276iz\370>\246/\022\276\347\267\220>)\241\242\277n\325\235>\177^\277>\033\245e\276f.\006\276\231\"\365\275\371q\'\300s\321\333>\022I\033\276t\363\311\274\266 \227\276\036\315;\276\215\350-\277\000j\000?z\035\223>\032G\031?\025,i\276\"d\005?\227\271\311\275\360\270\300\276c\334B\275\024\220\301=tf\335\273\307Co\275\320\241\271>\365\363\216>\226\r\034\276Q\363;>\n\270I>\375\276Q\273\326\256\272=\277\036i>\324\332)>\344c\271?\377\367\323\277?&\267<\375+\333=\230d\315>X\013\365=\336\272\212\277(\026L>,L\266>\266L\213>b\337\265?l\261d\276\231!p\276\"*\350\275\3229\021?\262\236y\277\370\254U>]43\277\n\220\307<%\266\003\277\207\276~?\320\240\023=\03599\276\247q\254\275\345\021\333=2\213F\276\253@\263\2769\227f\276R\265F\276\377\022\277>\212{\267\276z\235?@\364\\G?Ez\221\277\252>\333\276\246\345\311\277\240b\352\277\252\204\366>\367\242\007\277\0107E?oXd=A\350\267>\263%\350\275\220\322\233=t\216\204>\231nA?\360\327\337?\344\276l=pc\234>\023\2664?\252b\263=P\372;\276:\323\256>\234:\347\275e\177\342>\377\2166=C\270/\277\'\021\247\276\0279\r=\263\214G>\355\277\242\275\303\244\226\276\014Z\032\300\306\326\220>F\213x>\010\2122\277\351j\273\275uC\000\300\255\373\'=\220d\r\277\247\350\312>\211\235\000\276!\267\224\277\344\215\036?\005\232L\277\007\017\230>\033Q\013\300l\006F\276\006\275\313\276\026\026S\300\220v\273?v\030\265\277<\266\200>\200\300(\276\234\253\n\276u\221\316\275\302\367\340>\\3\311\276\215q\226>\302;g>\024ps=\000B\246\276\025:\345>c/R\276\217SR?\236\307\233\277\211<\343\276\307\307\000?\375>\255\275K\237)\276\377*~>\007W\010\300\221\036{={Oh?\200^1=\0306\233\277\252E\340>\001\346Q\277\013\275@\276\232\356\315\276\255\001\337\276\355\235q>\370G:\276\2744\326\275\264;\346\276\377\263\254\275h\314\033\277Z\250\217\275\177\335\261\276-\226\216\275\344g\271>\021W\232\276\013\n]>&\356\202\27666\237\276[xR>\331e\240\275\243~\343<\304EU\274\205\016\273\276&V\312>^\263\237\275h\331\336=]\315\222\275\2047\253\277\035ix\276\347!\000>\nM#\275X/\346=\261s\275>\273J\327\275\002l\322=\330.\240>\022sX\277\004XU\275\220<U>\320\226*>\365m\352>\003\347:>\312\330\001\277\345\375\021>U\006\222>\000\201\360;\366\221\001>\222\213\206\277[\244\023>\336\036\232=\267y\253\276\361b<\276\020\346\310\276U\242Y?\376M\003\277[<\022\277J \004?\201\350\220\276Y\023^=\317_\267\277\216\204\026?\222\036\352=\251\236\223>\233wQ\275X$2\276\353\203b>\226eZ?nS\013\276(3U\276&A\217\275\373Q\307>\031\334\336\275\206\324f\275|\205\326=\213\275\231\276\025!p?\374\224\333<\010\2113\2776\266\312>&\024\222\275Hr\364\276\251\272T\276iG%\276\236\0010\277\322\202\020\277\317\0321>\3356\241\277{Q\202?~\242\030?\037\212Z>,\336\251\276\373\017\021>\036\351\030\276,\351\224\277\322\000\376>\266GW\277\344\206\373\275\026\035\213\275/\304\200\275\234\370?>\255\330O\300z\225\307=\237\023\030\300f\246\212>\312N\'\276*I\333>\033)\246>\013L\177>+\313\022\277h\034\203?\342\275(>\371\037\353\276\244\347_\277\\\272\264>\334\3043\276*\267]>\215@\240\277\000\"\217>\250\233\276>\226u/\276+Xr=\206\0048\276\264=\213>d\236\227>\202\277\035@qMn\276\250Q\340\276\210e\264<\030\002{\277ze\'?\261\035\'?S\373\003?S\377\373\274\325\006\017>\251Lj=\221k\267\276J\301\203\276n\006H\276\220.\313\276MPX>)\265\255>A\014\031\276v\211\003?\324\352\027>\326.\216\275\204\356/=\230w\250>\217k\213\275a\223/\276\376(\363=\263\235\202\277\006\330\036?\006b\233>\366\231A>\271\312\256\275\3466\334\277\341\3279>\256\371t=#Ma\277\020\310X=B1t>\n.\355=1\234}\276\225\336\204??O\371\277+\367\243\276\323:K\276~y\000>\232\233\005?n\022\274\276@@\217>\022\370!\276\\;d>\353{Y\276\320\256a\273\271)6>\333(?\276\260|h\277\213v5>\306\315\023?K\345\217?\336\206\304>\273\023\025?\366O\036\277\247\t\266>\212L\351<\201#\275>O\232\\\277\253/\004?\241r\261\275f$V?T\231\315>\233\034}>\313\303\210>A\374l?\260?w>\331\203U\275\306\306y\276\267\235\226\276\325\030p>\030\334?\277\204\020\356\275|\177n\276\236\016\222>\234\355h\276o;\256\277\272\205!?\034\260\n?\367W\356\275\231`u>\326\024\267>\362\232\217\277\277\335\n\277s\223G>\307&\330\277\265/\247>bq\303\277\313Ev>\356\370\261\276m\215/>y\321H\276\032(\243\277\t\217\032?>9\360\276\024\233\314\2757\033\330\275\301\371\364=-\226\265>Rr\231\277V\225\030?\300x}\277\272X\003?\360\033)\276\242\250\374\2748h\n=\337\306\234\275b\236\r\277\003\032\261>?\234\032\276\347[\245\276\340\244\334\276n\242\020\277\255\005q\276\201\006\357>\277\324\312\277}e\225<+\376[\275\217\013\007\275\320Dd>\215\301\337\274\245+\352=eHZ?\021\264\243?\256\354?>\013\260\017\277DV\203\276\n\267\234\277\351\232\362>n\003\360>BL\355\276\356\355\201\273%\263i\276\035sU\275W~S?;\345\225>0\253\006?4O\313\276Zd!\276\311\312\327\276\340&Z>\322\032q=\371\362\356>\274G\324>s\223i>2+&\277\304X!\277\007\236@>\226\372\213\276\013\026Z?3G3>l~&\276\201\340\222\276?/s\276!\n\213@\nOI\275c\201\250\276S\264\321>Pe\305\276\220\223\324\275\251\346\030\300o\206\324\276\010\002#\277\374\021H\300\220q\306>M\"\275?\200\200Q\276\235%b\276\233\036\007\277\263\316t=\3718\342=hD\221>\376-\001?\203\3474\276\203\237\363=xfk=\225\274z\276J4}>\323\332\013\277_\375\037\277\327t%\277y_5?\0006\326\277\333\306\251?\006\313\303\277\227\234\016\275@{\n?\007e6\277c\341\320\275\370\327\214\276\251\2151>\2140\272=\202\365\304\276N\016\026\277\335\322?\277\350\0323>\252\t\005\277c\3116\276l\214\261\276\234\230\311\277\010\345\005\2763\n(>\244\274\355\276\337\332\274\275\206\r\223\277\2743M\277\355\362\312=d\370O\277\'\335\037?L\246<>\035\250\r\300E\326\207?\030\260\254\276\353\205\001@ \335\240\277\013\200$@\254V\221\276\3466\227\277\356\321\236\275\2650\006>\000\245\301?]\334\353\276\363\322\242\277\202}\233\274I\034\205?\234+a=\201\207\221<\314J4\276\303\223\302\276cdT\277\362\264$\276\004\261\300>>\025\226\276?\224+\275\230\227\006=3\205i>6\363\321\277\003\324\034?\305\231\021\276\230I\037\277<\374\004\277}O\254>]\320\020\275\305\325\027@\240\375\020\276@2\352\276\022\310|<\345!\254>\231j\263=\376Vt?\250\340\023\277>pY\277\245q8\276ms\024\277\227\010\312>\3125\265?\362\255;\277\373~O\277\032\270\315\276{\251\\>h\177\301\273\271\010\262\277\033t\235<\313\355\035>\022g\224>\342\202\276>B#M\275\223\304n\276\201\345\177>\241\241\253\275&[\304<\302\253\223=Z\304\237\2763\217 ?\272\302\203\274\0035\252\275[\213\351=ONs\275?+p>\013\211\350=~\226\340\2741`\212>\'\353\303\277\234\255\305\277\227*\375=\3668\327\276d\236\357=\220n\001>\356\321\027>7v@>\306\t\330\275\246\323\255\277k\242\323=#\2651\277]\006\005>H\017\363>[\3275\275\206\245\335\276Xt\373>\014\375\t?>4<\277QF1\276\000\220\255\277R5\027?\304h\215\2779s\204\277|7\205>\336\342\305\2764\311\334\276\212\211\n=\267\270\263\277uX\246\276Ev\266\276B\177<=\372JB\276\211\232\014>\032\324\375\275d\241u\276e\035\217=\335\275\202=S\305\326=p+\347=\177L\263>\307\312a\275a|\010\276\374;\360\2750i\032\271\256\007\t>\307n\231\274CG\211=\271\005\257\277\021\252z\277Z{\206\277\355z\312>$j\240=\303\271\276\274;l\252<\336\021J\275\355\010\354\276\320r2\275Q\025\">\363_\007\300$\342\316>\014l\313\277\262$\224>\374\356\204\277\373\t\217=\243\t\331\274?\000\205>W\232\236\274\242\314\244\275k\306\207=A\355\030>\257\034\273\276B<B=U=]\277\307\324\315\276!\333_\277$\221\352=\035K\321\275\366\357|\274[\345\250>2\305\376=\r\352\n\277L\005B>~\345_\277\230\024P\275+?\'\300\013Q<\277\261\010\">\016\213\300\276\263\304\031\300Kf\227\276)\257\223<>\273\023\276K6@\300\312\232\010?\203\354\035>j8\257\273\313Hg>\256\307\003\276\"\250\341\273q\201\315\276H\217v\277*0\336>V\363E>w\373\030\2766\t[>\221>(\277\346\372\255\2769\320\235=T\245\227\276r\270\306\276\236\315\231>/&\033?p\274&?\304\023\336>\031\225<\277j:\033\277\270\265\310\277\316W\230\276@,\227>\014/\322=\2723\t=%\222:\2768\223\207>\231\242|\276\326{\032\276\334>\250>\263\303\230\275\313u\371\277\037s\240\276`\335\202\277\203_j\275\245\177L>{\030\362\276\300/\353\275\032\215\352\275s;\273\275\251$\t\277\322\010\272=\337D\314\277\302AT>_\013\246>\366t.<u\241M=\202\356j\277\004\005\203\275G&\202\276\277\226(>\230z\324>^Yz=\271\356l>\346\r\027\277\350\337`\276\343\036\020\277\005\242\014>\264\277\230\276\261.\250>\363J\270\276\004\234Q\277\177j\275\276N\013\344\277\221\270}?\377o\307>\323\246\216\276\374\350\016\277\236\364,\277\210\017\215=N\214i\274\013W^\277Y1\231\276_t\350<y\214\242>\030,\342\276h={\276\2176\275\274\r\351N\277\240&,>T\250U\276\006\242\210\2755P\004\277R\227\312\273o\243\336\275\23499\274\343\251\270\275\300\246K\275\016\225W\274\023j`=\311\263\026\277\227S\346\276\321\254\331\275P{J\274\007\0136\275\010\006H>F\243#\276*\2333>\214\236\267\276\257q\"\277\34710>dR\213=\227x\002\2753,\221\276\035\361\030\300Q^\302\276\010\235\200\274\030\246\255>_\347?\275}\240\362>\005\224\345>\316\356W\275\312\353j>@\020\035\276\333\371\023\276\257\356\231?Fh\224>&I\211\276&\2120=\037\246\321\276\354\226\272\277\340\036\312>\200\271\373=\350_\262\276[\031\"?\212s\004\277\023\234}\276Bj]\277M;\203?lt\245\275=\362S\276\336\364(\276\217\270f\277\250\242\003\275\244\004\303>\025\262\342>\350!\025\2779tZ\275\3120\264\276\315~\345<S\034\306=G>\276\275e\242\001=)\300\016\276l\367w=\315\264\313\276\273L\244\275J\374\310=E\357\206>\301\335\330=\016\324y>\255\t\202>\316\276i\276\227\\\314\275\006\354\370\276\240\333y>O(\372\275\024k\'>\366-}\276\341\335\251\277\233\336\013?\244a\224\274)\000\004>\303\312\243=\243\364Q\275>\356\341\276b\305\007\277\354f\373\275t\207A\276\031l\356\274\256@\200\276mG\007\276\254\346\374\276\022\235\343\274\267q\323\276\233td>L\301\211>\335xV>\262r\007\276\240-\202>\207-\231\2776\334\346\276\007\362\034>M8\022>&\303\267\275\3756\030\277UF\021\276\024\001y\275\272\022<?\006\205\006\277T\305a\2764H&\277\0244Q\276\355\336\035\276@\302\264=t\016j> \002\344>\300\325l<\26339\276E\327\362\274\250}\365>:v\260\275\367o\244;M\244\324>}\263\357>>.\270\273\206\365v\275]\321\242\27506\225\277\316q\372>\327E\242\276\217\262V=Q&]\275\263\271\215>2%o>\367\351{\277t\246\206>\375\360\235\275\367\363s\2777Kc\276v\303\000\300Q=\274\275\220F\223>78c\275\354\323a=\362r\351>;\361\362</hO=\262\375\257\274y\340\214\275vE\323\275\272\351\255=\365\243\347\275!V\316\274\323\005T\276q\303\306\276\220\211+>i`-\277]\271\026\277\207\313\031\276~\341\006>a9S\276\237\373\373>\2505u>,fa\276\035RE\276@\341\245>\304\324)>|r\"\300P\326\202\276+\334$\276\024\351\232\274\334\337\331>\372\260\006\277F\342\253>\362\220\213<\327\\\001\276\\S\t>\031\000E=\366C\003>\022?\275\277bz\n\277\002\323o\277\ne\327?\367I\302=\211\351\206>x\373\326\276o\334\367\276\354+^\275;\364\355\275@\273\272>\345\334\007\276YT\277>\005\001S\277\265\014\360\276c&\226\275Z\257m\276:\322J>\264Gu=\205\027\312\276\365\035f\276\271\016\252<\363\265\363\276\035b\016?w\267~\273\255\306!\276\313I`\277^\034\222\277\017I\376>\273\022\202\276\037@A>\355\"\363\275D\225\322\2764J\257=x\314\325\276\324\007\236>\017hW\277_\274\203\277\32603\276\321\344\366>W\325}\276\215RQ\275\350c.>\3642\017\277\035\355e>\206\264:=\334@\342>X\345\034<D\310$\277m:D>\261\241\006?r\2168=V\007\221>\350\261\221>\240\231p=\370\253\224>\363\300\200\275V\347\017\277#\265\304\276\305\211\031\277\233\226\240=\3370c>\211\335f?)\013\245\275\033O\311\276\275\363-?\001\237]=\3713 >\303\252<?\276\227z=\310\250\250\275\3363*>\010\204\017;p\200\236\276\354@\235<y\352\323>/P\352\274V\017\373>\240zV\277\363~\001>v\346\\\276\302\313\322=\002^\355\275\310\211\r\277\270=\367>\211\023\337\276\370gI\277Q\272%?\362\"N\277.t\215\276\305\310#?\211?A>\202T\210=P\206\n\277\352oH>`\314\313\276\004\315c>\027\177\205\275\0371\256=\034i\257\275\350\222G\276\006j\227=\177\346b\276=\227\006\277\245\014 \276=\326f=\303\347\014\300b\241F\276\321g3?^\013\352\276.\340+\276\242\344c?\233+,>O\262\210\275\234\034\203>`_\333>\'\240\306\277\034XQ=c\242&>\223\346\302\275\240\224T>\265\247\355\276\301\201/?\232F\003\276\364tQ>\007)=\2756\211,?]\227X>\030\255\344\276#n\301\277~G\373<\366\205p>\353\361\232\277.\331\313\274}\336E=\245\263\353\277\320\234\n>\004\002\261>\203\244\255\276V\007W\275\017\374\205=$\335\001>\003\022\267>8\031\031?B]\033>\243\376\203\276a\374]\276\316\304/\276\317\025n=\013O\024>\206\241\026\277\355@\235>\250\'\230>\221\241\202=\266^\371=\014\004\363\277)\274\231\276\302\2420>\374\364I\277\267\325\205=\261\212I\273\200\322\010?\244\247d\275\337\353s>\346/L\277(\335\230\276\000\027\214=m\266E=\013\002\353>\315\006]\276=L\026\277\316v*=\001\227\225\276\320\373\271\276\354\250\035\277\364{\177\275\224\223\302=\222\262\220\277h^\266>\350\313\360>\271\367\376=\317T\026?:\346\353>?{\002\276\202\244\273>\337\236\255>-n\212>\373\232\233\277\255\274z>\261\262<\276\"\240\222>\252\270S\276>\344\026>/T\355=\201(A?\347\352Q>\244\212\354\276W\300\216>t\2059\276R\020i\276\334\002\240\276q\033\035>n:\'\276\221\200[>8`\007\276\213tb\276\206\"\336>\242[\247>\345\256!\276\346O\362>\243\275\240>B\004\261\272\1775K\276o^\332\2764\211\233\277\023(\235>,\214z>Z\262\213>E\\\223=\242x\257\276\000\254\330=\037\204\255\277\313\274\360\274\314|r\2766j\335=\233Ow=z\327\275=Z\232v=\315Mo\277\365{\335=\365\310\001\277\370\311\263>`f\256=\010\231\000\277\342\312\232>\t\203\324<\336c-\277\316\347\'?\320\255\336\275\214\371\267\277\363\343\035\277\250\303\344=\271l\031>\340\n\351=\363\377\374\277\312\234\001\277C\374\337>\255s0>\026\326!\276\325\373\235\276\023\036\230>f\311\032?#\373\271?\234\232[>$\201h\276\304z\232\276\271C\344\276\355io?H\262\243?\370\235Z\276\343>\364>=\204\007\276\013\276\n\277\033\032\341\275%%3>\033\356\343\2740=\020=\253f\023=<UT\275\204v\316=\275\2436=\267\305N>\361cl>\271fH=%\331\t?\310\034Y>B\315H\275\321\013->\271\256\214\276\373\351\274\276\213\036:\275s=\227>\005\314\251>TlV?\261\374F\276\343\310\221\275\263\373X>_U\356;\240w\203\274,\327\315=)$\201\274:\312\324\275\002\022\224\275\024\243>>]\326@>!\3141>\242\334\204>\305.\264\275p\266q\276qx\017>\226\325\374>\353\0301\277\277ZM\275@\235\355\275s\306,>Bw\204\277(\r\007>\354\350\202>Pv3<\271\334\260\276\262j5\274\334*\341\277\034\037\014\277B\361\371\276S\351\345=\272\032\262?;?\232<\306\343\021>\325`_\276k|h=\0073\310\273\271\010X<iy8>\263\354\001=\034]\373\275O<\224=c\230\273=\360\016\241>\213L\335>\2358\027>;40\277\017\310\243\277o\261\271\276\346\t\275\275\251\3733>_\036q=\004LV\275\027^\303\275\362!\355=;\000\240\277\006\205I\275\373\030\021>\334\363U>j\266I>\354\367\214\300\243\366C>\223\330\341\277\027\313\325\275jH\002\276\210(,?\322\003\331=\373#\214>\374\020\003\276L,E>\373|\346\275\024\002F<Pt\005\300\247_\311\275#}4\300SU\312>a\272\023\275\037\325\304\275\275\222\336>\025\013A<O=\272\2767\225\237\274\345\022\034\277\207\210\034\276\241\252>\3002S\200\277V\252*\273I\001\025\276\372\274\207?\267\243Y\273\2148\250\274At\371:\353\315\250\277\3536\335>h\202\253>\211:\256=\376\256\271>\265X\266\275\353\016v=\366\262<>\265\021\317>\340\3305>U}<=\314\240L\276\216\354\271>^\237\301>x\207/\276Akd>\226zp\276\230\202g\276\027a\335\2744z\016?gd\274=\n\036\241>\035w\335\274.\204\273=\345\t4>\034\202\035>u\243\000>\261\315\032>\254\360\n<\354\257\212\275*Y\306\276Z|\026>\227\3670\276\025\300+>\220\372\302\276=\255y\277T{\366>\225\017\301\276\316{0?\032\032 =\253\363p\275@\254\230>\025|.\276\270DW>v\344\010\277\305^\317\274\324/\221\276\017k\216\275+G(?\020MG>rK\276>\245\023\206\276\214\251\n\277\027\025\265=\270$\264\276v\236>>\322q.\276dF\326=\204j\346>\003)\022?\312\274a\276\370\250\217?o\335=\277\351\005\244=\305\006c\277\003\370M\277)\351}>\3427 \277{fT?\221\343`>N\250L\276\214\225\177\275N\231\201\2774{%>UA\207\276\2229\301\275\314\361\346\275\271@\024=\267\261\017>^0>\276=H\240<~\271b>\262\0073\275\013\3752?r\353*>\220\272?>\3172\372>\r\347\257=\004\335\266\276\002GN\274\272t+\276T\\\236\276\272h\024>\222\233\257>(J\335\277At\317\275.\201y>\300E\326<\276}\230>\353\035$\276\252\250e\276\"\037$>\324 E>\004\330M=P\245\241<\351D^\275\240\306\223>\244N4>\375\363,\3002\322\177\276vW\201\277\203r\221=\360\316\036>>\257\177>\245D\311>:L\036?\327\033\325>a\236\242\276\300\273)\277\247\245<>\007y\344\276\214\313\003=\204X8\275\314\360\017?\203p\200\277Ym\342=\226\341x>\021\221\'\276\262\371\374\275\304\305\r\276\247`\375<\001>\217\272U\244\234<\221\210\274\276\232p\316\276\023\235\336\275\340YZ\276\312\343\305\276\2202j>\3418\026\276^\344\372<\244\252;?n\'\275\276Gb\275\275\024_\273\276\350|M\275Z\223\t\276/\177\001>\004\2075?\024\376j>\235\353U\276\3306i>\255\311\217>\331eH>\344\316 \276zd\220\274\264\257\221\275p\354\225?\270\022-\277\354\007/>&F\356=\223= >\341\363B>\261T\222\277\000\273\345\273\217\267Q>\261\377\222>\231\3039?]\244\327\275e\025\230\276\277\311m\276%\350\220>\0373\332\277f\230\266\275B\020}\276\205A-=\355\r\276\276\340\326\216?\366\372A>\347\325&\2756q}\277\363T\013>\250\0169\276\310\262!\275\036\000\204\276\263o\275\275\256\240\003?\004\001\230\276WG\036@\350w\006?\201h \277:\320s\277\275]\262\277\361<p\2776\n\205>@W\210\277\216\331\341>\220=\177\276c7\265>T\000\325=\354\t\314>T\215\225=|=\216>\222\001\242?:l\r>H\277\267>\212|\003>\372\314\226\276\330\277\242\276:}2>|\352\226\275\322V\317>\332\316*\276(\235\232\277,\352\244\275G\254d>g\027\203\274\245f\321=\353\350^\276\340J7\277\307\355F>\313F\335>\341\365\006\277\320\375\310\275\2568\022\276\227p2>1\300\340\276*\026\343>\301\334\317\276\350x\224\277\311\342G>E\3457\277\353\366\234>d\274\030\300\365e\224\276\234\'\241\276\010\013\212\300\307g\362?\326p\025\300\317\212\320=\246~\214\275U\361%>|s\322=\037\322W>c.\303\276\r\344#?V\305\036>l\364R\276w5\253=\333k\264>\334_\341\275B\262#?\017\200\023\277=\262\222\276\322P\375>edG\275\017o[=\232\037\315\276j-\324\277\221\t\217=\213:q?\230^6\276\177\345\272\277;-p>f]\276\276b\340\027>\345\306\014\276\212DT\275\r\300t\277c\025\321\275\177U\177\274\361\004\210\276\271\252\035?\351\032\027\274\257\213\207=v\375.>87\266=KZ\261>l\325\301\275\326\351\256=-\211\267>\222\305\217>\203\037\002\277,\203\221\276\261\264\355=\322\220\207>\327\217\"\277f\226\007=\344\334\327\272\233\0362<\214l\320\275\256\371\001\300\203\004\242>l\202@>\307\221\203=\013\277\303=\020\257\242\273M\267\271>Z\367\271=\254\000\021\276\207\211\006?`\007\311\275qDh\276\\\020\213\276u\347\251=\274\361\244=\237\362\246=\003\363\262\276w~\203>/O\366\274\346g\272\276\3257\t>\363J\301\276|Y\330\276o\264\350\274\337\307\352>\210\021\311>|\225_\273\020\310$\276\332+\210\277\316\344\024\276\013Q\235\276\2604\307\274dd(\300<2\271>2Q\003>\321\370\217\276\021\210`>\223R\324>\037\255\024=\277+\224>B\3620>\216\356\273\276\233\216[>\362\240\261\276\251\215\263=?\250,?HX\027>\303\031\307\275^\037\025?:\225\241\276\006\202\341\276\350GI>\246M.\276\033\242\246\275\343\310\233\275\311\370$>\227r\342\277q\273\243>\373\366\321\276\261s&\276hX\017?M\245\233\277\005\005s=\314\021\260\275\213\267\253\276?\352\225\275[\366\034>@\364\024?\0145\242>\262_\234\273\262\262)\2751m&>\007\3762>\324\332\256\3007,\211\276\2671\212\300\025\246\356\275\356\014\266=\355\'i\276DL\213\276\265}\230>\243\320\340\276\327\304\240=a\200N\275\354\354\030\277\372\345\230\277\247\037\227>C\005\030\275\336\363H>\35464\300\342\327\357>A)\207>|\320&\276]\257\364>|\371\026>8\232\337=\356\207\253>)\361H?\021\016\324=W4\311\276\3710A?\326`\373\277\226\316\332>2|+\277\3450\002?V\351\331\276K\317\265\276w\275\234\277!O\321=\227\206\334\276\010ZM\274\021?\313\276u98=\347\023@?W\303\330\276\373\013\030\277S\370\'>\347\0057>\0206\302=F\026\010\2759\374\016\277\'U7\277\022\202\235>l\2435\276\334:\213\277i\032\330>-\201\327\276`\246\032?\217\033\230\277\035\345\207\277\206\370\241\274\3009^>[\307n\276\252\216\326\276\254\377\023\275\036\313\364>zU\013=`\340\277\277Fs\241\276\306\352\206>\3130O\276\031\256\365=\177Ch?\033\260\337<\327\336\262\276\206\353\301\277\322\223\372>F\354\331\275\231._\276\322c\275>\243s\326>\3643\342=\"\374\026\277\235\365\016@}\371I\274~\337\327>\206V\216\277\314\026j>\3522\234>\257\0310>\337{\236\277\006\250\003\277\235~\214>\025\367??\202\233\343\276\345\003G??\010X?{\242\003?/RP\276\213n\302\2756d\213? T\320=DP\366=sUv\2773\300\246>/\340\000=\353qA\277\245\325\033\276\014\317\006\277\300 \217\276s:\374\274`s\372?\256\343?\277*\255\240\275\330u\372=\320\026\261?\255\310\007>q+\246\276\216\371\216\276\025\003\321>\230+\"\276\014-\257\276\315r(\277KQI\275\323\371\354\277\t\030P?\256\002B\277\217\000\330>_\366?\277\371]\n\276\342H?\277\374\360\222\277+4\317?uD==k\357\351=3\362\244>\272x\220\276m8\266>\300\261\210>\343\377\212\277J0@\276\316\376\335>\231\035\302>\"\315\255=\226\331\320\276\027\356n<\371y?\277\231\235\240\277&6\273>\335Nq?\367\312\275\274s\370h\276\223\275\014\2760\241\034\277\232\'\245\276\005h\036?\216#\316=\221*/\277m*6={\376w<\360\377\246>\233\214\'\276\013Wn>z\263\026>PcE\276\372\177\266=\'G\"\276\307\360\n\300\222A\277>sbW\276\037\037e>\262\365\374=ad\267>\010\221\265\275h\317p\276{\370\213\277\017;\262>*\221\213\276x\355\341\276\313\303\250\277X\001\350\276\217\216\354\276)%q\275z\031\315\276\321\270\222\276\035\271\214=A\236\204\277\030\220\253\277\245AG\277\240\313\317\276l\322\376=_J\t\276\000\247F\277^\034R\27682M?\0319\206\277Q\272H\2761OZ\276\377,\235>\244\247%=Zp\253>\2554\316;\021xN\277\251\331\026\300e\016\316>Z\036\016?\364M9\2772\000O>Wv\304>\357\224\310\274\314\232:\277:i\252?z.\014?YY\013?\210\005\215\276\262\016T?\177\224B>\034\360\031\277\354X\030\277\225\302\217\277\020\237\223>\007/\027>\372\214\234\276\206\347\006\276\327\233A?Bs\244\276\372N\356\2769\303\356>\254\020\246>\357\034Q?\354(\251<\237\343\010\277\351N\014\277\r\240\320\276%\255\005\277^\313\205\276y\341\251\276\371\024/\275\\\261\317\276\273\026M?(j\252\277$\232^\276\301\013\363\274= \257>O\337\016;\n\304!\277\264\\e\277i,\345>\346o\023\276|A\001\2779h\332\276\240\263\313=q\032\273\277\355\346H\275\243\000\343\276\256\360W\276\006-\203\277\242H\301\276E\277\316<9\310\345\276\264,\360>5\306\275>\031%H>|\301\001\276\212\030\356>\030U\331\275c#\335>\277\177\017\275J[j\276\200f\271>\327>\265?^2\244\275U\003|=b\t\212\276\265\336\302\272K\037\035\277\300\277Z>N\177b\276U\350\267\275\244\317L\274\320\370\276\276E<\020\276u\000 \277\374T\220?\270;)\275\'I]?%tz\275C\256\013\276_:\266\277\336\272\036?o\241\034?>-7>\257\007\277<\246\215\362\276a&\275\275Q\034\321\277[n\361>\221\026\301\276\316x\306\276\333r\354>\036q\276>\376\250%\276\\d\224\274\3200\251\276\233\rO\277v\335\237<\336\215T\2753\217\030\300\367_\n\277\264\327\023\2765\261k>\261\322\350=C\353o\277\274\003\t?\223U\033\277\325G\316\277\362\203J\276\205Z0\276H\215\233\276\301G3\277\254\\\t\277\373\230\030\276\254\355\225>#i\311\277\025G\353<\003\211;>6\210A\275\242\304\002=\024Zs>IQ$\277 Y&\277Q\031 \3003h4?\021\036\037?\251-\221\277\'!\014>\350\252\333>\"\200\316=\244\006\226\276E\301\000@\300\'b>\373\330m?\207~\020\277h\365\325>\t[\253>\033X~\277c\236\264\276\322/m\277-@\023\274zo7>\366=T\277\244\327\035\277\307\006\303?\227-G?\337\323\036\277\256\341t\276\316\351\032?\212(z?F\206\\\277x\343\253\276\2554\032\277\002\304\007\277[l\371\274\247\270\317\275\031)4\277\340\201\024>=\234\032\276C\215<?\215~\353\277\370W+\277\327\336T>\037\001N?\021\306\304>u\352y\276J\353\241\275R\215l>\013q\201\276\\X\002\277/G\250\276\322e\t=f\"\215\277\305\272\351=w\025`\277\340\375*>\016}\207\277)\033-;\270\005\n\277\240\000\221\277\242\360\267>-B?>\374!\300=\275|F\277\\\310$=\203y\323\275!{\267> \235\350\276\364`\373\275\353]\013?\334c\215?\252\261\214\276\243\244\263\276\371 i\277\2378\027\277b\006\036\277%\270\023>5\307\327\276+\213\261>\263 o\277\225\247\207\276\212\261*>%\331\212\276[(_?\t\340\226\276\327\023\321\275Z[\213\276\341\263,>\332\332\352\276t\261\007=\313\220<\277\n\212\204\276\214\355\304\276\037\247:>\350.\303\275\311\013W\276\030\321\003>\234\2405>\216\321\r>ZH\225=\003YP=*&z>\323\244$\277\276\261\223\276\222\263\310>\2516\350\276N\356y\276\014\n\251\2757]\\\275R\313\342?\205+\275>\207\034]\277\275h\351\275\263s\361=\355\017&@\227\r\021<\251\177\277>Nx->\337\316k\277N!\200\276\032\222K\300\337I\237>\306\036\210=\363\210\010?YL\332\275g\265\217\276s\243\326\2759D\251>b\343S>E#\373\277\00058\277\376\272\222>\270S_=k\330\022\276\374\365\200\277@\2735\275\271\213\354>N\306\333\2773\017\r>\244\220\210>$\005\301>V\322\004>+\032\271\276\371I\r\277\323 \275\277\346d7\275\307\354\'\276\357[\366\277m\215\307>\373w(\274\205\000\241>\232#\365\277\375\355(>\026P\315>\3551\207>G\3245\275_)L=\233\362\345\276\013$\017\277G\341\332>w-;>\017\262\361\276R\307)?\342\242!\276\376,\345\275\265-|?2e\006\277qR(<\'\\\305\274\272\374\302;\007N{\277\213\263\014?\026\320\242\276\231\267\362>Q\246\233\277\351\321\375\276\367\353\233=\366by>\277ne=\026\216\360=\315\326\022>Q<R\275\260c\367=\225+<>k3\215=i\252\300=\245\231\334=k\221.\300hk\365<\025W\036\277~\034\261\2758\365@=\235\247\365\275z\322!\277\256\374k>\334\3414?f\335\240\276W \314>\267-\203\276\236z\t\277\351\211#\276\005\010R\276g\333\330\276\256\017\245?\212\237E=\315\000\240=\tp\342=\345B\301\276s\357\214>\331\213\303;\261\230X\277\355\312\024\277\333I\313\274`\031\255=\344l\354>\342AC?X\334\024\300\010e\033\277\004QO\276t\302\214\277\003Qx?8x\026?\223\346\013\275\310\256\010<\347\377\257\276\216\027t>\232/E\276\236\315l>\033C\360>\222E\022\277O\247\337=\365Or\276\350\336\245\276O%\237\275\312\322$>t\230K\277d\037\'@DyU\277B\001\244\276\310PX>\250\325&>\321\304\237\275\335\"\257\276\230\363\r\276p\305\201\276|:\326\274\010\300\324?(i\301\275\2439\014>\267\243b>\322U\253>!\2114\277\022\220N=\221D\213\275M\224\212=\3240\355>\036!v=\320\371\263\277\326)3>,R@\276\313\263\036>Hi\262\276-L\027\277\326N\225\276ld\313>Op\342\276\264\250\307\274\377\265\022@\374\344y>e\241k\277\0264\243\277\022^m\277\214gY\277\021gL\275K+\206\277\237k\214?\315\013\005\276pz7?N\275\225=\304\0250< ]\266\274\374\334\206?\351\232\363?\366\017\006?\212\n\256=C\333\231>\013l}>\304\022\246\276\356`m>\006\267\030=#q\235\276\327\337\323>K\025\322\277\202S\255=.\307\007\277\376g\233<S\256\275\276\226cS>L\311\323\277\316\337\314?e\304\306\276\360\3063\277\313\267z\277U\306Z\277Y\277\005\277\224}\372\276\3358W\276\\}\356<\332\376E\277\007\347;>\237x\266\277\313\373\317\276T\023\367\276\262\200W>\206xg>\342\336\177\276\306\236V\275\024_\006>|\300\310\276\256\366\204>\327\212\014\273\'w\000\275\342\325,?q\327\253>@\345&\276\201L\370\274\204>9\277jC\236\277\355\2659?\242CA=]\210\304>\303QD\2772\223\373>z\267\002?\355\226y\276\375\307\360\274\254\257\326\276\237\270\010\300\275f\371>\260\365\311\276h\275z>s\273\306\275\247<\021?\361\211\254\2766\350:=\251\243\317\276\321\203g>1\300\036?\355\221$?Q\220\225?O\233,?\315\364\001\2764\370\354\276\371*R?\207\253<\274J\211B?u\006\021>\224h2?\354\203\254\276|d?\277\261!\253>\323\314u\275\3044C?t\372@?\362\006\277=\337\353\371\276\r*g\276\302\320<?\223(z>X\314\366\277\356\336\217\277\020+\033\277 \372\322\276\274\262}\276\016-\020\274+\032m\276\242a\316>\205\332\t\275\364\n\020?\373\226\372\277.\320\010\277c\025\356\2772:?\276\344V&\277a\357\256>\337c\303=\004D\252>\321\t\361\277IL\311\275\323T\376>\357qf?P\330[\2772\244\205\276\216\323X\277\222\322\324\276ft\226=*J\'\276!\264\232\276\005k\302\276\332\3535\2772v4\277\362\030\257<\275e\001<\326i\301>}\365\211>\0259i?\354\004f\276b\322\225\2779R\031?B\254{?\235\320\220<#\034^\276\211\230\324\276~\027\240>6\n\205\276\277\016\327\276\tA\226\275D\206\'?()\247\273(\217\212>\026Y5\276\247\034\021>\343~<\275\004\242\332>\356\3312\277\032\275\214\275\344DZ\277/\032\010?Y&\205=X\223\361\276\222\201\032\277\250\201\246\277`\244\244\275\215/\233=\227\370\350>\377\350\253>\313\317\203\277\213\007/\274\367\270\330\276\032\274\000?\271k\300\276\224n3?_\360\017\275.\003\377\276\204\276\177?)\205C\276rn8>@A\217>?\355\310>v\024_\276\265\321\215\276\274Y\025?\242j\221>\'\332\323>\276r\034?\310Td?O\275\222>\017\355\241>\313\252I?\205\207\220\277\325\326\324\276U\347`>\335-\310\274\246\3030?gui>\324\371\010\277\"\323 \276\373w\370=Eh\024>\177@\206\276\344\313\324>\253b\035\277a\357G\277}Xi?1\256\206\276\222\034\325=\356\217r>ME\026\276\341\356\263\276C@\262\275\033\221\240=\013\315U>\345\372\256>D\tX>\021Dm\276\013 ?\276\342\240\006>\305`\375\276\270\\x?1L\342\275%Q,>|\275^\276\206m=\276T\035O?B{\323\275\206w\232\276\376b\262>u\274\330\277\t\306#?\233X\240>\376U\245\275\232\304!?\3234\005\276\302]\301\275\310\020\024?0\314\306\276O\265\r>\271i\231\276\201(\r\277b\310\330\276e\315h<\017*\210\276\301;\335\274\322Qv\276\013\365\273>(\230\025\275\202\361\n\276\203\326\304=<\264\315\275m\371\335\276\217=\360=s\300\201>\231\376R>\035D\232=(\322\006<\350\351\363=\361\266\277\276\312\337H\277a`\335\277\372Sb\276Hg\022\277BM\025?6w\252=\250]\236>\261n#=\361\372w\2777\2462=kz#?uH}>\245H\260>k@\324\275;q\323\276uI\024\276\230\223\035?j5\264=\026\220D\275\305\244d>\351\000\362\276\322\2106?f\006z\276>\322\020>\276\271\r>D\204\017\275\024\364h>#L\226\276\231\265k=g%\321\276\275a\301>\000l\231\276\272W\022?\020\247\335>\263\027\354>\027\312\275\276u\323\277\274\006\332\034?\"R-\276tb1?5\030\213>\343wZ\276\317\017\021\273\234\324p\2752\254\225\277\240S\224>\004Q*\277C\267\245\274\016\313\205\275\3030\321\275)\270\336\276\265\240\232\276\'\242\224>\312y\007?\267\r\203\275\205C\007?\035\277\240\276~\367t\276T\214<>b`}\276P\323\257\274\274\222\231\276\025A\271<\013Z\273\275?\266\024\277\322\354M\277v`\024?X`\271\276at\220?\2351\337<\304\265n\276$\302%\273\2147~>\366\300\246>EE\364<\332\316/\275\034yg\276\227)\215>#2\233?k\273\270\276\222\234A>\363\224\364=\001\177\354\275=\3714\275\256:\230\275\356\330G\277\251\'\320\275\257\n\321\276T\036k>\262n\233\275l\274\203\276\236xw>\243\206\333>$\021\341\275\373=\'?\007\265\037=\031\304\247=2;\204\277\234H\021\277\376\365\342?\256\017{?\006Jh\2775\307\224>\001/\010=8\013\352=\326\370\267\277(Z\372\274\330\024\336=\300yF>\215G\r\277\207\264\365\277\034\235\274<\262V\332>3;\277=\205\362\241>\375\r\336>\272\007\327=\357c\204\277\322\234\316<\207 )?$\235q\277\272\212\023>\355\332\">d\315*?!\244\377\275;\234\243>\235PX\276u\361\357\276\202\226\256\277\027\266\323\277\\\244\220\274%\214.>\005\247b>\246^\213>t\364\006\276[\371\r>\2545\247\277\246\346\024\275\0359\310\276\\+\214>\t\263\021\275!V\023>\272g\267=%\231\357=*\003\200>\021\027\230\276\n\237\343\276#I\270\275{H\262\277-HB\276\343Fg\276\227\311_\275\'\215v;\213\027\263\275\r\006\303>\323\030\362>4\3507\275\263p_=\226w\033?\270f\341=s\223\252?\231\226\212\275\312\321\251\276\246i\301\276AJ\233=\"\343\376?\206uG\276\377\255\330\275\227\275\362=\033)\016\276a\355{\275\227\267J=e\300\214>^\260\226>\275`^\2764[i\277\304\254\034\275X\262\177>r\214\244<\032Op>\375N\227?\260;\367\276\020\243\360\275\026\376\324\275\210M==\272\210\213?_\232E>\332\277\036>c%\212?\177\010\321\274\010\023\266\274\360n\377<\3057m?\036|\207\2756\323\237>Da\321=\022\362\216\277\251\031\347\275\017\352\222\276\314\036f\276\356\014,<\331\263\020\300\354\'\302\276n \336\276R\262\272\276\023\224D\276\272\",>\377\374\363\276\006K\027\276W\277,=\3050\267\276\271M\000\2776\312\376\275\333!b>\200\230%>\222\241\322=\275\014\207\276*1\026\277)\263M=\341\335_\276J9\021\277[\352\014\274,\213p\277\366\260\023?\306\204\315=Pz\311\275\266\243G=\034\\\240\277E\332\010>e@\372\274\363\221\\=\t\371\224>\345\331\325>\353S{\276\270\031;9\332\374\301\275\312\331?\2775Qg\2768A\242>\265u\316=\300\256\351>D\200\275\273\266e\320\276z\017\212>\001N\223\2761\3576=\032\r\224\276\265\317\237\277\355dL>T\310\341\276\272\245\330\276a\364\341=5\230\275>)\244\\?\360i_;\201\016u\277\213\251\036?\326\035\016\276&\250r>\204\010\357\277\'y>??\026\232\276\342T&\275~\020\025\276\263g\\\275\324\315O>\034\352\033?f\331\260\2752\375\251\276\3600\216\275\027\007s>\322\321\021\276\027\245\352\276\201\203\034<\354\252\267>\014O#>Q;\323\275\231\344\240\277\367\206~>7\216\356\276\237\0006\276#\023@\277\321l\022\276P\356\257\276\374\247\343=\245\342I\275\362\365\310\277*\254\030?\343\3171>mM\310>!\0136\277\235\336c\276-\250\206\274v?\010\300\275O\324\273?<!\277\272S\363\273\256\246\016\277I\031\371\275fI\033\275\236_\030\300{Yk\276\277\225\342\277\356_\222>\013\321\232<zu\200\276_\375\233>\371R\200>\311z\304\276zf\307>fr\374:Tbd\277\255&e\277-\307(?@H9>`NR=\344\ts\277\010\275\265>a\252\202\276\261\370\001>\327\'\355\274\267\277f>\016\347&\275\376*\025?\017}\351?\271\207\245>_\027\"\277,\022O\274B\312\237\277^\024.?\010U\352>\\1\205>\234i\010\276,[1=\265\"0\277O\273\312\277\004\010\007\275}\315\267>\324\252\017?\325\"\263\275\317FP>7_\215\275}H#=Ad\022\276?-P\276\217\021\327\276\203\373\010?zH@?\346\224\224\276Q^s?m\237\206\277W\375i:\000Ip\2763\024\213\275\202\036\243>\022\370\263\277\3245b?\223E\013>!\001\005<\214\226&\275\362\277\272\276\374\215\222\276%\002}>\373\235\364>\022\246\314\277\361F\201=\3447\025>jy\243?\237\230%\277uE\274>\271q_\277\033\237\352\276\3644\277\276\2278\253\277\336\205\254\275\034\347\034>\351\210^>0\360\341\276\207\3243?\221u_\277f\306\221>\370\205k\273\363<??4?T\276E\200\217=\31302?g\016C>\315\354\004\277\310\346\310\276\256\351\273>&\037\344=s\203\025?\276\352p>\342p\263>\333\266\322>{&\215\276\350\tf?@\202\003\276\232\251\267\275\204\310\225>\346I\203\276\032t\365\276\306\310\267>\360\036H\276\n\026\201\277\342\236[\277\260l\201\275,\207\035>\n\177,?v\230\277\275\017h\210<\322?\354\2772\025\344\272\317\n\035?\321\233\010\300\335L{>\375\304\270\277\306\274\212>\364\363,\276\303\225\020\276\020\'J\276\026[\232>[\321<\277)H\022=\261G\024?_\037\216\276\334\264\220\2771\002n>\246\201r?\360\373\240>\331\276\263\276\311\325\346=\315j\306\276\356\023\251\276\312\302\224>\304[2\276%v\003?\211\226\374>\311\\\177\277\222C\r?\343\'\236\277\235\'\225\275\330\377\024\2764A\200\275\277\374\270\277\235\001\267>\255\312\257>\277\331r>\230\020\347=`U\206>\360\027\t\300\032\351\336>\253\235\335\275e!G\276v\341,>\355\003\242\277=\377)\276\323t\010\276\022\013\223\276\353U\000\277)[\277>\236\271\014\276|\260\035\277B\351w>\332\301\332\276\0353\223\276\253N\245=\330z\363=\256\2725\276\245\340\223>kv\307\276\320%_>\261\013\200\276\244\221\003\276\203$\342=k\035\207>=\213\270\275\324G\212>p\321\305=\360\277E\277}\224\">\311y\311\276\307?\322\275\346\273\364\277\273\341\354\276b\250z\277\201\360\255>0Ne=d\006\317\275\311V\\\300\037g\321=\326n\203>\233c6\276\022\334\000\275d\344H\277<\007\224\276\247\260K>f\334n>\344fr\277\360\367O\277\t[\016>\036\276!\276\220c\177>\224\206\303\277\213dS=\022*\262>%\226\t\277\377\372\374=\336l\026\276\373\222\031>y_\200=\236\005r\276\3636\243\276Yc\224\277+\006\014\276D\303\226\277\271\317R\277\016z\267\276\004\371\216>RF\311\276\226C\312\277\320;\204\276\025\357O>{\357\226\274\306\225\213\277\263\007\037\276\241\270\036>\335\336\025\277\317\361\216\276\347\344\030=$N\361\276\260 \356==Ux\276].\234>\237\333\200>@_0\272\264i}\276Y~\306=\230\234\235\275\205W\347\276e\343\235= @\336=\362\263\017>!\374\300>w+\"\277\204y\212=K\360\006\277\004\214\255\276C\344O\276\306O\017?\225\020e?*\320\365\276\300Oq\275o\005L=^S9>\353H\203>\036\027\026\300\003\014E=\303\360N\277\261bT\275a\244V\276\3060\204>p\227\372\276\033\032~>\202\004\207\277:M\"\276\206\010\211>mP\240?\374\037>\277v\034\232\275Y\306?\276\206%\033\277)\245\341\277Tw9\275\027\273l\276_U\215\275\265\377\326\277\016\334\300\276\373\247\003?\252\270\003\277:\035\026?\351\271\203<\034;\034=L`\363<K\254:\277\275\371\007\300\361z\347\276\334E\235\276\200w\342\276R\346.\276\034>\325>h\300\315\277\032\346\373=\277\316G\275:`\277\276\275\200\253=\022{{\275\3501\232=\\;I\276\202\330%?\300\301N>\277\r\362=\347G\251>~\340w<\\5\334>\314\036\304>R\271*\277\003Z\004?aY\336=X\233>>\314\330\034>|\314\026\300\210%\r>\237I\310>\342\367\335\275\246\021\037\276\374\202\007<kz\213>1\375F> \235\266<\351\207|\277\344\366\024\275\252\236u\274\300\322\265\275\2032\261>Td\216\273\026\215\325=\363s\224=\031\240\023;Wg\007\277\225\250F\276\246$.\276mR2<?(\230\277+r\244>\277\253%?\021z+>q\345\340>\307\242\031>t\253\264\277\361[V=^*s>\271\262\317>2\214\326\277#\305\235=eu\361\272\257(v>\236\260\033>U\027\214>k3\205\276\026\337%?\267*A=\033\344\341\276\224\223i>\177\033o\276D\225\003;\325\245\347\276&\274H>To\244\275V\035\264\275;h\316\276E\003\373\277\343\222{>\246\312\'>\244\266L\276\257\234\206>\333\0353\276\243M\004\277\306\335\277\275\335s\365=\3430\233\277V$C?\3461\265=\271\224\026>\217\342C\277Cs\212>\217D\227\276\200\343S\277\\\0356>\202\202?\276$Fh>\360Q\007\275\301-#\277\031\202\350=r\313E\300[\351\\?\031M\026\300\n\257\263>\201\n\313=<\262\257\276\320\026\313>,\347\002>\212M\001\277Du\r?\206\343V\276o\326\017\276\374\276\326\276\366\264\276>\376T\350\275&\347M\276SQ\326\277\037!{\276\301\225W=\361\337\025\276\374f\346\276\213`\022\276\271}\242>\365\227\343>\242\0000?\340,\026\276\347v+\277\330!\024\277\241\004&\277\225\313\n?v\323\355>2\034!\2745\335b>3\276;\275j\\\n\277\322\036\364\276\213\317\307=]\310\203\275\341@\027?\371\226(>\034\366;=\211\004\215>\233\253-=\036c\251>\342\250J>>\227\256\275\241\001\034?/\367\251=}T\347\274\024n\227=\313&\025\276\230\257\304\276\214t+>\266\244\225:\335/\245>\211A*\300\347of\277C\327j\2753\357\251\276\324YM\276\212\004->\277\"Q>\356D@\276F\353\005>}>\367\277\344Q1>\223B\022\277\331\326\035>*\351\370>\003k\033\275\323\241\371\276B\231\243\274\307\327\234<N\274\254\276\376\372~\275\203N\345\276\220\372\225>>7\205\277\005d\216\276\222\345\275><\215\257\276`\372B\277\376\\\000\276\242\007\234\277\267x\r\277\003c\357\276\0178\373=\306L\332\277\265B_\276\233\340\253>o\177\215\276z\236\221=\200\217U><\316\'>%\311\316>\312!O\275\260\314\214\276\263\201;\275n\006F>Z\256\323\275U\'\177=\265\277K\275\357\263\226\277\216%\r\300\216\373\230\277\001R\365\276\255\311\322>W\3704>&\"[>\357~\016=vJ\026=\365\334*\277\376\211\245\275\005\243\004\275\221\240\330\277\211\034\267>\312\360\006\277!\004\231=\200\221\243\277v\326p\2763t\370\274\373\215\223\275<4\360=\010C\353\275\325\314L>I0\215=\336\013n\276IO\000>\350\365\000\300\341\2645>\003\260\215\277\201\304\366>r5\354<\315\343\234\275\005\272\353=\322\345B>\213\277:\276Y\205$=F\267\315\276\303}\251=\342:\013\300\364.\333\277\232\022\233\276\032c\024\277`>\013\300o]\273>\243W=>:\250\271\275\367O\013\300\363yc\275{\333\237>\335\330\241=.!>\276s\335\265\275b\362\023\276P\310\022\277\237\317\226\277\372\350$\273]kX>\001 \022\277\024\264\'\277\373%\355=N\311\315=Y\243p>\rh\010\276\312=\215\275\210\261i>\013\262*=\022N\252\274\215<i\276\340\215\002<\"\003\253>\227\032\010\276\232\371\264\275\316l\212=\325$\027>\304~\351=C+9\276\355\276\323?s*&\277Q\305\223=\223{\006\277\241S\355\274Rh\022?\337v\366\276\034(\243\277\341O\'>/\354\220=\273\252\200>u\321A\277\026!\355=5F\022\276f{{\277\255Q\322\276J\363\215>\023:\016\275=\377\005>\253\201\321\275\256w\376\276\340*9\277\0375\342>N\334\267\276\013v\032?\016\033\005\276\211\024?\277h\205\340\277:\311O\276C\026\223>#\033\207\276F\342_\277\252\300\237=cy\'\277\206\211`<4e\343>\243\342\223=\032\275\342?\276v\024\277n\334\230\276\301\361\355=\224\205\266=\3645\321\277}b\030?\024\230\242\276r\340\366=\241\177,\276\000\343H\276D7\313<\366v\243\275\266\001\010?N\221\266\276\374\226\320=\342O\024=\356R\003=]\217T\277\202V\014\276m\272\365<p\034\222>\354\347\244=\237\202\354\274\035\336\370?\035|\236=fw\277>}\260\216\277^F\230>\373\177\322?\266\001\307\277\314X\n\300iI6\276\007\346#=(\205\256>\031\363\214\274\234\313\305>D\236n\275\305=\">\2262\207=\320p\206<^8R@\261eQ\275\006\001\030@\372Y\007\277Z\n\341\275{!\216<\256\233+>\n\260S>>\314R\275\023\257z;\013\317Y\277\324\365\221>\033\252U\277\321\002n\277\202m\022\275\357\373\316>\205;m\275X\214\007>\353(\t\277\3473\265\274Ry\245>\375\310A>\177\313\222\276\312\300\223>\335\305F\276\221\215@\275\202\260\022@\032]\004\277\340\\\207\277\243\335@\300\275w\337\276\327\267\257?\216\202r>E`\250>\006\333q\277;\243%=\252\350!\277\311]\241\277\375\0230\275\t8&\275\305J\350>B\177\327\276\r!\266\276S7\034\277\272\202\232\277\362\220#?Zi\371>\236\237\257\2735\353G>\026A\276\275_!*\277-\373#?\373\345&\277\300\240,\275\220*T>\273E\370\277\325,D\277\351\254U\277\216\313\372\276\t\2521?/y\213\276\027\220\312\276\364\360\n\275s\316\267>b\217\375\276!\273\203\276V\026\203\277\3402+?8\215{>+\257\263\275\260I\201\275\223e\366\277\334;\300<K\352\304\276\351\356\277=\224\300\364\276\024\005\004>\275\325\217=\313\264#\277\364g\201\276\277\213\n?a4+\276\026\334:\277\014>\267>\263w\307\275\232B\227\276IG\326\276@d\244\276\021W\203\2740X\207=y6|\275\211PQ?b\330\236\277\335\324\265>{\0276\276*\256\035\276\303\257\223?w\022\221\276T?\003?\027\360\036>a\0202\276\212\272\005\277\037J[\277\016c\274> P\302\274\267\321H<\361y\235\276\200X\223=\362[\233\276X\244-=/\036\212\276\265Z\260\277\222\326\355>\222\317[>\370\377\306\277\\\244Z>A\013\314\277wLT;\306\226\027=\3478\226=Av\252\275+\nS\277\211>W\277\213\301R\277r(\260>\250\210\377=\234B\272\276t\007\374\275\214{\371\275\313g\275>\351\270G>\273u\236\276H\255Z\276\300\276\213>\227+\204\276N|\005\277\341\233Z?\014\r\227\275wT$\276\370v\222?Ng\211\276aV\210\276=\020\\>\215\350\323>>\004\225\277\253e\205>\246\365j=/$\347=\260\312\n?^\310\262>2\307e\276\003\256<\277\224\"\327=\302\254K>Qu\206?\332\375s=\377\355Y\277\026s@\300l\030g\276]R\022@\233\033\221\276^\247g>\351\337\247\276a\201M\277\335\300\364>\213\027\013\277y\3359=\227\337\250\276\265U\302>RC\202\277\274\177\242\276\223:S\276t\304P\275\202W\246<!b\353\275\247\363\007>>vV=Y\234\000\276\007\032)\277\266\237&?s>g=<p#>]\207 \277\271\177\251\277\306\206\027>7\246D\276 !\335\2756Y\001\274\227[\204\276~\322H>63v\276\rS\265=\210\270t\277\376Q\224\277\212\335\377\276.\367h>\\!\203\276\030\036\340=\"K\336\275j\264C\276\235\363\006\276}\270v\276\252\326\002>t\016p>v\"\224\277\023}g<\2009$?\035\247\330;\252\257)=\330\250\302=\033\367\227\276\303Qi>\200\246\374> w\365\276\323D\273\276\251\275\026\277A8\276=v\243\362<\033\317K?\373\273U\276\245\245\300\276\033<\013?\016`\232\275\2300l\275\244\366[?J\027}\273\345\332\246\276\212\301\023>X\263\027> \361\362\276\304[\004>\366n\341>w\343\271\276-9\020?\204\nZ\277A\331\013>\375\3529\276\265\007\\>K\033\177\276\377\337\003\277\177PD>\304L\361\276R\236\255\277g\177\027?!\262:\277m\3205\276\352\220D?.\"\215>\242,$\276\210`A\276W\223\237\276j}&\277\377\235\336=g\261%>Mt9>\250\204\026\276\313\322\202\276\277\320\021\275\272\254\227\276\224\336\332\276\n\025L\276\261\275y=\004\322\010\300\037\340\353=P\356\216>r\327\250\276\2344\016\277\021\013.?\261\177\222>>\240\367;\277\223\214><\277\276=\321(v\277\365\322\320\275\025U\302=X\021\321\275\313\205W>\322l#\277\037\263\021?i\253\231\275\262 \211>k\272+\276LC\212>\212Ur=\367\241 \277\354\203\222\277\267!W>*\035\235>\277\304\021\277\177\026\234<^\210\216>O\357U\277`F\346>\244\\\317>,\364\200\276\024?\331\275\305\262%>cZI>!\032E\275\343\353$<\263\314\177\276\302YV\276)\343\271>D\336h>\363\361\367\276\371\037\266;\362d{\277\321o\333<\351\240\236\275Z\214\326\275_\340\310>tP\260\277g\323\212=a\311\207>\014\264\354\275\236Z\377\275Fp\t\276pK\361>\033P2>\t\261\342\276\331\033\236\277d\222\377\275\2713\023\277|d\274\275-\3676\275\254/x=R\324\245\277\353]I>\003\037=\277\014W\252\275h\216\267\276\353c\256\277\205\210\204\277\002\205\321\277\246\327\017?5\312\306>v\207\'>\367\326]\277N\205\266>v\336\205\276\210\3317?\301]N=F\301\031?\372\366\202\277#\313\211\276\244\340Y\276F\3106\275\240\244\004\276\270\357\231>E\237\242\275\267\001=?U\206\017\276<P\346\276\303\2046>\027\242;=\'\264\022=\343\234\004\277\273\323!\275v\320\217\276\320\240~\276\370.I\277Z\2010\276g\2351>\0179\030?\300\351=>\233d\002>\275D\276\276\321Q3>\n\215\222\276O\254\230\274\356\263\302\277\346\312v?\347\374\302\276\325\221\222\276\334\177\217\276\311!\026?\033\364!\276A\267\357\276\300\004\257>m\003\254\2772)\033\276^\177\360=\027H\006\277S\227.\276\002\3244\277v\266\233>\231*\254>\003\020\320=\001\340|<\347\365.\277 \307\267>pD\025\277\366E\205\276\267\342\316\275`\361\232\275\267\241\365=P\330\204\277\262z\211>\034X\020\276\306\250\372\276@\263\245\277X.\361\276\226A\240\275\376|\253\275\r\260\231\277C\251D\276\r0\025>\322\343\036?\204:\206?W\263m>\365{\241\275\337=(\276\024\305c\277\026\332h>\316\334\243\277v\371\272>C\333\232=cf\274>i\0309?\230\340M\276 \356\"\277\023\252\320>\323*\006?\304\023==\246\361\233>\312z\377>\367\361\210>C-->1#\325\276;\360/>\267\017\252>\034\247\017?\334\036\030\275\376u\220>#\032\260\277p\267\005\277m\310P\276O<5\276\266\0227\276O)\203\277 \376$\275{0\334\276D%\001?\003\224k?\202:\236=}#\232\277\327\327>>\275\2617>O\355W\277+\023\276\275\344\227\201\277\271\314{\276\213\2030\276Q\357O?pL\216>\016\322\272\276C\227\036\3004\006\203\276\346\010\330=\202V\304>\231\n\242<\252o_<\227=\t>HO\332=\270\231\222?\207GT\277s\024\232\277\352CH>\333\223\256\277\221\261\216\277[R\220\275)\355o\276a$\303\277\353v\351=J\001\266\275Q\240\003>\327\316\217\277\353Q\207>d?\302\276bX\272>\326\300\314\276\002O\312=\260f\274?iV4\277\033>\267=7$\347\276P:\204>\367\220J\277\224\320+\277\037,\256\276\322M\250=W\263\330\276}Yb\276\322\363\213\277\341\210\211>4>\356\277xM\t?\004s\216>f_e\277\222`U\276\0249\332\277\365^q>\007\257\253=\222\037\024?\363*\235\275\277Ym\277\332\231\206>K\234T\277b\231)>\366\323\007\300\034i\323\276\003$j>\325\245\265\276\340\322\325>1\323q\277Cp\303:Q\200\340\276a!\305=\032\354\275\276L\252\241=H&k?q\204\226>\310\235\215\276j\035+\275:\3533\277\365U(?\316\265\301\274\177\251g?s7\241\277\342\344\334\274\233\016\373>\341Sy=\016\254E?\024\374\227>A\260\004\300\211H|\2749\256\312\276\034$\202>\250\350\342\276\033j\350=u\342W\276\212\355S\300Rx\221>z|\037\276\226\361z\277\322\376\266\275\177\034\266\274=U\016\300\245b9\276\332W0;\004\316\032?\233\206L\277d\253\030\276\220K\001\275{\356\014>\364\340\253>\236s\215=\311\376o\276\275\310\322\276\246L\214\276n\366u=\206_\376?\302\'\021\300\322\236\302>\247\301\365\275\252KT\276<\356\276\276=+\240>\241&i>;.\205=\034bC?\340\245\264<:\247~=!\237\\<\220\337M>p\016n>\362\024x\276\351Ma\2762\342b>4\303\235>\334k\233\276\222\341\337>E%i>\375|\246>\245L\337>T\225\312\274\210R\035=\364,,?\023:\330\277\212\177V\276\354\3662\276\367\261\241\277\010\354\205?\304\350X>}\214\256\276OA\022>\002\326U\300\264\377\330\277\242\222)?\016\233\n>j\207,?\010\224q\276O_R<}\2171\275Q\323\005\276\224i\332\276\222\371:?{\361\314?-\207\201>\033\004\303\276\024\355\227\276B`\274=\031[\314\276\r\325\247>n\3460\275d\215\'?\251\023{>\375\325\307\277\223v\034>\247\014\n\2757\370\220>g\352\004?\270F\002>\227 \014\300\332$X\273o\266\017\276j\333\361=BL\024>\002Q+\300\330\003\327\275\206\344\314>\221m\200\276\276\203\002\276w\332\232\276&\334\230\276H%3\277\225G2\276\301\343\326\277\257\377Z\277\206L\254>\026\362b>\245\247\255?\376\214\373\275\227\200H\276\"-_=\336\030\000\277\021\3323\276\222r\002\277\230\326$>\330i\230>\370\272\000\300F!\342\275X\311F\273\226!\372>\255\007K\276#}\347>*{==\0105\273=8\260\244>\210\326\314\276P\006\340\275\252\275\311\276-\324\004\300{\262b\275\3677q>\353\314\246>\277\202,\276\353\r$\277\237p\004?amx=We\323>\037b\314>\216Et\276\033O\001\274\266\031y>_ea\276\032#q\276\245\315+>\010\377\264>\274\207F>\017Jc>\007r\r>3\007\027\276\361\3776\276W\370U\275\212]\017>dX.?\361\037N?\341\244\327>\273\303\216\276\376\026\366\277\356\367\024?%\346U>\327j\301\275\320h\031?G&\014\300\376\312\346>\347\264\347>l\223g>D\246e<E\264\375\275\234\355\207>\004\263\237<\227\221\330>\357\201\026\300F,\000?\260\250;\277I4\001\275\254\222-<\3351\222\275\353\371l\276\004lY\275<\236\211>\026&u\276\342\345\n\275Q2\343=h\205|\277S>\031\2776\347\000?K\256]\276\232`\267>WR\326>\300\273\251>J\211\347\276\256\206+\277\354\014O\277\374_2?\317\271i\277]\327\\?\"5\327\275\250\331B?&\364\016>\2169Q?!\361]\275gd\177?\352\336\001?/\235\260>\036\211M\276\\\362\006\277\271\216}>\355U\261\276k\347\202\275X\334.>\245\266\227>\326rq\2766{8\276\276\2116?/\243!?2\207/=\344\t\273>\222!s\275\366\325\366\277\274\203A>sM\247>\364F\264\277\265\017\264>\206I]\300\230\271\304>0\266\342\276\247\266\363<#\316S\276p\362\016\277\336$S\276\005\326\210\277uS\203>\003C\024\276fr\267\274#\371_\276\237#T\276`\rX>\257\271\222\277o`\003?\205\274<\276\346~\r\277\316\242\203>\203\366k=2\333\366\275\3502+?;\310\211\277x\005\302\276\265v\215\276\227\024z>(\337G>\256V=>\201U\313\277b\274\017>\271\370!>\220\376\177>\t\3028\276\317\017\205>lkB\277`\003\217>J\363\030?\3029&\2756\361\331\276Y,!\2778G\204\277\357~\331>\003\346\n\276\335\275,\275%\354\372>?}\016\277\2709\363>\345x\212>\244\205[>\032H\206\277\307\267\210?J\0359>0kH=$@\201>\204>d>G\024\306=\246\371\014\277\004\223\222\275\3716\006?\252\272\017>\340\2471>\367d\301>v\013=\277\332\351L>\344.\334<pid<\031\2734>mW\033\300\"P\007\277\007\3771\274!\237\325\276\037\330\211<01\242=\003\024\340<\273\363\226\275r\247\026>\016\"\342\277\214\350\276<@\337\260\276\005\324\035;S\257\331>4\345\253>F\026\354\276a\017\211\275\220\r\001?w\210\330\276\3164]>\314\221??\230)%\2779\214Y\277\337\016n\277q\013\207>\003\302\202>\354\340\251>\341\270\001\276\364\010\251\277\'\304\207\277\360\371\304>\010[\215>\302\330\n\300\274\266*\277p\214c>\346w\031>\020\177\224\274\200\214\300={\347\002>)\2760?w\276A\275>\243\'\276\224/F\276\022\003\364\276s\326\333=\356S\360\276r|E\275\322B\261=\017\004\206\277\361\327\252\277\307\n\022\300\025z\217\275\330/\234>\216\004\260>\201J\271=\2015!\276\320\3247\277=-1\277\350\200F>\225yF\300\223\037\222>29\332\276o|\253=\255\362\274\277\311\227?>C\260\035\276}jl\2763\332M<\374V\272\275g\2442>!\216j>\240\313\240\277\350\314\000<\035\003H\277\352\270\023?\3072\240\275\017a\324=\373\2761>Z\230\374>PV\252=.\306Z=\272\'\025>\024z\326=\016;\241\277\302%\310>6j\022\300s/\202\277\010\346\307\276\204C\202\277w\3431\300\212\247\317>\321\005\342<\217\236l;\364;0\300\240\301\251\274\247\202\"\300\206\315\230<\250\363\213?d^\255\275\010AF\277\247\332S\276-\323\300\277iJ\021\276N\254\236>\320\035\227?\310\335W>=\375+>\tk\354\276\337\213\031\276:vo\276_T\353>43\304\275\273=\216<<\363@<\264\252\336\275V\242\336\276Fhr\276;\005\024\277s\377Z=\022\n\321=\221\264\216\275;\275\002\277C\035\342;\245\020\036\277\273\263=?\203\306\320\276\373\260y\276>\363(>\305\237\361\277T&\031?\210\267\220\277\221\322\006\277\333\360\307>\371\266\033\277\010\202\216\275\212\207$\277\240\rY?\240\302\243\277p\253Y\277\220\257\n\277G\251\007>\324=,>$r(\276\251\207\217=\224\366\000\277\2350^\277i+S\276\337\224\275\276\350\263\004\277\023\001\367\275c\363\275\275\350\036\200?\253\025\270\276U\006\024?2\323[?\324\333 ?^\031\205>\034\357G?\n\235\344\275\300s\311\276\243Z\002\277C$\203\273\263\376\226\275\272h\320=\301\275(\277k\256\214\277\257\214\023?\005\222.\277t\213&\276\375\003\200>\356\252\177\275\350\025\020?\177k\234\276$\2625=Q\2207\277\361\325\035>\031\034H=8\320\302\276x\217\326=\010\214P\276\337X\022?o\335\245\274\203\216<\277%\363\247\276\225@/\277\032\3718\276\232\225R>A\375&\277\0306(?\003\2445\277 \001U\277J\337\310\275=\002\217>D\301\032\276+\354[\277\006\261\335>I\265\330\276\034\016\233\276\021\272\t\277\277\251\346=\020\033\036\276b\360o\276,\337.>\244\216\022=\335\204\222=\207\231\313\27679\333=\357)\212\277\026\226,\276\311=\022?\033~\205\277\031\354\200\276\246\333\200?c/\262\275\217\275\013=x~\300=\266K\332=\272\234v\277j\237&?\264K\306\276T\342\313\275\305-V?*\350\351>\003Pp?\311j\237\276\340\354\220?fD\263<<\016\001?\331\"F\276J\330\233\276\306\217\020\300\375\200T\275q\355\016?nO\234>\317y\224\275\264\213\013\277]\017\332\274\255\351T\276)&\317>\030]\036?\331o\016\274\200a\227?\031\213\251\274W\n\347=u\"\216>\201,@\276{\210\267<]\2455>\356v\322=D\256!\277\355\310\216>w\307\002\277\013X\024\277\221X,\275I\240\365=\030\306s>\236\255\316\2776!)\277pc\237\274\360\347\003=C\0212\276\"E\030\275\223TY>\364\\\031\275\260T\322>C\304\324\277 \205\224>_\371\250\276{+\254>\226\277`\276\244\222\217?\341\004\312>8g+\277\026)\007\300\232\243\255\273\231wR\275U\254\201=\003\364\234>\013Qv\275O\355\001>\343{\340\276\213\022g@x\310\251\277U:\'?\225\201\314\275\334qH>\317bR>\222\'\000;\304\3450\2771\340H\277~\"\177=\330\213\013?*i\370\276\017\255R?fQ\265>\023\307\013?\010z\376=\360\0226<\036\217(?\351N\366>c\016\026\276\315\204S\277\255\373\355\275m\330\304\276\005\031\214\2773x4\277\017n\010\277\373\262m>\307\314\333>D\252\205?M\246\010\277mV\276\274\276+\021\276\227\367C?W\2207>\320\353\217\277\323n@\276\334\357\217\277#\"\326><\005\364\276\326\"\200=B\222#\276\222\240\264\277\033aY>\010\306\202\277\262R\220\275o \220\277\323\024\250\276(\255\313\275\361\245K\277\347?\021@\272S-\277\206w9?\307\013\"\2752\365\333=\232J\271<b\344\311>u\374\235>|\036g?\226x\256>_f\007\2773h\303\276\373\274\236\277\224C\001\277\373\227\243>}\223\204\277\254\327s>\233zE?\264\033+\274\241\206?\276\224\260\214\276l\364F\277e\305\007<Z\320\n?\331Q\231\274p\002\033\276\003-\306\276\366\227?\276\206\337\032\276\233\337\253>\262%\224\276^1B\276\254\032\006>cxH>\242\355\242\276\017\213{\276\242<\n\277\267\335\267\276\275\202\210\275(u\035=\271W\336\275\304+s>4\313G\276\321qo\276,\305%\275\346\372\211\276\210cx>\267\315&>O?\322=W\325\"\277\306G\374\276\247\303;>\305J\037\277\337\014\317\276\032\252\310\277y\370\014\275~\352\212\277\315N\352\276\317C\253\275s\264\307>\277\231A\300A\276\244>\202\346\222>|\312r\276\372~U\277d}\231\276\342_\230\274\223%\241>\023Zr>\003\224\033\277j\366\223>a\"]\277y\0026\276\005\214\233\275\031\306L\276\215\'d>s\301\271\276+\311\333\275&\177\320==\320\263<l\225\227\2743T\363\276\276\266\211>\2112\304>\234^\221>E7\234>\303\035\246\277_\337\034\277\241:\260>\274\016\001>\344\220y=\340*\273\277\314G\207\276\301C\013\277~Kh\275\226r\215\276a\362t=\217\001\243>\373\370\032\277W\277\316\275{\263~\274P\215^\276\032+\205\276AT\010>i\311\243>7\301\235\275\323\234\213\276U\245\203<\307\030\305\274\310\223>\275f&+>Xq\222>\253\013\022\276;\313\373\277hM\376>\362\026\377>\363\001\250>\270\206\324>\002\021\253?\r[\234>\030Z>?\014\342f>F\252\010\276\014\270\013>=\377\350\275\254\312\237;\322|\264>\215\036\245\277\261\217\026\275/\350\271\276]\317\253\276B\332\217\276n\273\005\276\325\332\337\276\201b\020?\"\321\\?\352\t\232\275\030/\336\275\236s\177?\331y\227\276P\025l>\364)\372=\354\201\321=\3673\270\277\232@S\276\370X\234>\325\205\354>\031K\235\276w\217P\276U\027s\273\250\352\226>\354\035>>\322\374\376=\366\213\207\276w\304\000?\253R\200\277\350\203\036\300w\2358\277\350\247\304?\262k\210\275\2530M?\215\325\372>\243\035\032\300\220t\277=\026\353x>E\026 ?fv\226>\036\361]=\306\230\204?%\373\306>\214\372d>\327\214\306\274$\023:\275RH\221>\311\261\214?\3577\002>\273\017I>u\370.\277\265B\230\276\344Y!\277L\032\255=\207\330\205>x\302\306?\351>\010\277\305\0337\277@\371\202>\242\221+>\272\250\336=)Q}>\013Ao=\216\317}=\236\305\201?3\021\000\276\224\316\337\276\007\340\315=\373\315\304\275\177q\230>\316\007\236:\326\241\323>\022R\362\276\216\246\334\277\013Z\025=P\225!?\032\004\224\276\261\241\315\276p\243\314\275a\3203?(\311\272\276\301\331\226\276\241\375\"\277\215\243\333?\356\'b\277\347y\264\276\007\234\352>\366}\022@\244\321E\276<\013\220\276X\202{\274\232\366\030=\262\271\327\276i\247\253=\364Y\356\276\351\223\341>\353\341\246\276\327\350\312\275N`\010\277\261\014\332\276\262o\231=c\207\244>\260\266\r>\276#=\277\013\302\024\300\370[l\276\215\';\275\237\325T>\257c,\276\335R\357\276F\332\211>h\232\230\277\027\177\214\275\243\241\034>c\2771?\036\342 \276 \315@\277\373\277k\277\035\252\367>\301u.\276\036D\370=\206R\305>\232q*>\362\001s>\274\301}>\177\255\010\274\235<\260\277d\254b>\360\364~?\374.\340\275\336\003\223?\031j\262\276\313;\256\276K\211v\276\001\340\027\277\316\303\220>\327?1?\322\245$\277!\362\250\276\242\277M>\013\310\220\275b\302T?\177\300\352>\021\301\225<NJ\177?\244\266\265\276f\3264\276\'\221v\276{\213:\277\250\342\033>&+\344\276\350\352/?>\234\321=\376TC>Y\332\"\275jJ7\300\010@\034=\305e\227\300V\353\204\276\3700\376=\314\210)>N\335\214\274i\245\265\276\260\362\004\276\217DK\276[`\217>v(\205\275[*\210>\350\010\r?\\J\244>J\313\211=|\022\251>\232\375I>\032\253\300=\206j|\276bH\272>7\223A=\272\341\204?\003l\006\277\300\320b=\037\277#\276\n\251w>\2174|>D\365\223\277\374\201\272>\007>%?l>\305>VCz?\r\024\013\276)\"\326\276\213\245\367\2762\346\264>\307\007\262\277\235\222\003>\332\236\256<Q\226\035\2765w\335\276\006\222x?\335\216\251>\017~\232\275\252HJ\277\271I(>\364P\t\277m+[>\002o\010\277\210\210\300\2761w\016>\3430P\276>0\024@D\0313>G\037p\277\'\3353\277\236X\270\277^\212\244\277`\316\305>\277y\207\277\\\342\224>\027\202n\276\276K\216>\304\325\252\275\264\000\211>r`M\275\326\252\005?\204\203\230?\230\247\244=)\341\344>\261\355\205\276\332\3073\276\260\224T\277<\031\233>\026U\366\275Y\310\371>\246\206\247===l\277p\321\010>t\222\224>q\025\215\275- N>\014\360W\276\243\361\275\277\217\303\213\275\3624\016?N\0267\277\303\347\304=l\201\317\277\200;\260>aPD\277\007\225\274>\351{\331\276$\204\215\277\203\342\263>\302\261\030\277\031\217\263>\024\245\036\300\310X\262\276h\255\223\276\343\337\200\300=\267\334?T\212\004\300=\261\333>\016y\227\274e\330\213<\263\031)\275\274\032Z\275\377\031\326\2766\021\001?Q\206\033\276\316\375\357\276\370[\333\275\227Z8=t\216m\276\224\234#?\211f\224\277\351\346\364\275\236\201\350>I\354k\275\026\'.=\3307c\276\373\301\365\277\226@ \275N\261\220?\355\253_\276\300\343\323\277v\374\033=\321\365\304\276\351\303\334>\'\312\324=\004QI\276J\005\r=\216\355M\276\226!/\276\277\005\246\276\370\001\214\276\231\235\244\276\357\215\275=\033\004\202\275\221\032\357\276\3160V=\366G\255\273\201\2763\276\252\336\r\276fT\317\275\036e?>M\342)>,\235\027\276\346\261\342=L\2271\277\241\033\232>X\355\234\276\224 